00
7f
e7
17
d9
de
f6
f8
d8
f1
dd
ef
00
7f
db
e1
e7
f7
28
fd
eb
dd
db
e2
00
7f
e1
02
dd
1f
24
f7
1a
e5
de
1f
00
7f
d8
05
e9
0f
1a
27
0f
f5
ef
e0
00
7f
07
ea
f1
e6
f2
01
10
d6
e0
f3
00
7f
fe
1c
fb
27
f6
de
fa
f0
12
eb
00
7f
0a
15
f9
da
e7
19
f2
dc
db
f2
00
7f
25
db
11
1d
0f
19
f7
00
05
0e
00
7f
21
d7
0e
0c
ff
d8
fb
29
0d
21
00
7f
20
ec
ea
19
f7
04
d9
1d
ea
01
00
7f
24
09
05
01
26
29
ef
ee
e1
23
00
7f
da
28
15
23
da
10
e8
0e
fa
f7
00
7f
d9
08
d7
20
fb
17
d5
df
e1
df
00
7f
e9
fc
e5
de
00
f9
e1
dc
f7
ee
00
7f
28
f9
10
28
e1
fc
2a
dd
06
e6
00
7f
eb
e9
19
08
e2
ec
07
08
18
f5
00
7f
f1
25
f2
0d
f1
ec
eb
f9
03
f0
00
7f
15
dd
0b
eb
29
00
22
f8
0e
e8
00
7f
20
02
ff
1c
e1
28
11
02
09
12
00
7f
fd
18
ec
04
01
f9
10
f6
e9
21
00
7f
0e
f5
f6
2a
dc
15
f6
dd
f3
09
00
7f
ed
1b
1c
f4
13
e1
e1
1f
1e
fb
00
7f
1f
e9
ef
ee
e6
da
fc
11
27
0f
00
7f
22
de
23
19
fe
18
21
ef
1c
25
00
7f
0a
2a
ec
f8
f6
f7
09
25
06
df
00
7f
e1
eb
22
e1
01
03
03
e2
12
e8
00
7f
d8
f0
1f
16
f2
fa
16
fb
ea
0e
00
7f
eb
26
d8
17
05
e8
f4
f2
e4
12
00
7f
fa
29
04
19
0b
22
e3
f4
fd
f2
00
7f
e3
24
ef
ed
13
e0
0c
19
f7
28
00
7f
da
29
29
24
df
dd
f3
07
f5
ef
00
7f
f7
09
1e
e5
e3
21
ff
12
f6
e8
00
7f
19
1b
f8
12
fa
2a
22
ef
0f
12
00
7f
1a
0e
18
1c
28
e7
e3
f0
25
d9
00
7f
08
fb
f5
0f
23
15
e2
1c
1d
fb
00
7f
eb
e2
08
00
dc
fb
ef
29
02
02
00
7f
df
1f
13
eb
06
09
fc
f0
23
fa
00
7f
2a
21
1f
f1
23
dc
e3
1e
02
1c
00
7f
e1
e9
ff
0b
e1
f4
06
12
05
15
00
7f
18
1c
28
15
29
0f
d5
0b
27
1d
00
7f
d9
e2
e6
ee
e2
25
0c
06
0d
0b
00
7f
db
0f
27
f8
ff
e9
14
21
1a
db
00
7f
e5
03
e4
e9
14
28
17
e7
25
f3
00
7f
da
06
ff
25
1c
0b
22
f6
e2
15
00
7f
28
29
f9
e3
e0
01
e4
0b
29
1f
00
7f
25
17
eb
0b
1f
05
e3
e9
08
18
00
7f
26
1d
e8
fc
23
05
ee
f2
20
0e
00
7f
20
d7
0f
11
da
08
fc
13
05
11
00
7f
e6
03
fa
01
1f
e2
e5
25
06
14
00
7f
1a
1c
0e
0f
eb
04
fc
f1
e1
22
00
7f
00
18
08
f9
27
0e
26
e2
ee
e7
00
7f
f4
f3
1d
00
e7
24
ee
14
ff
18
00
7f
0e
25
12
05
f5
e1
fb
f7
e3
26
00
7f
11
06
ef
fe
f4
08
17
f9
0b
fb
00
7f
e3
dc
25
f8
2a
24
0f
17
0e
0f
00
7f
f4
17
ef
dd
ea
14
1a
23
06
dc
00
7f
db
f6
e5
f2
da
f3
13
f4
13
07
00
7f
1f
fd
14
1b
02
25
26
19
fa
e5
00
7f
03
f5
05
0e
d7
28
da
00
18
f8
00
7f
e7
1e
d6
24
f3
0e
0f
22
01
15
00
7f
1a
28
de
d6
10
22
e5
f7
14
17
00
7f
0d
13
2a
e5
d6
d6
ec
24
03
17
00
7f
1c
22
25
f8
eb
18
23
d7
f4
06
00
7f
ec
f6
df
ed
e7
11
21
23
ef
ee
00
7f
e3
2a
17
12
21
e6
27
ed
d8
f2
00
7f
e7
fe
04
17
18
e2
1d
27
f9
19
00
7f
eb
fc
02
11
1d
16
e8
08
14
f0
00
7f
fd
04
0d
04
07
04
1f
1e
0a
1f
00
7f
dc
00
01
f4
e6
08
fe
fc
d6
08
00
7f
29
e0
f0
10
19
e9
21
ec
29
fa
00
7f
04
12
1d
f5
0f
0e
eb
0c
1e
f6
00
7f
1c
16
ed
f0
28
17
f8
05
1b
df
00
7f
10
1a
22
fd
fb
fc
f7
e2
07
03
00
7f
f1
1d
28
e8
ec
12
0a
0b
26
e4
00
7f
05
d8
df
23
24
f2
e4
f3
1f
e7
00
7f
09
26
1a
e3
22
f2
f9
fb
eb
08
00
7f
1f
27
de
20
d7
f5
eb
ff
d7
0a
00
7f
eb
1a
de
05
f6
e8
e6
e3
0a
f1
00
7f
0f
0e
15
e0
23
04
1d
ec
e8
1a
00
7f
23
d9
e7
04
15
dc
fc
12
11
dc
00
7f
1c
e0
08
02
fa
ee
16
03
0d
1e
00
7f
f0
e0
eb
0b
1b
1f
dc
fb
03
dc
00
7f
01
04
1d
fe
ec
ea
e8
04
f7
fc
00
7f
dc
1a
d8
12
e4
0a
11
f7
1e
f5
00
7f
07
0d
de
16
e8
1a
e2
ea
f4
17
00
7f
ec
e6
e6
28
0e
22
27
e6
1d
f8
00
7f
fb
dd
dd
00
2a
dc
eb
f9
f6
f0
00
7f
1d
ea
22
d8
05
03
f1
20
05
11
00
7f
0d
06
da
05
15
fd
fd
fe
e3
1f
00
7f
d8
03
f0
21
f8
03
e3
1f
08
f5
00
7f
0d
fa
09
21
df
e0
23
f0
1e
f3
00
7f
0e
19
e2
0f
1b
da
e9
19
ff
2a
00
7f
ea
f8
de
e2
e6
1a
e0
0d
22
d9
00
7f
0f
e7
1f
e4
de
f7
10
23
13
e5
00
7f
d8
15
ff
21
09
29
02
1a
1d
22
00
7f
10
15
ef
20
19
02
0c
07
23
e2
00
7f
22
25
18
fd
14
07
06
1e
e2
f5
00
7f
06
0d
e2
21
f1
16
1f
eb
17
ee
00
7f
f5
0b
df
ef
19
db
26
20
0b
0e
00
7f
00
e5
27
d8
e9
15
f0
07
00
14
00
7f
e9
0f
1e
fa
e2
f8
ec
ef
eb
18
00
7f
22
d8
ed
01
ec
11
09
03
de
eb
00
7f
1b
08
e9
e7
ef
ee
e9
01
f3
12
00
7f
d9
ee
d6
ea
d7
25
15
0c
db
df
00
7f
13
1b
f7
f8
e8
16
13
23
f1
1b
00
7f
11
fe
0a
f3
d6
f3
ff
06
13
f9
00
7f
02
d9
24
07
d9
12
e6
fd
12
e6
00
7f
e8
23
f5
0b
04
08
1d
0a
1e
f0
00
7f
15
13
0a
21
18
e4
fe
d5
f5
e4
00
7f
0c
13
21
f3
10
e6
10
fb
ef
e4
00
7f
10
dc
06
20
dc
1e
f5
09
03
03
00
7f
ee
fb
e8
16
07
de
12
0d
0d
df
00
7f
01
1f
db
f1
e6
e9
2a
05
1a
05
00
7f
1d
14
21
29
18
e8
ef
2a
fa
de
00
7f
e0
f9
08
de
ea
20
0c
e4
fd
fa
00
7f
23
19
eb
f1
dc
e2
dd
28
04
1e
00
7f
00
20
dc
04
f0
0b
29
26
14
0b
00
7f
f8
0c
16
ef
11
e4
f6
dc
23
24
00
7f
d9
e5
15
20
d8
fd
08
02
27
ff
00
7f
fd
08
16
f9
0e
26
f6
f2
f2
e7
00
7f
e5
20
12
da
14
f1
ec
eb
2a
e0
00
7f
f7
26
05
d9
d7
11
db
1d
15
16
00
7f
d8
10
f8
1d
ed
e2
ef
20
eb
d8
00
7f
25
16
25
fc
0b
23
29
29
17
1d
00
7f
1d
f9
12
1a
e4
1a
ee
0f
22
e0
00
7f
f3
f7
ed
26
0f
f5
1b
21
03
0a
00
7f
03
01
e5
1d
27
19
19
f8
d9
eb
00
7f
0e
e6
09
05
24
db
28
fa
02
d9
