0101fefffa02ff000000
00fd02fdfe0700fefe00
03fd03fd02ff01fafd00
0102fc00060301fe0100
fe030300020302030000
02fe01ff01000300fc00
010100ff03ff03020000
0000fe01fefe01000000
00ff00ff00ffff030000
ff00ff0004fc00fe0200
0100fe01030500fe0100
ff0002010203fffffe00
0001000101ffff000000
0302fffcfffe02030200
fd00ff00fe0101ff0100
02000000fffffffb0200
fe00ff0100fffe020000
0000fd00fe0101fd0100
0001ff02010001fe0000
02fffe0001fe01fffe00
00fe01ff030201020100
0101fffefdff02ff0200
ffff000001ffff020200
00feff00ff00fe00ff00
fd010102030200010000
00fffe02010002fe0000
ff010102ff03ff020000
01ff01ff020101000300
ff0102fffe01ffff0100
010001ff000000fb0000
fe0102fd030100010000
fefeffff050300fffe00
fefffffefffe00fb0100
00ff0201ffff01000200
fefffefd010101ff0100
01000100010200020100
00fffd00010200000200
010002fefffeff010100
01fe01ff000000000100
0101ff01000001ff0200
00000100fa040101ff00
feff0005ff02fffeff00
00ff00fe010101ff0100
02ffff01fe0102fefe00
00fe010001fe0000ff00
00ff00fe00ff01010000
00000200fdfffffe0300
000001fd02fe01000000
00fe01010202ff010300
0102ff0100ff01010100
01fffffffdfdfefeff00
00fe0200000000010000
ff0000fdfe00ffff0000
fe0000fefe00fffd0000
00ffff00ff0102fdfe00
ff0100ff01fd02fdff00
ff01ff02fe000004fc00
ff01ffff000202000300
ffff01000101fefffe00
ffffff01fefd02fe0000
f7c60d2a1b2e280a1d00
302824151a16182a1700
010100ffffffff01ff00
010001020001fd00ff00
ff01f9fa01f904fc0200
ff0100fdfe01ffff0000
ff02fffd03ff03ff0000
00ff010101ff0000ff00
00ff0100fffefdfffe00
0100000000ff01000000
00fefefffefefbff0300
0000fe020100fe030100
ffff0001ff04fc000100
ff01000301fe04fffb00
000202fffd00ff00fd00
ff02fffc0501fdfe0200
0001fffffe0001000300
fe00fffefd00feff0100
00ff0000fffffeff0400
fe01fe0100ff01020000
0100000202fd01fefe00
00ff01fffdfd02fdfe00
01020104fcfc01ff0000
fdff01fffefe04000100
01fefffd01ff01ff0100
000101ff010004010200
fdfd00ff03fe0101fe00
0102010002fdfd00ff00
01ff000100ff0100ff00
010100fe00000001ff00
030100fe01fffefffd00
fe00fe01010100000200
ff000102fe010101fd00
fe000000fc010100fe00
00fe00fefe00fb01fc00
0101010401fe0001ff00
ff0000fd02ffff000100
ff0001ffffff01fd0200
ff000001ff00ff010200
fe0100fdfc0100ff0000
ffff010200fc03ff0100
ff0000fe00ffff00fe00
00ff01ff0001ff010200
00ff0100fdffff000100
010001ffffff00fffe00
ff00fe0600ffff01ff00
0000fe01fdfffe03ff00
010100fc02fffffffd00
ff00ff02fffeff00fd00
ff0002ff02010002fe00
010102010101fffeff00
0101fffefffffd00fe00
ffffffffff00fdff0000
000102ff01fe01ff0000
0101020100fffc000000
010100fdffff0101ff00
0201ff00020001ff0100
0002ff01010100000100
00ff01ff020100ff0000
01fe020500fdfffefe00
00ff00fb00fffa010300
0001ff00ff0000010300
000201fb0201ff010000
010000fd0101fffffc00
fe0000fbff000202fd00
01010002ff00fe00ff00
0101fffdfdfdffffff00
fe00fefe00fe00000400
ff02020202ff03000000
00010103fe0001000100
000101000200fefeff00
000000fe0000fefeff00
0101020102ffff02fe00
00010000ff01feff0000
000000fe020300fffd00
ff000102000302020000
ff00fffe0101fe000000
04ffffff01fd02000200
000001fd01fb0003fe00
ffff01fdff0101000000
ff00000200fe0002ff00
fd01030001feff020200
010201fcfffe02ff0100
fe01000100ff01ffff00
fe00ff00000000010000
ff0101ff01000100fe00
020101fd00fd00fefe00
0001fffdffff0101fe00
00030001feff01000100
0401ff00fefefdfe0100
ff00fefdfffefe01ff00
fcff0000fe00fe020000
0000ffff0202ff010400
020100ff0000ff02ff00
0100ff0104fe02020000
ff02000200fefffffe00
00000101fe00fe000100
0100ff02fffffdfe0100
feff000200ff00fe0200
010100fc00fcfe03fd00
020100ff02fffd00ff00
feff00fe0100fc010000
fdff01fffc0000ff0300
010200fe00feff000200
fe01fefe01fd0200ff00
fffffe01fe0401ffff00
0001ff04fe020002ff00
010100fffefe03010000
0201ff0101ff0102fd00
ff02fffefefdff00fe00
ff00fdfeff0303fdff00
01fdfe0302fe0104fc00
0201fe02010100020000
fe00ff00020100fffe00
fffdff0204ffff00fe00
ff0300fefffe0100ff00
0000fffefcff01ff0000
010001fffe01feff0100
fffd0001ff0101000000
00fffffe030200ff0000
fe0101ff0000ff02fe00
00000002fe010100ff00
02000000fe00feff0000
00fe01fd01ff0202fe00
ff0201fd00fe0101fe00
0101ff0003fefefeff00
00ff0102ffff0100fe00
02010000ffff00ff0500
010103ff000001010000
feff030000fefdfe0300
00020002feff01010100
ff01fe0101ff02feff00
020002fe00fe00020000
ff010000000101000100
fdfe0001fefcfd01fe00
ffff0001fefffeff0000
0200010000ffffffff00
0101000101ff0202fe00
0000ffff02ff03030200
ff00fe00ff000000ff00
0001ffff00ff00fffd00
0101ff00020101ff0000
fe0101fe00ff03fefe00
0000fffe02000302fc00
010000ffff00fefe0300
010000fdfffd0202fe00
ff00000107fffefe0000
fe02ff0001fe00fe0000
ff00ff0302010201fe00
010300fe010002ff0200
ff01fe01ff0301fe0000
fdff00fe02fd0200fc00
0000000202fe00ff0100
00ffff00fdfefdfffe00
fe00ff000300fdff0100
0100000002ff05fe0200
010100fe0400fffffd00
ff020202030100fffe00
010000feffffff000000
02ff010101fd00ff0100
ff00fe00fefd02fffd00
ff010002fdfffe00fe00
000000ffffff01010200
0101fffdfe020100ff00
000000f9fcfefc02fe00
0202fffefdfffd000100
010001ff00000003fd00
0100ffff03feff03ff00
0000fdff010001040100
00ffff0101010201ff00
010200ff01fe01fffd00
fd00fe0100ff0505fe00
0101fffefdfc00ff0100
fffefefd01fdfe000200
fffffe0102030200fe00
01020101fdff00fefe00
010204f6fbfdf902ff00
fffeff02fffe0200ff00
00ff000001ff02000300
fe00fe01ff0002000200
03ff000002ff0202ff00
0002fffefffefefe0200
010cfefd000000fb0400
00fe010001fffe00ff00
0100ff0202ff00010300
01ffff01fffffe000300
01ffff0000ff0000ff00
0102ffff000401fffc00
020300040000fefe0100
0101fffdff00fe000100
fe010000fefe04010300
01fe01ff01ff01000200
02fd0000fd0302000000
ff02ffffffff02010000
000302ff00fe01000100
0200010200fefffffe00
ff010101fe00ffff0000
0000fefefd0303ff0000
000100fd01fc01feff00
fefeff00010002010000
fe0103fcffff0001fa00
fffd030001fffe030100
00fffeff00fe04010500
ff00010202fd0100fe00
000000fefefeff030000
ff00020001ff00000000
020203fe0000ff000000
fe00000200fc00010000
ffffff010201fdfe0000
000200fd01fd02fefe00
0101000100ff00ff0000
00ffff02ff0000010000
ff04fffefc01fd01fd00
ff01ff00fdffff010200
0202020204fefe01ff00
fdfefffeff030200ff00
ff01ffff01fffe010000
0000010200fe00ffff00
01000000fd02fd020300
fefd010102010101fd00
0003ff01000101010100
0000fffd00fffa000200
030000ff00fdfe040100
010100fe00ffff01fe00
fdfe0003ff00fd010200
0101000201fffe01ff00
ff02fdff0100fcfe0100
00ff000200010000fe00
02ff01fefffdfefdff00
fe000001fefffdfffe00
010000ff00020201ff00
0101ffff01fe00000100
0000fe0300010002ff00
ff0100ff0000ff000000
fe00ff04ff0102000400
010200ff02fe01fe0200
01030002ff0103ff0000
020402f9fffe00020000
030100fffeff0001fe00
00fefe00fd0200000000
000000fdffffff00ff00
000202f8fdfeff010100
0201000200fdfeff0100
0100ff00fe0103020200
01010201ff000101fc00
0000fe01fa0004fffd00
0001fffdff0202010100
ff01feff00fefd02fe00
00ff0101ff01ffff0500
04fdff0101000203ff00
0100ff0400fc00ff0000
00ff01ff000301000000
00010101fe00fffe0000
01010003000200030400
00fefcff000100010100
010000fdfffe03000000
000100fc04fdfffffd00
000001ff000002000100
00ffff00ff0001ff0000
fe0101010001ff00ff00
02010201fe000000fe00
0004fffffeff00fe0100
0002ff00ff0102020200
0201ff0101fd0102ff00
00fe0204fffffb00fe00
0000ff02fefe01010000
01fefe0001ff00fe0400
00000102fe01fe00ff00
ff00ff020002fd00ff00
0101000001fefdff0100
0202fffd0101ff00fe00
000001ff02ffffff0000
ff02ff000000ff010000
fdfffe0400fe01000000
010002ff01fe01ff0200
0003fffc00ff01ffff00
01fd000003ffff000200
000200fb02ff00ff0200
00fd02fffb02ff01fd00
ff000001fffe03000000
000201ff02fdffff0300
010001010000fc020100
0200fefefeff00010300
00ff0000fe00fdfc0500
0100ffff0200fc010000
ff00010000fffa020000
0101ff0002feff000000
01ffff02fc01fffefc00
010201010001fffffd00
ffff0000ff04fefd0100
0100ff00ff00ff010100
fffe0001fffd0001fe00
01ff0003ff0001000100
00010005ffffff010000
fffd01010202ff01ff00
fefe0000fc00ff02fe00
ff000100fffcfcfffe00
01ff020200fffdfe0000
00feff01feff04000100
fffe02fffffe00feff00
00000003030000020100
03020001fc00f9fe0100
00000100fb0400fe0000
00fefffe0000fefeff00
ff000004fffffefffe00
00000007fffd02ff0100
ffffff02fdff00000000
000000010500ffff0300
0200fffdffff01000300
00000102fffe0000ff00
ff01fffa00fdfe00fe00
fe0301feffff00000200
ff0000fffe0102fd0100
0101030203010000fd00
01000000ff0000000100
00ff00ff02fffdffff00
0201fffffbfd02020300
0000000300000001ff00
020100fcfefffffeff00
010200fe0000ff00fe00
fffe00fe00fffe01ff00
fe0101000000ff00fd00
fe000101fe0100010000
010001ff0000fc01ff00
00ff010005000301fe00
0102000000000300ff00
0102010106fffeff0000
fffffffd0100fffefe00
000103fd01fb07010000
ff02fe0201fffffffe00
fe000100fc000101fe00
000000fe0302ff00fe00
fd020000010102010100
feff0103fffe0101fd00
010200fe01fefdfffc00
000100ff01ff01010200
010000fefeff02010000
000002fffffc0002fc00
010000fd020200000100
0100fe01ff01feff0000
000200fefe0301ff0200
000201000001fffe0100
030301fe030101ff0000
ff0103ff00010201fe00
01010205fffe00fe0100
ff0101fffffe0100ff00
01010201fe0100fffe00
0000000200ffffff0200
000001ff010000ffff00
feff0100ffff0001fe00
0101fd0003feffff0300
0101000100feff010000
0102fffdfdffff00ff00
ff00ff0300ff03000000
ff0100fdffff00020200
ff00000300fffcfe0100
00000002000001feff00
05fefe01fe000001fe00
ff0300ffffff03030300
fffefffd0200ff000300
040001fd0000fdfefe00
0000fd04fd0402000000
fe0201fd00fefe03fd00
0100fd0000fffdff0100
ffff000200fefe00ff00
020002ffff01fe00fd00
ffff01ff02ff03fffd00
00feff05fefe00010100
00000002ffff0200fd00
0000fe0103000000ff00
feff00020300fc00ff00
0102fffc02fefe000000
0102fffe00fe01000000
010102ffff0200ff0000
00010101ff0002ff0100
ff0000ff02feff010000
000200040100fe000400
01000001ff00fefe0000
ffff0102fefeff010000
ff00fffffd0100fefd00
0201fe0102fe04ff0300
00ffff0000fffffffe00
000200fd000202000100
feff0000ff010001fe00
0001010300fcfd000000
00ffff0101fffefeff00
ff010000030002010100
fe00fc02fffffd04fc00
0001fe00ff0100fd0200
01010001fcfffe00fe00
0001fffffd0001ff0000
01fe0102fe0105feff00
000101fcff01ff01fe00
feff0001010101000100
0001000100fffd000200
0101fe020002fe01ff00
0102010100fd00020100
000102fb00fffcfd0300
01ff03fd01ff01fe0100
0102ff01fd0001ff0300
0100fffe02fefc02fe00
00feff0000fefdfe0000
010301fc0201fefe0100
fe00ff0100010102fe00
01010103fffffffefb00
ff0002000000feff0200
ff00fc0202fd01fdfa00
0200fffefffd04000100
030100fdfffeff02fe00
fefffffbffff03000000
01fffe0005ffffff0200
010002ff040003000100
010000fffe0300000000
00000000feff00010400
0101ff01fffffdffff00
0100ff000001ff020300
01ffffff0000fa010300
ff00fffbff0103fcfd00
010002fdfffffefffe00
00feff07ffff01010100
010000fb010200fd0600
000200fdfe01fe010500
020000ff01fe0001ff00
ff000100fe0001ff0100
fe000102fffefe020100
000000010102ff01ff00
00ff000203ff0000fe00
01fe010100ffff01fe00
0000fd0000ff0102fc00
fd0001fc01f9fb040000
0002fefe02020100ff00
000000fdfe03fc000100
010000fd0001ff000000
01000203fe01ff000100
fd01ff04fefe04020000
0001ffff00000100fe00
ff010000ff03fffd0000
01ffff0102ff01000100
ff06020102fe02020100
ffff01000000fbff0400
03000000030001000100
0101fe02feff01fefc00
010100ff01ffff010100
01ffff0302010202fe00
010300fd0002feff0200
00fdff0202fffffffe00
fffffefe0001fe010000
010100fffefcfffe0200
00010001feffffff0300
020001fcfffcfc00fc00
0200ff0101fd01000100
000002ff01030001ff00
0000fe0001fffe01ff00
0302010002fffcfefe00
0001fefefdfe02fffc00
010201ffffff00ff0100
0201ffffff01faffff00
0202010001fc01fefa00
01fe02fe04fd01fffe00
00ff0103fe0001020200
020404f4fd01fd02ff00
ff0100ff0002fb010300
ff01000000010201ff00
0000fefefdff01fe0000
feff00000001fe01fd00
000100fd0202fd00fe00
01010100ff0200000300
fdfffe00ff01fbff0200
fe03fe00fbfffe02fc00
000000020101fdff0100
000200fc01fe02fffd00
020100fefe0102fe0300
000101fd010001000100
0102fffefeff00ff0300
00020101020101ff0100
ff01ff0102fffffe0200
0003ff0002000001ff00
010200fdfd02fcfe0400
000000fe03ff0301fd00
00ff020102fd02ff0000
01030101020001fe0300
00ffff010000fd030000
ff0301fefc00fe000000
01000001ff01fe000100
feff020000010000fd00
0000010100ff02fe0200
0101000400fe01fe0300
fe02ff0302000300ff00
00feff0002000100fe00
ff0000ffff0101ffff00
00fffe00ff03fd010100
0001020102feff02ff00
fe01fe01010603feff00
010101feff00fffefe00
fffffdfe01fffe000000
00000102010000ff0400
02fe01fbfffb08fb0300
000201f8fdfdfb010100
01fe02ff00010001fe00
0001ffff0101ff00ff00
00ff000101fb00010000
01fe02fcfefeff00fe00
01ffff00ff000001ff00
0003fefafefd0201fd00
00010203000100000100
ff00ff0200fe00ffff00
01010004fffeff010100
0000020000000101fe00
000102fd0100fd000300
010003000100ff00fe00
000002ff01fffe01fe00
fe01ff010101ff010100
000002ffffff0001ff00
0002010000fefe02ff00
00fffffffdff0103fd00
39d6164bf318eb2f2900
182121292d261d251900
00ffff0000010000ff00
030100ff0101fd000000
fefe02fe030003fd0100
0101ff0000010201ff00
01030000ff010401ff00
ff02020101ff0201ff00
0200ff0200fefe020200
0000ffffff0103010000
0100fe00ff01fe01ff00
02010302fe02ff02ff00
ff01fe0100ff01fe0300
000102ff00ff00000000
0100fefdfc02ffffff00
02ffff010201fe01ff00
fe0000ff00ff00fe0000
0000ff00ffff02000100
ff0201fe000300ffff00
0200010101ff00010200
fe0200010100fffffd00
fefeff000300fffd0300
ff00fdff020405fefd00
ff01ff00fffe00ff0200
fe01feff010200ff0200
000001010101fe000200
fd00ffff00ff00fffc00
03ff02ff01000300fe00
0202ff0000000000ff00
00fffffe00010001fd00
fdffffff02fe00010000
ff0100fe00fe02000200
0004fe00ff0000ff0000
fd02ff01010102ff0100
fd00fdfefe0003fefe00
ff020000000000fffd00
00fd010102fd0102fe00
00ff01fffffd00010000
00ff0000ffffff000200
fe03ff020001fffe0000
ff0301fefe0003ff0000
fc00fd000000ffff0200
00ffff01000101020200
00ff00feff01fd01ff00
0100ffffff00ffffff00
fd020202feff00feff00
fcfdff00fffe01fd0300
fe01ffff02ffff000200
00ff020000ff0000fe00
ff00ff02ffff01ff0100
000201feff00ff02ff00
00ffffff01ffff000100
020001000003ff010200
ff0100ff010103010200
fefefd00ff0002020000
ff0100ff000001ff0100
00feff02020001ffff00
feff01ff00fd03ffff00
ff0300feff0201000100
fe04fffeff0103ffff00
000000feff000000ff00
030004fd0202ff010000
0000fefffffe0000fe00
0001fefe0001fefdff00
fe02fe0200ff01000000
0000fffe0000fdfffe00
fe0000ff000103fefe00
00fe01fd00fdfe010000
030201ff010100010200
fe02ff00000001010100
ff01fffe010000010200
fe02fffffffeff000000
0003ffffff000100ff00
0201ff01fffe02fffe00
fd01010000010300ff00
fd0002fdffff0100ff00
000100fefeff0000ff00
ffffff0001ff01010000
0002020002010201fb00
0102fe010000fffe0400
020300ff00fffe01ff00
0301ff020001fffe0100
010101000001ff00ff00
0000fe0101ff04000100
fffffefe0102ffff0200
ff02fe00ff000000ff00
fefe02fdff02ff01fe00
01ff0100010104010000
00000001ff01ff01fb00
000202ff0003feffff00
02fe01ff01fe02ff0300
fefeff010001fe01fe00
ff00ff020000ffff0000
000200ff0003ffffff00
0001ff0103ff02000100
000001ffffff01010000
ff0004000001fe00ff00
fefefffffe01feff0000
01010100fe0201000000
01030100020101fefc00
ff00ff0200010001fe00
ff03fc0201fdfc020000
fb02fd000100fdfe0000
010000fe00ffff010000
0400ff01000001020100
fb00fdfefefd02010100
0001ff00fffd00ff0100
feff02ff000001fe0500
0102010102ff02fe0000
01010100000101000000
0000010001000102ff00
fe03000001fffffe0300
0000ff020203fe01fd00
00ff010000ff02fffe00
ff02000002fd0100ff00
fd0000ffff03fffd0100
0002ffff00feff01ff00
ff00ff00ffffffff0100
ff01ff00fffe00feff00
ff01010000fe02000300
000101ffff0102010100
00ffff00010102ffff00
0101fd0201fffe010300
020201fe01fc00fefd00
fffdfd03fffe01fd0600
fcfffffdff0002fffe00
00fe000000ff00ffff00
fb010100ff000101fc00
010101fd02010300ff00
04ff020100000300ff00
fe0001feffff04fe0300
000000fd01fefd00fe00
020102ff000001ff0000
0102ffffffffff01ff00
feffff0001fe00ff0200
00ff00010100ff020000
fe0100ffff0002ff0000
0002000002000200ff00
01010100ff010301ff00
ffff000100fd02010200
03fffffe0200fe020100
fffffffffefffe010000
ff0101ff0001fffe0300
00ffffff00fffffe0200
0000000100ff00010000
ff03ff0100fdfffefd00
0202fdff00000304ff00
ff02ff00010000000100
fffffffe000101ff0100
01ff0001ff0100000100
ff000101ff00fc010000
000101fe00010200fe00
000000ff0003fffffd00
000001ff000301ffff00
00000000fe000101fd00
fbfcfd00ffff00ff0100
020001000001fffefe00
00ffff01020000020000
000000ff010200ff0100
000003ff020002000000
01ff0201000300ff0000
02010000ff000101ff00
ff02ffff00000002ff00
fe00fe00ff02ff00ff00
fe01ff000000fefe0100
fe0002ffff02fe020200
ff00fffd00000401fe00
fe000000ff040101fe00
ffff00fe0002fffefd00
0000000000feff000100
000201ff01010300ff00
0100fe02010000ff0300
ff02feff02fefefd0000
fdff0101010001fd0300
01ffffff02fe02020000
0102fefdff01fd01fd00
f90103ff020000fffa00
ff0002fdff0001fefa00
ffff01ff010000fe0100
ff0101000100ffff0400
00fffffffe0101fefe00
010000fd01fffeff0100
000101000100fefefd00
02000100010101000100
0200000102000000ff00
ffff00ff0100fd000000
00ff00fffe010001fe00
fefffeff000200010000
04fffffffe000000fd00
01ff0200010100000000
fc01fe0000ff0300fc00
00ff0000ff0201fe0300
00ff02000200ff010200
fe000000ffff02ffff00
ff00010001fe05ff0100
ff02000001fe0000fe00
ff0200feff02ff00fe00
fb0302010000ff020200
00fd020101ff02ff0200
010100fdff0001010100
000004ff03010600fb00
fe00fd01ff00ff010300
01fd0001fffffffe0500
fd00000001000400ff00
fe00020001fdfdfc0100
fe00fe02ff00fffefe00
fe0301ff0003fd00ff00
ff0201fe010000fe0100
01fe00ffff000104fe00
0101ff02020000010000
02fefdff00fdfe00fc00
fe010201ff01ff01fd00
fe010001ff030100fe00
0101ffff0101ff01fc00
fdffffff00fefdfefc00
fd00ffffffff00ff0200
030101fe0100fffe0400
ffffff0200fd0100ff00
00010300ff01fdfefe00
fe03ff01010000fe0000
0201fffefefe01010100
fe010101fefe0000fd00
00fe01fdff010100fe00
fe010001ff0101fe0000
0101fe0101fffeffff00
000000fefeff02010400
fd0000ffff0000fe0000
ff0001fe01feffffff00
ff00000101ffff01fe00
00fefeff02ff02010100
fe030300fffe0100fe00
000000010100ff01ff00
01feff02fe0001ff0100
fe0102fe00fe00fe0100
fe00010001000100ff00
000201ff00fe00feff00
fcfffd00ff0101ff0000
0001fe00fd00fffffe00
000200feffff0100ff00
0000000002fe01020100
01000000ff0002feff00
0000000000ff00ffff00
0200ff0000fdff000000
fffe0101010000000200
0000010001fe03000000
020001ff01fffefffb00
01fefeff000002010500
fefeffff02ffff02ff00
ff000001010000000200
ff00010102fe01ff0100
fe010000ff01fc010000
0302ff00ff00fffffd00
00000201ff010400fe00
fffe020100000100ff00
fffd010100feffffff00
00020001fefe01010100
01000102ff0000010100
fdff000001fffe01ff00
fdfe00000102fd000000
ff0000fffeff00000200
01ff0101feff00000100
fe00fdff0001fefffc00
ff000002010001fe0000
0202ffffff03fffcfe00
ff030201fffeff000100
fdfe02feff0200fe0000
ffff0200020101fef900
fe02fcfe02fe0101fe00
0201ff0001ff00ff0200
0001ff00fe00ff01ff00
fe02000100ff02ffff00
00000000fffe00010000
ffff000002fe03000100
0001ff0002020101ff00
ff0002ff0002fffffe00
0000fefdfe0104ff0200
fb02000101fe01ff0300
0201fffefffe00ff0000
fbfffe0200fe01010000
00ff0201020102fd0000
fe00010003fffffd0100
fe01000100fe00fefe00
fd00ffffff00fefe0100
00ff01ff00010000fd00
0000feff00fffc010000
fd01010000000201fe00
fd000000000201000200
0203fefe01ff00fd0100
020000fe01020000ff00
000300ff010001fffe00
ff00ff00ff020100fe00
000100fffe0300000400
0001ff01feff0100fe00
ff02ffffff0102fefe00
01020000ffff01ff0100
fd01fffe020102ff0000
ffff00fd0301fffeff00
02fffdff0002fffeff00
ff00fefeff0000fffd00
00000000fe02ffff0100
fe010300020401000000
0501ffff000100000000
fd00ff01ffff00ff0000
03ff04000101ffff0000
02010100010002020100
fe0000fe020000010000
ff010001ff000100fe00
0200fefeff0100000100
010100ff0201fffeff00
fe0100ff00fe01ff0100
fe0100ff02fe01020200
01000001ffff0101fd00
ffff00fe010400fe0200
ff0303fd000102ff0100
fd0300ffff01fffffe00
00ff010000fe0000fe00
fd01010001fdfb020400
ff020100ff020200ff00
0000010002ff03fd0000
fefd0300fffefffdff00
fbfe00ffff01fd010000
00fe01ff000202010000
020101ff0101fd01ff00
00020100fe000001ff00
0001030000020300ff00
fe00fe01000100010100
ff02fefe02ff01fe0100
ff0200fffe000101fe00
fd01020001ff02000100
00ff0101010101020000
010003fdfffe01fe0000
02fffffe00000202ff00
01fffffe00fe00fffd00
000101fdfdff0200fd00
00000300fe01ff000000
fffffe0101ff00fffb00
0100ff00000100010100
fe00fe0102ff02ff0300
0102000001ff01010100
ff00ff0200ff00ff0000
fe00ffff0101fe000200
0100ff000100ff000100
fa01fd03fffe01fc0500
00010000ff0102000100
030001fe0101fe000000
0104000000fe00ff0200
0002ff00fefe00010000
00fe00ff0100fe00ff00
030503ff020101ff0200
000001fe000002fe0000
000101ff00fffffeff00
0100fe00020000010100
fe020401fe01fafe0100
fd00ff00ff0103feff00
fdfe0001000100ffff00
ffffff030101ffff0000
0101fd01feff01ff0300
02fe010002fefc01fe00
0200fefeff000101fe00
ff0003ffff030200fe00
0000fcff000203fffe00
fe01fe0000fefefe0200
02fffe01ffff0300fe00
feff02fcfe0104ff0100
01ffff0200fd02ffff00
ffff010200ff00ff0300
0203fdfffffe0200fe00
00000001feff0200fd00
00fe03010200ff030000
0101010000ff0101fd00
fe00000102fd0000ff00
fcffff000102ffff0200
01ff00ff0000fdfefe00
fe0002010200fffffe00
020202ff01ff03000200
0202fdff01feffff0100
ffffff010100fe000000
010103010101fe000100
0100ff00030101ff0100
fefe0201000001fffe00
0200fc01000100010300
fe00fbfe0102fe01ff00
0000ff01ffffff000300
02ff00ffff01ff01ff00
0101fe00000004000100
fd00000001ffff00ff00
feff0001010001000000
03fffeff00fefe01ff00
ff0100ff020000feff00
01fe0000000204fffc00
0000000101ff01ff0100
fffe01000200fe01fd00
fd00fe00020100010200
03ff0100010201010000
ff01fdffff00ff00fe00
ff00ff020200fe01fe00
0003030101ff03fffc00
00010000000201000400
fefeffff0100fdfdfa00
0001ffff0002ffff0200
0101fe00feff0100fd00
000105ff01fe02000100
ff010000ff0001ffff00
00ff0001020100010000
fe03000401010400fc00
000200ffff0100ff0200
feff02fe0301fffdf800
01fd01ffff00fffe0200
ff01020000ff02ff0100
ffffff00ffffff000000
02010000ff0002020000
03fefd00fd0003fdfd00
0000ff0200ffff01ff00
00ffffff01fd01ff0100
020101feff010402fe00
fe02fe01fefdfdfefd00
fffe0000fffffe01fd00
fe01040000040100fd00
fefffefefe00fe000000
01ff01fdff0201010100
0102010001fefd01ff00
0001fffeff00fffeff00
ff0001ffffff01000100
0101ffff030000030100
fffe000001010501ff00
00ff010201ff0202ff00
01000100ff0000ffff00
00fffe0002fe00010000
01fe01fe0000fe010100
fbff0001020200fefe00
00ff010001fc02010300
0402fffeff0200ff0200
fe00000000fe00000100
fffe0000020002ff0000
0002ff00ff0100000000
0100000100ff00ff0000
000300fefe00ff020100
ff01fe00010200020100
0100010100ff03fe0400
0001ffff01fe02000000
01ffff000200ffff0000
0100010001ff00010300
000100fdfe0201030100
00fe0200fffd02010100
000000fffe020300fd00
00020001fe00fcffff00
00030100fffffffffd00
000200fd00fffffffd00
fe000100ff030002fe00
