01
fe
ff
ff
01
01
ff
ff
00
02
00
02
01
00
01
01
ff
ff
00
ff
ff
fd
fe
02
ff
00
fe
00
fd
01
ff
ff
ff
01
fe
02
00
00
ff
02
00
ff
ff
01
02
00
01
fd
fe
01
01
00
00
01
00
01
02
ff
ff
00
02
00
01
ff
ff
00
03
fe
ff
00
fe
01
01
00
01
03
01
02
01
02
01
01
00
ff
01
fe
01
fe
01
01
ff
01
ff
01
01
fe
00
00
03
00
ff
01
ff
02
01
03
00
01
01
ff
01
03
01
00
01
ff
00
00
fe
00
ff
ff
ff
00
01
01
01
02
00
ff
00
ff
00
fe
00
00
03
ff
00
00
01
01
01
01
fd
02
00
ff
02
01
03
00
fe
00
02
fe
02
00
ff
fe
fe
00
02
00
02
03
00
00
ff
00
fe
02
ff
01
ff
01
ff
01
fe
ff
ff
01
00
00
02
02
fe
01
ff
01
00
00
00
00
02
00
02
01
ff
03
01
02
01
00
00
00
00
01
fe
fe
02
01
00
02
01
fe
01
02
fe
00
ff
01
00
fe
04
ff
02
00
00
00
02
00
fe
00
ff
01
fe
ff
02
01
00
00
00
03
ff
01
02
01
00
00
01
ff
01
01
ff
fe
02
ff
fc
ff
ff
01
01
01
fd
03
02
02
02
00
00
00
02
02
01
01
ff
01
00
ff
ff
ff
02
01
ff
02
01
ff
00
00
fd
ff
01
ff
02
ff
ff
00
03
ff
01
00
ff
ff
01
02
fe
fe
01
00
01
fe
02
02
00
01
fe
00
00
ff
00
00
fd
02
01
01
00
00
ff
01
01
ff
00
02
00
00
04
00
00
00
01
00
ff
01
01
ff
02
03
01
03
01
00
00
fe
01
ff
00
01
01
00
02
02
02
00
ff
00
ff
00
00
ff
03
00
ff
00
00
fe
fd
02
02
ff
00
fe
fe
02
ff
01
00
ff
ff
00
ff
00
fe
03
00
fe
00
01
01
00
fe
01
01
fe
01
01
00
00
00
ff
01
01
00
00
00
fd
00
ff
01
ff
01
01
02
fe
02
ff
01
fe
01
01
ff
fe
ff
02
00
00
ff
ff
00
05
02
00
01
00
01
04
01
03
00
03
00
ff
00
02
02
00
01
00
ff
ff
fe
03
01
ff
02
00
fe
00
01
00
02
ff
00
02
02
ff
02
fe
02
fe
03
00
00
01
02
ff
02
00
00
ff
03
00
ff
00
ff
00
00
00
02
fe
ff
ff
fd
00
f0
2f
01
00
01
00
00
ff
ff
00
00
01
00
fe
00
01
02
01
03
00
03
ff
ff
00
ff
00
02
00
01
ff
fe
01
02
00
03
ff
00
00
00
00
00
ff
00
01
00
01
03
01
00
ff
ff
00
01
00
00
ff
00
01
ff
fd
00
00
01
02
02
ff
01
ff
01
02
01
02
ff
00
03
00
01
03
fd
00
ff
01
01
00
ff
ff
fe
ff
01
01
fe
fe
ff
01
fe
00
ff
01
ff
02
00
00
ff
00
01
ff
00
ff
02
01
00
00
01
03
01
fe
01
01
00
02
ff
00
00
ff
01
fe
00
01
01
ff
00
00
ff
ff
01
00
ff
00
01
ff
01
00
fe
ff
ff
02
ff
00
fd
fe
fe
fe
fe
00
00
ff
ff
00
00
00
00
01
00
02
00
00
00
ff
01
01
00
00
00
00
00
ff
04
01
ff
01
00
03
ff
ff
ff
01
ff
00
fd
00
fd
00
00
ff
fe
ff
01
00
ff
00
ff
01
ff
ff
00
01
01
00
00
00
02
01
ff
ff
00
01
00
fe
03
00
01
00
01
ff
00
ff
ff
ff
01
00
01
00
ff
01
00
01
00
01
00
02
00
ff
ff
01
00
00
ff
01
00
00
01
01
02
ff
01
ff
00
fe
00
00
01
01
ff
00
01
00
00
00
ff
01
fe
00
ff
00
01
ff
01
02
ff
ff
00
01
ff
01
fe
fe
fe
00
03
00
00
ff
00
02
ff
02
00
01
ff
01
01
ff
00
ff
00
00
00
00
01
00
01
01
fd
00
01
ff
02
ff
ff
01
02
ff
00
00
02
01
03
01
01
01
ff
00
02
fe
00
ff
00
00
00
ff
ff
00
02
01
02
00
00
01
ff
01
01
00
01
ff
fe
00
01
ff
00
01
00
fe
01
00
01
02
01
00
00
01
ff
02
02
00
01
02
fe
ff
fe
01
00
00
00
01
01
ff
01
01
00
00
00
01
00
ff
01
00
01
01
ff
ff
01
01
01
00
01
01
ff
02
ff
ff
01
fe
ff
ff
01
04
00
fd
fe
ff
00
01
02
00
00
ff
ff
00
ff
00
01
01
00
01
01
fe
ff
00
ff
fe
01
02
ff
fe
ff
01
00
00
03
ff
01
ff
00
02
00
01
01
03
ff
ff
00
ff
ff
03
02
00
00
ff
fe
00
ff
ff
ff
01
01
01
fe
01
fe
01
00
ff
00
01
ff
00
02
ff
00
ff
ff
01
01
fe
01
00
01
00
01
fe
00
01
02
01
01
00
00
00
01
fe
ff
01
fe
fd
00
da
23
01
03
ff
01
00
00
01
00
00
00
fe
01
ff
00
00
00
01
00
00
00
00
ff
00
01
00
ff
01
ff
fe
01
02
01
00
ff
fe
01
ff
00
01
fe
00
fe
02
02
01
01
ff
00
00
02
00
02
00
00
00
ff
01
01
ff
02
01
02
00
00
02
fe
01
ff
00
00
01
00
ff
00
02
00
03
00
01
00
01
ff
ff
ff
00
01
01
01
00
fe
01
01
fe
00
01
01
00
01
ff
05
fe
03
03
04
00
00
02
01
ff
01
00
03
02
fe
fe
ff
ff
ff
00
02
00
01
ff
ff
02
03
ff
00
01
ff
01
ff
00
00
00
fe
02
02
00
01
ff
03
01
ff
00
00
ff
00
03
00
ff
ff
01
fc
01
01
00
01
01
02
fe
02
00
01
ff
01
ff
00
ff
02
02
00
01
00
01
00
00
00
00
ff
00
ff
00
01
03
fc
ff
ff
00
00
00
ff
03
ff
ff
00
fe
00
01
00
fe
00
01
ff
01
04
00
02
01
00
02
02
01
fe
02
01
fe
fe
fe
00
04
00
01
ff
01
ff
ff
01
ff
ff
04
00
ff
00
01
00
ff
ff
fe
00
fe
ff
00
03
01
01
ff
fe
ff
00
01
00
01
fe
01
ff
00
01
01
fe
01
01
ff
01
00
ff
fe
fe
01
01
00
ff
03
00
00
ff
ff
02
02
01
fe
ff
02
02
00
01
00
02
00
00
01
fe
01
01
00
ff
01
01
ff
01
fe
01
00
02
02
ff
01
ff
fe
01
01
00
ff
01
00
00
00
01
00
01
fe
00
01
ff
03
01
ff
ff
01
ff
03
00
ff
02
00
01
fe
02
fe
00
01
00
02
00
01
03
00
fe
02
00
02
01
01
01
01
01
01
02
02
02
ff
00
02
ff
01
ff
fd
01
01
02
ff
00
00
02
01
ff
01
00
00
00
00
00
02
02
00
ff
00
fe
00
ff
fe
ff
ff
02
fe
ff
ff
fe
ff
02
02
01
00
00
01
fe
01
01
01
fd
00
01
00
fe
00
00
00
01
fe
01
00
fe
00
ff
01
01
fd
01
00
01
00
01
02
01
00
01
ff
00
00
02
01
fd
fd
02
00
00
03
00
00
00
02
00
01
fe
01
00
01
00
05
01
00
01
01
02
00
00
02
00
fe
00
00
ff
00
00
ff
01
01
01
00
ff
01
01
02
ff
00
00
01
00
fe
02
fe
01
04
00
fe
02
01
ff
00
00
00
02
00
01
02
01
00
00
ff
fe
01
00
02
e0
23
00
fd
00
00
01
01
01
ff
ff
fe
00
ff
ff
fe
01
ff
03
fd
00
02
00
03
00
01
02
00
ff
ff
01
00
ff
fd
01
01
00
ff
01
01
02
01
00
02
ff
03
fd
00
01
01
01
02
01
ff
01
ff
00
ff
ff
07
ff
fe
00
ff
fd
ff
02
00
ff
fe
ff
00
04
00
03
02
02
01
02
00
00
00
01
01
01
ff
03
00
fd
00
fd
03
01
ff
01
01
00
ff
01
02
02
02
ff
00
01
01
00
00
00
02
01
00
01
00
02
00
fd
01
02
01
02
fe
fe
00
fe
fe
ff
00
01
ff
fd
01
00
03
01
ff
01
ff
ff
00
04
01
01
ff
01
ff
fe
ff
00
01
ff
02
01
ff
ff
ff
00
fd
fe
00
ff
00
fe
ff
02
ff
01
00
00
ff
02
fd
02
02
00
03
fb
01
fe
01
fe
fe
00
ff
01
00
fe
ff
fe
ff
01
fd
02
01
01
02
fd
01
ff
00
02
03
00
00
00
fe
03
02
00
02
ff
02
03
00
03
00
01
ff
ff
fe
00
ff
ff
02
00
ff
ff
01
01
00
00
01
fe
01
00
00
02
02
01
01
fe
00
ff
fe
fe
01
fe
00
01
02
fe
00
fd
02
00
ff
02
02
03
fe
00
00
00
00
01
00
01
04
ff
ff
ff
ff
02
02
02
ff
00
01
03
ff
fd
ff
04
01
00
01
02
02
05
00
ff
00
ff
00
ff
02
04
01
01
02
01
01
00
01
00
02
01
00
00
01
01
ff
00
00
02
ff
01
fe
03
01
03
00
ff
ff
fd
01
00
00
01
00
fd
01
02
01
ff
fe
01
00
ff
00
01
01
01
ff
01
ff
01
fe
ff
00
00
01
ff
00
02
ff
00
00
ff
02
00
03
00
00
02
00
ff
ff
02
00
01
fd
00
01
fe
01
ff
05
01
fe
ff
03
ff
ff
00
ff
ff
04
00
ff
01
ff
ff
00
00
00
01
01
01
fe
ff
ff
ff
ff
01
01
02
ff
ff
00
ff
00
ff
00
00
03
00
ff
00
02
ff
02
ff
00
00
ff
01
00
ff
00
ff
00
fe
00
fe
00
fe
fe
00
ff
01
03
01
00
01
fe
fe
ff
fe
01
02
00
01
00
00
ff
01
01
03
02
ff
00
01
ff
00
ff
00
01
ff
ff
01
02
ff
ff
02
fe
00
00
01
02
01
00
02
03
03
ff
01
00
01
00
ff
01
fe
02
01
01
06
01
00
02
02
fe
02
01
01
01
02
01
ff
00
00
02
00
fd
01
4b
1b
01
fc
ff
fe
fd
00
ff
ff
fa
01
00
02
01
03
00
fd
fe
02
00
00
ff
01
ff
ff
ff
04
00
04
00
fd
fe
fd
00
03
00
01
fd
02
fe
00
00
00
00
fe
01
00
01
00
00
00
ff
02
03
fe
02
fd
01
fe
ff
fe
ff
fe
fe
04
02
ff
fd
01
00
03
fe
02
fe
00
fe
00
fd
ff
01
00
01
fc
00
01
fd
fe
fc
00
fd
fe
fe
00
00
00
00
fe
01
fe
00
fd
01
ff
03
01
04
01
01
01
00
00
ff
ff
00
02
fe
01
ff
ff
02
02
ff
fe
04
ff
01
00
fe
ff
00
03
fe
01
f6
00
ff
ff
fe
fe
fc
00
00
00
00
fe
fe
00
01
fc
00
fe
00
ff
fe
fd
03
fd
00
fe
fe
fb
02
00
fe
fb
00
01
fd
00
fe
ff
fe
01
fe
00
fd
fe
02
fd
ff
ff
00
ff
02
fc
00
fe
ff
ff
00
ff
fe
03
01
fe
01
01
01
01
fc
fe
01
fb
01
01
00
01
fe
00
ff
fe
fe
03
00
fc
ff
ff
03
ff
02
fe
02
01
fe
01
fd
02
fb
00
04
01
01
00
fb
ff
02
ff
fe
00
00
00
00
01
fe
fd
ff
00
00
00
ff
01
00
01
fe
00
ff
00
fe
01
fe
01
00
fd
fe
fe
fe
00
02
fe
01
00
02
fc
00
01
02
02
fe
02
fe
03
01
fe
ff
fe
ff
ff
00
fd
fd
02
01
ff
ff
ff
fe
ff
00
01
00
fe
fe
ff
ff
ff
01
fd
00
00
00
fe
ff
fe
00
fd
01
fe
00
fe
02
01
00
ff
01
ff
00
04
fd
ff
ff
02
00
fe
00
00
03
fe
ff
ff
02
01
00
01
fe
fc
fe
ff
ff
00
03
fe
ff
fd
01
00
ff
ff
fd
ff
fe
ff
ff
01
ff
ff
01
00
01
01
fe
00
fd
ff
ff
00
03
ff
00
00
03
00
fe
01
00
01
fe
ff
ff
ff
00
fd
02
00
03
00
ff
03
fc
01
fe
fd
ff
ff
fc
00
fc
02
fd
02
ff
ff
00
fd
01
fd
ff
ff
00
ff
ff
fe
ff
ff
fd
00
03
01
02
ff
02
02
ff
01
ff
ff
fe
01
00
02
ff
00
fe
00
01
00
ff
00
00
ff
00
01
00
02
ff
00
fd
ff
fc
ff
fe
00
fc
01
fe
ff
00
ff
fd
ff
01
00
fe
01
01
01
00
fe
00
ff
fe
00
ff
01
fb
00
00
fe
00
ff
03
fd
fe
ff
01
ff
ff
fe
00
03
ff
ff
01
03
00
01
fe
fe
fe
ff
00
ff
ff
01
00
28
11
01
04
0d
fe
00
01
ff
ff
fc
00
00
01
01
01
01
00
ff
ff
02
ff
fc
ff
fe
fe
ff
fd
01
fb
00
00
00
fe
fc
fe
ff
fc
00
fe
ff
01
01
ff
00
03
ff
00
fe
fc
ff
00
00
01
ff
ff
03
ff
fd
fd
fb
02
fe
fe
fd
ff
00
03
ff
ff
ff
fe
01
fd
00
fe
fe
04
fd
ff
fb
fe
01
01
01
00
00
fe
05
01
fe
fe
00
ff
00
00
fe
01
ff
fb
01
fe
fe
00
fe
02
ff
fd
00
00
02
02
01
ff
fe
fe
00
00
01
00
00
03
01
fd
02
00
01
fe
01
fc
03
04
01
ff
02
fe
02
fe
00
ff
ff
fe
02
00
ff
02
01
fd
01
01
02
fd
ff
00
ff
04
fe
ff
01
00
00
01
00
ff
ff
fe
00
fe
02
00
03
01
00
ff
fe
01
fd
fe
04
fd
ff
fd
01
01
02
fe
ff
06
ff
02
fd
00
01
00
fe
fe
ff
01
06
fd
fd
fa
02
04
01
00
fa
fe
01
02
fb
fb
fd
00
fe
05
03
ff
fb
00
ff
02
fe
00
fe
00
fc
01
fd
fd
00
01
00
03
00
01
03
fe
02
00
ff
ff
ff
fd
01
fb
02
00
fe
05
fd
fe
ff
03
ff
fc
00
01
02
fe
00
fe
02
fa
fd
03
fe
ff
00
fc
00
fd
00
fe
fd
02
01
01
02
03
03
ff
fd
00
00
fd
01
fc
ff
ff
ff
ff
fe
00
00
fe
ff
02
ff
fb
ff
fd
00
01
fd
01
fd
ff
03
01
03
00
ff
05
fc
01
03
fe
fe
00
fc
00
00
01
fa
02
00
fe
fe
00
fd
01
00
01
fc
04
02
03
fe
01
02
ff
02
fd
00
fe
fe
ff
01
03
00
02
fc
fd
00
ff
00
ff
00
01
fd
02
fb
fd
00
fe
00
fb
01
fe
fb
fe
01
01
01
fd
03
00
01
02
03
03
fb
01
ff
01
02
05
fd
fe
01
00
ff
fe
fc
00
fd
fc
f9
ff
00
01
fe
ff
fe
00
00
00
04
01
04
02
ff
fd
fd
02
ff
fb
00
ff
02
fe
02
00
02
01
00
fc
ff
04
fe
ff
01
01
ff
02
ff
03
01
fc
00
01
ff
03
ff
00
00
01
fc
fd
fe
ff
ff
00
ff
00
fc
01
00
04
01
03
00
01
02
fc
00
01
ff
ff
fc
02
01
ff
fe
02
04
ff
fe
fe
ff
00
fe
00
03
01
02
fe
ff
01
03
01
fe
fd
01
ff
04
01
ff
fe
fe
03
01
fb
ff
01
ff
03
fe
fe
fd
00
fd
fd
00
26
26
ff
fe
00
00
00
ff
ff
01
00
fe
01
ff
01
ff
02
00
ff
fd
fe
fe
00
00
ff
03
00
01
01
ff
ff
01
ff
02
ff
ff
ff
00
01
fe
01
00
01
fe
ff
ff
fd
fd
ff
01
ff
fd
fd
00
02
ff
01
fe
00
ff
02
ff
00
02
00
00
fe
00
01
ff
01
fe
02
01
01
00
00
00
fe
ff
00
01
ff
ff
fe
fe
fd
00
fe
00
00
00
ff
ff
00
01
fe
ff
ff
fd
02
ff
ff
ff
ff
ff
03
01
00
ff
ff
02
01
00
ff
fc
fe
ff
01
00
00
ff
ff
00
ff
fe
01
ff
00
fd
01
01
00
00
fd
ff
01
fe
01
00
ff
fd
02
00
00
fe
01
00
01
02
01
fe
ff
ff
00
00
00
fd
01
00
ff
fe
02
fe
00
fe
ff
01
fe
01
01
01
fe
fd
02
01
fe
ff
01
00
ff
ff
ff
00
01
fe
fe
ff
01
02
ff
01
01
00
00
01
01
ff
01
02
01
01
03
01
01
02
ff
01
fd
fe
00
00
fe
00
01
02
00
fe
03
00
ff
fe
ff
01
00
ff
ff
02
00
ff
ff
00
00
01
01
00
00
ff
00
fe
02
fe
ff
03
ff
ff
02
03
00
ff
ff
ff
00
ff
fe
00
00
00
02
03
01
01
02
fe
fe
ff
02
ff
00
ff
03
00
03
fd
fd
01
fe
02
00
01
ff
02
ff
ff
02
00
ff
00
ff
ff
fe
fe
00
ff
01
fd
ff
00
00
01
fe
01
00
00
01
03
01
ff
01
fe
ff
00
00
ff
01
ff
02
03
02
ff
fd
00
01
02
00
01
01
fe
fc
fe
01
02
00
00
ff
ff
ff
fe
00
00
00
00
00
02
ff
01
01
ff
01
ff
01
00
ff
ff
ff
fe
02
00
00
00
00
ff
02
02
00
00
ff
00
00
00
ff
ff
00
ff
00
00
01
fe
00
00
ff
ff
ff
fd
ff
fe
ff
00
ff
ff
01
00
fe
01
01
00
00
00
00
01
00
fd
fe
00
00
ff
00
00
01
fe
ff
01
00
00
00
fe
01
fc
00
03
01
00
ff
fe
ff
01
ff
00
03
ff
00
fe
02
00
02
01
00
01
ff
00
01
01
ff
ff
02
02
00
00
fd
02
ff
01
02
ff
01
ff
fe
00
fe
ff
00
00
00
00
fd
ff
fe
ff
01
ff
ff
00
01
ff
ff
00
ff
fe
ff
00
01
02
ff
01
00
fe
00
ff
01
00
ff
fe
fe
ff
ff
fe
fd
01
01
01
ff
01
ff
00
00
ff
ff
00
01
00
ff
02
01
fd
ff
03
23
00
01
00
ff
01
01
00
fe
00
fc
03
01
fd
01
ff
00
00
fe
fe
ff
fc
ff
01
02
02
ff
00
01
01
ff
00
ff
00
01
fe
01
00
05
00
ff
fe
00
fd
ff
00
00
fe
ff
fd
00
02
02
ff
00
fe
fe
fe
fe
fe
01
00
02
fc
fd
fc
ff
01
00
00
fe
ff
fe
03
00
fc
ff
02
01
03
03
00
ff
02
fe
ff
00
04
fd
fe
01
02
00
01
03
01
00
ff
04
01
02
00
ff
00
ff
03
02
ff
01
02
fe
01
00
00
fe
ff
01
02
fe
ff
01
fe
04
01
00
00
00
02
00
fe
00
02
ff
fd
fe
fe
00
00
01
04
02
00
fe
00
00
01
ff
00
01
02
ff
03
fe
00
04
ff
01
00
00
00
00
01
01
01
fc
01
fe
01
00
00
00
02
fd
00
00
01
01
ff
ff
ff
01
01
01
00
01
01
00
00
fc
ff
02
00
fe
00
00
fd
05
fd
00
02
00
00
00
00
fe
ff
00
02
01
00
00
ff
01
00
02
01
00
00
02
00
fc
fb
00
02
01
01
00
00
ff
fe
00
ff
00
01
01
00
ff
00
00
00
01
01
01
03
fd
01
01
ff
00
00
02
ff
02
02
00
02
01
02
00
fd
ff
02
02
02
00
01
00
02
01
fe
03
02
02
00
00
fe
01
00
02
fd
04
02
01
00
ff
00
03
fe
fc
fc
02
fe
fe
02
ff
03
00
ff
01
01
00
00
01
00
03
00
00
fe
ff
fd
ff
04
fe
00
01
00
00
02
01
03
ff
00
fe
ff
00
ff
00
ff
00
fe
00
01
01
ff
fe
ff
fd
00
02
02
00
fe
00
00
01
00
00
00
00
03
ff
04
00
fe
ff
00
05
fe
00
ff
02
00
00
fc
fd
ff
ff
00
fe
00
00
ff
ff
ff
02
01
ff
03
00
03
00
00
01
ff
ff
fd
fe
ff
01
fe
04
01
01
01
03
01
fe
02
02
02
fd
01
01
ff
00
03
fe
fd
ff
00
fd
00
00
ff
00
02
ff
00
ff
01
00
00
00
fe
fd
01
01
ff
ff
fe
fe
ff
ff
01
fe
00
02
00
01
ff
00
fe
00
ff
01
00
ff
ff
02
01
00
01
00
fe
01
00
02
05
00
ff
fe
00
03
00
fe
fe
03
03
01
02
00
00
fd
00
02
00
ff
fe
ff
ff
fd
02
fe
fe
fe
fb
01
fd
01
00
02
00
04
01
fe
fb
01
ff
02
ff
ff
