ff
02
00
ff
01
01
00
fe
00
02
00
ff
fa
01
01
02
00
fe
02
02
00
03
fe
02
fe
02
ff
01
01
fe
ff
00
01
00
fc
fe
00
ff
00
ff
ff
00
03
00
03
01
00
01
00
00
fd
00
03
ff
00
01
fe
03
00
ff
01
00
03
ff
ff
00
03
04
02
01
02
ff
01
00
fd
fd
fd
02
fe
fe
03
02
00
05
03
00
fe
fe
fd
04
01
ff
fe
02
ff
00
01
01
fe
01
fe
ff
fc
02
fb
01
04
00
fd
ff
02
ff
02
fc
03
00
ff
02
00
ff
ff
fd
00
fe
00
00
02
ff
02
05
01
02
01
01
00
01
01
00
01
00
ff
ff
01
00
02
ff
01
03
01
04
02
00
ff
00
02
ff
00
ff
04
ff
ff
ff
ff
00
fe
03
00
03
ff
03
fd
00
00
02
01
00
00
02
02
fe
03
01
00
01
fe
03
02
ff
01
02
01
ff
fe
fe
01
ff
ff
fe
ff
02
01
00
ff
03
01
00
01
03
03
01
ff
01
ff
01
01
04
00
fb
03
00
ff
01
01
fe
02
fe
ff
00
00
01
01
03
01
02
02
fb
fe
fe
01
01
fd
05
ff
ff
01
ff
ff
00
ff
fd
02
30
01
01
ff
00
00
fe
00
01
ff
00
ff
00
ff
00
04
fe
01
02
00
02
fe
00
03
03
00
02
02
ff
fe
01
02
fd
04
fc
00
01
fe
00
01
00
fd
02
fe
fd
03
ff
ff
ff
ff
fc
fe
ff
01
00
00
04
05
fe
fc
fe
ff
02
02
00
ff
ff
fe
ff
fd
01
ff
00
01
00
fb
05
03
fe
fe
ff
01
fd
fc
00
02
00
00
fd
fb
ff
ff
ff
01
fe
01
01
fe
01
fe
00
00
03
00
01
03
fe
02
fe
ff
01
fe
00
02
01
03
ff
00
fe
02
01
02
ff
ff
02
03
00
ff
ff
05
01
01
01
00
ff
00
ff
00
03
00
01
00
fd
01
00
02
01
fd
03
00
02
ff
fc
fb
ff
ff
ff
01
00
04
ff
01
01
00
02
fe
fc
ff
fc
ff
02
fc
01
00
03
00
fe
fe
ff
fe
01
fe
04
06
ff
02
01
03
03
fe
00
00
03
03
fe
fd
01
01
02
fd
01
02
ff
00
02
00
00
fe
01
02
ff
ff
fc
fe
fc
ff
02
03
01
03
00
00
fb
01
00
01
00
00
00
01
f8
ff
fe
fe
f9
01
fa
01
fe
fe
03
01
fe
03
00
04
01
02
04
02
02
02
01
ff
03
02
fe
03
ef
20
00
00
01
01
00
ff
ff
fd
03
01
00
00
fe
00
ff
01
02
ff
01
f9
00
ff
02
04
01
05
ff
02
00
00
05
03
01
01
01
02
ff
02
01
ff
01
fd
ff
03
00
01
fd
00
fe
fd
00
00
00
ff
fe
ff
00
fd
fd
00
01
04
00
fe
ff
ff
00
ff
00
05
01
fe
01
fd
03
03
04
00
00
00
02
02
fc
fd
00
fd
fd
fd
02
ff
00
fe
01
00
01
02
ff
00
ff
00
03
ff
01
00
02
fe
01
ff
01
ff
00
fd
06
02
02
00
01
02
01
fe
02
01
00
00
00
00
00
f6
01
01
ff
02
fe
00
00
fd
01
fc
02
00
04
00
03
00
01
00
ff
02
ff
ff
01
00
fe
00
01
ff
03
ff
04
ff
02
01
01
fd
00
02
fe
00
fe
05
01
05
04
02
fe
01
02
fb
00
02
fc
00
ff
00
00
fe
ff
02
fc
00
02
01
01
01
02
01
01
01
00
01
01
01
03
04
01
00
02
01
03
00
05
fe
03
02
fd
01
01
ff
fe
ff
ff
02
00
02
00
00
fd
01
fc
fd
01
00
fc
fe
00
00
01
00
03
00
03
01
ff
fd
ff
00
01
fe
fd
fe
fe
04
05
fe
00
ff
ff
