04feff01
07fe03ff
fcfdfeff
fbfefefc
0102fe06
020500fc
06fe05fe
fffdfffd
0001fefb
ff07fd00
ff0400fe
fd00fe00
fe02fdfb
04fc0201
02fe0000
fdfe000a
fefd0402
fb000404
fbfe0007
01fefdfe
0208fc02
0100ff00
fefd02fd
fdfffe01
00ff0002
05030a01
0401fe00
02fd0407
fefc0300
000404fd
05fcfff6
fdf90803
010303f6
01fd00fc
fefe00fe
00fbfb01
fe04ff03
0203fcfe
fffe0400
fffffefc
00fd0302
0101fd02
fdff0302
00fe07fa
000100ff
fe030005
fffaf705
01fd0301
2a1d161a
23201d24
fd01fafe
01f7fffb
01fd04ff
f9fffffc
04030201
ff07fd06
fefffefd
0205fe0a
0002feff
fe0404fe
00ff09ff
ff01fbfd
fefc00fc
fe0104fe
fcfffd01
000001fc
04fefffd
06fbfb03
01ffff02
fdfe01fc
01fefbfe
f90501fc
fcfffefc
fd00fcfc
00fbfffd
04fdfcfd
00fdfffd
fffeffff
fe010302
fefd0102
fffefffe
010101fe
01fdf601
01ff0004
01fdfefe
02030400
05030102
ff040008
ff01fdff
ff01fd01
0501f903
f7040302
04fd01fd
fe06fefb
0103fc02
02fd02fd
fe000103
00fffafe
0300fe05
fefd0303
0005ff00
fcfffc01
fe060701
fefcfefb
fffe03ff
fd0202fd
02fb00fe
01fdf7fd
fa05ffff
fdfcfef9
00fdff01
02fe0104
fb01f9fb
00ff0100
03ffff01
02080209
fd01ff02
fd00fefd
fbfefcfd
0604030b
0101ffff
04f7fcf8
00fefffe
01ff0001
fe06ff04
ffff0100
00fbfe01
fefaff00
01fefc03
fb010100
07fefd01
05fc01fe
ff0300fd
01fd0001
fc01fcfd
00ff0201
fffbff00
ff000900
fe0000fd
feff0000
feffff00
00fe0006
02fe02fe
fc010201
00fe0001
fefd04fa
f8010302
01fd04fe
00fdfdff
faff0303
03fbfd03
fff6fdff
01fdfcfb
fcfbfffc
0400fe03
f9000303
fffe00fa
fd060102
fb00feff
fbfcffff
fcff0002
f90104fd
fffefdff
01fe0004
0501fd04
02fefffe
fd000000
01020401
fe0003fb
01fbfc00
0105fe04
fa0103ff
00fffc02
0500fe00
000203f8
00000600
01f9f9fd
08010200
1ce721f7
1a281c2c
01030301
fa000204
02fefe03
fe00fffd
0000fe02
fc010100
ff04ff02
fb040301
fdfd0104
07fe0301
00ff0101
fc000202
05000005
fe0300fc
fcfcf9fa
ff09fffe
fc03ff01
fe000002
02fd0503
02fefe02
fcfcfdfd
05fffeff
0101ff04
0403ffff
ff01fe04
fbfffd06
fc0604fc
01000401
00fcffff
02fd06ff
faffff03
0202fc00
fc0300fd
00ff00ff
00010500
0400fc03
fffcff01
00040204
fe000302
0403fbff
03ffff00
03fc0002
fc00ff02
0200fbff
02ff00ff
fcfafc01
fe05fef9
00fffc01
fefefeff
02fdfa00
02fffc06
03010101
01fe0101
01fe00fd
02fb02fb
fffffeff
fc00feff
f505fdfc
0003fb00
fc01ff03
fd050705
fd02fd00
0000ff01
fc01fbfc
fd070002
f8060006
0302fc02
02fefcff
0301fe01
f8070802
f900fe02
fc02fe02
ff00fa01
fefb0801
04fdfe02
fffdfcff
04fd0405
fe0101fb
fa00fc02
06030002
fe0102ff
060302fd
010000ff
000004fe
050301ff
fe03f9fd
fb03fd01
fefb04fe
000002fc
fbfe0304
fd0408fb
020604fe
0000fbff
000005fd
fc01fafe
fffefbfe
fcfffe04
fd00fd02
000201fe
00ff0200
0604fcff
05030602
06feff03
fe01fffc
fcff0001
07fefffd
0100fd00
fb03fdfa
01010202
fd030400
050401fc
01fcfbfe
fb02fbff
050200fc
fefd0103
0102fc08
fa02feff
ffff00ff
00ffff01
fcfffcfa
0203fe05
fd04fdfb
02fc00fe
01fdfe03
00ff0901
fe020400
fdfffafe
04ff0102
17fcfe1d
23262616
faff06fd
020500fd
fe02fefd
00fffffd
fd050403
01010002
06fa0002
00010204
fc01feff
fb010205
00ff03f6
ffff00fa
01fffefe
00000300
f8fe00ff
0003f802
fb00fd00
f901fd01
fd0200f6
fefeff00
fd01fef7
fe01fdfb
05fdfdff
0203ff07
02050000
0002fc02
07050605
fffe0000
06fd01fc
00ff0403
02000101
fd000001
fa01fff7
fffffefd
fd02fffd
0104fefe
ff02fe02
fffb01fa
04ff0204
02ff01fd
0201fdfe
01fe00fb
fefc04fd
0303fffa
ff020002
020302fe
0402fcfc
fe0202fa
ff000000
0501feff
0000ff01
fdf700fe
fbfffffe
01fdfefe
04050102
fa0202ff
00060102
05fdfdff
ffff00ff
04fb02ff
fbff03fc
fefd0301
00ff0402
fd00ff00
fe000100
fe00ffff
ff07fefa
fdfd01fc
fe05ffff
0403fe06
03fe0000
09080109
03fbfeff
03020303
0104fdfb
f90201f9
0302fd00
fefffbfe
fffcfdff
f80000fd
f900fe00
0000fdfc
0401010a
fffe0100
00fc0300
fe00fefc
05010001
ff0205f8
01020301
0002fe00
04fb0401
00fc0108
fdfd0200
03000000
fbfdfdfe
fdfe00fe
fdfb02ff
ff00ffff
fb020102
07ff0102
fc04fe02
0201fe09
00ff0101
00080102
000201fc
fe0800fa
00fe04f5
ff02ff00
0603fd02
01030302
01fffe04
010102fc
0300fefd
040001fe
0401fefc
fd00fdfd
fffd04fe
fefb0bfe
fc0400ff
00f9fdfe
fdfdfafe
fc010406
fa040305
02fffe01
ff0002fd
fefb0100
ff02fffa
fcfd0302
391b1a37
212e2518
fa0405fb
ff010900
01fb04fe
02fb03f6
fb010301
0100fefe
fd05fbfe
0000fdfd
fdfdfe01
fafe0000
ff01ff03
fdfffbfa
fc010001
fdfcfefc
0401fdfa
fefc0802
040101fc
fe0003fe
0002fc07
0101feff
feff06fe
02fffffb
fdffff00
fefa00fd
040300fc
feff02fb
f9fc0706
0100fbff
00fdfd04
fc07ffff
03feff01
02ff0501
fefcfcff
fe0201fc
00fc0502
fffffefe
ff0000fe
f7fffffc
01fcfd03
fc020300
00fefeff
fc00fffd
0006fe01
fffcfdf8
fefa02f5
050106fd
ff05ff01
fd01fffe
fd010206
01f9fdfd
fffd00f9
fa0306fd
0002fd00
fd08ff02
fe0301ff
01fbfeff
ff03f9fd
0003fefd
0000f901
fafefcfe
02ff0001
010200fd
fd000404
05ff00fc
00020406
0104fffd
04fc02ff
fe02fdfc
0005fcfc
fef90406
0602fef8
0102050a
feffff00
ff020005
f8fc03ff
fe0200fd
010201fd
fffcff00
0100fe00
0104fe0a
040400ff
fdfd00ff
060303fb
010001fe
fdfefffe
fcfefcf7
fefffd01
fcff0001
fdffff01
03fdfffc
fe050103
01fefdfa
fffc0201
fd0000fd
03fdfe01
01feff01
f7fff6fe
fafd01fe
ff020602
fe0100fc
0101fc06
f8050300
fb01fcf8
fe02fc03
01fffdff
fdf9fbfe
fd0101fe
fefc0200
fe02010a
0100fdfa
fdfffd00
05ff00fe
fffe00f9
0bfe00fc
0000fef7
ff030201
00fdff05
00fefd02
ff01fefe
fc020000
fcfffafd
07fdfbfd
fffc03ff
fdfffffe
0904fd04
fc01fef9
fe02fdff
00f802ff
2429310c
141e222a
fbfd0500
0500fe02
000203ff
ff0101ff
0103fc05
fefe02fc
fd05fefd
fffe0200
ff04ffff
00fcfdfc
0302fb01
f4f803fc
000404fd
ff02f901
fdfdfcfb
02070900
fbfe05fe
ff000103
06fefb02
fcfe01fe
f5fdfb02
fcff01fd
fefbff00
fafcfdff
00020300
fb010600
0900030c
0103fc00
01fcff02
0301fd06
feff0406
05fe04fb
fbff0600
0000fffe
fffc0201
fbfcfefe
fcfffeff
030300ff
01fefb00
fbfafc00
01fefd00
0102fb00
0003fb02
fbfc0003
fe02fffe
fb03f509
fffdfc00
fffe05fd
00030502
f70000ff
ff050000
fbff0303
fffa0003
00fe00fe
0301fc01
02fef7ff
0006feff
ff0004ff
fd03fa02
01f9f905
fef805fb
0201fdff
feff03fe
fefcfe02
030205ff
fefc03ff
fffefefe
fffe01ff
fc01fdfc
030102ff
f60104fc
01ff0300
fbfefbfe
0101fd02
fcfe01fe
02020300
fd0101ff
fcfefe01
fc000301
0bfd0303
fe010401
fffbfcfc
fa03fd00
010502ff
00ff04ff
f8fb0203
fefefcff
0f0001ff
ffff0100
fd00fe02
ff050101
ffff02fd
fc010400
0004ff01
00fdfcfe
fffdfc01
00fcfd03
00010000
fffd0101
fefbfeff
03ff0000
fb0104fe
00f9fbff
01fe0104
00fe0102
0100fbfe
02fffdff
00fdfcfd
0402fdfe
01fbf902
fcfcfffe
fefcf905
f9fef903
fefd01ff
f9010202
fd0000fc
0402fd00
02060005
02fdfffe
02000300
fefffb02
fefffdfd
fcfdfaff
fcfc0afd
020600fb
06fdfb01
fbfffd01
04fffbfe
250c2b03
182f1d31
0002ff07
03fd0303
03070003
ff010100
fd01fc02
fffe0003
01fcfe07
00010200
fffffdff
0401fd00
fefefdfc
06fd0202
fd0303ff
fcfdfdfd
0000fd02
03020000
fc030701
ff02fafd
0102fa00
fc0502ff
f8fdfdfd
01fefefe
01fd0300
0500fe01
fdfefffe
fd000700
0403fcfd
fffefcfe
f8ff0700
01010400
fffd0002
01ff06fc
0202fd04
fbffffff
0602fc00
fe00ffff
fd03ff01
fffd00fb
fcfd04ff
0203fcfd
03fdff00
06fff9ff
0202ff03
0103fb03
02fdff03
fcfcf800
000001ff
0300ff02
04fffe01
ff030b01
ff02fdfe
fe0cfdf8
fcfe0206
fb01faff
03fdfd00
f9fffefb
fd08fcfd
0a02ff02
fefffeff
fc00f8ff
04fa0004
ff0102ff
04fe05fe
fc04fcff
faff0004
fb00fa02
000200fe
fefeff00
00fbf605
fafb01fb
01fefcfb
fefd0402
fffefd00
fa01fefd
0401ff05
05fe0201
fdfe0703
0000fafe
fbfefd02
fc0105fe
f80502fd
ff01fe01
02fd01ff
fa07ff01
fe000701
ffff0403
fc00fd05
fe03fc03
ffff0002
fcff0603
00fdfb00
fd010301
fbff0401
ff05fdfe
fafefefd
fcfdfcfe
0202f305
01fefc01
02fdffff
fd080006
fb010604
0200fefe
03fc02fd
fefefdfb
0000ff01
0502fcfe
050201fe
0401fffd
03010001
fe010b00
fc020200
fcfefc01
fa05fcff
00fb0102
03fcfc00
0101f7fe
faff06ff
fdfd0101
04fffe00
fd00fdff
fcfdfa03
f9fafbff
fc0005fe
0000feff
fafc00fd
00ff0300
020204ff
fffefcfe
f818162e
292b2612
ff01fdef
08ff01fe
02fd00ff
fdff0001
02030201
fe040701
030002ff
01fa0400
00fffffc
010208fe
0404fefb
fffcfcfc
01fb0001
fefbffff
fdfd0300
0100fc07
fe0402ff
00f8fe04
010201f8
0101faf6
fe02fbfa
0003fdfd
01020003
fdfffd01
fffefefe
020105fd
02020104
fe0201ff
03fefefd
fdfffbfd
00ff00fc
010204f4
ff0006f6
fbfe0201
010003fe
01fe00ff
fc030a00
fffcfdfc
040003fc
03fe0207
fe0101f8
fc01fefd
0102ff03
0102fc08
fefe00fb
0004f903
ff02fcfb
fe010301
01fe0205
010202fb
fefefb02
fd01fdfd
fe0501f9
0403fc01
fefdfc01
03f9fd01
01000403
00fdf602
fffdfbf8
02fdf7f4
080102f8
00ffff00
04fe02ff
01fe00fb
0504fe00
fe000501
fe00fe03
fefefb03
fdfbfcfd
0203fb01
03fd0300
020203ff
ff0000fa
01fc0309
04fcfffd
feff0200
03020102
fffefdff
0302fffd
05ff0002
020000f7
fffbfcf5
04fc01f9
00fffd01
030d02fd
010003fe
0002ff07
010200fd
fd0306fb
fdfe06fc
0200fe01
fe0200fb
fd0101fb
fcfffe06
020401fa
fbfc02ff
01fe04ff
0103ffff
00010307
ff02fff8
fffd0105
fdfbf9fe
ff00fdf6
fe01fd05
01ff03f9
fcfefdfd
fe00fd03
feff07fe
ffff03fe
030502fe
02ff03f7
00fb00fd
05ff0302
fd05fd04
fe000002
fb0604f8
fe0804fa
05fd0303
02fffffe
0200fcfe
020100f7
01fdff01
02fdfd00
0004fcfe
00fe04fd
fffa02fc
02fbfcfc
fefefdfb
391a221f
22182525
f5fefdfe
02fdfe00
fe00fe04
01f400fb
00fffd05
0404fffe
fdfdfd00
fafd0402
fffd00fe
fd09fbff
fffefeff
f8fffefa
fefeff02
fcff0001
fd00fd01
01fc0107
fdfafe06
00fa0606
0202fffa
00fcffff
fef8fdf9
fd000400
fe0402fc
00fffefd
0000fffd
fdfe0403
01feffff
fefd0300
02fbff06
02fe06fc
fcfa0101
fb010005
00f7fafb
0005feff
fdfd0100
ffff01fe
ff04fffb
fb030200
02fdfdfc
02080106
fe02ff01
fcfafc00
01fa0201
fbffffff
fdfeff00
fdf90603
ff0900fe
fe0203fb
ff02faff
0201fcfd
fffefe05
fcfc02fe
ffff01fe
05fefefd
00030001
ff00fa03
fc090107
fefafffc
ff02fefc
fff0fbf9
01ff0103
02fe00ff
03fafff7
fc020202
