00ff01fe00ff0000ff00ffff01feff02
02ff01fffd010101fd02000000fefe01
000201ff01fd00ff00fe00ff03ff0101
000001ffff00ff01ff02010200fffe02
fffe0100020001ffff010001feff0000
fe010101000302fffffefe0100fffe03
03fd02ff01ff02ffffff02fe01000001
fe0101ff00030001fe04fefe0200ffff
fefffe01fd03ff02fe000101feff0202
ff020101ff02fffcffff040100ff0101
03030001ff01ff00fffe0001fd000000
04fffe01fffbfc03fe01fe03fe0102ff
01fffffe0000ff0101fe0201fffeff00
ff03fe01fdfeff02fdff01ff00fe00ff
fcffff01ff0300fe0001ff020101ffff
01020001fe01fffffefd00ffff04fffe
ff0001ff0001010200ff0003fffeff01
fe020000fe04ff01ff000000ff01feff
ff00000000fdfe01fffd0203fe000100
01020000ff0100fe01030002fffe0000
0101ff02ff010200feff0100ffff0101
00000000fe01feff0201020201feff01
03030201feff01ff020001010100ffff
fefefefffe0000000000000101ff03ff
fe0000ff0002fefd000200fe01000100
0000ff0201000100ff00ffffffffff00
0102010000020001ff00feff00ff00fe
ff01fe0100fefffffe010101ffff00ff
0000ff01ff0100feff0100ffff010102
ff01ff00fe01feff000102030101fdff
d7e9df333521dedf1913e0f634f037f1
2a2a271e191723211914231819272323
ff01000000010000000000ffff000001
ff0204fdfffc00fd02fbfd0603fd0003
01040001ff0302fd020e0000ff030102
0102fe0001010002ffff0000fd01fe00
ff0100fe03fd010200040103fe00fdff
020002000002fffe000001030000ff00
0103ff02ffff0000fefe01fdff0100ff
0001ff0001ffff030000ff0001000000
fffe010001ff0100fe04fffffb0102ff
010102fefe010001fd00fe0201030200
00fffe0202010202030000ff00fffe01
ff0000ff0100010101fffffefffe0400
010202fffe0000030200ffff000100fe
0002fffffffffe040000fefdff010000
0103000100fe03ff000101fefe000101
00000100feff02ff0101ff02feff02ff
020002fd01ff01fe01ff030201000102
020102010002ff0100fefd01000102ff
00ff01ffff010001ff010000fd02fd00
000301fe020101ff010202fb010201fe
030101fe00ff01ff00fd0003ff00fefe
fe02fffefdfeffff03020305fe00ffff
0100fefeffff01ff000000fffffffdff
01010300fffbff01feff0102fe000400
0000ff01ff0402fe02fe02fdff01feff
01ff0300fffdff0103fc00fe00fe02fe
000001fffcfe0102fb00ff030500ffff
0001000102fe020002feff0104ffff00
03000301ffff01ff00fe01fe01fffdfe
fe0000010003ff0100fe0000ff0002ff
01fd0001000001000203ff03010100ff
00ff000101000201ff01fd00ff0000ff
000201fffefd0100fefc01fffe00ff02
ff000001fffffe0001020105fe00feff
01ff010001010000010200fefe000101
010000fe0200ffff0100ff00fe000000
0101fffe01010201000201fffd020000
01fefeff000003ff01000100fe00ff01
00ff00ffff03fe00000002010000fe02
000001000000010001020101000100ff
00ff020000020002ff02000000000000
01feff0101020100fd0002ff0402ff00
02fe0102010000ff0000ff000002fe01
fefe030001000101fefe0305fe02ff00
02ff0100ffff0000fdfffdff01000000
01ff0002feff000001fe00020400fe01
ff00000101ff00ff010001feff0101fe
02000100fe04ff0002ff01fffe000100
02000002ff000000ff00010101ff0102
000101fd000101fffffe0201ffff0000
01010300fd000101000001fd00000302
010002ff020102040000ff02fe0102ff
0101010202000100010201fd01010100
fffefffffe0300fe0001ff04ff020000
010001040202ffff00030002010201ff
03ff01fe00000104fc00fffefe00ff00
00fffe02ff02fe0102faff0400fefe00
0002fc0000000004fcfa0703fffefdfe
0100ff00ff0300010000ff030003fc04
0102ffffffffff00fffefe01010100ff
00fe0100010001ff01fe00ff0402ffff
0101000000fe000000fffffdff000200
fffd0003ff01010101fffdff01ffff01
010101ffff0101fffe03ff00fe010101
00010001fe01fd02ffff02040300ff02
030103ff00050000fffd000103ff0101
ff00000000fd0100fe02ff02fcfffd00
02ff000000fe0101fffffe0302fffffc
010100ffffff00ff0001fffeff0102ff
ffff000002000102feff0003fe03ffff
fffffdff030100ffff0104fe03fe0000
ffff0201fd000002ff0100010000fd01
feff0101fdffffff020203fdfeff01fe
fdfeff000201ff03fe0002fd0000ff00
0101010200ff01020000020201000000
0100ffff0002ff01fcfb0101ff000000
010202fdfefd0400fffe02fefd0002ff
00000102fefd01ff02fe0000ff000001
010001ff0100fe0001fc0001fe0000ff
02010000ffff02ffff0000fdff01fe01
ff01fffd00fbff01fd020102fcfe0000
0202010101feff0100fe0103fdffff02
0000ff00fc00ffff02000101feff0602
00010000fe00ff01ff01ff0402ff0000
0201ff0103fe01fefd000305fefe0202
ffff03ff00fc0200000000fffbfd0301
01fe0000fe010201ff02fd01fa00ff05
03fe01fffffb0000000000fcff02fe02
fffffe00fd01ff03fefefd0202fffdff
ffff00feff0300ffff0103fdfb01fe00
02ff000001040001ff0201ff00ff0202
000100fefd04000101ffff02fe01fffe
ff000000fefe0203fffe0100000004ff
ff0100feff0000fdfcff01fc0002ffff
ff010100fd01ff0202fc00fffeff0001
ff0100fe0004feff00fdff00fa0202ff
00ff00ffff03000100010103ff0000fe
02fe03ff00fb00fe00010203fdff0101
01fffe01fdfe00fefe0102fe0501feff
ff0000fe00fe01fefe0102030000fffe
0002fdfd0201010100fefffffc0001ff
ff00010302ff00ff01ff00ff01000300
ff02fefffefb0100ffff01fdfd00ff00
01ff00feffffff020504010204000001
01ff00ff0001030301000000fefeff01
010101fefeff0400ff02000302010200
0002fcfffffdffffff010000000101fd
010200000005ffff02020200fa0006ff
ff0000fe00fe030002000102ffff01fe
0000020100ff0002000200fdfd01fe01
0000ff0000fdff01ff0001fdffff00ff
0200ff0000fdfd0201ff000204020201
ff0101feff00fe01000302030101ff01
fffe0101ff0000fd010100fdfc02fe01
00fe00feff01fffe00fdfdff0201fd02
0100ff00000301fffe0101ff0102ff02
ff01fffe0100000002fe02fffefffd01
010001ff0001020000000101010000fe
fe0100ff0304020101040200fd0201fe
000002fdfefdff02fc00fe03010000ff
010100fd0300ff00fffffe0000000101
fffffd0001fbfe0101ff00ff00000303
000101fd0000000000fdfffdfffffe00
0201fe00fd0300fffd01fe0102010000
010100fefdfe010101fefffdffffff00
0103fefcfe00fffffe02ff0702fffc01
ffff000201ff01020000010101ff0300
00010400fdfb02040201ff01fe01ff02
0001fffffc0000000201fdfd02fe0000
02000002fefe0201ff0301020101fe01
00ffff02ffff02ffff00000100020000
ff0101ff00fe000101030300fd00fe00
0001feff01030104fcff010200fffbff
0102fffffe0100ff00fdff0202fffe01
01ff02ff01000101fe000102fe000200
ff02ffff000301fdff02ff02fffffeff
ff020001fefeffff0100ff04020100fe
ff0102fd00020202fd0000ffff0102ff
fd010201fffe0200ff0004fffbfafefe
0001ff00ffff000102ff010100ff0302
00fd02fefffe00fd010001020501fd03
feffffff0101ff00fd01ff0200ff0400
00ffffff00ff01ff01ff01ff0101ff01
01feff01fffb01fe0100fffeff01ff00
ff0200ffff010205fefffe02fffffe00
0101000100fe00fffeffff0102feff00
ff0101ff01000102fefb0002ff0000ff
00000002fdff0001000001000101fffe
fe000002fefd00ff00fdff0202fffc02
ff0100ffff01ff0003ff020500010201
ff03010200fc01ff020101050201ff00
ff01feff01fe0101fc00ff030101fdff
00ff00010002fe030200ff0101feffff
0002ff0100fe03000300ff00fefe0300
01010200fc01020300ff00000001ffff
01000201ff00ff0002fdfd010000fd01
0103fffffe03fefffd00fe03fd000100
0200010200fefffcfe03000101000101
ffff01ffffff00010102ff03000100fe
fe0101fe01fffeff00fe00fdfafefe02
02ff01fefe0001fe01fffe0100ff01ff
00010203ff02ffff00ffff00010001fe
000000ff00fefffc01fe02fe02fffe01
030200fffe050000fefaff01fc010201
00fffe0000fd01fffefd0102fffe0101
00000201ffff00fffeff0003fffd02ff
010100ff02feff0203ff0001fd01fffe
010000fffffeff01ff00fffffeff0000
ffff0000fdfd0000fffd020101fefd01
feff01fffeffff02fe00fd010101fcff
0001fffbfc000201ff0202fdfbfefe01
0300010201fe02fe0502020101000300
01ffff01fefe0201000100fefd010200
01ff00fd010101fe010003fe0000fe00
000101fcfefdfd01fff7fb030201ff00
01ff00fefefe030001ff010001fffe00
00fe00fffeff0001ff02fe0400ff0001
0000fe0100000101ffff01fd0100ff01
02000001fb0202fffefffe0402ffffff
000201ff00ff02ff0106fe00ff01ff01
0202010101fffffe000100010501fd01
ffff00000003ff010002ff0400ff0102
fe0001ff0002fd0300fe0100fc00fefe
0001020300fd0101ffff000102feff01
0201ff010005ffffffffff030101feff
feffff0002ff03020002fffe000000ff
0100fffffefe0301fd00fe040101fbff
000101ff03ff0102ff03ff02ff0001ff
feff0200fd00ff01040001000003fd00
0101ff0200fdff0100fefefe03000101
ffff00ff0103ff00fe000201fd02fd00
000100ff00000000010001ffff000101
000200fd00feff01fffc01fffeff01fc
01000001fe01fefe01fd02ffff01ff01
000102fd02010002fd02fd030200feff
ff02ff01000001ff04030102fe0102fe
0301010302ff03000001ff00ff020002
ff00fffffefeff00fffd00010101fefe
ff02fefdfff80405fff90202f70004fd
0300ffff010202fe000303fcff00fc01
fe0201fd0003010101ff00fe01ff0000
00030301fffeff040102000101ffffff
ff01feff0000010000010002030100ff
01ffff00feffff000100fe0000000001
01feff000200ff01fefd030101fd0005
010104ff03fd0002ff0002ff00ff0102
ffff0000ff0202020000000000000201
0002ff0101fd01fe000102fe00ff00ff
02010200ff0400010100ff010103ffff
0002fe000000ff00fe0102ff01feff00
ff00fcfefdfcffff01020300fdfc0302
ff000100ff010000ff0200fefe00ff01
01020102fdff0001010104fdff01fe01
01ffff0203ffffff01010000000101fe
ff0003fffe00010200fd010000ff01ff
02000000ff0200010102ff0000000000
ff00fefc0100ff0102fdffff0400fe01
ff000301000101000200feff0001fe00
fffeffffff010101000200030001ff00
0001fffffd00fefefd00ff00ff010003
00000400fdff00fefdfdfffc0101ff01
02ff000200fdffff00010200ffff0100
ff01ffff00ff0001ff0100fd02fffe00
0102fffdff0102020002ff00fa000202
010103fefe03020000fffffe03ff00ff
01ff0002ffff0000fd010102ff00fefe
0000ff00fffd0100ff0101fefc00fe00
ff0100ffff0100fe020200fffd01fe03
00ff02ff01fe010000ff00f901000102
00000001020000ff01010101ff020402
feff000001ff00fcfe00fe00fdfd0000
01ff00fe0101ff00fe0101fefffffeff
ff000101ff0101ffffff0000ff020102
00fefe0001fe0001fe0100fe0200fe00
00fffe0003020002fe0402fd0001ffff
00fd0102fffd0101fffd02fbfd02fe02
010000fefc00fffffe000102ffff00ff
000101fe010101fe03ff0101ff00fffe
000101fd01000003fe01fefe010101ff
ff0101fe00feff01fd0000ff01ff00ff
01010101ff01000001fffffe0302fffd
0001fe0001ff0101fffffe01fffffe00
fe00fd00fefe00ffff02fe00fe01fefe
000000fe01fd0200010401ff02ff00ff
ff020001000301fffd00fefeff00ff01
00feffffff00010202fe00ff00000100
01020200000202ff0003010203010102
ffff0302fd030100000502fc00010103
0001000100ffff03fefffefffb00ff02
0101000000fffffffffe0000ff0100ff
0202010001ff010002fffdfffe000201
fe0200feffff000100fe0202fffefe00
ff00020102ff000001040001020201ff
fe010200030201fe0301fffd000000ff
0000fffffeff01ff00fe020203ffff02
0201ff0001ff000001fd02ffff020001
01ffff000000020000ff03ff00010102
ff0100fffd00ff000301feffff00ff01
0002ff00ff0200fe00010002ff00ffff
0101010100fd020100ff00ff0000fffd
0001ff0100fd0202ff0000fefffffeff
020100fdfdfbfe02ff0100fffd000001
01010001030201ff00fb01fffc0102ff
01010100000100feff020000ffff02fd
010202fffffd0000fe0501fe020000ff
0202fefffe00fc0200ff0303fd010300
0000ff00ff04feff0402ff010201fe01
fe03000100fdfffffefeff0002010202
0103ff01010102fffe00ff000001fdff
00feffff00fcff0102fefffd00feff02
0002fffdff000003fffe02fe0002feff
fc020001fd04ff00fd000204fe010100
00ff01fe03fe00ff01ff0203fe000003
02fffc00faff01fffeffff00ff02ff02
ff0301fffe020002fe020000fc0200ff
00010000ff02000203010101fe0000ff
fe0000ffff0000ff020103fd0201ff01
000300fe02020102ff02fffeffff03fe
010105fc0000fd0402fffd05020103ff
00ffff02ff05000300feff00fe0200ff
0200fefeff00010003ff04fffd02ff00
00ff01000002ff0202fc01fdff020000
ff010100fe04010100fc00ffff010200
fe010300fe04010200010100fd010200
030002010000fe02fefd0204fffffeff
0201ffffff0202ff00fd02fe00020001
00fffffd01fefdfcfe000503ff00fe00
ff000200ff01ff02000200fbfd01ff03
00fe000000ff00fe02fefffb00000202
ff0101fffe00feff00ff0002fe0202ff
ff0101ffff03ff0001ffff020300fd00
ff02fefe00010100fdfe0001fe00fe00
0002ff01fffd0201fefdff0200ff0201
ffff00ff0000fe02ffff020203020301
0401fffe02fffefe01fa04fffb00fc00
030102000300fe01fd000100ff03ffff
00ff00fefffb01fffeff010103fffcff
010000020000020100010200fefefeff
fe01fefffe020101feff0103fefc0103
fe0100fffffffefefefc010102fe00fd
01ff00ff0200ff0503000001fa010101
ff0100fdfc02000201ff01010100fe01
ff00fe01010101ffff010000ffff0000
020102ff0001ff00ff04020201010002
ff000101fffdff01ffff0100fcfe00ff
ff000201feff01fffc010003feffff00
020002fffffffe04020000ff00fe02ff
010000010102000203000100fe000000
000004ff01030101000401ff0000ffff
ff00fefd01fefffd0102ff02fd000401
00020001fffffe020000000101000300
01000001fc020000000100030200fe02
000000ff02fffffefeff020001fffd00
0100fe01ff0000ff00feff0301ffffff
02fffe00010201fe020001000001fe01
0103fffc00fffd02fefefe0000fd02ff
0102000001fc01feffff03ff0400fc01
0101010002fe01fffe0301fbff0001ff
0100ff02fdffffff03fc0302fcfd0501
010000ff0000000401000001fefe02ff
fd010302ffff000002fefffefd02fe01
0000fd01020300ff00fcff0001020200
ff010200feff000101fefd0102ffff01
0101ff00fe02fffd000101ff0200ff00
020104fe01000102fa0200fd00010101
ff0101000001010103000002ffff02ff
010001fe01fcffff00fb01ff0400fa01
000102feff01fe01010200020201fffe
ff020201fdfeff000100fdfe06fe01ff
0000fefffffd0100ff03010101ff0100
000001020001010203010200ffff0000
ffff01fefdfe0001fc010104fefffffe
0100020000fcfeffffffff0203ff0000
000102fe01fcfeffff05fe02ff010200
000100010201000002ff01fc02000000
0101fffd02feff01fcfc0000fefffeff
00fe00020300010002feff0000feffff
0000fffeff02000000020000fefe02ff
01ff00ff01fe0000030401fffd020200
000000ff0200ff00ff0101ffff00fe00
00000102020101ff000101ff04030000
0103ff0200020200ff08ff00fffffe00
000001ffff040000000101030100fe01
fe0100020003ff00ff02ff010201fe00
ff02010001ff01fe010101030300ff00
01fd0001fe01000003fefe060103fe00
ff00010000fe0000ff03ffff02ff0203
01000200fe000201fe0100fffe00ff01
02ff0103fffffd01fffe00020400fd00
00ff00fe0101fffefcfd010000fdfcff
ff0101fffcfe00fe03fffffffefffe01
ff00ff0101fd01fefffc000202fefe00
01ff00ff000000fe010102000201ffff
ff010000ffff00000002ff020202fd01
0201fe0101ff0102ff000000feff02fe
03ff0200000103fe01ff00feffff0201
ffffff0200fffffe0000ff0400020101
01ff010001fe03ff00ff02fd01010401
010001feff010302fdfe0000fe030000
00fd00ffffff0004fe010302fbfe0000
0200fefdffff0202fe0100fffffffdff
ff03010000fdffffff00000301fd0100
01ff000000020101000302fffc010000
01ff030001020401feff00ff00ff0001
ff00ffff00000000feffffff01fe0001
fffe02010001fefffdffff020001feff
fefe01fd00000000fe0002fffcff01fe
fe00feff02fd000201fd0001fd010203
000000fffeff030001010100ffff0303
00ff01ff00ffff010202fdffff010000
0000fe01fefdfe0201ff0002fb00fe00
0000000301020000ff0301fd00010100
ff000100fefc00ff0000fe00ff000300
00010001ff0100ffff0001ff03ff0100
00fd00030103fe01ff00ffff000002ff
ff0003fd00fc0001040105ff01010100
0000fffd01fe000100020101fefe05fe
ff000200fe00ff0101fffefe000003ff
010001fe01fc01000001fffe000304ff
0001ff0302020000010303fdffff0000
ff01fe0201ff0202ffffff0000ff0100
000000ff010000010206fffeff000001
010001fe0002ff00fefd000201010001
ff0101ffffff00feffffff01fc02fe00
ff0001ff00ff0200fffffffefe000001
00020200fcfeff0200030400fcff01ff
00ff0000feff00fffefe00000300ff00
010101ff0000ffff0301fffeff010300
ff01fe00feffffffffff010201000101
0001ff00fefeff0202fffffe00000001
00ff000100ffffff01ffff01fdffff01
0100ff00ff01000100ff00000100fffe
01000001ff07fffeff01000100fffb00
0201010000020001fefc00fffefefdfe
0201fffcfc01ff01fe000100fffdfc00
000000ffff010000feff0103010000ff
030002fe01f90300010101fd05fcf9ff
010000ff000102ff02fffe01fe00fe00
00ff0000000201010000ff01fe010402
02000201ffff01010001fffe0101fe02
ff0100fffffeff0001feff030000ff02
ff0000fffefe000000ffff02feffffff
020101fe01fc0302fffe01020000ffff
00ff000002010200feff01ff0001ff01
000002fdfffb0201000502ff0200fefd
fe01000300fd00000000fffa0201fc03
02fe000001000100fd00fffe020000ff
03ff01fd0004feff000000fe00010000
000201fffd010001ff01ff000200fffd
0002010100020202ff0000fe02feff01
0101ff01020101ffff00ff01fe0000ff
0001fffffd01ffff010000040100fd00
0002fe02ff000202fffe01fffcff0100
00000001020100fe000103fbfd02ff02
ff00ff00020100ff00ff000102020001
03ff01fd01fa01fe0100ffff09fffc03
00ffff000101ff0100ff00000201ff00
0100fefffe00010000ff02fafffefffe
01010101030201010207ffff00000000
0202ff00fffe020101fb0200fe0200ff
0001ff020200030000ffffffff000100
00ff0101ff010002ff0200fefe000203
00ff00ff00020100fffe0001ffffff00
0002feffff0201fffdfeff0001ff00ff
000001ff00fd01010003010101fe00ff
ff000101fffeff00fdff00ff01010100
ff010000ff02ffff03feffffff010000
0300010100ffffff0202000002030301
ff000000fefe0001ff00ff00010003ff
ff000200fefc01ff00ff0001fffe0200
ff000102ff0000010200fe00ff010001
020101000102010000ff00fc01010301
000001fdfefeff000201fe02fe0101fe
ff02ffff00010002fffe0000fd0001ff
00010102fe0000000101fe000002fe02
0100ff000000ff0000fefe000301fe01
ff02000000ff000304000000ff0000ff
010001fffe00fefffefeffffff030200
0000010002030202fefc01fe0300ff00
00fe00fbfe02fe01030203fe05ffff03
ff01000100000002feff010101020200
ffff0102ffff0100010300fdfffe0200
0000fe01ff0001fe01fe01030400fd01
feff00fffcffff00fffffefe00000000
fffd0002fffe00fe0201fe0003020300
010100fefffdfefd0002ff050002fd01
ff000200fe00ff010302fe0100fefe02
0201000001ff0100000001ff000002fd
01fffefeff0402fdffff0203fe000201
02feff04ff03ffff010000010401ffff
0101010102ff0301fffa01fdfe01ff00
fe01fffe02fe00010200000002fefd01
00ffff000100ff0003fd00fefe01ffff
00000200030002ffff00ff020104fd02
01ff01fefefbfffe00fd01fffe00ff02
fd030000000003fcfc0301fdfbfe00ff
010202fefffd01fc01ff03fcfcfc00ff
01000001ff0000fffd0002ff000104fe
020000fe0001000002faff040502ff02
0101ff000203ff0103030000fc0100ff
010000fcfffdfefefdff010301010000
03ff020000fe00010200ffffff00feff
00000100feffff0001ff00ffff000301
ff000001ff00ff0001feff000002ff03
000101ff00040000ffff00010201fe01
000003010000fe00030001020100ff00
0302fffe02fd010002ffff010202fd01
01000000000200fe00ffff0200ff00ff
02020301030002ff02fe010000fe0000
01ff00ff00fd03feff0202fd02ffff02
ff03ff00fefd000101ffff00ff00fe00
010100020003ff01ff00ff0501ff0102
fffe000202ff020101020200faff00ff
01020100fe030102ff01fe010000fc01
000000000100000000fe0002010001ff
0102feff00fffffd0002000003fffe01
fe0201fefdffff04fdff01050000fd00
01fe00fffe0001000000020101010100
ff0100fefffd0100ffff010001fe00ff
00fe000200000100fdfe00ff00fe0100
0000020101fe02ff00000200fe030002
00010100ff020002fefe030001000100
fe01000001fbffff01ff0302fdfffdff
01fe01fe00fe0201fefeffff00ff0101
ff0001fdff020001ffff0100feffff03
01000200fdfe01ff000100020101fcff
0000fc01fe01feffff0001ff01010201
0001ffff02fdff0000ff00fd01fe0102
ff01ff000201ff0301fcfffffe02feff
0001ff00fd0202ff000201fefd02ff02
01fefd02ffff02010001fe01ff02fd00
01ff02fffefffe0000010200fe01fefe
030102fc00010002ff0102fe0201fe02
020101000102000100ff01ff040202ff
0202fefe0305fefc050406fdfc0200ff
000401ff00fe01ffffff0100030000ff
02ff0000fd01000000fe00020300feff
0000fffd01fefefeff0002fd0001fdff
ff0200ff0103fe0100010201fe000101
ff02020000fe00010000fe02020202ff
0200ff00fefe0001fffc02fffe01fc02
00000000fe010201ffff01030003fe03
00feff010102000000fe010203000002
0000010002ff00ff01030102020000ff
010000ff01020202010002ffff010202
fe010200fe00ff00fe02010207fffc00
010401fffffffd01ff01fffefd000102
02ff01ff0004ff00ff00000103000102
0100ff0000ff02ffffff00fffe000102
00010002ff03010101000202ff0200ff
000001fefe000103fc0100fefe00fd01
010202fefd0000030000fd0100ffffff
03fe02ff00fd0100040202fb0100fd02
38151328102cf1190c204bf6e81c2629
1522121e23262c170f281b2125262a16
010000ffff010001ff010100ffff00ff
0000fd01fffd0202f700fcfdfefb0200
f6fd080101fd01f506ffff0002fe0103
ff00fe00fe0000040000fe01fd0100fc
0103ff00fe01ff0100fffd00fe01ffff
010201ff00010000fffe0001fd000102
020101fe01ff00fb0001ff0100000001
000002ff00fe00ff03ffff01fe00fefe
fffefefd00feff0001fffa0000fefefe
fefefefe00fdfd01050101010003fdfe
0400ff050201ffffff0100ffffff0102
01010101fe020002fffe02fe00ff01fe
010001fffefdff03ff01010101ff0104
010001fefe0100fdff00030001020001
0200ff0101010001010000010300fe00
fc00ff0100fffe010201fd00020200ff
02fefbfeff0302fe0000feff0000fefd
feff02ff020001fe000102fe0000ff00
0301020001fe0100fc020002010502fb
00ff0502000101fbfcfe00030301fdfd
fd00feff0000010004feff000302feff
0100fd0204feff0203ff0102000000ff
0100fdfe00ff01fe04ffff0002fe0000
feff00fefb0000fdfd02fffe00ff00ff
fe00fc0003fe00fe0001fffffe0200fe
fe00ff0002fdff050202040101fe00fc
000102fe000100ff01ff000000ffff01
feff010101ff00fcfbff04000101ff00
fe0103fd00ff000400ff000002040002
ffff01fd02ff01fe0100fdff00000400
02fffe01ffff0001ff00fe0100feff02
fd030101fe0000fd01fffd00ff0000fc
ff00fdfe010000fe010000fdfd00fefd
feffff0101fefffefdff0301ff020000
fc0003ff0000ff0100ff00010100ff00
02fffa0000fffe01feff01020003fd02
0001ffff000001ff0100fd0101000000
fcff01fffffe020001fe0201ff040202
fe00ff00fe0200ff0101feff00feff01
fd000000010100ff0000000001000000
00ffff0102ffff0300010000ffff0101
00fffc0000fffefe02ff000202030102
fe01ff00000100fdffff0000ffff0002
00feff0100000201fe00fefffe020000
ff010502fffe000102fe010101fefffc
0202040000000201ffff000002ffff01
01000200fffffe0000ff01ffffff00ff
fffffd0202000000ff0300ff010201ff
030003ffff0000ff01000000ff00feff
0300ff0001fdfe0101000002000400fd
fa01ff01fefeff02ff00ff02fffe0001
ff0103fefefe000104ff020103010102
ff00000101000101ffff0303feff00ff
fefe0202000000ff0402fe01fffeff00
0201020102ff020001020202010000ff
00fe010000000300ff01fd0001010302
fdff000102010001fdff01feffff0404
fbfffd00feff02fefb00fefdfdfd0100
ffff0202fefe00010201ff000100fe01
02ff060103fe00ff0400feff00fdfe01
010000ff01020200fc01ffff00000000
fd02fe00fefe0000fffefefe01fffffe
03ff02fe03fe0200fd00fe01fc00fefe
fefffffe02ffff0003fe040200000101
fffe02ffffff02fd01ff0204fffefd03
01fe0300000302ff0401ff0000fefe02
02fffd0200fffd00fffffd0001ff00ff
fefe010000030201000001ffff0001ff
02ff010300ff000002fe000100ff0101
010101fe03fd00ff02ff03ff010500ff
00fefafe000000030001feffff0100fe
01ff000100feff0101fe0201000100fd
ff02ff0000000001fc03fefe0002fe01
0003fefffffffefe0101000101ff0201
ff0202010100fffe0101fefe01000002
01fffe01ff0000fe040400030301ff02
ff0100fc0001000100fffd01fe0101fe
00ff0003000102fcffffffff0101fefe
02ff000001fffe0200ff010001ff0100
0000fe00ff02ff000100ff01fe000100
00fdfeff00ff00030400010103fe02fd
0101030101fffffeff00fc0001ff0001
ffffffff00ff0102fdff0000fdff0102
0101fe0000000200fdff01ffff010103
00ffff00040002ff01fffd0201fefeff
00fdff00fe000101fcfefe0102fe03fd
030001fc000101ff0101fcfffefefffd
ffff00fefffdffffff0000020400fdfe
0202000000fdff0105fffd01fefd0201
02ff01fd010000030301fe02fffd01ff
00fffe00fd0001fffe02fe02fffd0200
010000fe01fe00ff0001000103020200
01ffff00ff00fffc020000010200ff02
ff00fe0100020100fe0000000102fffd
fe01020001fdfffeff0000fe000101fe
fdff0001010100010200fe0202fdfffe
fffffd01fffe01fffcff01fefdfe0001
fafffefdfc0203000501fefdfe01fffc
02fefefdfe00ffff01fe00ff02feff01
020100ff010001feff00fd02ff0100ff
ff01fdff02fe01fcfeff0101fe010000
01000001010101010001ffff00fd0001
fffffeff000000fffdff03ff00fd00ff
010105fe010100fdff0001ff01ff0200
00ff01feff0300ff000004ffff010100
fd000201020002ff01fd010102ff0200
030001fe00fe02fe03fe0103ff010001
00fffffe020200010401010002fe0102
0002ff01ff0100ff00000000020101fe
00fe0300fd000003ff0100000300fefe
00ff00ffffff0003ff00ff01020000fd
ff02ff00000100ffff01fffe00ff00ff
fc0000ff000000fe0200000000fe0000
01010303ff000100fffc02000102fffe
01fffd02fe010100fffffe010102fefc
000000ff01000102fe010100000101fe
fefffe01ff0000ff0100ff00fe00ff03
0202020001ff02fe0100ff0101000000
020101fe00ff01ffff02020101ff0102
00ff0203fefd000000fe02ff03000002
000001fe01ff0201fffdff0101010000
fefffdfefe00fe00fa00feffff000005
0000fefc040000ff0000040000fe0203
01ff010200ffffff01fdff010003fd00
ffff020000ff00fdffff0101000201ff
fefefb0001000001feff00fe02fe0301
fefefcfe010001fffdfffe00000000ff
fefffe01000002fefc00ffff0202fe03
fefffffe000000ff01000000fffdfe01
fcff0502ff0200fd02fe03fe0001ff03
ff00fe0000ff010003fefe01fffefe01
000004000102010100fe01ff0002ff01
00fe0001040002fd05fff60200010000
fc0100ff01000002ff0000000001fe01
ff01feff01fffe01ff01ffff000000ff
0000ff00fd0101fd0201ff02010001ff
0200000300feff00ff01fe0000010003
0000fffcff0000000002fe00fe000000
02fd0100fffefefe0000fc020200fffe
010201000300fefcfdff000000000002
fefeff0200000100feff00fffefefe06
fffefefffffe01ff00ff0000ffff00ff
000101000100ff00fe0000feff00ffff
05000103020201fe0100fe010301fd00
fd0100fffefefdfdfe01fe01fcfe0100
020000ff01010204030100fffe010001
01ff02000001020000ff010000000202
00020000ffff00020001fc01feff0200
ffff0002fe01fefd03fe00ff0100fffe
0200f90202fd01030403fe00fb0003fe
fdfffe0201fdff0000ff00fffdfe0101
0101fe01fdfefeffff00ffff02fffe01
fc000201feff0102ff01fe000000ff00
000101fdff0101fc0400fdfdff000103
ff010001fe00010001ff03ffffff0100
0100fe020100fe020200fdff01fffe00
00fefefeff01fffd01ff00ffff0000fe
01ffff01ffff02fe0201fe000203fffd
fefefffd0100ff010200fe02fd000100
fc02fcfdff00fffdfefffbff02fefeff
00ff02010100ff02000102ff0201fdff
040103fe00ff010004fd000000fffdfe
fffeffff00ff010000fefeff02ffff00
fefefd0102fe000102fffb01010000fe
02020200000101fefffe0001ffff01ff
00fe00ff0001ff03fe010100000001fe
ffff02030104ff000207fdfeffff01fe
000100010101000100fe0000010202ff
010001ff000000030100feff00ffff00
fc01000201fd0003fe05ff01fe000101
fefffdfffefe01fffe00fe0103fffe01
03000300ff0100ff06fd0101000103fc
fe01ff0002ffff01fffefefeff010104
fffffc00ff000000ff000001fdfe0102
00fe03fc00ff010603fefd02030203fe
feff0001ffff0102fc00feff0200feff
ff0000fefe020101ff000200ff010002
02ff0000fe0000feff00fd02ff01feff
02ff04ff00ff01fe0300ff01ff020000
fe0100020001010002fffffe04feff05
00ff0000000002fb01000000ff000003
00ff02fefeff00010002ff01fffefe00
fb0001ff00fdff0101fc020100000101
0000020102ff0103fe00fc0100010000
00ff00000000fffd030000000102fe02
fd01fd010000feff0000feffff000005
0100fcfffefeff04ff02ff0001fffffe
fd00ff0000fe00000001ffffff000002
00ffff01010002fffdff00010100fffe
00ff0003010301ff0101ffff01fe0001
00ff0201fe00fefd0101fefffe0201fe
00ff000002000201020003fffe000000
01fe00020001ff00fcff01ff040200ff
fc01fffe0001fe010101fe010000fffe
0000fefeff000001030001000300ff00
02ff01020400ff0005fe0101fd040200
00ff0a00ff0002fd02fe0102ffff0000
0101fefe0300fffefcff01ffff0002ff
01fe01fe01010103fbfffc00010202fc
ff00fffffe00fffffefefe05ffff03ff
000101000201fdfe04ff0101feff02ff
ff0004fe010100fd0001fb0100fcfffd
fd0002ff02ff01fd03ff0101fefffe01
0000ff01020101ff02000102fdfe0201
030005fe02ff0002ff00000000ffff00
fefffe0200ff0000fd0001010000fefe
ff0101fffffefe0000fdfe02000000fe
ffff00fe01fe00fe03ff00ff01010101
fffeff0202fffffe01fdff00fdfffe01
020000010201ff010001fe01fd0001fe
01fe00fc01fc0102fefffeff0202fe03
0102fc000100ff01ff03030000fe01fd
0104020000ff0000fd0300feff01fffe
000001fe000000fefe01fc01ff02fe02
000101fe0001ffffff01ff010101ff02
fe01fe00ff01010100ffffff01000000
fffefd0101010200000303fefffffd00
0001ff01fffe0101ff00ff020000ffff
00fffffffe01ff02fd00020100ffff00
fc02fdfd010001030003fefefcfdfe01
0001fdfefffffffefb0302fefffffefc
ff0101fe00feff010101010002ff00ff
ff02fe02000400fffd00fefffffefffe
fdff01ff0001000100ff01feffff0001
fe01fe000000ff00fc01fd0002fefefd
010003ffff0001fefffe020001fefe00
faff01ff00000000fefefb010001ff01
fffe01fffffffffd04010002ffff00fd
00ffff0303010003000004000001fd00
feffff000201000302020101fe000002
fffffeff010101ffff0101ffff020100
00feff02ffff00ffff000001000100fe
fd0003fe0000ff04ff01fbfe0101fffd
050102fffeff00ff0000ff02000500fd
000100020000010106030201010202ff
00ff02ff02ff01fd0200ff010104fdff
000203fefd0100000100fe01fefdfe00
00fe0002fffe0200fe000001020002ff
fdfffd02000001feff0000fe01fe00fa
fd02feff02010204fe00000002000001
fe0102010102020400000002ff02ff00
000201ff010001fffd0001fefffffeff
00ff0201fffffffffefffe0201000103
0102fefdfeff02fb0100fd00ffff00fc
fe01fd01fd02ff02fffeff0201010202
fefffd0000010104010200feff01fdff
000001fefe00fffc0001000001010200
ff00fcff020001fbfc010000030100fd
ff00fdff0001000200feff0101fefc02
ff00feffff02fe0103fe010000020001
01ffff0001fe000301000000000000fd
ff0104fd0102ff00fc0101fffefd01ff
ffff02ff0001000002fffeff01fe0000
fdffff02000201030301000202020301
000000fefe0000010101fffd010000fd
01ff020100010101ff0000000001fd02
000001fd02020002fefffe0101ffff01
0101000201ff010000ff0100ff01ff02
ffff00ffffff01ff01fffe00ff000100
fffefefe00ffff00fc040103ff020202
fefe010000fefffd0402000000010101
030106000101ff0101fffdff03fd00fd
0402fb01010001fdfd03fe01ff0101fe
ff0004fefefe0002fffefe0300010003
fc0202fefeff00f90000fefeff04fffd
000101fd020002fe020000fffefffefe
000201ff01fffffc02ff0201feffff01
fd01fe0301fffe01fefdfe0102fd00fe
00fffc01fe00fe0300fe0101ff010302
fe02fffe0003fdfd02ff00fe00000102
0000000302ff0002ffff020001ff0100
01010000ff0102fffffefcff01ff0201
01fe01feff0202fe020000fefefffefc
01fffe0300fc00fbfd020101fffdff02
03010402020002f9fd020202020302ff
00ff03fe0101ff010100020100ff0001
fe0102ff01fe01feff00feffff050106
fdff01fdfcfffffe02000200020100ff
020109fd01fb010205fcfe0302020101
ffffff0101ff01000301030101ff00ff
fd00feff0200ff00fb000101000101ff
01fefe0101fe0101fdfefefe02ffffff
ff02fb01ff00fefffffdff02fffefffd
ff01fe01feff0104fc01fe0101ff00fe
00000201fe020103fc01fffe0200fe03
fe0001ffff0200fcfeffff0101fefe02
00ff00fefdfd0002ff0200010002fdff
010100fffe02fefc0403fdff02000000
0100ff02fd00ff00fc00fd0102fcfd02
fe00feffff0000ff01fe0200fffe04fc
0102fd04010002fefe02010201ff01fd
02ff00ff00010200fe00ff00feffff00
fd01ff01000100ff01ffffff02ff0001
fefeff0100020100fd01fffefffefffe
00ff0000010201010400fe0100010102
01fe00ffff0201000201ff0001fffd02
feff01feffff00000000000000feff01
0000fdfefe000000fe0101fe00000103
01fffb0002ff0002ff00000002fe0201
ff0100ffffffffffff01fe0003fffc00
00ff00ff00fffffffdfefeff00010002
fe020201ff0000020001fffe02ff0101
fe00fd000001fe0301ffff0101020101
0100ff000101ff03ff01ff0000fe0100
ffff010001ff0101fe0201fe01000001
ff00030102ff01ff0301fd03fffffffa
000002fe0003fffefe00000101ffffff
0000fd0102ff00020101000201040000
05ff040000fe0001fffe000000ff0103
fffffefeff02ff01ff00fe0100ff02fd
010000feffffff02fa00ffff000101fd
04fe03fffd000201ff01fe01020000fb
ff01ffff0300fffcfe0200fffdff00fe
fdff000101ff01000300fd00030100fd
02ff0400ff0101fc050101010301ff01
ff00010102fe00fd0301fe02feff02fd
fe00ffff0002ff04fcfe000002020102
ffff01ffffffff01fbfffeff01ff01ff
0201fdfd010100fefeff02ff00020101
0200ff000000ff050101010000010201
0102040300000004fcff000001fffefe
00ff000100020102ff00ffff010000fe
0100fb01000001fffcff01ff00fd00ff
000000ffff0001fe0200ff01ff00ffff
00ffffff0300010102fe000004000100
0100fafe04fe0102fefe04fe0003ff01
05ff00fe01fe02fd02fffd00fffe0100
fdff03fdff00020101ffff01010003ff
0000040002fffffd0200fffefffe01fb
01000100ff01fffe020202feff00fe02
feff0101fd0001ff00ff00ffff0200fe
0000fc02fe020000ff00fe00020001ff
0000ffff0100ff03020100000100feff
0100ff01ff01000200ff000002ffffff
02010100010000fe030003fffe000200
fefffefd01fe0201ff00fe00ff0101ff
01fffc01ff000102fdfeff02ff00ff03
ff00fcfe000000ffffffff0003010102
0000fe0101020000fffd02ff0102fe00
0000ff01ffff000402030100ffffffff
02fe0501000004fa07020003fd020000
ff020000ffff00ff010101fffd00feff
fcfffb00fe0001020000feff0001ff00
fdfffe03fdfffffffe01fc030001ffff
01fef90201ff00000003fe00fdff0101
fc000000fe0001fcfe02fffe00ffff00
010201ff0001000104feffff00fffffd
fc00fdfffe00000201ff000001ff0001
fe01ff00ffff00fffe0003ff02000001
ff000100ff010002fdfefe0203ff01fe
fc0201fd0001fc010100ff0100000301
fffffefeff0002f8fd00fdff000100fb
fdff01ff00000002040001ff01fe0001
fc01fefffefcff01fb0100fdfefffe00
ff01ff01fe00fffeff01ff020100ff02
fdfe030401fe0001fd00ff060000fffe
fefffefffe00fefb0300fd0101ffff01
0000ff0101ff0100fe00ffff00ff0202
01ff0102ffff0102fc01fe00ffff01fd
000205ff01ff01000501ffff0002ffff
ffff04ff00fe00fdfc01ff00020401fe
ffff05010001000102fe01fe03fcfffe
fd00040100ff01010101fffe03000003
fffefdff00000000fcffffff00fe0100
0002fffe010000fb02fe010101000000
fe010300fefe01fd02ff00010203ff01
ff000200fdffff00010001010202fd00
00ff00000100010300ff01fefdfffefd
fe01010001ff0100fefffe000000fffe
02fffffdff00fffeff000000ff0100ff
ff01ff0102ff010202fefd0100000202
fe00fffe00000001fd01ff00feff01fd
fd0400ff00ff01fe01fffffe00fdfe02
fe00fc02ffff00fdfdfe0000fffefefb
fe0202030000ff0201ff03ff0100fefe
00fe0100fd0001000500ff0004fc00ff
ff01ffff0101ff0300fe0001010000fe
0000fffcfe0001fdff010001010001ff
000101fe030001fd040003020101fe00
ff03fdff030200fe02fe000003ff0003
0400010000000002fe00feffff02fffc
fefffb0100fe0101ffff01ff00fd0101
fd000001fe000000fb00000301ff0001
0201010101fffffe000101fe0001ffff
02fefffe00fe02ff0300fe02ff00ff00
0000fefe0001010301fefffe00ffff02
020201ff000000fe02fffffffe00fe01
fd00fc0100010002feffffff01fdff01
000002ffff0000ffffff000001fffdff
01000201010001fdfffefd0301ff0000
010100feff000004ff01020000000101
01010101fffffefe00ff000001ff0000
0100fe0002fc0002ff0003ffff02feff
0001fcfefffe0100fdfe00fe00fdff00
fdfd020100ff000201feffff02fefffd
fe00fe01fe00fffdfefe030001010003
fb0204fbfdfffffdf701fcfe030400fe
fefffe0001000100fdfd010001000002
0000fd04feff0102ff01fe020100fffd
fdff01fe01fd02fe01fffdff0500fefe
0101ff02fffeff020000ff00fffd00fe
00fffefe00020001ff01ffff01ff00ff
feff0000ff0001000500fc0100ff0001
fffe00ff01010101000000ff010001ff
fefffffe0001fff80102fcfeff020002
fe000400fefe01fcfd01020001fdfd01
00ff02ff000001fe03fffd0002feffff
01010101fefe000301ff0202fffffefd
000001fdfffe01ff0400ff0301ff0300
fd0101ff00ff00feff01ffff00fefe00
0001010001000000ff000000010000ff
fdfdfefeff0000fd0301fd0100ff0201
01fffa00fd030001fdff01fe0002fffd
fefffdff030000fc0200fd0003fffefe
01fe0100ff0100040600ff010101ffff
0001fe00fe0101fffc00ff0200000000
020000ff000101ff00ff0000fdff03ff
0100fd000000ff04fffeff0001000201
fe020100000201fe0002fffe000000fe
fefffffd02ff0001fe00feff00fffefd
feff00ffff0000040001ffffff00ff00
ff02ff0001ff010001ffff0101ff0001
fd03fbff00fd0004ff00fd01ffff00fc
fe01ff01ff00000102ff000100000000
020001000000ff0201fc0302ff01fe01
010100fffe02ff030204010101ff0000
fffe01ff00010103feff0201fe01ffff
010001feff0101fc0600ff0301ff02fe
0001040000010101fe0002fffefe0102
02010000fe0200ff02fe02ff02ff0001
000101feff00fffffe00fffeff000003
fcfffeff01fdff04fe0001ff020303ff
fc00fe0100ff010002fdff02020201fe
0101ff0001ffff010000ffff01020101
0100fcfefe0101ff0100fe0001fe01ff
01fe01010000ff0100ff01ff00feff01
000001ffffff010201ff0000010001ff
ff0100fe01ff0101000102ff00020002
010004ff02fefeff0100ff0100ff01ff
0101fc010101010101fe000001ff04fd
ff020401000201fe0203fe00feff0101
ff0203ff0201fd01000200fffd01fe05
fd00ff0000ffff020102010001ffff00
000000fffdfefffffe0000fe0202fefd
0101fd00fe00010200ffffffffff0005
fefffffe0000fefd03000001fe000200
ffff0100000102fffbfd0004fe000000
00fffe0200ff000401fdff0201fd00fb
00fffffffeff0201feff000003000302
03fffd03fe020103040001fffe0000fe
020000ff00020004fb01000001fe00ff
030202fe01ffff0101010200fd020100
0301fe010001010100ffff0300050002
00ff0000fe0001ff00fe00ffff0000fe
fe01fdfe02fc01fffa03fd00020100fc
fefd00fd03fd020102fdff010002ff01
ff01fefffc01010005fcfc010403fd01
010104fe0300fffe01ffff0201020006
feff04fe01fd01ff01fffe030001fe02
feff01000000000101010003fd010105
00fe0002fe0201fe0200fc01ff000001
00000102000001fffc0001ffffff01fd
fdff0002fffe0002fffefe0001020000
040101fffe010000fcffff00fe0100fd
0100fe0002ff01fe030000ff00fdffff
0101010100ff02fefc00ffff000202ff
01fe05fffffd00070100fd02ff01fe00
010302fffffe01fd03feff0101ffffff
0001fc0000000100fd0201ffffff0002
fd02feffff0000f9fb0100feff01ffff
00feff00fdff00fb00fffe0101000001
ff000302fffe000002ff0101fefeff02
ff0000fffeff0003fc010101fffefffd
ffff00010102ffffff01010100010002
ff0301feffff0001000000020100fefd
fb03ffff000001fefe01feff00fd0101
0000f900fffefe01fb0100fe02fd00fd
