00
fe
01
fe
00
00
01
fd
00
00
01
ff
ff
01
00
ff
fe
00
00
fe
02
01
ff
ff
ff
01
ff
01
fe
00
fe
00
02
00
ff
ff
01
ff
00
00
00
fe
00
ff
fe
ff
00
00
01
01
ff
00
ff
01
ff
00
01
00
fe
ff
ff
00
fe
fd
ff
ff
fd
00
01
02
02
fe
01
00
fe
ff
02
00
fe
01
fe
01
ff
ff
ff
ff
ff
ff
01
fe
ff
fe
ff
fe
02
fe
00
ff
fe
fe
01
ff
ff
02
01
ff
00
01
ff
ff
02
ff
00
01
00
ff
ff
00
01
ff
fd
ff
00
fe
01
00
00
ff
fe
ff
04
01
02
00
02
ff
ff
01
02
ff
02
02
fe
00
fe
ff
00
00
00
00
01
ff
01
01
ff
01
01
2b
1b
01
01
fc
02
ff
ff
fe
01
ff
ff
01
fd
fe
00
01
03
ff
03
01
ff
fd
03
fe
fe
03
fd
fd
01
fe
00
00
fd
01
01
01
02
00
ff
01
00
01
fe
ff
01
fd
01
00
ff
ff
02
00
fe
01
01
00
fd
00
fc
fe
ff
00
ff
02
04
fe
01
01
00
02
ff
02
ff
fe
fe
fc
02
01
00
fc
00
ff
00
00
00
00
ff
fe
fc
00
02
fe
01
01
02
ff
fe
ff
01
02
ff
ff
fe
fe
ff
fe
ff
fe
ff
01
01
01
00
01
fe
00
00
01
01
00
00
ff
00
00
00
ff
01
fe
ff
ff
00
fe
01
01
ff
fe
fe
00
01
ff
00
fd
02
ff
01
fc
fe
fe
ff
01
06
ff
fe
ff
01
fe
00
ff
00
00
01
02
ff
01
01
fd
fe
00
02
ff
03
ff
00
ff
02
02
02
00
ff
ff
01
ff
00
00
02
ff
01
ff
ff
00
01
00
03
01
00
01
02
fc
02
ff
01
02
fe
00
00
01
ff
00
01
fd
01
01
02
02
fd
02
00
01
02
fb
ff
fe
00
02
fd
00
fe
fe
01
ff
fd
00
00
fd
fe
01
02
fe
00
01
fe
00
01
ff
fe
01
01
00
fe
04
01
01
00
00
02
00
03
00
01
00
00
03
fe
00
fd
fc
fe
fd
fe
ff
ff
ff
01
fe
fe
03
00
00
fd
ff
ff
00
00
ff
fd
ff
00
00
fc
00
ff
00
01
fd
00
01
00
01
03
03
fd
ff
fc
ff
01
fe
01
02
fd
01
00
ff
ff
01
ff
ff
03
00
fe
ff
00
00
03
fe
ff
ff
01
02
fd
02
00
00
ff
00
fe
02
ff
02
fe
00
00
00
01
03
fe
00
ff
fe
02
fe
ff
ff
03
ff
fe
00
00
ff
01
fe
04
01
02
00
00
02
00
fc
ff
fc
fe
ff
fe
ff
fe
ff
fe
ff
ff
fe
00
00
ff
fc
01
ff
01
ff
ff
ff
04
00
02
fd
03
01
fe
fa
02
03
02
fe
03
fc
fd
00
00
fd
00
ff
fe
01
fe
ff
00
fd
fc
00
fe
00
00
03
ff
01
02
fe
00
02
02
fd
fe
02
fe
00
fe
01
02
ff
fe
00
ff
01
01
ff
00
01
fe
00
02
01
00
ff
00
ff
ff
01
00
ff
00
ff
00
fe
03
00
00
01
ff
01
ff
ff
fe
01
01
04
ff
fc
ff
00
01
00
00
00
ff
00
02
fe
fd
ff
01
00
fc
04
fd
01
ff
03
fd
01
00
01
fe
00
02
ff
01
00
00
ff
ff
ff
04
ff
fe
ff
2a
16
01
00
f9
fe
00
fd
01
00
fe
ff
00
fe
ff
00
ff
03
fe
03
01
00
02
04
00
fe
01
00
fe
06
02
01
fe
00
ff
01
00
fe
01
ff
fe
ff
ff
ff
00
01
fd
00
04
01
00
03
02
02
00
fd
ff
fd
fd
fa
ff
02
ff
00
ff
fe
02
03
fd
02
fd
00
00
ff
fd
ff
ff
02
fe
fc
fb
02
00
02
01
01
fd
04
f9
fe
01
f9
01
ff
02
01
fe
fc
ff
03
03
fe
02
00
03
ff
01
ff
02
fd
fe
01
ff
fc
02
fd
01
00
02
00
05
fe
ff
ff
02
02
02
fe
ff
fe
00
fd
01
fc
02
00
00
06
00
04
fe
01
ff
03
fc
ff
00
fb
00
fe
fe
02
01
00
00
fe
00
fd
02
02
02
01
01
02
ff
02
02
fe
ff
fc
fc
06
fe
01
fd
02
fe
00
00
ff
00
ff
fd
fe
03
01
05
02
fe
00
00
03
00
04
fc
fc
ff
fe
01
fe
fb
fe
02
fc
fe
00
ff
00
03
02
fd
fb
03
fe
fd
02
00
02
03
00
fe
05
01
05
00
03
01
ff
f9
03
01
02
06
00
fe
02
fe
00
02
01
01
01
00
00
fc
04
00
02
01
ff
fe
fe
01
ff
01
02
fe
ff
ff
fb
ff
00
01
fb
03
01
fd
00
01
ff
00
fd
fe
00
fe
fe
fd
01
00
f4
01
01
02
fd
00
fc
02
fb
00
fc
01
01
00
fe
00
00
03
03
00
02
fe
fd
fe
02
02
03
ff
fe
01
00
fe
ff
ff
00
fd
fd
fe
02
ff
00
fc
01
02
ff
ff
03
fe
fe
fa
fc
01
00
fd
fd
02
00
ff
02
00
00
02
fe
fe
ff
01
fd
00
00
fb
00
00
ff
ff
fd
00
02
ff
fd
02
01
fe
ff
ff
03
01
03
02
01
fd
fd
00
00
02
01
01
ff
00
02
00
05
04
00
00
fd
ff
03
ff
00
00
02
00
00
fe
00
02
ff
fc
02
f8
02
02
02
fd
fe
01
fd
fd
01
02
ff
ff
00
02
00
ff
01
fa
00
ff
01
02
ff
03
03
ff
01
fc
05
02
04
fe
01
ff
ff
03
fd
01
fe
00
fe
fc
02
03
02
ff
02
fd
fe
fe
04
fe
fe
02
01
02
fa
04
ff
ff
02
ff
02
01
fe
00
fe
fd
ff
00
01
fc
02
01
01
ff
fd
02
02
00
01
fe
ff
03
ff
fc
00
fe
00
00
01
fd
ff
fe
00
ff
00
f9
01
00
fd
00
ff
01
01
00
00
02
07
fd
00
01
01
02
01
02
10
25
00
01
fd
01
ff
ff
fe
01
01
fe
01
ff
ff
00
00
01
ff
00
fe
ff
00
fb
ff
02
00
01
ff
02
01
03
ff
fe
ff
03
01
ff
fe
fe
fd
ff
00
02
00
ff
fe
00
fe
00
fe
02
00
ff
02
00
01
04
00
00
01
00
01
01
02
01
fe
01
ff
01
ff
02
02
01
00
00
00
03
01
fe
ff
00
00
00
ff
fe
03
ff
fd
01
fe
ff
ff
00
fe
00
fe
00
01
fe
ff
ff
00
ff
01
01
00
fe
00
01
01
00
ff
02
fd
01
fe
fe
ff
01
ff
fd
fc
00
ff
00
fe
fe
02
ff
ff
01
01
00
00
01
00
ff
ff
00
00
fe
00
00
fe
00
ff
fe
01
01
ff
ff
fe
00
fc
01
ff
00
01
04
02
fe
00
01
00
00
01
01
02
00
ff
02
00
fe
00
00
03
fe
ff
00
ff
00
fe
ff
ff
03
00
fe
ff
02
ff
02
02
01
00
02
00
fe
ff
ff
06
fe
02
02
ff
ff
fe
01
ff
03
fc
00
00
02
00
00
00
00
ff
ff
01
fe
02
00
01
ff
fe
ff
00
fc
02
01
fd
01
fe
03
ff
05
fd
02
00
01
fe
00
01
fe
ff
00
00
01
fd
fd
04
00
00
01
00
02
02
ff
ff
01
02
03
ff
01
00
ff
fd
00
00
03
ff
00
fe
fe
01
03
ff
ff
01
00
01
ff
00
03
fe
01
02
fe
fe
ff
00
02
00
fe
02
ff
00
ff
ff
ff
ff
00
00
00
ff
01
fe
00
00
fe
02
03
00
02
00
02
03
03
01
ff
01
02
02
ff
fd
01
ff
ff
fe
02
01
01
fc
fd
00
ff
00
fe
00
ff
01
00
ff
00
fe
fb
ff
01
02
02
fe
00
00
fd
00
ff
ff
fe
fc
00
02
00
01
ff
fe
fe
01
00
ff
ff
00
ff
01
fe
00
00
01
fe
03
01
04
02
03
ff
00
02
00
fd
01
fd
ff
ff
03
00
01
ff
01
fd
00
00
00
01
00
ff
02
02
02
00
01
00
ff
fd
00
03
02
01
fe
fe
fe
01
00
00
00
02
fd
00
00
00
00
00
fe
ff
02
02
ff
00
ff
01
ff
01
02
00
01
fe
00
fd
ff
01
02
ff
01
02
02
ff
00
fd
fd
ff
02
01
ff
02
ff
01
00
02
01
02
00
fd
01
fe
00
00
01
ff
02
02
00
ff
00
01
02
00
01
00
fe
01
02
02
00
00
00
00
fc
01
00
00
00
01
ff
ff
ff
01
ff
fe
02
02
ff
03
01
00
ff
e1
32
01
00
01
02
ff
00
00
03
ff
00
ff
fe
00
01
ff
00
01
01
00
02
02
02
00
00
fd
01
00
01
02
00
00
02
01
ff
ff
ff
ff
ff
fe
00
00
00
ff
ff
00
fe
02
00
01
ff
02
ff
00
00
00
01
ff
01
00
02
ff
00
fe
ff
00
00
ff
fe
ff
00
00
00
00
01
02
fe
00
01
fe
02
01
00
fe
ff
ff
00
01
02
ff
00
01
00
00
ff
02
ff
01
00
ff
ff
00
00
01
fe
00
00
01
ff
00
00
01
ff
01
01
01
00
01
00
00
ff
00
02
00
00
02
02
00
00
01
00
ff
01
00
00
00
fe
ff
01
03
02
fc
00
00
02
00
00
00
fe
01
01
00
00
00
04
00
ff
ff
01
01
00
ff
00
ff
01
00
03
ff
01
00
fd
fe
00
00
fe
ff
01
ff
01
01
ff
04
02
00
01
ff
fd
01
ff
00
00
01
fe
ff
fe
00
01
01
ff
01
02
00
ff
fe
ff
ff
02
00
00
00
01
01
ff
01
00
02
00
00
00
fe
00
01
02
00
00
01
00
01
ff
00
ff
00
fe
fe
01
02
01
00
00
01
00
ff
fd
01
00
00
ff
00
fe
01
00
00
00
01
00
02
01
00
ff
00
03
ff
02
00
00
00
ff
ff
fe
ff
03
00
ff
01
00
03
fe
00
00
03
01
00
fd
01
ff
ff
01
02
02
ff
ff
01
00
00
00
ff
00
ff
ff
00
01
00
00
01
01
fe
02
02
02
01
ff
ff
00
00
ff
ff
00
00
03
02
00
fd
01
00
00
01
00
01
01
01
01
01
ff
04
00
01
01
02
01
00
ff
02
fe
01
02
ff
ff
01
fe
01
ff
ff
01
00
fe
ff
02
fe
fd
ff
01
02
fe
ff
ff
01
03
02
ff
ff
fe
ff
ff
02
00
ff
00
00
01
02
02
01
00
01
03
01
ff
ff
00
01
01
ff
ff
00
00
01
02
ff
ff
ff
01
02
01
00
00
ff
01
00
00
02
ff
00
01
01
02
00
01
ff
00
00
03
00
ff
fe
01
00
00
00
ff
00
00
01
02
ff
00
00
00
fe
01
01
01
ff
fd
01
01
ff
fe
00
01
01
ff
ff
02
01
02
02
00
ff
ff
ff
ff
01
02
01
01
00
00
00
00
03
01
01
02
fd
01
00
00
02
00
00
00
fe
00
02
00
00
01
00
00
fe
01
01
ff
00
02
02
02
ff
02
00
00
00
fe
02
ff
00
01
fe
ff
01
00
00
00
01
fc
25
00
fe
fd
02
01
ff
fe
ff
ff
03
fe
ff
00
ff
01
01
00
ff
00
01
ff
ff
fd
ff
fe
01
ff
00
01
01
01
fd
01
00
01
01
ff
01
00
00
02
00
00
02
02
ff
02
01
ff
ff
01
00
00
ff
00
03
01
01
00
ff
00
00
fe
ff
ff
fd
02
02
01
00
ff
00
00
fe
00
fd
02
01
01
fe
00
00
ff
01
01
ff
01
ff
01
ff
ff
02
00
00
fd
02
00
00
02
fe
00
01
ff
ff
fd
ff
01
fe
ff
01
01
02
ff
01
01
00
01
01
01
03
00
03
00
00
ff
fd
00
fe
fe
ff
ff
00
ff
01
00
ff
00
02
01
00
02
ff
01
00
ff
01
ff
01
ff
ff
00
fe
02
fd
01
fe
00
01
01
fd
00
00
ff
fd
fe
01
ff
ff
ff
00
00
fe
03
01
ff
00
00
ff
00
00
00
01
02
02
fe
01
03
fe
01
ff
fe
fe
03
01
01
00
ff
ff
00
01
fe
04
01
00
01
00
02
fd
01
00
fc
ff
01
00
01
ff
ff
00
ff
ff
ff
02
00
ff
fe
00
fb
ff
ff
ff
02
03
00
ff
01
ff
01
00
01
01
00
00
00
00
00
00
00
ff
01
02
02
fe
fe
ff
ff
01
ff
02
ff
ff
02
03
00
02
fe
ff
ff
ff
00
00
00
01
ff
04
fd
ff
fe
01
03
ff
00
ff
fe
01
02
00
00
01
00
fe
fe
ff
03
00
ff
03
00
01
01
00
fe
00
02
02
02
00
ff
01
ff
00
02
02
00
02
00
ff
02
01
00
01
00
01
fe
fe
02
01
01
03
fc
00
ff
02
ff
01
ff
01
03
00
ff
00
00
ff
01
fe
ff
ff
ff
03
01
ff
fe
ff
02
fe
ff
01
fc
ff
00
ff
ff
00
01
01
ff
01
00
02
01
fe
03
fe
00
03
00
00
04
00
fc
00
04
fe
03
ff
01
00
00
ff
00
ff
00
00
01
01
ff
ff
01
01
03
02
01
ff
ff
01
fc
01
fe
00
01
fe
ff
02
ff
02
01
ff
01
01
00
00
01
ff
01
01
02
02
ff
ff
fe
01
01
03
fe
00
02
00
03
01
01
ff
01
ff
00
01
00
ff
00
03
00
01
fe
01
02
00
ff
ff
ff
00
fe
00
00
00
02
01
00
ff
ff
00
00
fd
00
00
ff
ff
01
01
ff
02
01
ff
ff
01
01
00
fd
01
01
00
fe
00
02
00
00
00
ff
00
00
ff
fd
ff
02
01
ff
01
01
00
fe
01
02
fe
ff
ff
00
0e
1e
00
01
02
00
03
ff
01
03
01
ff
00
03
ff
02
01
00
ff
01
fe
02
01
00
02
00
01
01
01
01
ff
ff
ff
ff
ff
01
fe
02
00
fa
fe
00
01
fe
01
01
01
03
00
02
fe
ff
01
02
02
00
02
00
fe
00
fd
00
fe
fd
fd
00
fe
02
00
ff
ff
fd
ff
01
fe
02
00
04
fd
03
01
fc
04
01
00
ff
00
02
01
fe
fd
ff
fe
ff
00
01
ff
fe
01
00
fe
fd
ff
00
ff
01
01
ff
fe
01
01
fc
02
03
01
01
ff
01
fe
fe
00
fe
00
00
fd
01
fd
03
00
01
fe
01
fd
00
00
ff
fe
fe
00
ff
fc
00
00
ff
02
03
fd
02
fd
ff
00
00
ff
ff
ff
fc
02
fe
01
00
00
00
fc
fe
fc
02
fe
02
fd
fd
01
fc
01
fc
00
01
fc
01
01
00
01
01
01
01
ff
02
00
01
02
ff
ff
ff
ff
00
02
fe
00
ff
fd
01
00
ff
02
02
fe
01
01
01
ff
fe
00
00
00
ff
00
fc
fd
03
ff
01
01
ff
02
00
ff
03
02
01
00
00
01
ff
fe
fe
01
01
ff
04
00
fd
02
00
00
ff
02
fe
ff
01
02
ff
00
03
ff
00
00
ff
01
ff
00
00
02
01
00
00
fc
03
ff
fd
00
03
00
00
ff
fe
01
ff
01
ff
fe
ff
01
00
02
fe
02
00
00
01
00
fe
ff
fe
02
06
fe
06
02
00
00
02
fe
02
fe
02
ff
02
fe
01
fd
00
fe
fd
fc
00
02
01
fe
ff
02
02
ff
ff
01
05
01
ff
00
00
00
fd
ff
01
fe
01
00
fe
ff
02
fe
03
00
02
fd
01
ff
02
ff
fd
fd
fd
ff
ff
fe
02
00
02
00
02
fe
fe
04
fd
ff
02
02
ff
02
04
00
03
ff
01
00
ff
00
ff
fd
00
00
04
00
02
00
00
00
01
ff
01
ff
02
02
00
00
ff
00
ff
ff
01
00
01
01
01
03
01
01
01
00
fd
fe
02
fe
fe
00
00
01
ff
ff
00
02
fd
02
00
ff
00
01
ff
00
00
ff
fd
fe
01
02
ff
02
02
01
00
ff
03
fc
01
01
00
ff
00
02
ff
ff
06
02
00
fe
fb
fd
ff
03
fb
04
00
02
fe
ff
fd
ff
fc
02
ff
fe
ff
fe
ff
ff
00
fe
ff
01
ff
01
02
fe
00
00
01
00
01
02
00
01
00
00
01
01
01
fb
01
00
00
fe
ff
00
04
fe
01
01
fe
01
ff
fe
01
ff
00
fe
fe
fd
e5
26
01
ff
02
00
00
00
00
00
00
00
00
00
00
fe
02
fe
00
03
01
01
01
04
01
00
03
fe
00
fe
ff
00
01
ff
ff
ff
fe
00
00
ff
02
02
ff
01
ff
00
ff
02
00
ff
fe
00
00
00
00
ff
00
ff
ff
fd
ff
fd
01
ff
01
ff
00
00
00
02
fe
ff
ff
00
02
ff
03
02
fe
00
02
00
ff
00
02
ff
03
ff
03
01
ff
ff
fc
fd
ff
02
fe
ff
01
00
ff
01
00
00
03
fd
ff
00
00
00
01
00
01
ff
ff
fe
01
ff
ff
02
fe
01
01
02
00
fd
00
01
fe
00
ff
ff
ff
03
fe
00
01
ff
fe
ff
01
00
fe
01
01
ff
01
02
fe
01
03
00
00
fd
fd
01
00
00
fe
01
00
00
ff
fe
00
ff
ff
01
00
02
00
01
01
01
00
01
fb
02
01
01
00
02
01
00
01
01
fe
02
03
00
01
03
00
03
03
ff
fd
00
ff
02
01
fe
ff
01
01
ff
00
00
fe
00
00
ff
ff
fe
ff
02
ff
01
01
fe
01
fe
02
00
01
00
00
02
fe
00
01
02
fe
ff
00
02
04
00
fe
01
00
ff
00
01
01
03
00
ff
fd
00
00
01
00
01
ff
00
ff
00
00
00
00
02
ff
01
01
04
03
ff
01
01
00
00
ff
ff
00
02
fe
01
01
01
00
ff
01
ff
00
02
02
00
00
04
ff
fe
00
ff
ff
00
01
01
fe
03
01
ff
ff
00
00
00
00
01
02
02
ff
00
ff
ff
00
fe
01
fe
00
ff
00
00
01
01
ff
03
ff
fe
03
04
00
00
00
02
00
02
01
ff
00
02
00
01
00
ff
00
fd
01
fd
03
00
00
01
01
03
01
00
00
03
03
ff
01
ff
00
00
01
01
ff
ff
00
00
00
ff
ff
00
01
00
03
01
00
fe
00
02
ff
00
01
00
ff
00
ff
01
ff
fd
00
00
00
02
ff
02
00
00
fd
00
02
00
01
01
02
02
01
ff
00
01
00
00
00
04
00
ff
00
00
01
02
fe
02
01
00
00
fd
ff
02
ff
01
ff
02
ff
01
00
01
04
00
00
00
00
ff
02
00
fe
04
fe
ff
01
00
00
fe
02
ff
00
03
00
01
00
00
03
03
00
ff
02
ff
ff
fe
ff
00
00
01
01
00
01
ff
00
00
02
01
00
00
fe
02
03
05
00
03
02
ff
02
02
01
ff
00
01
fe
ff
fd
02
02
00
01
00
01
ff
fc
00
ff
00
01
fe
ff
21
1c
ff
fd
00
01
fe
ff
01
ff
fd
ff
fe
00
ff
00
02
fe
ff
02
00
fd
ff
01
00
fc
ff
00
fe
fe
ff
ff
00
01
ff
00
fe
ff
00
02
00
01
00
00
02
ff
ff
01
00
01
ff
01
ff
ff
02
03
03
ff
02
01
ff
fd
00
00
ff
ff
ff
01
00
00
02
ff
01
fe
ff
02
00
01
fd
01
fe
02
fe
fe
fe
01
fd
02
01
02
00
ff
00
ff
fd
00
01
00
00
fc
03
ff
03
ff
ff
04
00
fe
00
02
00
04
00
fe
fe
01
03
ff
00
01
01
ff
00
ff
ff
01
01
01
fd
01
fd
00
ff
01
fd
02
fe
fe
01
fe
03
ff
05
ff
02
ff
00
01
fe
00
ff
01
01
00
ff
ff
00
02
fc
00
00
01
01
00
01
ff
fe
fc
00
00
fc
01
ff
01
fe
01
fc
00
00
00
03
03
fe
01
00
02
ff
fe
fe
fd
ff
01
ff
02
01
03
ff
ff
ff
01
fa
fe
03
ff
fe
01
ff
04
ff
00
01
fd
fe
01
00
00
01
ff
02
01
fd
01
00
ff
00
fd
03
01
ff
00
00
01
01
fd
00
fb
00
02
01
fe
ff
fd
01
03
ff
fd
02
01
03
02
01
01
fe
fd
04
00
01
ff
00
ff
ff
fe
ff
fe
01
fd
00
ff
02
ff
fe
00
01
02
fe
00
04
02
00
00
00
03
04
fe
fd
fe
01
00
01
ff
ff
fd
ff
fe
fe
02
01
00
03
00
fd
fd
fe
fe
02
ff
ff
fe
00
02
fe
00
02
fd
ff
ff
fe
00
fe
ff
ff
00
fd
02
01
01
ff
ff
03
00
03
fe
01
03
