00
7f
ec
d8
e6
26
dd
0b
d9
16
e7
00
7f
d6
26
25
1b
01
10
f0
09
d7
00
7f
14
e1
04
1a
fa
24
f3
00
0d
00
7f
09
11
24
1a
02
21
ea
26
fa
00
7f
f8
27
1c
db
e9
d8
0c
15
ee
00
7f
f0
f6
e0
25
fa
f1
df
d7
04
00
7f
e2
28
29
fb
ee
ea
10
e4
f7
00
7f
21
1d
02
fd
e5
f6
de
f2
f8
00
7f
03
db
dc
e9
0c
f2
fe
04
00
00
7f
17
0f
e8
f1
0e
12
0c
eb
d7
00
7f
f9
e0
01
e0
fa
f5
24
27
eb
00
7f
d8
d9
15
05
1a
fb
25
ef
20
00
7f
18
10
db
e7
0d
ea
23
de
e6
00
7f
e0
16
e4
1b
0b
fb
29
19
1c
00
7f
05
e3
eb
f3
26
1c
17
f9
05
00
7f
24
01
0a
23
10
d6
17
ef
d5
00
7f
e7
07
e6
df
e1
f6
d8
de
eb
00
7f
27
e6
11
fd
f1
fd
09
15
2a
00
7f
05
1a
e0
f7
d8
f9
05
1f
fd
00
7f
1e
11
fd
28
28
1a
21
13
ec
00
7f
02
f2
20
f4
25
f4
04
fd
0d
00
7f
dd
15
d7
fc
e4
13
12
0f
05
00
7f
10
0a
04
06
d8
0e
20
fb
0c
00
7f
dc
fa
00
1e
24
14
db
da
fe
00
7f
f0
1f
1d
e0
23
01
ef
f4
28
00
7f
01
09
ff
01
06
05
04
dd
e9
00
7f
25
f7
24
22
27
ff
06
28
24
00
7f
f1
fe
fb
f8
ea
1b
da
fa
14
00
7f
2a
0a
15
0c
da
2a
ed
13
f7
00
7f
f9
20
03
f4
0a
08
ed
ea
e7
00
7f
d8
24
25
e0
e7
dd
04
e3
ec
00
7f
eb
ed
04
de
d7
ef
07
fa
20
00
7f
e6
d6
28
11
27
e2
f7
02
e1
00
7f
f1
f9
d8
dc
27
1a
db
21
f1
00
7f
d8
2b
14
01
10
04
08
12
15
00
7f
22
dc
e5
18
f6
ed
e8
f6
ff
00
7f
de
e4
0d
e4
e7
21
f5
ea
ed
00
7f
1b
0d
e2
f1
10
f7
f6
12
fc
00
7f
15
1f
12
e2
fb
29
26
08
21
00
7f
21
0e
15
06
e2
08
26
0b
fc
00
7f
0d
e4
23
26
ed
fe
fd
dd
f5
00
7f
22
10
fa
e8
21
d9
e0
e4
f4
00
7f
09
21
df
29
e8
e2
e0
0d
d9
00
7f
21
1b
29
0e
ed
e5
e8
12
25
00
7f
d9
25
03
29
01
e9
0a
08
13
00
7f
00
05
ea
de
ea
da
0e
db
1e
00
7f
de
f1
08
0c
e9
1c
ff
19
db
00
7f
e8
ee
04
14
de
1a
05
24
fd
00
7f
ed
f0
ee
e6
e1
16
25
06
e3
00
7f
fd
fb
ee
da
e6
1f
04
1e
ff
00
7f
eb
d8
1a
04
e2
f9
f8
e4
ee
00
7f
00
0b
17
19
06
fa
f4
07
22
00
7f
18
f4
e6
e6
f4
da
eb
da
0c
00
7f
1f
dd
05
09
e9
15
f0
fc
df
00
7f
ee
fd
db
e0
08
20
18
12
02
00
7f
f9
08
23
1e
f4
f2
f7
0b
11
00
7f
e7
de
e4
e1
f1
01
12
18
fd
00
7f
f0
0c
20
eb
12
01
f4
24
f8
00
7f
f6
e5
10
1e
1d
de
da
f3
fa
00
7f
1f
e6
df
d9
ed
ec
fa
d7
00
00
7f
dd
f2
ea
fd
e4
1c
09
e3
de
00
7f
11
e0
1e
d9
17
05
f3
ed
fb
00
7f
04
1d
25
dc
17
22
e0
0f
f4
00
7f
ec
11
fd
03
26
27
f3
f8
2a
00
7f
0b
d6
2b
05
19
02
d6
f5
f3
00
7f
ea
28
02
d8
ee
f0
fc
f7
27
00
7f
e2
f0
13
00
16
e4
ec
df
1b
00
7f
18
e4
fd
ea
01
f0
eb
e9
db
00
7f
03
eb
29
29
17
0c
18
f9
fd
00
7f
f4
f9
07
f7
e5
02
24
0f
16
00
7f
03
d6
f4
15
d6
ff
1f
1e
e6
00
7f
fe
2b
1b
d6
ec
e1
23
18
0c
00
7f
1d
f5
1a
0f
00
1a
e8
18
df
00
7f
1d
0e
dd
fb
f5
2a
f9
2a
22
00
7f
1f
dd
dd
27
d7
dc
e6
fa
01
00
7f
d9
fe
18
13
16
29
fb
e0
e4
00
7f
1d
1a
13
29
09
e1
14
e8
da
00
7f
19
f5
f4
e4
08
e4
f8
28
1b
00
7f
05
23
f8
04
14
ff
e6
1c
17
00
7f
18
de
08
2b
da
11
04
27
20
00
7f
f8
17
df
f2
e7
1f
1a
e1
f8
00
7f
dc
ff
ff
1a
02
f0
03
e1
f7
00
7f
e3
ff
22
0b
de
f4
01
e3
d8
00
7f
1b
01
21
1c
d8
df
11
ea
ed
00
7f
f7
e6
0d
1d
1d
d7
0a
d6
e7
00
7f
0b
1b
0f
db
24
fa
18
2a
28
00
7f
e0
ec
0d
ff
f6
f0
22
ec
dc
00
7f
16
e2
14
fa
db
10
f7
05
da
00
7f
df
fb
23
e7
e2
10
1f
e4
0c
00
7f
f4
de
1a
e9
03
2a
2a
e3
25
00
7f
14
fa
df
fe
fc
e7
23
f7
12
00
7f
fd
24
e0
0b
12
e8
07
f5
07
00
7f
fb
f9
ef
2a
ed
e2
1f
25
08
00
7f
1b
f8
22
f7
27
f0
ea
de
17
00
7f
22
f6
08
25
27
08
19
09
1f
00
7f
21
03
f9
d6
f8
d5
15
f8
e6
00
7f
17
15
12
08
e0
1a
e9
0d
e6
00
7f
09
e3
10
f9
e9
19
17
1c
20
00
7f
dd
23
ff
09
27
eb
20
12
d5
00
7f
09
e9
1e
0a
e1
f4
fd
ed
f0
00
7f
db
10
29
0b
00
db
2b
ef
da
00
7f
f2
18
ec
0f
07
0f
09
f6
0f
00
7f
0a
e7
29
06
02
f0
f6
e2
d7
00
7f
20
15
f5
f1
ef
2a
eb
de
03
00
7f
0f
12
0a
12
04
00
18
29
f2
00
7f
d6
f3
0f
1b
fb
25
ee
e7
fb
00
7f
1b
e1
ff
08
f6
05
17
dd
e9
00
7f
e5
df
09
ea
07
08
11
e4
dc
00
7f
ef
24
f1
1b
14
2a
da
ec
f5
00
7f
de
dd
26
01
29
0f
25
03
03
00
7f
db
fd
e0
d7
ed
04
20
ea
ef
00
7f
0f
e5
d8
02
1f
11
df
f9
06
00
7f
ea
e0
15
f9
0e
da
fe
d9
ee
00
7f
25
0f
ec
0a
00
00
1d
0c
29
00
7f
03
1c
19
e7
f5
14
04
1e
e9
00
7f
f1
2a
25
f9
12
e2
03
0e
df
00
7f
e0
0f
f5
d9
fa
d8
fa
19
19
00
7f
0e
17
ff
e2
26
d8
eb
e2
1e
00
7f
e4
26
1d
20
d9
21
19
1d
ee
00
7f
ea
02
f2
11
f6
08
d8
13
f2
00
7f
15
19
ec
25
1b
f2
23
d7
16
00
7f
ea
f3
f0
e7
e4
e4
09
10
fb
00
7f
00
ed
2a
1f
1c
e0
eb
dc
19
00
7f
07
f1
f4
1a
f7
1b
18
f5
0a
00
7f
00
13
e5
ff
29
00
e9
0c
28
00
7f
f5
e5
29
1e
2b
22
26
da
e5
00
7f
20
24
02
0c
26
19
18
00
20
00
7f
1c
e4
1d
f5
02
0b
00
18
ee
00
7f
fb
16
0d
e0
f9
f2
f5
27
e5
00
7f
28
27
e9
25
0d
ec
dc
2b
e8
00
7f
ed
d9
20
17
fb
f5
2a
f2
ec
00
7f
28
15
13
05
fe
02
23
06
15
00
7f
02
ed
e5
04
11
0b
ec
0e
dd
00
7f
27
1c
e5
f5
e4
ee
1b
03
e3
00
7f
14
fc
fb
11
dc
17
17
19
05
00
7f
25
1a
d8
25
da
f5
f6
f5
03
00
7f
e9
22
28
1f
ff
ed
24
07
e7
00
7f
0f
f7
df
11
dc
12
f3
f0
d7
00
7f
18
19
e3
1c
27
08
f7
e2
ec
00
7f
eb
dc
0c
10
28
21
1b
ff
0b
00
7f
08
e9
fa
e6
1e
ed
06
d7
13
00
7f
e3
03
05
0e
27
e8
f4
dc
05
00
7f
14
fa
d9
02
17
e1
e1
11
e7
00
7f
da
01
1a
e0
d7
f5
2a
27
0d
00
7f
d7
ed
0c
f1
01
e4
1e
de
f9
00
7f
23
e3
0d
03
13
1d
f4
0a
2a
00
7f
29
df
ec
05
e7
fe
06
07
29
00
7f
d9
e3
24
fd
18
f6
f9
0b
f3
00
7f
05
03
f7
e6
0b
0b
0c
27
e4
00
7f
28
08
03
10
1a
fc
e2
eb
ed
00
7f
d9
de
03
eb
d6
e4
e5
18
18
00
7f
f5
d6
e0
e1
eb
e0
24
f0
e0
00
7f
f6
fd
16
09
d7
de
1b
fb
f1
00
7f
0a
25
d6
13
ea
df
25
24
1a
00
7f
2a
de
02
03
da
14
f7
fe
1f
00
7f
28
fa
f2
27
e8
e0
f4
f5
29
00
7f
d6
f0
f9
ee
29
ff
e7
24
ef
00
7f
07
17
09
02
10
1e
07
03
df
00
7f
ea
0d
1d
f3
01
07
ec
11
fb
00
7f
e7
25
0a
e0
29
de
ea
e7
f1
00
7f
11
14
ea
d9
e6
fd
e7
e1
ee
00
7f
e7
18
eb
1d
e4
df
1c
09
08
00
7f
15
ea
0a
04
fe
2a
07
13
f4
00
7f
1a
15
e6
28
f5
0a
1b
05
14
00
7f
ed
08
1d
d6
1f
15
15
ea
07
00
7f
0d
02
e4
ef
f4
19
ec
ff
fd
00
7f
1a
1d
1b
13
02
f7
f6
f1
e0
00
7f
27
1d
fe
e2
28
e9
09
13
dc
00
7f
01
dc
dd
15
2a
e1
1c
f0
e4
00
7f
e3
ed
13
e5
02
1d
f4
26
1d
00
7f
d7
e3
e2
13
f5
14
0c
da
13
00
7f
15
e8
0e
f9
db
26
fe
f8
07
00
7f
eb
06
e5
f6
02
09
fc
12
08
00
7f
23
20
e8
23
f5
eb
0a
28
f7
00
7f
e8
fb
ef
11
e5
f3
1f
03
e0
00
7f
fa
e3
0c
00
27
dd
fe
fc
fa
00
7f
f2
e2
e4
01
15
19
15
e1
e3
00
7f
12
f7
0b
ee
ea
fa
28
f8
fe
00
7f
ed
21
19
e3
01
e2
e0
1e
fe
00
7f
0e
19
f1
0a
ea
e1
14
fb
19
00
7f
00
fa
ff
20
11
15
0a
d8
05
00
7f
e8
d7
01
26
15
1a
1f
1d
fc
00
7f
fd
f1
26
d6
fd
ec
ec
25
f0
00
7f
f0
1f
06
e8
0f
d5
de
10
0f
00
7f
eb
2a
ef
d6
fc
e5
29
e3
1d
00
7f
16
ec
17
0b
e6
24
1b
21
ff
00
7f
17
2b
13
df
03
04
e4
04
1d
00
7f
0a
12
05
23
02
04
21
fd
eb
00
7f
26
e1
16
1c
dc
13
ec
29
0f
00
7f
f2
03
09
f3
2a
db
f9
e1
da
00
7f
dc
15
f8
de
f8
e8
00
e9
12
00
7f
d7
03
15
0e
0f
f0
e1
eb
18
00
7f
04
ee
0a
1a
e7
09
ef
ea
ef
00
7f
e9
e2
fc
26
e8
f5
ea
25
2a
00
7f
2b
f6
15
0f
df
eb
e5
0f
ee
00
7f
25
10
27
2a
d8
24
df
0d
21
00
7f
eb
e6
e2
23
f4
eb
0d
fe
e4
00
7f
0d
ef
f3
e1
e8
19
13
19
19
00
7f
eb
14
1f
fa
ea
19
1b
f9
e7
00
7f
e0
1f
29
e6
f5
2a
db
0e
f5
00
7f
29
22
f4
ef
d9
1f
16
e6
1b
00
7f
e9
1a
26
f6
1f
13
de
f8
24
00
7f
f8
d9
0f
f4
02
1c
10
fc
10
00
7f
0b
db
0e
f5
e4
da
21
26
09
00
7f
df
08
fd
f4
0b
06
1c
09
10
00
7f
e5
1a
1d
09
27
fa
e2
1c
26
00
7f
f9
0e
15
14
e2
00
da
21
d9
00
7f
f8
01
da
05
fe
df
1e
03
17
00
7f
df
0d
fd
19
d9
27
1d
01
fc
00
7f
05
f6
fd
df
ef
20
f3
eb
05
00
7f
17
10
dc
ef
f3
20
23
d8
e6
00
7f
19
22
0a
e0
f4
eb
de
d8
0d
00
7f
18
1f
fb
de
2a
09
e5
09
24
00
7f
08
e8
f5
e4
e7
ef
f3
17
f1
00
7f
e6
2a
0e
f7
05
1a
13
f1
17
00
7f
fe
04
01
f7
f9
e7
09
13
27
00
7f
0f
ed
06
10
14
e1
e1
e3
d6
00
7f
1c
18
fa
28
0e
03
04
e8
e6
00
7f
03
e5
e5
f5
f4
08
22
e1
d6
00
7f
ed
ff
f2
ee
16
d9
19
eb
de
00
7f
1b
0e
0b
02
04
ed
e6
d6
1b
00
7f
03
e6
08
e6
d5
18
03
16
09
00
7f
24
17
ea
ea
f3
08
df
dc
22
00
7f
e9
2b
de
29
22
04
e6
03
e5
00
7f
fd
0f
e9
e5
e2
2a
e5
00
dc
00
7f
12
1e
e3
15
0e
26
f4
1d
d8
00
7f
03
13
df
e6
fa
11
0b
f8
ec
00
7f
0b
de
21
f5
20
26
2a
de
d9
00
7f
ea
f9
f5
fb
e8
f5
e9
de
dd
00
7f
1a
20
f3
14
04
1f
ec
d6
2b
00
7f
f6
e1
2b
f7
19
e2
24
1a
15
00
7f
01
db
04
0e
25
0c
00
0e
11
00
7f
15
08
00
d6
02
15
dd
11
dc
00
7f
f1
18
f2
ed
17
e7
23
ee
07
00
7f
1b
12
18
06
09
24
fa
f1
ea
00
7f
df
0c
17
e4
24
dd
0b
1d
dc
00
7f
dc
15
05
1c
24
1c
f6
f4
ee
00
7f
01
f9
1b
ef
f9
08
f8
24
d7
00
7f
fc
09
f1
0c
16
ef
07
1e
f9
00
7f
f1
0a
e3
15
f0
e8
e7
ec
ff
00
7f
e1
07
21
f6
0f
f5
ff
0d
f1
00
7f
e8
10
ea
12
e9
12
24
df
fb
00
7f
09
12
0b
da
ed
1c
fc
f6
0b
00
7f
28
00
da
df
f3
d9
eb
e4
f4
00
7f
f3
13
e9
10
1c
05
0d
d7
28
00
7f
d6
da
20
d8
ef
06
df
e6
d8
00
7f
eb
29
dc
e2
09
1a
1c
de
10
00
7f
1e
d5
f8
26
e9
26
f5
f8
0e
00
7f
25
e7
15
fc
ee
21
d6
d7
ef
00
7f
f3
d8
e4
22
d5
f3
fe
d9
e4
00
7f
06
0a
fc
fc
27
0f
d7
00
ec
00
7f
15
ec
e4
eb
19
ea
f4
e6
21
00
7f
ea
f0
06
e5
f6
21
22
26
f6
00
7f
15
23
1f
df
19
e0
0b
19
09
00
7f
ed
f2
20
e2
01
17
09
02
01
00
7f
fd
d9
dd
e6
f6
ff
d7
e1
13
