00000000000000000000000000000000
7f7f7f7f7f7f7f7f7f7f7f7f7f7f7f7f
0c0efa09f6f80ff7fdf308f6040a0909
09f4faf7f5f50c0900000b10f6fc0502
f40a0ef3f4ff0ef106fb0008f8f2fafd
01f4f7fb04fc0300fbf30e100d020c05
f6fefb07ff0d0a0efd0f0ff60cf7fbf4
02f50ef9f701f8f5fbf6f20ff5fd1009
f4f10bf502f70b02fa0bf8040f0af9fe
0f06f1f50c0d0e080f040b07f2050efd
f901f5100bfd020aff0cfcf3f20bfa0a
00f60504f40a0e0dfaf5fbf3fe0bfd0f
f601fa0b08030bf2f101f600f908f60b
0d070a01020a08f7f9000af7f80df8f8
f2f10cfc06f8f70607090c0109f90302
0b09080df2f604f00a040ff3f606f209
09faf40204fbf6fff6fef3fe0d01f9f7
0e00fef9fdfffd0903f4f00f0df6f906
05faf20e100df8f6f6fa030ef20ef903
0bf608f608f6060d010c04f6fd06fff7
fdfef5f303f808f7040ef5fff3100706
0cf505f40afd050a090710fafff1030e
fd020af60f03f4f1050ef3f60e0f0509
f5f1fd09080f03f8f400f10d06fd0b0c
fb0b0afb08fefcf60cf209f1f408f60c
f6fb00060ff30afe0ef90001f800fdf2
0ff9faf40af7f50dfe08050f070df8f9
070e0101f60efc03f7f50cfefb01050f
f6f00109f4f8f2f50907faf5fbfffbf6
0504fdf202f7040ff008f6f0f7040207
f10ef308f80a0904ff09fbf60c07f305
0a00f80ef9f2f40409f202f20efb0a06
020906f4fff6090f0605f0f4f1040300
0cf101f7050107f6fa0706f510f4060e
050afcf80f10fafe0bfafd0d0cf8fa03
09000e09f60bf2090df104f40af8fa0c
fb01fd08060a0b0df7f8090ff1f20ff3
03fd0106fcfbfb04f1f007f80afe04f6
fd05fef4fe0ff0f2f50b0bf90af9f800
0302f5ff0cfaf1080201f60a100b0604
f4fe070b05f4fa0500fdf604fb07fd0d
0002f30f030507fc0bf7f809f5f80e04
fd0703f100fe0c0df1fc0703fff701fc
fefefefc0f00fdf2fcf40b0e01fa0000
0cf40b0ff0030cf4fb03040ff8100f0f
faf60d01f2fa01f502fbfc0f09000a04
00fbf40001f2030300080bf7f310ff07
f5fcf201f30609f9f40501fbfef60dfe
0705f80f09f408f60dfaf3070000f408
0b05f1f70b06f40df9f6080d01090c07
f40a02f606f2f8f70a09f7f6fef1f810
06fef10301fd010c0e0bf8f8f000fd03
00fe020001060e08fc06fe07f50afd10
fef2f0060bfa07000a0ef6f8f20d0202
fff1fff8fe0bf30905f30f000e040f00
040e0e0b0310f102050206f3080ef3fb
f706f7f2fd040ff7f810f40b0e09050d
0efcfa0501fa0e04080df100f401f7f2
f60efbf1ff100ff2f9fbfef80c0105f8
f50a0efcf3fb0c040bf0f9fa09070e07
050201f605fb0409f20a020ff4050108
0a08080304ff07f6f100f3f4fc010e0c
01050502060d0afaf2090a0cf70ffbf1
0ff20df9f7f5060210f60600f5fe0703
030e08fef60305fe09f80700f600fe06
f401f3f3fd02f2f5fcfdfdf20c0dff09
00000000000000000000000000000000
7f7f7f7f7f7f7f7f7f7f7f7f7f7f7f7f
fef508ff0e04f304f4fb06f8fef4fd0d
08fd07060cf1f4f1f605010efaf5f400
05f20cf00f0cfffbf60503fff60f0afa
f80706fdf808fe0a0ef0faf206f50c06
fbf103f3fdf4f9fe0af503f200f30f0a
f50f0f0d04f90df5f40304f4fdf400f6
1006fe07040a0506f304fcf807f4fd0e
f104f8fff1f9000e030201fc050b04f9
f305f7fb0a0607faf9f706f402070af2
090cf80309f90807f10d07fcf3fef708
100bfcfb06040403fd0c0103f6f6f7f9
050905f1f2f3050af904f6ff020f050f
02f40c0ffffd0e0f09f2f9f9f60df40f
f7fa0102f6f20dff030ff607fa000504
05f008faf200080ff203f304fef9fe06
0e070400fffb0af2fd0fff0203f2fa02
f1f5f30507f701fa08fe0109f803f6ff
ff0607fd000300f301f309f7fe050aff
01fbf4fdf30609f303fdf9f603f7f70f
0af9fff8001006f7f5f202f3100208fe
08f10ff00d05060d0af700fd0ff1fdf5
fcfdfe04f6f10d020a0cfff8fc0f00fa
f1f306fa0bf9f4fdf2fef305fb01f9f3
09040c09f8f6fff009faf9030603fcfa
00fcf70af2fb070ffefa010af10cf401
f9070af30400f7f105fcff0ef401080b
01fcfa0203fa03040c05f40cf805020e
03030a0f0f0ffc0a04f2f1f3fd000007
06fb07f5f9f6f30b000407040cfd0e0d
0a00f20f060bf5f20d020506030802ff
0cfdff0e060403fe06030ffe04ff0905
07f5f6fafd04fbf9fb090e06fe02fdf7
0e0301fb0cf3fc03f6fc0df2fd0ff5f1
0b03000d03fff0fe0a010ef3fff0fff5
f40b06fbf60dfb0d06f4f8f8fbf1f2fc
06f708f5000005f804faf8fbf7100509
0f07fb050f0906040909f3f508010308
f808060002030410f5fc0cfd05f4050f
fa06f81003fef805f1f402f6faf90901
0b07f2f2f9f30e0f070af9fcfd03090b
01fd01f702faf4f80907f8fbf2f506f7
f20e09f6f9f90203faf20ffef6f000f1
0afa0a100a030ffcf90e00ff06f70df8
fcf4fefbf10c0906f40904f90efff7f9
fc010c070d090d01fa0303f7f907fc07
0efc03ff0af7f2fe0105030ef7f0fdf1
fa0c0bf601f702030ef5faf6080e0ef3
f0f9f504060cfa04020810fc01ff0bf8
f206fb02f610f9f7fcf7fdf40efbf5fc
f5fef80608f2040af4040e0dff0f050c
f70b0bf30909f101ff030905f2100501
f20bfffc070df509f7f3f9f306f7fd0d
f6f1f20905f2f6fa0bfff20001fafe01
0bf806faf8030cfefb0503fdf508f7fc
fef5f804fe030b0406f1f1f2010c0b0a
06fb08f600f709f1fcff0cf40ffb080e
0610f40901f5f9f40907f40cf2f402f7
00f10c08f10f0a01f50007f2f7fef000
fa0a0e09f3fd0d0c10000405080cf904
0dfc05080af2f800f7fb0afbf6fe0804
f60d08fb0df006f40d0bf90710f700fc
f1f008f70ff602f9fdf00e0605070702
f805070dfdf40bf1fa0c010f04060c0c
0cfafbf1f2fa09f5faf0fd0d00fbfaff
00000000000000000000000000000000
7f7f7f7f7f7f7f7f7f7f7f7f7f7f7f7f
0bfdfa05090c0208f9f2fe100bf7f90a
0601040b090ff1f9040ef2f5f60c09f0
f4f3f0f5f5fdff06f2050d05fd010cfa
06f8f6f4f6f4f8f5fff8fffdf2f1f802
01f3f7f10c01f2030b02f5fdfe0d09f2
0601100b0a00fcf805f8f80708f604f5
f7060c0af3fbf1ff03f1fa07fb0504f1
ff03f1fb08f200f1020ef1020d0e0909
020f00fa0a090f0a09060ff709f5f210
f3fc0602fcfb07f4f2fff0fb0af5fe08
fbf6030308f506f30707fa030af307fa
f809f60af5fafa0708f304f3fc100af8
fa0bf903f6f809f206f50202090f0800
10030910fa05f2f6f2f40ffffcfafaf9
0c020eff060cfaf20b000101f2ff08f4
fd1005fe01010607fdfef10efff00eff
f90d0ff2f501f8090afdf5f5f9f20bfe
00f8ff0b0c0410fe0af8f60bf103f0fe
f70cf3f30ffe060804fc0f0b06020309
f5ff0d0b01fff4f91008fefa08f3fa09
fe070f060ef90e0e07040cf90605ff09
0508f3f9fbf5fafcfd0f010406f2f504
fef1fdf70309fffb08fafdf0f00efbf1
0c0d0cf80705f900fb0df8fdfc0bf600
0e0b0c0af70b06fe0e09fcf6fc0f0710
fe0909f5fc090cfafb010dfa0d0bf208
0ef807f70cf4f5f706fa0cfcf4f50a05
0e080903f609060d0ef1fbf9090ffb07
f80302080f0200ff0ef1f704fefc0106
f4f80105040ffa04f40d050101030c06
fefef201010c05f70ef3f30a06050c10
0cf50df2f6fbf1f7080bf6f2f7f1f9f8
07f9f20bf101fa01ff0f050b05000d0b
f2f1f7f308050b05080df004f203f1f7
0407040af0f3fa02fefef4f7fbf2030a
07f6fef6fa03f30009f206ff09080ff2
050bf5f8f3f601f7ff0b0d0afcfaf4f7
fc0007fc0f0d01fbf906fff0fbf20303
02fa00070c08f4fc060402fff2f307f9
03030902f1f1f5f4fd01fafc09f007fd
f00ff808f20006fa03f105fefc0a00f5
f7fd03100b0105070af70b0802f90902
f5ff0cf10df2f5060ff50ff4f10afdf1
09f90f0f08f910ff1002f5f4f6000402
fbfa0eff02f8f2ff0d1002fafd0bf902
f60f0a01f80e04fef90e03f4f9f6f3f1
f305f60afa0002020e02faf3fbfef510
100bf1f802f9f1f1090e0b07fafff304
f509fef1fe0ffc06f306fd01f7f1000e
0bff0cf405f2f30cf107f10ef4f4f8fd
0b03fb10040cf20c0cfc0b0dfc0efdf2
0c0d040afe0bfcf3fd0e0401f50dfdf7
05f1000d0407020a05fb0302fef400f5
ff05f50202f4fffc0e04080300f9f201
f906f705050af7f70a09fdf1fa030a09
06ff0808fa0f0cfbf301f204ff0cf60e
0bfafd0cff0ef508f6fef20efefb090d
00010107f70cfaf3ff080a04f606030a
070b08f0f806f7fefef00c0c0500f5fb
f1010ff302f3100f030cf305f206f50b
0df601f7fe090c0e0ff40d0c08100104
0f0c0b0df5fbf7fa0cfc0ff8fd0af700
09040308fc0006fcfff70a0705fb10f8
f506f9f70705fbf8f8f609f8f3f2fe03
00000000000000000000000000000000
7f7f7f7f7f7f7f7f7f7f7f7f7f7f7f7f
fb010d0305fa0ffc0dfbfffffc090800
f8f2060cf6000c070df2fbfa040df501
f9fd0f0c0bfcfa00030301fb030ffa04
0c0bf2f103030ef8f5f7fafcfd02f1f9
10fff90905ff02f6fbfbfdf402f8f00a
04f502000707050e01fe0efbfffaf806
f50df7f8f4f505f9f2040c02f1fd08fc
fb08fd06030f0805f7f201f9000cf102
0109f3fbfc0df707f809fe050d09f7ff
f2fbfe050c0910050b08f804fefb0b0f
0cfe040cfdf4fc0a0bfbf3f807f5f709
f809f2f90cfaf70a0ffff7f8050704f9
ff0002fd05f5f504f707080cf4f00f02
0f0bf2f901020ff2f4f4f704f6ff0f0f
f00408f8f0f40201f8f3fd0ffaf6040a
07f1f309fbf407f709f005f9f0f8ff02
0f0406f8fb00f20ff1f510f9fe05ff09
f8f4fefb00f30803f8f5f407fef20ef8
04f3f90b03f5ff060101f7f8f9f508f7
020af2fdfafff907f401f204030df106
f4060c0f10f3f804f7f0f4f703f00103
08000f06f7f6f2f9f7f7f701fc08fc02
04040109040e0e10f9f2fc0af3090206
080808f8f3f60c08f4050f0efdf60a0b
05100ff0fa05f8fa09fa0106ff09f004
f6f6fdfefe0502f6f10f06fdfa0ffb06
f20710fc0300f7fbfcfd0cf104fef807
f805f604030b05fcfaf0f7ff0c000af1
0c0204fd080a08f2faf0f20d0903f603
02f404f904020eff0406f1f10c06f4ff
f606fdfe0101fff7f2fb02fa0cf2f3f2
0f0204f3f5f1fef0fff1f8f3f1f606fb
01f3fe060d05f00ffdf40b0ffdf709f4
06f2f8f6fa0eff00fd0e06f2faf6f508
f20e060c10fbfe03f106070b000ef9ff
fefd03f60ffef4f3f7f606faf1f6f3f1
02f4f30bf3fa0509f20a020c07040002
10f5fcf70205f80efe000a03f9f00df3
fef2fd0601f4faf50304f7f804f9f208
fa0af8f30df204040cfdfffcfbf70cf0
f609faf00404100d0bfdfafdf503faf6
0df10bf2faf7ff0707f9fefafe0a0afb
f7f5000205050bfc07040307f9f7f9ff
fc08fa0401f908fd010605f2f4f60608
0c00f1f5080b0209fd0b010b0a0b0a0b
f6030cfb000907f004f3050b0401f104
050601fbfc02f104f4f3f105f1fbfb0a
fdfff7fb0e050802070f0ff50f07f2ff
fd04000a10faf0f80406f40afb0f04fc
fcf60901f404f910f4fdfcf3f8f9080f
0b04f902060ef705010e010a09f400fd
f602f9f10806fcf7fa090cf2f7fc070a
f20d040df3f9f80cf5080900fcfafbf2
0f0e06f107000eff03f0040e050701fa
0208f7fd0600010204f601050501f6ff
07fe090ef3f9f4fc05000ff80b07fc06
fe01f5030c0bf403f1010df2f9f80008
02f30e06f9f3f9fc030ef407f2fcf503
0ffb08f8fb0af10806f20ef6f2f5fa0b
fdf40509fc0f010a01020500050702f1
05fafef306f80c07070103f8faf2f5f7
f307f8fc08fbf305030f02fff4f2fbf2
0e090b0605070c07fff609f3f10a0df2
f3f0f6f50cffff0f0f0501f6fb030efd
