00
7f
f2
e9
ea
d8
15
0b
e0
0c
de
00
7f
05
27
26
e9
29
17
df
09
05
00
7f
13
10
11
e2
20
ef
f8
21
ed
00
7f
e8
e6
fd
ff
22
ea
00
e8
fd
00
7f
1c
26
df
fc
f3
fd
ff
10
f4
00
7f
e2
de
19
eb
02
19
0b
da
0a
00
7f
ef
08
00
00
db
ef
da
2a
26
00
7f
01
15
28
29
1c
21
f3
e4
1b
00
7f
e3
21
13
e5
f8
12
23
20
e0
00
7f
f8
2b
f8
1c
d8
e8
0c
e6
e6
00
7f
e9
f8
09
18
17
f3
e2
fd
de
00
7f
f3
10
19
26
0a
e8
f7
e8
2a
00
7f
12
1f
13
06
e6
22
1c
fb
fe
00
7f
df
e8
d7
dc
f3
ed
f6
1f
fa
00
7f
07
28
f2
0a
fe
02
17
e1
28
00
7f
fa
2a
22
d7
dd
dd
f8
25
df
00
7f
fb
28
1b
1d
f1
d8
26
ee
08
00
7f
f0
06
fc
e0
02
0f
1f
de
27
00
7f
d8
11
0c
e0
0e
09
0e
f5
e7
00
7f
ea
0c
0e
e3
1d
fc
e0
d7
d9
00
7f
dd
1d
ec
f9
22
19
0b
db
d9
00
7f
00
0a
eb
f3
f2
26
e9
22
db
00
7f
f6
ef
1d
1b
24
eb
fe
1f
09
00
7f
08
2a
1a
08
0a
ea
1a
18
0e
00
7f
fd
1a
ed
e7
dc
0b
05
17
fe
00
7f
ea
fb
e1
05
f0
2a
13
29
15
00
7f
ef
e5
0e
04
01
0a
17
24
dd
00
7f
f4
e7
18
05
fc
11
db
da
e3
00
7f
21
e3
15
eb
1f
e0
fd
09
17
00
7f
0a
29
eb
fa
e5
fb
21
1f
d6
00
7f
15
f8
06
01
29
ea
f3
e8
04
00
7f
22
d6
0f
03
1f
23
f1
0f
f2
00
7f
f3
dc
ff
d9
d8
03
24
f9
ec
00
7f
db
e5
00
fa
1f
04
26
00
fd
00
7f
d6
eb
11
23
15
fc
00
13
e2
00
7f
0f
03
00
ed
1b
0b
1b
db
d7
00
7f
f8
ff
09
23
e0
f4
f7
e0
1e
00
7f
ef
23
ed
e1
25
dd
18
0b
f3
00
7f
e1
14
e7
d7
0b
03
0c
09
f3
00
7f
07
f2
12
0f
27
11
ee
29
25
00
7f
f7
11
05
e1
e3
21
f2
da
ec
00
7f
0c
17
0a
ed
0a
f5
ee
21
e5
00
7f
26
27
26
fa
1d
1b
0b
f7
22
00
7f
eb
19
e5
0b
f7
25
ef
e9
08
00
7f
17
21
d7
dd
e7
e2
f1
ef
28
00
7f
1d
fd
1e
f3
0d
e0
e3
d9
da
00
7f
00
0f
ec
e6
08
20
12
e2
21
00
7f
28
e2
06
22
e0
17
f2
f9
e9
00
7f
f2
fb
f5
06
07
fb
f6
0c
fc
00
7f
04
24
11
1a
18
23
1e
da
d7
00
7f
16
dc
e0
dc
20
10
25
22
f5
00
7f
12
17
f4
16
14
f2
d7
17
04
00
7f
07
27
21
22
dc
f1
09
18
f0
00
7f
23
20
2a
1d
02
e4
0c
e3
fe
00
7f
22
0b
ff
d6
fe
e3
ed
f2
1e
00
7f
26
0b
04
26
21
23
eb
e7
db
00
7f
1c
e5
fd
15
df
f0
f3
11
1d
00
7f
f2
ec
27
f4
20
19
e1
29
1b
00
7f
08
d9
ef
21
da
24
fd
03
e2
00
7f
e0
d8
fc
00
f6
e0
19
18
d6
00
7f
ed
f6
eb
0e
12
d9
e3
0b
f3
00
7f
fb
df
02
db
27
1e
fd
da
1a
00
7f
06
23
2a
e0
f1
24
28
e1
20
00
7f
2a
01
20
0f
1a
f6
fd
e5
ed
