00
7f
f6
1b
0b
e9
16
10
26
fa
03
0a
00
7f
23
18
f6
23
e2
f3
ed
e6
fc
0e
00
7f
fb
ef
12
df
09
dc
eb
0c
03
23
00
7f
ff
f0
10
0d
17
f7
27
15
07
22
00
7f
fa
18
e1
13
ff
e4
fd
04
f5
22
00
7f
26
25
f0
0a
db
e0
e3
ee
15
23
00
7f
f8
05
0b
f9
10
21
f2
e9
0f
f0
00
7f
f1
29
d7
00
e1
ec
01
dd
04
13
00
7f
11
f5
17
1f
1e
f2
1a
1e
f3
e5
00
7f
25
f5
f1
1e
fe
01
0b
24
0d
13
00
7f
0d
dc
01
ea
19
ed
ec
dd
e9
f6
00
7f
e9
0d
00
26
e3
03
ee
d6
de
e6
00
7f
f8
1b
26
fd
ea
23
da
21
dc
dc
00
7f
08
00
04
12
de
11
0b
ff
0f
1b
00
7f
16
08
03
dd
ea
f6
ea
1c
08
e3
00
7f
06
f9
e1
1c
dd
ed
f7
ed
e3
fa
00
7f
22
f3
0e
25
f1
23
03
f7
fe
db
00
7f
04
ef
20
eb
f3
fc
d9
27
de
e8
00
7f
00
fe
21
0c
db
26
01
19
20
0c
00
7f
dd
f7
26
f7
07
ff
d5
ee
0b
f9
00
7f
f7
1c
d5
da
ed
11
19
18
fe
ff
00
7f
28
21
ee
ef
fc
fa
eb
f0
f4
1a
00
7f
22
1e
09
e9
07
19
e3
28
24
17
00
7f
d8
d8
26
23
fc
09
20
f2
f5
27
00
7f
27
f3
12
e2
f6
06
fc
1e
dd
fb
00
7f
e2
fb
d7
eb
ea
04
f1
1d
e0
e5
00
7f
e4
06
e4
19
f7
fa
fa
f3
12
ec
00
7f
2a
14
28
e3
db
2a
10
0c
f5
1b
00
7f
de
f3
0b
fa
fb
1b
14
1b
0c
f0
00
7f
27
e2
fe
d8
09
fd
f9
e0
1e
03
00
7f
07
d8
f7
02
09
f2
1b
ee
f2
e5
00
7f
01
e5
f4
dc
db
13
1d
04
0b
e8
00
7f
1d
21
e9
1e
ef
e3
28
03
0e
e3
00
7f
29
dd
0a
0c
1f
28
18
e4
fe
27
00
7f
1f
ed
2a
0d
f2
1d
1c
e1
06
16
00
7f
e2
1d
e4
21
0b
27
1e
df
01
13
00
7f
df
12
ff
fc
1d
11
dd
e4
fd
f6
00
7f
24
f2
e4
11
d8
22
02
25
da
01
00
7f
15
e3
e2
d9
22
e9
e0
1d
d7
de
00
7f
10
e1
dc
15
d8
fe
20
15
03
15
00
7f
e5
ea
ec
29
0f
08
e0
13
24
eb
00
7f
20
07
0d
24
12
23
21
de
00
19
00
7f
e6
df
d7
f3
0e
0f
f1
df
d6
eb
00
7f
15
10
e4
de
0b
1d
fd
0c
1f
f4
00
7f
f6
df
fa
db
ed
13
05
0c
e0
d6
00
7f
13
0e
f4
d8
e4
11
e4
25
e4
ff
00
7f
db
00
19
fc
07
ef
ee
ee
23
e7
00
7f
ee
e7
1b
29
13
fd
00
eb
07
e7
00
7f
1d
ea
0a
02
01
25
18
1b
20
e9
00
7f
27
08
05
21
f5
26
ec
ed
05
e9
00
7f
f1
2a
e8
db
f6
ea
fe
e3
e9
1b
00
7f
f5
e7
e5
ed
e1
22
d6
00
0c
dd
00
7f
db
ec
23
1a
f0
e8
1d
d7
d8
d9
00
7f
ea
08
ea
dc
e5
fb
f0
2a
fd
f5
00
7f
12
17
0d
01
d9
07
17
18
f5
1e
00
7f
db
e2
fc
20
ed
f7
00
03
fc
e8
00
7f
ed
e9
ff
eb
04
df
0b
fe
f3
eb
00
7f
e7
1c
f0
28
21
d9
0d
1d
e4
1e
00
7f
d6
f3
11
d8
f2
13
08
21
df
13
00
7f
f9
f0
2a
29
21
00
f4
19
16
23
00
7f
21
fb
17
1a
fd
0b
ea
f8
de
1d
00
7f
e8
29
18
07
1f
fa
d8
e0
0c
23
00
7f
db
0c
f6
0c
28
2a
25
dd
01
0e
00
7f
1e
1b
f9
f2
da
21
1a
28
05
29
