fffefe000000feff0200ff0206fefffd02000102010001fefc01000002010100
0100ff0003ff00020001000001010300ffff010000ffffff01ff01ffffff0100
ff010102010100000000ff020200ff01fefffe0001fefefffa00ffff030002fe
00ffff01fffeff01000001fe01ff01ff00fe0101fe0100010300feff0100ffff
fd00000005ff0201ffff02010200fffe01ff0001ff00feff01ff020100010002
fffffd01ffff020000fefe01f9fe00ff000002010002ff0306010201fffdfeff
1cd715e9e9dff533fb354f2129de0fdf0d19201328e036f63f34ddf0e1370bf1
202a132a2d27241e1e191d171b231d211f190f14192330181b19292732232823
ffff0101ff000100ff0000010000010000000100ff0000ff01ffff0001000101
fefff902fd0303fd00fffcfc0000fdfdfe0202fbfcfdfe060203fffd0000fd03
fe01f9040200000105fffb03fc0200fd0502010efe000000ffff020301010102
0001000201fefe00ff01000100000202ffff00ff0100000002fdff0102fe0200
00fffd01ff0000fe000200fdff01ff020000ff04fd01000300fe0000fffd00ff
ff02ff000002ff000000ff0202ff00fe01000000fe010003ff00020000ff0000
0001ff0300ff030201fffffffd00010001fe02fe000101fd01ff0101000000ff
fe00ff0100ff0100030100ffffffff030200fd0001ff00000001020003000300
ffff00fe0101fe00ff01ffffff01020000fefd04fefffeff00fbff01ff0200ff
00010001ff0200fe00fefd01ff000301fffdf90000fefe02ff0102030002ff00
fe00fdfffefe0002ff0201010202ff02fe030100000001fffe0000fffffe0001
fffffe00000001fffd01fe00fe01fe010101fbff00fffffe01ff01fefe040000
00010202fd0201fffffeff00fe0000030102fe00fcffffffff000101000000fe
01000002fdff00ffffffffff00fe00040000ff0000fefefdffffff0101000000
0101ff030100fe010200fffeff0300ffff00ff010101fefefefe0000ff010001
0000010000010000fffe00ff010101ff00010101ffff000200fe01ff0002ffff
fe02ff000102fefd040100fffd01fffefe0108fffc030001fd01fe0001010002
fe0200010302ff01fe00ff0201ff00010200fffe01fdff010100ff010102ffff
fe00ffff0401ffff01ff00010000fd01feff0001ff00fe0000fd010200fd0200
fe00fe03000102fe0102fe01fc01fefffd010202020202fbff01ff02020102fe
ff03fc01000101feff00ffff000102fffe00fffdfe00ff03feff030002fe01fe
00feff0200ff02fe01fdfffefeff03ff000301020103000500fe020002ffffff
0101fd00fffe01fe01ff00ffff01feff0000fd00ff0001fffdffffff00fd00ff
000100010003030002fffffb03ff0101fffefdffff01ff0200feff000004ff00
ff00ff0001fffd01ffff0104fe0202fe000201fefc02fffdffff0101fdfe01ff
fd01ffffff03050001fffffd00fffa01010304fc010000fe000001fe010202fe
fe000100ff01fffffffcfdfe0201fe0200fbfe0002ff00030005010000ff03ff
0100ff01ff00ff010102fffe0302fe00010201fe00ff01010104feff01ffff00
0003020001030101feff01ff0001fdffff00fefe000100feff0101ff02fdfffe
01fe01000000ff010100010302ff01010000fdfefc00020000ff0100000201ff
0001fffd0000ff01fe000100ff010100ff02000301fffe030201ff01000000ff
020001ff00000301fd01fe000302020101fffa0102fd020003ff0000020000ff
fe00fe020101fdfffdfefffd0001ff00fffe02fdff0100fffefe030001ffff02
00ff00000000ff01fdffffff00fe000002010202fd01000502fe0200fffe00ff
000102ff010101000001ff01ff00ff00010100020200fffe02fe0200ff01ff01
010100000100fffeff02000001ff01ffff01ff00fefffd00fdfeff00ff000000
0001fd0102ff01fe00010101010202010100ff02ff0101ff00fd0002ff000000
0401fcfe03fefffffd00fe00010303ff03010100fd010100fdfe0000ffff0101
fe0001ffff0000fffdff0203fcfeff000000fb01ff02ff0102000100fefe0202
fe000000ff010200ff00ff00fe0100000201000200010001ff000001000001ff
000001ffff02fe00020002020100010200ff000203000100ff00ff000000fe00
0101fcfe01ff000102010202ff01fe00fffdfe00fd0200fffc04ff0200ff0000
ff0200fe0101ff02fe0100000100ffff0100030001fffe000000fd02fffe0101
fffe03feff0301000001fe0000010001fffe03fe0003000506fe0002ffff0200
fd0202ff0101fe00fc00ffff0100000000fdfeff00fd00ff0101000000000300
ff01fffffe000002fffe01ff03000100ff0100fe0000fe02ff040000fefe0001
00ff0100ff000101000102ff0100feff000101000001fffe00ff0001020100fe
01020300fe01000002fe030401fffe00ff0200ffff0101ff03feff0000010000
fe02010000000002ffffff000000ff00feff04000001ff01010101ff0101ff02
000000010301fffd0000fd01020100ff02ff01fe0002ff01fdffffffff00ff00
0001fe0101030000fbfdfe00fe010001fe00ff00ff01fefd0200010002030002
ff010300fe0200fffe02fe01030200040100fb00ffffff0200fe0301ff02ffff
ff0100010201ff0201020000ff010100ff0106020001fefd0101ff010001ff00
02ff03fefeffffff01fe0003010001fe0100fe0100ff0004ffff000200000000
0001ff000200ff04ff02ff0201ffffff0000ff03020000020001ff02000100ff
000300ff020101fe0000fe00ff01010400fcff0000ff01fffeff000001ff0200
0100fcfffffe0102fffffe02fffe0201ff02fffafeff0104fe0002fefffe0000
fe00fa0201fc0000ff0001000000fe04fefcfcfafd070103ffff01fe01fdfffe
0201fd00ffffff0000ff0003ff000301fb00060000ffff030000fe0300fc0004
01010102fdff05ff02fffeffffff000000fffffefcfe000100010501020001ff
ff0000feff010000fc01fe00ff0102ffff0100fe000000fffd040002ffffffff
ff01ff0101000100fe00fffefe00ff000000ffff01ff00fd02ff010000020000
00ff02fd02000203ffffff0101010001fd01fcff02fdffffff0101fffeff0101
00010101ff0100ff01ff00010001fefffffefe0301fffe0002feff01ff010101
ff00ff010200010102fe000106fdfe0202ff06ff000200040003000000ff0402
ff0301010103ffff02000005fe000300feff06fd0100ff01fd0300ff00010001
00ff0000000002000100fefdff01020000fefb02feffff0200fc00fffffd0100
ff02feff000000000200fefe0301010100ff00fffffefe03020200fffeff02fc
00010001010000fffefffeff030000ff0100040101fffffe00ff0101ff02ffff
03ff00ff0000ff00fe02fe000001000203fe02fffe000203fefeff0300ff00ff
01ff00ff01fd00ff0103fd010100fffffefffd01020401feff0300fe00000000
00ff04ff0002ff01fffdff00ff00ff0200ff0201000001010100000000fd0001
fefe00fffe010101fcfd00ff01ffffff0002f802fe03fffdfffe01ff000101fe
00fd00fe00ff02000002000101ff0003fefefc00ff0201fd0000010001ff0000
ff01fd010101fe020000ffffff01000200000200ff020202ff01ff0002000100
fc01020001fffeff0401ff01ffff020101fc03fb0001ff0101ff0100fe00fd00
0201fe02ff0205fd01fefcfd01040100fffffefeff02fdfefefd0000000201ff
0200000000010102fefe00fd0001feffff02fefeff000000feff000001000101
0001ff00000100ff0101010001fe02ff010102fcff00ff01fefe0000fe0002ff
0002fe010000000001ff00ff010201ffffffff00000001fdfefffe0102fe0101
02fffd0100fffffd010002fb02ff0001fdfdfd02ff01010200fcfffe01000000
010200020101fe01ff0101fe01ffff01020001fe0101ff03fdfd01ff00ff0002
00000000feff0100fdfc000001fffdffff0202000201ff0102fe00fffe06fe02
ff00fe010000ff0000fe020001ff0101feff0201fffffd04fd0201ffff000000
0202020100ff0001070302feff0101fe00fd0700fa03000502fe01feff020102
01ff01ffff0302ffff0000fcfd020000000004000000ffff02fb00fd00030101
ff0101feff000100fdfeff010102010102ff020203fd010101fafe0001ff0205
0003fefeff0100ff00fffdfbff000100ff00ff00fe00fdfcffff000202fefd02
fdff02fffffe030001fd030104ffff0303fefbfe01fd0102020203fffffd01ff
fffffeff000003fe00ff0003020001ff02fffc01010300fd02fbfe0100fe0100
ff02feff0000ff00ff010004fd00010101ff0102020102ff010000ff01020002
0000ff010000fffe00fd000402000001fe01fefffcff0002fffeff0100ff01fe
feffff000000ff0003fe01fe0102000302fffffe000101000100ff000004fdff
00ffff01010003fe02ffff00fe00fdfd02fc01ffff0100fcff000002ffffffff
00ff0201ff01fe00fffd010102ff0002ff0200fcfd0000fffcfe00ff02000001
02ff0001fe00fcfeff000004fdfeffffff0000fdffff0100fdfa0002ff0200ff
ff00ffffff0001ff01ffff03fffffe01ff00fd01fd01ff03ffff0000010001fe
ff0209feff0304ffff0001fbfe0000fe0000020101020203fffd01ff0001ff01
0001ffff01fe0001fffd00fe0100fefe00fe0201ff0200feff050001fffe00ff
00fffc00020001feff00fefefe0100fe04fe0001ff02010300000000ffff01fe
ff00ff0201fd00fdfc020101fe0104010100fdfe00ff01fffffc0000000100ff
02ff0000ff010003000200ffff00ffff000102ffff00ffff0101010000030000
fefffb02fffe02fffcfe02fb0001000000fffdffff0100fdfefd010001ff0000
0001ffff010000fe00fffeffffff0202ff050004fe01020201040000fe00ff01
ff01ffff000000fffe00ff01000201030001fd0002000200fffe00fe00ffff01
0101fd01fd0101fe04fe00fffe04ff0000ff0202020001030102ff0100020200
0000010200fc00ff03ff01fd00ff01ff03ff040102000000fe00ff01010102fd
010101020200000003fffd0500fffeff010202020102fd0001faff00ff0600ff
01ff02000100fefe0000fefe0003ff000002ff00ff01010202fffeff000100fe
0100fe0000020001ff0000ff000000020000fe02000001fd04fd010100feff01
fe00000002ff0000000000fd04ffff01feffff00000101fd02ff02ff010002ff
0102020002ff0000ff0000fd01fdfe02ff01fefffe00010200040102ff020001
02ff0001020101fe00ff000000fe0201fe000303010200030001fe0101ff0101
02ff00fe00010101fefffe00010000fd0001ff01ff00fffdfffc000201fe0101
fe0003feff00fdfe03ff020102ff01fe0000fdfdfefd01ffff02000101fd0002
0101020000ffff00ff00ff03ff01ffff00fe0601020101ff0101010200ff0102
01ff000100fffffe03010000fe00ff00010200fe000200fffffe00ff01fdfe01
0101ff00000101ff01000001ff0201000100fc0001010101fe01fe000000fffe
01fe0201000002ff0303ff04fe02ff01000100040102010000fd0102000102fe
010002000102fefd02fefffd00ff010202fc0000fefe000300010200ff0001ff
ff010301ff00fffd0203030001ffff00ffff02ff00feff00010000000001ff01
02ff01ff01fd0200ff01fefb00fe00010101feffff0001ffff00fe000203fe03
ff000201010103fdfe00ff0000000200030002fdfffe00fdfdff02ff00fe0200
ff02000100fe020002fdff03ff0000fffefd0201fffe01010002ff010000ff00
fe01ff01000001fefefd00feff0100010101fcfe00ff01fd00ffffff02ff0100
0001ff0302fe01fcfefe0100fdffffff00fe05020000ff07fd0202ff02fcfe01
fffffeff00000002fe0103ff0200fe020000fd000001fd01fd0101ff00030000
ff00ff01ff04020000fd00fbfb0200040002fb01feff0301fefe010100ff0202
fe000101ffff01ff01fc0000ff0004000102fd01fffd01fd0002fefe0100ff00
0002040001000002fffefbfe0002fe0100ff0103040101020001ff0100fefd01
fe0000ff00ffff0200ffffffff0200ff02fffe000000000101000002ff000000
01ffff01010101ff0000fffe0200ff01010100030103fd00fffd000001fe0100
0100000101fe01fe05010203fe01020400fc01fffd01ff020100ffff00fb01ff
0101000202ff03ff04feff01ff00ffff010003fdffffff02ff0200ff00fe0001
0401fefffe0200ff0001fe00ff010001fdfe00000001ff02fffe010000020000
01000002ffff01ff0100fe03020100fd01fffd0202ffff0201ff01fffefeffff
01ff0002ff00020101fefefe00ff02fffe00fa0002ff0004fe02ff01ff0001fe
fcffff01fe0200fd03000002ff02000201fdfb00fe00ffffffff0101010201ff
fefdfe0100020001fdfffffefe02fe00feff0300010400fffffbfffa03fe00fe
ff00ff0100ff0000feff04ff0200fe010102feff010101010000ffff02030202
fe0001fd010201fe01fffdfefd00fffdff01ff000001fe02fd05ff01fcfd0003
01fefeffffffffff0101ff0101ff000000fd010100ff0002fe0100ff00040100
0200feff02ffffff010002ff000100ffff01ffff000100fffe01030100ff0001
fe0102fe01fffc01fafffffbfe0101fe0001fe0001fffefe00ff010102ff0000
00fffc02010001ff01fffe010002ff0500feff0000fe0102feff02ff00fe0300
0001fe01ff000101020001fefd00ffff00fefbfffeffff010002fffe00fffe00
ffffff01ff0100ff0001ff000101020201fefefb0000ff0201ff0000000001ff
0000ff00ff00ff0201fdffff01000201ff000000ff01000000010201fefffffe
fffe0400ff000002fffefffd000000ffff00fffd03ff0102030200ff01fc0002
02ff02010300fffffdff0001fdff0300fc03fefffc0200050200000101020001
01ffff03ff010002ff00fffcfe01feff0002060101010105fe02ff0100ff0000
00fffe0100fe01ff0301fffe0201fe01fdfcff00feff00030301000100fd00ff
0000ffff0000fe010100020200feff030102fe0001ffff010101fffe00ffffff
fe00fa0200ff01010600fffe0003fe00ff030400fdff020000fe01fe04030000
0201fe010202010001fcff01fe020103020001ff000001000000000100ff00ff
ff01fe000102ff01feff000000ff0100ff02fefdfffdfe0101000000fffd0001
fe010203feffffff03fe010302fefdff00fdfe0000fe000300fdff00ff010000
01020200000200020200fffe01fffffc01fe0503ff0000010001ff0001010201
01ff00ffff01fdfffeffffff00000101ff010102fcff0003020002010100fffe
00feff01000101fefe0100fffdfeffff0100fefeff0001fd00fa02fe00feff02
010200fffe0100fe00fe0100000103fe0401fefffffeff01fd0000ffff0100ff
0000030101020003fdff000201ff02ffff00ffff00ff01000201ff00000100fe
0000fd00ff00ffff0400fefeffff00fc0001fbfe010200fdfe0201fffffe0201
fd03ff02020000fffdfe00050100fe0001fe01fa00ffff01fefc000101020001
000000ff00fefe000100fffd0101fffffefefefd02010102ffff00fe00010001
ff00fc000202000100ff01fffe0001ff02feff0003000103faff01fd0302feff
fe01fb01ff00feff0202fffe00ff01020103fcff0100000101fd0001ffff02fe
00010100000001fffffffffefffffe0101ff000002ff00ff00fe00ff01000000
02fffdff0100ff00fcfdfffdff01ff0000fffdfdff020101fe0100fe00fd0101
00fefeff0001ffff02fefdff05ff020201fef800fffd010102010201fdfc01ff
0100ff0102ff01fb01fc0100fc02fd0101ff0302fe02fffdfffb00fefefe0000
fd03ff00ff010102010103fe020200fe03050202ff02fe010101020000040200
020100fffeff000102fefdfe0002010101ff0101000002fe01fd010100020000
0101fdff0100fefd00010201000100fefe010300ff0301feff000100fefeff00
00000601020100fc00fefefdfdfd040102ff02f703fb0103fe020001ffff0000
0101ffff000002fefefefdfeff030000ff01feff00010000fd0100ff01fe0100
fe0001fefe0001ff01fe01ff0200010101ff0002fdfe0104ff00feffff000201
fe00010002fe010100000000fd01ff01feff04ff010100fd0101010001ff0001
01020100ff00ff0100fbfc02010201ff00fefdfffefeff040102ffff01ff00ff
0000fe02ff0103ff0100ffffff0201ff0301010600fe0200ffffff01fffffe01
ff02ff020101fe01030100ff01ff00fe010004010100ff01ff05ff0104fdfe01
01ff00ff00000100ff00ff0302ffff010000030200ffff04000000ff02010102
01feff00ff0101fffd000002fffd0103000002fe0301fe0000fcff0000fe00fe
ff000201ff020103fe00fefdfe01010101ff02ff0000ff01ff0200fe01ff0101
fe02ff0102ffff010000ff0501ffffff03ff04fffdfe000302010001fffeffff
00fe07ff00ff00000102fffffe03010203000102fefffffefd00ff00fd0000ff
ff01fe0001fffdfffffefefefe03000100fd0100fcfeff040301fe0101fbfdff
0000ff01020101ff0303ffff0101000201ff040300ffff0200ff0000ff01ffff
fefefeff0002000000fdfd00ffff00010004ff000001fd00ff00030300fd0100
0001ff0100ff0001000003fd01ff0301000001fe00fd00feff03000000010001
01ff02ffff0001ff0001ff03ffff000001fe0100ff020101fffd020201fd0000
000000010000ffff000002000000010000010200ff01feffffff0000fe010001
0200fd02000002fdff00fefe01ffff0104fffefcfe0101fffdfe00ffff0102fc
ff010000ff000101fbfe0001fffe00fe0001fcfd0002ffff00ff0101feff0201
01000101000202fd0102fe010000010200fd0302fffd0103fe02020000fe00ff
04ff040202fffd01ffff0100000102ff0304ff030301000202fe0001010202fe
fd03ff01ff010103ff02feff000302000000050100ff030004ff020201000302
ffff010001ff00ff02fefffefcff010000fffffdfe00fe01fe010001fffe01fe
00ff000201fe01fd04fffdf8fd040005fefff7f90002ff0200f7fe00010401fd
0003f90001ff02ffff01ff02030200feff000003ff0305fcfdff000002fc0101
fffeff02010103fd0300010303010001ff0100ff000001feff0100ff00000000
00000003ff030101ffff00fe01ff00040101fc02ff00ff01030101fffffffeff
feff010102fe00ff0000fe00000104000100000100000002fd03fe01fe0001ff
010101ff00ff0000fffe00fffeff0100fd01fd0000fe0100fd000100ff000101
fe0101ff02ff00000402ff00fffffe01fffe04fd0103fe01000100fdff000105
02010101ff0402ffff0301fdfe00000200ff02000002feff0100feff02010102
03ff02ff0000fe00ffff0202ff02000201000000ff00fe00020002000002fe01
0000ff0202ffff01ff0100fdff01fefefd000101fe0200fefe0000ff0000ffff
fe0201010102fe000200fe04fc00ff010201030000ff01010001000300ff00ff
0000fe0200fe0100ff00ff00feff010001fe0201fe0200fffe01fffe01ff0100
fffffe0002fcfffe00fd00fc01ffffff0001040201030100fefd01fc0103ff02
feff010001010200ffff0001ff00010000fffe020000fffefffe0100ffff0201
ff01fe020101fe0200fd00ff0100ff0101010001030301fd04ff010101fe0101
000101ff01ffff02ff0301ff00ff00ff0201fc01fc000000fd000001000101fe
00ff0200000302ff00fefd00ff01fe020000fbfd01010100ff0001ff0201ffff
000203000100ff00ffffff020000ff01fd01010201ff00000200ff0000000000
00ff000001fe02fc00010000ffff0001ff0200fd00ff00ff0204010000fe0101
fffffd00010301010000ff0100010000ff02ff00fffe01fffe00000100feff00
01fffbfefffffdfffeff020100010101000000020100ff03fd00ff01feffff00
0100fe01fdff01fffffdff0000fe00fe00fd000000ff0000ffffff0100000003
ff00000001040000fcfdfeffff00fffefcfd00fd01fffffc0101020101ff0101
0102fdff01000102ff00fffd02ff00ff000003010302000000ff00ff02010100
01ff010102fffdff010002fffe00000101fffe01010002fd0002feff00fe0000
ff010302feff01fd03ff0001fe02fe020000fc0202ff000000fa000000020102
02010001ff0300fe00fefe02fe02fe00020001fffcff00fe010302ff010002ff
010102ff0300fe02fbff00ff0000000000fd00010201020201ff020000fe00fe
0000ff0002ff010003ff00fdff01000001fffd01ff0101fefefc030001fefe00
fefffd010000ffff01ff0101000001fe0002ff020000fffffffd0101fffeff03
fe00feff0202ffff0001fffefe010000ff0000ff0200fdf90101ff0000010102
010000000100ff01020202000100ffffff0103010401fe01feffff02ff040002
fdfefdff02000100ff0102ff0000fffc03fefe0001fe0100fffd02fd00000100
0101ffff0000fffe01010101feff000000fe0101ff01fefefffffffffefefeff
feff00000101fe01fdfffd01000100fffffffbffff000000fcff0202fe010002
ff0003fe00fe00000101fdfefe00fd0103fefd01fe00fffeff02000001feff00
fd0003ff02feff00ff0300020200020203fe0104ff0201fd0000000102ff01ff
0100fefd03010002fffffffdff01fe01feff04fdff0200fbfdfd010201fe0202
ff0101000000fffefefcfd00ffffffff03feff00fc01ff0200ff02ff0000feff
00000101ff0102fe00010100010100fe0303ffff0001000100ffff000000fffe
fe0003010001fffd0101fe00fd00000302fe0201fffe02fefe010101010101ff
00ffff01fe0101feff00fffeffff010101fd00000100feffff0100ff0000ffff
000106010001ff0102ffff0100000000ff0100fffefffffe0103ff02ffff04fd
ff00010102fe0300fd0003ff02010101fefffaff01fe0101fffffffffdfeff00
00fe0500fefdfd00fffe00fe02ff01fffcfffe0202feff00fefe010101fe01fe
0000fd00000001fefd01fffd0302fe00fe01ff040101fefffc0200ff0000feff
ffffff0200000001ff000003020101fffffd030001fefffeffff010000ff0201
000001fe00ff01ff00ff0000000101020002fffe010000ff01000100ff010100
ff01010200020000ff000102020201ffff00f90300010102ff03010100010102
01ffffff0103ff02fffdfb03fe01ff000100ff050402fffcf9000101fe01ff03
0100fe0100000001000000fffefffe0301fefdff00feffff01fb010001ff0102
ff010301ff00ff000000fdfffcff01ff00ff04fe0100000000ff01010000ffff
02020102ff0101000001ffff00010300ff0202fffffd00ff03feff0000020101
01feff02010000fe04ff01ff02000001ff0000fefe02ff02fcfffefe00fe0000
00ff00000102ff01ff0200ff0100ff000001fe0400000101ff0201020101feff
01fefe0103020100ff030202ff0101fe0103fd0100ff01fd0200ff00000001ff
0000010000ff03ff00fe01ffff01feff000000feff0200020003000002ff0202
0102020100ff0000000101ff01000100ff01fffd000201ff03ff01020100ff01
0201ffff03ff000002000000fc02ff00010001ffff03fefffd00010100010102
fdff0301020001ff00fdff00ffff030001030001fffe00ff01ff0100ffff0301
fe00000201ff000001ff0002fe0002fe000000010000000200ff000000fffeff
fe01ff01ff010001fd00fefdfe02fe01fd00fcfffd00ffff0500fd0003fffdfd
0000010101ff0201000000fd0002020200ff0100ff0002fefeff00fffffe01ff
02020301ff00fffdfffd01fbfffe000203ff01010200feff04fdfc0002000200
0101ff0102000001fe030002ff0101fffc0002fbfe0100fffcfc0001000200ff
02010101fe0101000200ff01fe0001fefdff0002ff00ff0002ff00ff0002fefd
0101ff02000201ff00fffefdfa00fe00fffefb05fe01fefe01020000000001ff
fd02fd0201fe02fffffefd0000fcff02fe00fcff0104fd0302fd0201ff030000
0000000000ff000000ffff0400fe02ff0004060201ff0101fe020101fffeff01
fefe0003fe0001010000fffd02ff00fffdfe04fefeff00000102ff01fe020002
ff01000302ffff010301ff01ff0201fffdfeff00fdffff000000ff01fffd00ff
010003fe00ff00ffff00fefc04ff01010102fafe03fffffd0100fffe03ff0102
fe00fd0201fffffd03ff0000ff00010300ff00feff02fffe0100000200fe00ff
fffcfa020100fd01fffd0204ffff0100fffd00000102010400fe0001ff01ff00
010003ff0201fffe0403fffe0000fdfffe0105fffe020103fefe000001000103
030200ff02fcfe0001fa04fffc01fffffffefffffefffd00fdff000200fffe02
faff00030101ffff02fefd02fc00fd02fafe0002fc000100fafcff020300ffff
fe00fd010100000003ffff02ff000102000301010101fd0100fe0100fe00ffff
00fefc000000fdfffefffd00ff00ffff02020201ff0300fdff02000100fffd01
01000203fe0002feff02fc020201010200fff602fcfffffe00ff01ff000301fe
0301fc01fe0503fc0200fd0000fd0304020204ff03fdff05ff020101030301ff
000003ffffff010202fffe05fd00fe03000002fefeffff00fffe0002010000ff
0102ff00fffefefe00ff00000001ff00fe0304ffff0400ff00fd010200ff0200
000002ffff0100000000ff02fffffe020002fbfc000100fdffff0202fd00ff00
00ffff01fe010000fffefc0401010001010007fcfe0001fffeff030101020200
01fe01010003020001fe01040001fd020200fe01fe010100fffdfe01ff020000
0203ff00fd0203010000020001feff0200fefefd0002fd04feff01fffffe01ff
fd02ff0100ff00ff01fffe02fe02ffffff0001fd000201fe0100ff020100fe01
0200fdfffffffefdff0100fe01fdfffcfdfe00000005000302ff010002fe0100
02ff0000ff02ff00fdfffb0101ffff0201000402ff00fffbfffdff0102fffe03
ff00fffefe000000010000ff000001feff0202fefdff00fbfd00fc00ff02ff02
00ffff01ff0101ff01feff0000fe03fffe00fbff0200ff0202fe0202ff02feff
ffff0201020100fffdff000300ff0000ff0102fffeff0002fe03010001fdff00
01ff0102fefefffefe000101fe01010000fdfdfe0600ff0200fe010000fe0000
01000602fffffe0100fffffdfe02010100fefdfdfdff0102ff0002ff0002ff01
feff05ff0100ffffff000100fffe0102fcff00ff0502ff02fd03010200030001
0004040100fffefe000201fffefe04fefd01fcfaff04feff03fbff00fffc0400
0003010100020000ff030100fdfe000103fd040001010200ffff010300ff01ff
0000fcff0000fefe01fffffbff01fffffffefbff01010101000300fffffc00ff
ff01fd000000ff02ff00ff0003020101ff00fe01ff02ff0001fefdfefffe02ff
01fe020100fe01ff00fefe020101ff0100fefefffe010203fdfe01fc00010003
fdfefe01010002ffffff01ff00fe00fe00fefdfcff01ff01fd02fffe0100fffd
010100ffff00ffff0202020000fffe05fe03fe0002000101fefa02010001fe01
ffffff01000003fd05fc0202fd000102ff01feff0201fd01fc01010000fe0201
00ff0100fffeff0100010101030101ff01ff00010000ff0001ff00ff0100ff00
ff020101020202ff00ffff0100ff000002ff050400020102ff01000101000302
00fffd0001010101fffffefdffff000100fffdff01010000fdfc00fefe0001ff
01fffe0001020101fffefdff0201fffffffc01010100000301fe01ff02ff0100
fe0202000002ffff02ff01ff01fe00040202ff000000ffff020000fe020201ff
0201030000000101000102020100ff0200030000ff010200fffe020002000000
0200ff00000401ff000100030101ff01030003040101feffff00020001ff01ff
ffff0200fefefffd0101fffefffffefd0001fa0202ff000200fd0000ff040001
ff000102ff00000101ffffff01fe01020000fe00ff0000010301ff00ff030100
0001fd000000010100fcff02fe00fe000600fe01ff0000030002040000fe0102
0200fe00000001ff000200ff00ff01fefffe01ff01020000ff0101ff00fd0100
02010100fffe000100ff0000ff0000ffff00fffe00ff0003fe0102ffffff00ff
fd0201ff01fe00000001ff02020100fefe020200fd01fdff0000fe01fffeff01
00010303ffff02fc020002ff01fdff02fefefdfe01fe0100ff0000fd000203ff
0101000202000300ff0101fc0301fcfeffffffff0303ffff0303ff0000fc0101
0101fd01ff01ff00ff02fffe0101fefffefe0303fe01fefb01fffe00030101ff
0001ff0000ffff02fffd00ff01fffcfffd03fefcfe03ff02fefc00fd0205fe01
000101000100fffffe00ff000000ff04ff01ff000000fe0102fefffe0002ffff
02fd0001fe030002fdffffff0200fe00fd0202fe02fffffefffd0002fdfe0001
0100fe0000fd0101fe02fe03010003fffe0000fc01ff00000001000201020100
01ff00010202000000fefffffe000001fe01fffefffd0201fd0200ff00ff0101
0001ff0101ff010002feff0200ff00fdff00fe010201ffff0202000000ff0100
00020001000402fe010100000001fe0201fa00020200fcfd0200020101010101
02fffd01000100000000ff01fd01ff010003fe00fe00fe02ffff02ff0002ffff
030101000101fffe0001fffc03ff01ffff00fefbfe01ffff0004000001fa0301
01000101fe0200fe03ffff0102fe030101010502fd00ff02fb02010101ff02fe
fffffc020002010102fd00fe03ff02000201ff00fdfd00fe010602fe010101ff
0200fd0002fefffffeff00fd0201fe00fdffff030001ff010001ffff01010200
000001000001fe0202000101fe010002020300010002030002ffffff01000100
01ffffff000103fefefdfefe0100030100fcfc01fd01000400fe01ffffff00fe
fc0101000102fe000100fefc01fefefffdff01ff00fffe02ff0302ff04000300
0000ff01000201fefe0102fc01feffff02ffff05fefe020200ff000100020000
00000201ff0001010102030101000200010204ff0101fffc0002ff000100fe00
fd01ff0100ff03fd0302fefe03ff000103fcfffcff00fb00fefe01ff01fe00ff
0200fffeff00ff020003ff00fe01ff00ff02fefe01ff0200fe0000fe02ffffff
0300ff0000ff00feffff01020000ff0001000002fd00ff0000fe00fe010201ff
ff01fdff000000fffe01fffe0200fe000103fd04ff0101ff00fd01020002fd00
ff000000ff0000ff0102000002ffff0000ff0001000101ff01ff0100fffe0100
ff0001000201fd02fe0201010101feff05000101ff01feffff04020302000300
ff01010300ffff02010001020102010002fffd0800fffe00fdff00fffefeff00
fe00fe00010100ff00fffd04fd000100fb000001fe01ff030001ff0001feff01
fffe00010200ff020200000300ffff00fefffe0200ff00010002000102feff00
ffffff0200010000030101fffe0100fefe010001ff01ff0301030000ffff0100
fe01fffdff000101fffefe01fc0001000003fffe01fefd0601010103fffeff00
02fffe00fe0003000000fffe03000000fefffd03fffffeff000200ff01020203
01010000ff02000003fe0000ff020001fdfeff01ff0000fffdfe0000feff0101
0302feff0101fe03ffff00fffefdff01feff01fe00000002ff04000001fdfe00
0200fffffe0002fe0301ff0100fffefe01fcfefdff0101000100fdfdfffcffff
02ffff01000101ff01fc00fe020001fefd0300fffdff00fffefefdfffffe0301
02fffc0000ff0301fd0101fd010102fe01fffefc01000002fd0201fe01fe0200
ff01fffffe0001ffff0001000200fefe010103010202ff00fe02000100ffffff
ffff01010000ff0000ff00ff00000100fe00000203ff0002ff02ff02fefdff01
fe02000102fe0101fe01fefffd01020200ff020001000001fefe00ffff02fffe
020301ff0202ff00fe00fd01fe03fffe010105fffe0000feffffffff02020001
00fffeff01fffd02020000fffeff02fe00000000fdff0104fd000102fe01ff01
0001feff0101ff00ff01fefefe0301ff0100fffffe02fdfd01010001fd040001
0201fd000001fffefeff0201fe030002fcfd01fefe00ff0000fe0103ff000100
ff0001fd0000ffff01ff00ff0100ff0401fe00010103010201fb02fe01000000
00020000fdfefefd02ff01ffff02000103feff01000002fffdffffff02fd03ff
feff0003fe010000030001fd01ffffff00fffb000100fe03ff0101fdfe010200
000100ffff0002000000ff02ff01030100000203000200ff01fc0101ff00ff00
0001fdffff0301000101fe020004010103fe01ff000001ff0000ffffff000001
fffffe0000ff02fffd00fe00ff00fd0001feffffffff00ff0101fffe0100ff01
00ff00fe0102ff0100000101fefe00ff00fd04ff00ffff02ff00ff0103fe00ff
fffefffe010101fd0200fe0003000000fdfefe00010201ff00fcffff020101fe
02fe000000fe00ffff0201fd0000fe02ff0100fdff00ff0103fd0101ff020003
02000000000001ff01fefeff00030100ff0101010001020001ff00ffff030303
010001ffff0101ffff00fffffefffc010002010201fdfefffdff0001fe000100
0100ff0001fe0001fffe01fd00fe00020201fdfffd000102fffb0100fffe0000
02000200ff00fd03ff010002ff00ff0001ff0303010100fd0200ff01ff01fe00
03ff00000001000003fefffcff00fdff0100fb0001fe0000fcff010002030000
0200ff01ff00000101ff0001010000ff00ffff00ff01ffff020300ff0001ff00
010000fd000001030201fd0302fefd0100ff090003ff00ffff000100ff03ffff
03ff0100000302fd0100fbfcfe00fe0101040101000500ff0001010100010000
0200ff00ffff01fd0101fdfe0000ff01ff00fa020101020100fe00fe000501fe
00ff00000002ff0002fe0100feffff010001fdff01fefffe010001000103fdff
fc010100040102fe0401fefc000104000300010100fffdfefe000203020400ff
fd00000103fffe03ff02ff02fe000000ff0106030003fefdfffffeff0200fd00
00ff000100feff02000100ff0202ff0200ffffff00ffff000000ffff01010000
0000ff00ff0001fffe010000ff00ff01ff02000602fffffe00ff01000000ff01
ff0106000001fffe0000fd0202ff000001fe01fd0200ff01fc01fe010100ff01
fdfffb01010101ff01ff00fffd00fcfe02ff03ff00ff0001fffc010203fe0000
feff0000010102ffff00ffffff02000002ff03ffffff01fefffe000001000001
ff0002020102020002fc00fefcfffe020100fa030004000003fc00ffff01ffff
0100ffff0100000001fe01ffff0001ff01fe01fefe00010001030200ffff0100
fe01ff01010101fffc00ff0000ff00ffff030001feffffffffff020100030000
01ff010101fe000000fe01ff00ffffffffff03ffff0100020001ff0001020101
0000030101ffff00fefe02fdfffffe02ff0202ff00fffefeff00010001000101
020000fffd00ff010000feffffff00ff020102ff00ff010100fd01ffffff0101
ff01fe00ffff020001ffff01fe00ff010100fcffff00010003010100fffffffe
fe01fd000100fe0103ff010703ff00feffff0401ff00ff01ff0000ff00fb0000
000200010001000000000102fe000201fffefffc010001fffefe01fe00fd00fe
fe02020100ff00fc00fc000100ffff0101fefd00ff01000000ff00fd01fc0100
0100fe00fe0001ff00ff030100000100fefe01ffff010103fe010000020000ff
0103fe00010200fefc01fef9000302000101f701010100fd0005fffcfff901ff
00010000000002ff0000fe01000200fffe0200ff01feff0101fe0100fffe0100
000002ff0000fc00ff00fe02000101010000000000ff010102feff01ff04ff02
ff02ff000102020102fffffefe0101010200ff01fffffefe0001ff0101fe0302
00ff0101ff0002fffffffffe00ff0000fe01fdfefffffe030100000002ff0002
ffff0000010000fffffefefefe0002000100fcffffff000201fe00ff01ff00ff
0002fd010101fffe0001fffcfe030102ffff01feff0100020100000000ff01ff
ff0001fffe00000000020001ff02ff0000fe02ff020100ffff00fe0100ff0001
ff000100ff02fefd01ff02fb0102fe01ff00fd05ff0201ff0002ff00fffe01fd
fffe0001ff0001030100fefd0100fe000000010005fffffaff02ff0101fc0103
000203fe0100020003020000ff01000004fd0300ffff01fe0002ff00000000ff
fe0300ff0001fffd0100fe04fffefeffff000300fe0000fefd00020100000200
fd00fd02010100ff02fdfe010200fe0101ff010100ffff01ff02fe0002ff01fd
ff00fe0200010201010000020002fe0201fffb00ff0002fe010202feffff0001
0101000100ff0001ff020001ff0101ffffff000001ff000101fefe00000000ff
ff00020101ff02ff05fdfe0100ff00ff00010400fe0002040201000001fd0000
0000fe0200feff0202ff0000fe02fc0201ff01feff00fdff01fc00ff01010000
000000000200fd01ff020001fb00fcfe02000801fd03fffbfffd010202ff0102
ffffff0000ff0000ff02ff010400ffff0100fffffe0000010002000200000201
ff0304ff010101fd0001fefafe01fcfeff01fb0105fffeffff0901ff01fcff03
0000ffff00ff00000301ff0102ff00010000ffff01000000fe02ff01ffff0200
0001000002fe02fffffeff00ff01ff000100ffff010201fa00ff01fe00ff00fe
0101ff01ff010101fe03000202010101ff020007ffff02fe0000020000000000
0102fe0200ff0100fdfffdfe0102fe01010102fb0102000000fe0002030001ff
ff00ff0100ffff02fd020000ff03fd00010004ff00ff02ffffffff000001ff00
0400feff00010001fefffe0102000002ffffff02ff0001fefdfeff00ff02ff03
fe0002ff020002ffff00ff02fd010000ffff00fe0100fe01feff02fffefffe00
0100000200feffff02fffe020301ffff01fd01feffff0000000103ff0100ffff
0300fe00ff0100fffe00fffd0101fd01ff00fd03fd010101ff01fdfe000000ff
01ffff000101000100fffefe00ff000000fdfcff010002ff0001000100010100
fdfffe010000ff00ffff000203ff00ff0003fdfefeffffff00ff010100000300
fd03fe0002010001fe0003ff02ff01ff0302ff02fe00010000020303ff030301
00ff0000ff00000002fefefe0200ff0101ffff0001ffff00ff0101000003ffff
feff00000102010000fe00fc0301ffff000002ff00000001fdfffefe0002fe00
00ff00000001ff0204ff000000000101ff02fe0001fe010001ff02010100fe01
01020301010102000101ff02fe010100000002fffe00fffcfb01ff0102030001
fe00fe00000101fdfffe00fefdff03000102fb01fcfeff0200fe0101ff0101fe
01ff010201ff00ff0300fe01fd00ff0203fffdfeff00fe0000fd0000000101ff
00000001ff010002fdfeff0001000200ff01fb01fffe0200ff00010200fe0002
0101fe0001ff0000ff000000fffffd000200fffefffe01000003010100fe0101
01ff020201000200040000fffe00fe030104faffff00ff0000ff0000fe0004fe
0001fd000101ffff01fe020001fe01ff01fe03fe00ff01ff01ff010301020100
0200010000010100fe020103ff02000201fefcfc000102feff03000001ffff00
020003fefe0001fb00fefe02fffe00010103fc02050300feff0501ff01ff0003
ffffff0100000101020002000200010202fe00ff0001fe0100010302ff02ff00
02ff06ff01010102ffff00fffe0102000201fc03010002fd00ff00fefd020000
ff00fd00fffe030100fffe00000102fefe0102ff0201ff030204000001fdfc01
01fe02fffd0001fffffcffffffff0400fefffefffdfe00fe0000010001000000
00ff00fd03000002fdff02fefb0000fefe02fe01fcfe0200ff030102ff030100
fe0103010000fffefffffffdfffe03fdfe000202fdff000500000102fefd0001
00ff02000002010000fe0100ffff010102030402fcfe00010400fffe00fe0001
02020101fe0001000001fdfffd0101000000fd00010100fffe000300010203fd
0201ffff01fefffe04ff0104fd0202fdfeff03ffff02000300feff0001020101
ff0203fe00fffe04ffff0203feff01fffd010300000000010104fe01ffff02ff
ff01040101010001ff02fcff0203020101fffdfa010100fd03feff01ffff0200
00fe000100fffffe0202fffe0200ff01ff02ff000000ff000302fffe02fdfe01
fc0002ffffffff0003010000fdff0300010300fdfe00fffe00fe000101ff02ff
ff00ff0000020100ff030200000200fffffffe0000ff0002fe01fe0402fdff02
fe01ffff0201fffefdfefefbfdfffffeff0007fdff01fffffffeff0002ffff02
fefdfb030300fe000500ff00fe03fcfcfffc0003fc01fefdfefbfffe0000feff
0101f802010202fe00fffcfdff01fffcfc01fffffa0300fc00fcfffcff0000ff
fd01000000000101fdfffe00fe0001fffefd02000202fffffd000001ff0402fe
020208000100fffe06000301ff0001000202fffafdfffc04fd050002ffff0002
ff01ff0100fffe000002fe03feffff01ff0305030300fe0002fc0001ff0001ff
0001ff000000fffc01ff01fd00fefffefefdfdff0201ff03000101010100ff00
000302ff0002fe00010000fe0000fe0100020000ffff02ff05ffff0002fe00ff
ff0001000401fe0002fe00ff01ff0000fe01fffffb00feff01ff010001030101
00ff05000000fd0102ff000000ff00000101fffe00ff0000ff00000201ffff03
00000001000101ff0000ff04fe00000002ff01ffff00fd01fd02000100fe0101
01000000ff03ff010000fe0000fe000000030300010100020101fe0000ff0000
ff03ff0200ff03fe010202fd0001fe000002fbff00ffff010002ff0200fdff01
00010000ff0000000200fe02040003feff00fcfffefffe02ff0000ff0000ffff
ff0203020003ff01ff03ff000102feffff02fcfe010100000000fffe03000000
0001feff010002ff020000fd0003fffe01fffd02000201fd010203ff01feff02
01fffd03fffffe0003fefffdfe00ff01000102ffffff010002ff000001feff00
ff01fe01000000020300fd0301ff040101ffff00fffffe05010101ff02010102
fffffcfe0100ff02fe0200ff0102fd01ff010102fc02010000fafefffd0001ff
01010002ff010000fefe01030001020202ff0001fffe0201ff00000001fc0001
0200fe0002000000ff010000fd0001000000fbfeff00ff0200010200000101ff
fe01fd0200fe02ff010001ff00ff01fd0300010201000000fe0302ff00fe0001
fffef902ff0102fefffdfefffdff0004fefdffffff01ff050000030002fdfd00
000101feff0001fffffe0000020100000000ff00020200010101000100010100
02ff0301ff0001fe01ff01fdff01020004fffeff00010000000102fe0000ffff
0000fffeff000002fe0001000101020000fdfffeff0003fffd0001fe00010000
020000000002ff01fc01fffe0002fbffff0000000002ff00fffefd03fe000302
ff0000010001ff0003ffff02ff00fe02fffe00fe02030000fa01000000010300
03fe0201ff00fb000201fcfbfeffffff0001fafffd03010200fdfeff02fd00ff
000101fefe01fffe010000fe0102000101fefdfe01fffffffd0002ff0001ff01
feff0000ff01fffd03ffff020000fe01ffff05ff00010000fdfe03ff00fffe03
0101ff000002000003fdfffeff01feff0000ff01fe000002fd01000101fc00ff
fd00ff0002fcff0100fe010102feffff00fffe00000100ff0101010100020001
0000010100ff00ffff02fffd02ff0100000002000000fffdfe0100fe00010002
ffff000100ff010003020201ffff0103000103fc01ff01fffdfe0002fefe02ff
00000501ffffff0001fdff02fc02feff040001020001fdfefcfd000201000201
000104fefffdfe0201ff00ff000201010100fd0100fefe01ffffff0201fd0100
0401ffff010200fffffefdfffdfefd00000001010102fe00fefe0001fffe00fe
00030101fe0200fcff00ff01ff000002fdff0501010100fe0102000100fe0102
0002fd01000100000101fe020100fe01fc0000ff0001feff01040102020202ff
fb02fc0201fefefe0103010500fefefcfc0503040006fefdfffc0002020000ff
ff00ff04000100ff0100fffe000102fffffffeffff01ff00000300000200ffff
000202ff0000ff0000fdff0100000200000001fe000001020003ff00fffeffff
0100ff00ffff01fd000103fe00fe00feffff0100040200fdff00fe0102fd01ff
01fffe02ff0001ff01010003fffeff01ff000201fe020001fdfe010000010001
ffff010202020100ff00fffefe00ff01fe000100fffefd02010200020002ffff
00020000ffffff0001fe00fe0100000100ff02fc0102ffff00fe000100fc0102
0000ff00fe00ff00fffe0201ff02ff0103ffffff03010003ff000203fefe0003
fe00fffe00ff0101ff01010203000000ff00fffeff010102000300000200ff02
fe000100ff010100000200fffe0001ffff0100030101ff0203020000ff00ffff
00010100000001ff0001fe02ff02ff0200010a00000201fffeffff010002ff02
00feff010002ff0000feff0001fffd00fffe0302ff01ff02ff06ffff01fc0000
01010204ff0101ff00ff00fffefd0101ffff030100ff02fe01fd0000fe010002
ff02ffffff0101fffd00fd04feffff0001ff02000000ff01fe030400ff010202
0101020000ff0200010000fffe02feff00fffeff0100feff00fe010001010402
0000fe01fd000002fbff010301010001fd0103000002000201ff0002000000ff
fe00fe000101fffefffefd000101ff0300fcff01fe0003fe00feff0000fdfe01
0001fe02000202fe02fd02000100fe030200fd00fffdfe01fc0002ff00ff01ff
fe03fefe020201ffff00fffdfe0100000104ff02020101fbfe01000001fd0002
43380515fb1305280f101b2c2cf13019360c21201a4b45f62ce8181cfc260429
2d152a221c12191e1f2329261a2c3117180f2628131b2f2112252a26252a2216
010100ff010001ff01ffff01ff00010101ff0001ff01ff00ffff00ff000000ff
0200000000fdfd0101fffcfdf9020002fcf7fd00fefcfefdfffefffbfe0202ff
00f6fcfd0008fe00010102fdfa01fdf50006fdff0afffe000502fffefd01fe03
00ff000001fe000001feff0000000004fe00000000feff01fffd00010200fffc
0101010300ff0100fffefe0100ffff01fe00ffff01fd000001fe000101ff02ff
0101ff02010100ff0000fe01fe000000fefffffe00000001fffd0101ff010302
000200010101ffff0101ffff010000fb0200fd0100ff000104000000fe000001
00000100ff0201fffe0001fe010000ff020302ff03ff010102feff00fffefffe
feff03fe02fefefd020001fefdffff00fd0100fffefa0000010003fefffe00fe
00fe00fe00fefffe010000fd01fd0101fd05fe01020100010000ff0303fd00fe
0204000001ff04050202ff0100ff02ffffff0101ff0001ff02ff01fffe010002
01010001ff010201fffe0102ff000202ffff00fefe0200fefd00feffff0101fe
01010000010101ff01fe01fd00ff0003fdfffe01ff01ff01fd01ffff00010204
0201ff00010100fefffe0201010000fd01ff000001030100fd010002ff000001
ff02000000ff000100010001000001010401fe00ff0000010403ff0001feff00
00fc0200feffff010000ffff00fe000000020101fefdff00ff020202010001ff
000202fefffbfcfefeffff030002fefe0000ff00fffe00ff0000010000fefffd
fffeffff0002fffffe03ff00000100fe0200fd01000200fe00000200ffff0200
ff03020103020000fc0101fefe01010000fcfe0202000002020100050002fffb
ff0000ff0005ff02fd00fc01fd01fffb01fcfcfe0400ff030403010101fd00fd
fefd0100fffefeffff00ff000201ff00020400fe02fffe000103ff02fffefeff
0001ff00fffdfe02ff04fffe02ff0002ff03ffff0301000200000000ff0001ff
0001000001fd01fefe0001ff0101fffefd04ffff01ff00000002fefefd000100
01fe01ff0000fefefffb00ff000000fdfffdfe0202fffffefd0001ffff0001ff
fffe000003fcfe00fe0300fefd0001fefc000101ffff00ff04fe0002fe00fefe
fefe000001ff0000ff0202fd02fffe0503020202ff04ff01fe01fefe010000fc
fe000101000201fe00000001ff0000fffd0100ffff0000000100feffffff0001
fffe00ff0101ff01fd0100fffe00fffc01fbfefffd0401000001ff0100ff0000
fefefe01010302fdfe0000ff050000040200fffffe00fe000002010401000102
feff00ff020100fdfe02feffff01fefe01010200fefd02ff010000000104ff00
ff0201fffffe010102ffffff0100000100ffff0001fe00010400fefe01ffff02
02fdfe030301030103fe0000ff0000fdff0100fffdfd020001ff0200fd00fffc
01fffe0000fd00fe01010000fe00fffefd01ff00fe00fffd01fd020001fefffd
00feffff01ff02010001fefe00ff00fefbfdfeffff03ff0101ff000200000100
00fc0000000300ff00000000ffff00010000fefe0000fe01fe01010001ffff00
030200ff01fa0100000001fffffeff01fefeffffff01ff02ff00fc0201fdff02
ff000001ffff01ff0100ff000101ffffff01000001fdff01ff010100ff000100
00fc02ffff0103ff03ff00fefd020200ff0102fefd020201fffffe0401020102
fefe000001fffd0000fefe02000000ffff01010100fe00ff0500fffe00fffe01
00fdff00ff00ff000001ff01010002ff03000000ff000100ff0100ff00000300
0100feff00ff01010202fffffeff0003010001010200ff00ffffffff02010001
ff0000fffffc0100ff0001ff03fe00feff0202ff020000020002fe030001fe02
fefe0101fefffe000000ff01ff0000fdfeff00ff01000000feff01ff00000001
ff00fffe00ff01010100fe00fe02000100fefe0002fefffffffefe0202000000
fdff03010005fe0201ff01fefc000001fe02fdfe0101ff01000100fe02fffefc
02020002ff0401000100010000020101fdfffeff01000000ff0200ffffffff01
000101000002020001ff01ff01fe0000010001ff0001ffff00ff00ff020000ff
00ff00fffefd010202020000ff00010001ff02030000fffffe010002010100ff
00030000ff03ffffffffff00ff00ffff0101ff000400000002fffe00fffe02ff
02030200fffffd00030100fd02feff010001000002000002ff000004ff0001fd
01faff0101ff000100fe00fe03fffd0200ffff00feff020201ff01fe01000001
00ff0101010301fe00fefffe01000201ff04ffff0002ff010403000100010202
fefffe00ff00ff01fc0100000001ff0101ff01fffe03000300fe02ff0000ffff
00fe00feff02ff02ff0001fffc0001ffff04020204fe000102ff02feffff0000
0002fe010102ff01000201ff0102ff00fb01000201020002ff0102000000feff
ff0001fefe01fd00fd00ff00fe03000001ff0001fefdfe00000101010303ff02
fffd00ff00000201ff020201ff00020102fdffff0001fefefeffffff01040004
02fb02ff00fdff0004fefffffe02fffefdfbff00fefefefd00fdfffd0101fe00
01ffffff0202010202fefdfefe0000010102ff01feff01000301010000fefe01
0102ffffff06ff01fe03fbfefb0001fffd04fe00fefe00ff010001fdfffeff01
03010000ff0000ffff010102fe0200ff01fcff0101ff01ffff00020000000100
01fd030202fefe0000fe02fe0000010000ff01fe03fe01feff01ffff00ff01fe
fe0301ffff02fffefd0302fe0102ff00fdfd0000fffe0001fffc0000fefe01fe
fffe00ff00ff00feff02ffffffff0000ff0300feff04000200000000ff010201
fffffefeff01ffffffff00fffe0200fdfa01ffffff02ff04feff01fefffd0003
000100fe0003ff00ff000203fe0202ffff040001ffff01000500fffefdfe0002
ff02feff00fd0102ff0001ff00fd0100ffff01ff00fdfe000101ffff020000ff
fefefffe000100000100ff0300020001fd00ff000001ffffffff0000020100ff
fe0201ffff010203000002ffff0000000002fffe0100fe01010001ff01010201
ff01fe01000102fe0203fffd000000ff040200ffff03ffffff01fd05000000ff
010000fefffa00fe010001000500ff030400020100fe00fffeff0001ff00fdfe
000100ff0000ff01000001feffff0101000102fefd02020102000001000002fd
00ffff0203ff02000200fe000200ff01fefcfe0300fefffefe00000200fe0001
0200fe0300fe02ff02ff01fffefe00feff010101fe000001fe01fffffe020101
00ff01020002fd01fe010300ffff00fefe01000102fefdfe0101000000000002
0001fffffffe0101fdffff00fc0002fe0304fe0403000003fd030101fdff0002
fcff0301fe00fefcff000201010000010100fffffdfdfd01fefeff01020100fe
0000ffff00000003ff00ff010202fffcffff00ffffff01ff0101fe0101fe00fe
ff0200fffe000000fd0102ff02fe0002fd0000fffe010200fc0102ff01010000
0000050000fefe0003ff010202ff01000001ff0000000001fbfe0000fe010000
0100fefd01fe00ff000000ff0000ff03fd040000fc01ff01fc0301fe0002fefd
ff01ff01ff030001010100ff00ff00fefeff0100fffc0200010101ff00000001
02ffffff02ff03ff0500ffff01010002fcfd02fffe00020004fdfeffff010202
fe01000100fe01000100010000020100fbfd00fffd01feffffffff0101010003
ff00fffffefffd00ff04fe00fc0202ffff01fdff00fdfe02000101fe01fefeff
ff00fffdffffff0001fe02000201fe01fffc00fefefefd01fe0200feff0300fd
fe030000ff0101fcfd00ff01000100fffc01fe0103fc01fffffefffe01ff02fd
00ff00ff0100fefe00ff00fd00ff00ff05ffff00fd000002fd040100fffd00fe
fe020102ff000000ff0000fd00ff0001fb0501ff01fdff0100fe00fd01020001
000201fffe01fefdfe01ff00fd00ff03ff03000101fefe0201fffffdff01feff
0100fffffffe010000fd0000fd0100ff02fe010201fe000200ff00fdff02fe00
000101000000fffefe0100fe0100ffff0000000100000201010302020202ff00
000100ff00ff0200ffffff00ffff00fc0002ff000200ff010102ff0000ff0002
01ff0000fefeff010200fe02fc01ff0005fe0000fe00ff000101020200ff00fd
fffe020100020100ff0100fdfefffffefdff0300fd00fefeff00fe01fd01fdfe
fdfd00ff0000fd0101010101fd0000010202fe0002fe0002000201fd02fffefe
ffffffff01fc000101ff00fe010100fffefc01ffff01fffe01fd00fe0000ff01
fefa02fffcfefefdfdfcfd020503ff00fc05000100fe00fdf8fe000100ff01fc
000201fefefe01fdfffe0000ffffffff0201fffe0400ffff010202fe02ff0001
01020001ff00fdfffd010100fd0001fefdffff00fdfdff0200ff0001fe00fcff
02ff010101fd00ff010200fe0101fffcfffe00ff0001ff0101feff0100000100
0001000001ffff01ff01ff01000100010200ff0100ff01fffe0002fd01000101
00ffffff00fe00ff0100ff000000fffffffd00ff000301ff0100fffdff00ffff
fe01ff01030504fe00010001ff0001fd01ff01000201feff010101ffff020000
020001ff010102fe00ff0203020000ff010003000004ffff04ff0101fd010100
fefd0100ff02ff0101020100ff02ffff030101fd02010201ff0201ffff020100
ff030100000100fe0100fffeff02fefe0103fefe0701ff0302ff000101000001
fe0001ff00fffffe00020302fd00010102040001010101000402fdfefe01ff02
ff00020200fffe0100ff01010200ffff01000000ff00ff0000020101ff0100fe
0000fffe0103ff00fffdfe00ff00ff0201ff0101fe000000f903030001fefefe
000000ff0000ffffffffffff0000000301ff0100ffff000100020000010000fd
00ff000202ffff0000000101fd0001ff00ffff01fdfffffe0100ffff020003ff
01fc00000000ffff02000100fd0001fe0102ff0005000000010001feff000000
0001ff010003010301ff0000ff01ff0001fffefcfe02fd000001fe0201ff03fe
ff01ffff00fdff0202feff01ff01fe00fefffeff00fe0001fd01010201fefffc
ff000000000001ffff01fe0000010102fefe00010101ff00010000010001fffe
01fe00ff00fe0001ffff0100fe0001ff0101010001ffff0000fe000001ffff03
fe02ff02fe02fe00fe01ffff010200fe0201ff0001ff0001fe01010001000000
00020201020004fe000001ff0101ffff00ffff02ff020101000101ff01010002
0100feff00020003fefe01fdfe000100fa00fffefe02ffff0103fe000300ff02
ff000000000100fefe0101ff0002010100ff01fd00fffe01ff01ff0100000100
00fe01ff01fd01fefcfe0100fefe0000fffafe00fefe00ff03ffff0003000005
00000200fffefefcff04ff000000ffffff000100fd040000020001fe00020303
ff01fffffd01ff02ff00ffff00fffefffe0100fd02ff00010100000300fd0000
ffff02ff0002ff00000001ff040000fdffff00ff0001ff0102000002ff01ffff
fefefefe00fb00000301ff00fd00ff0100fe00ff000001fe050200fefd030101
fffe01fe00fc00fe03010000fe01fffffcfd00ff00fe000003000000000000ff
00fefffffffeff0100000000000200fefefcff00fdff00ff0402fd02fefe0303
fffe00ff00fffffefe00fe00020001ff0301000002000000fffffffdfefe0101
fefcffff0105040200ff01020100fefd0002fdfe040300fe0200ff01ffff0203
00ffff00fffe0000fe0001ff01010100fe03fefe02fe000100ff00fefffe0201
01000000ff04fe00fe01020201010001fe0002fefe0101ffff00fe0200ff0101
ff00fffe0100ff010204ff000102fffdfa0500fffdf60002ff000101ff000200
01fc0001010000fffe01ff000000fe0201ff0100fe00fe000100000101fe0001
ffff010104fe00ff000101ff02fe0001fdff0001feffffff0200ff00000000ff
0000000001ffff0001fdff01000100fdfb02020102ff010200010200ff01ffff
00020100fe00ff03010000fe02ff0100ffffff01fffeff000200020100000003
0000000001fffefcffffff00ff000000ff00010200feff0001fe010002000200
ff0202fd0201ff00fdff00fefffefffeff00ff00fffcff020102ff0001fffffe
00010102ff0101000003020001fefffcfffd01ffff000000feff010000000102
fefe00feffff0102000000000001ffff00feffff020000ff02fefffe02fefe05
00ff01fe02fefeff00ff00fe0101ffffff0002ff0000020003ffffffff00ffff
ff000101020102000101000001ff000000feff00010000fefeff000001ff00ff
ff04ff000101ff03fe020102ff01fffe0101000000fe00010003040100fdff00
fdfdfe01020001ff00feffff00fdfffdfdfeff01fdfe010104fcfefeff010400
ff02ff00ff0002ff0101ff0101020104fe0301010000fefffffefe0101000101
ff01feff00020300fe00010101020000ff0000ff0101fd00fd00fe00ff02ff02
0200fe020000ff0003ffffff00000102ff00ff0101fc0201fdfefdff01020300
01ff00ff00000102fffe0001fffe01fd000303fe010003fffd010200ffff00fe
ff02030000f9fe020102fffd01010003fe040003fafeff00fdfb0000ff03fefe
fefdfffffffe0202010100fdfeffff00010002fffe0001ff02fdfefe00010001
00010001fffeff01fdfd03fefffe000003fffe0002ff00ff010201fffefefd01
00fc0000ff02ff0101fe01fffe010102ffffff0102fefe000200010002ffff00
ff0000010101fffd02fffe01ff0100fc0104fe0001fd01fd01fffb00fd010203
00ff0001ff000101fffe00000001ff00fc01fefffd0302fffeffffff01010200
ff01000001feff020201ff00fffeff020002000000fdfefffe01fffffefe0200
ff00fffefffefffe02ff0001feff00fd000100ff000000ff02ff01000000fefe
0001feff00fffd0101fffeff0102fffeff02fe0105feff00fe02fe0301ff00fd
00fefefeffff00fdfc01fe00fdff00010302fe0000fe0002fdfe010001010000
00fc000200fcfdfd01ff0100fdff01fd00fffffffdfb01fff90205fefdfe00ff
010000fffe0200010501ff0000ff000202000101010201ff0402020000fd00ff
02040001010301fefe00fffffe010100fe0404fd020001000200ffff00fdfffe
fcff00fe00ff02ff020000ffff01fe000100fdfe00feffff0002ffffffff0100
fffe01fefffd0001020203fe00000001fe02fffffdfb0001ff010200fd0001fe
000200020102ff00ff0001010101fdfeffff01fefe00020102fffffffe01ffff
010000feff0000ff0000000100ff0003fcfeff01fe010000fe000000010100fe
01ff00ff0002010300010104fdff0200fc02040700fd01fefcff00ffff0100fe
0000ff01000000010001ff0100000001020001fe0100ff00ff01fe02ff0202ff
000101000001feff00000000ff000203ff01010002fe00ff000001ffffff0100
02fcff010300ff02040100fd00000203fffe0005fdff010100fe010000010001
fcfefefffcfdfffffcfe01fe0501feff00fefd00fffeff01fb03feff00fe0301
ff030200ff03030001fffe01ff00ffff000601fd0401ff010300fe00fe03fffc
fffeff0104ff0200ff0202fffdffff0102ff01fefffe01fefffffd0103010304
01ff01ff00fc0200ffff00000100000000ffff0000000101fefd00fe0101ff02
000002fefe03fdfcfe0003ff01010006ff0300fefdfdfe02f8030102ff03f8fe
01fefdff0200000100ff00ffff01ff02fffc010000feffff0102ff0000fe02fe
03ffff00010001fefffe020201010101ffff00000202020002ff01010000ff02
010200ff01000100fffeff000100fffefefffe00fefd020201ff0101fffe00ff
0002fffffe03ffff0000ffff0001fffef9030100feff010103fffe020000ff00
00feff010000fd0201000101ff0100000202fdfffdfffffeff04fffe00fffe05
ff0000fffd000000ff00ff00020200fb0201ff000400fbfffcff030000000103
ff0000ff000201fe01feffff01000001ff00000202ff000100fffffe01fe0000
fdfbfe00ff0100ff000001fd00ff0001fb0100fc0102fd01fe00ff0002010101
fd00000000020001000201feff01fe0301feff00fffcff010300ff010200feff
fe0000ff000001000200020000fffefd0203000000000100ff010102fefefd02
fefd000102fd0a0102000100fffe00ff0000010000fe00ff01fffe0001000005
fd010200fdfc02ff01fe01fe00ff000400ff010201ffff00fb01ffff03ff01fe
01fd010001ffff000000fefe000001000100ff01ffff00fffcff0200fe00fe02
fe00fefffeffff01ff01ff00000200fffefd01fffe00fe01fc01030001fffdfe
ff00ffff0100010300010203ff0100ff00010301ffff01ffff0101feff000001
030000ff01020101fefe0100fffe02fd0001ff01fffe02ff01fe0102fe0101fe
fe0001ff0000fe000102000001020001ff020200000300ff00fe0000fe000100
010101fefe0000020200010102ffff0002fcffff020100fffe04ff020300ffff
fefc010101fffdfe02000201fffeff010001010102fefe010200000001fffffe
ff000000fffefffeffff0100ff00fe01fc0301000201ff00ff03000001ff0000
ff0201ff030105020204fe00feff0000fc05fffefe010101fefd01040002ff01
ff00ffff000a040000ff0100fe02fffd0302fffe0401fe02fdffffffff000100
ff01000101fe02fe00030100fffffefefcfcffffff0100ff01fffe00ff02ffff
010100fe0101fffeff0101010201ff0301fb00fffbfc01000001fd020002fffc
ffff0300fffffcff01fefe0000fffefffbfe00fe01fefe05ffff01ff0103feff
01000001fe010400ff02000102fd00feff04fdff0401000101fe02fffe02feff
feffff000104fffefd01ff010200fffdfe00ff0100fb0101010000fc04ff00fd
00fd0100ff02ffff0102feff000100fdfe0301ff0001020106fe00ff01feff01
0100ff0001ff00010102ff01fd0100ff00020000fe01000202fd00fe0002ff01
ff030100ff05fefe000200ff0200fe02fdfffe01fd000200000000ff01ffff00
fffe01fffffefd02ff0000ff0000ff00fefdfe00fe010001fb00ff0000fe01fe
01fffe01010100ff01fffffefffe00000000fffd00fe00020300ff00020001fe
ffff01ffff00fefe0001fefefe0000fefe03fdff0100fffffd010101fd01fe01
00ff03fefeff0102000202ffffff01feff01fcfd00fffb00fefd00ff01fefe01
010201000200fe010202030101ff02010300fd01fefeff01fdfdff00000102fe
ff0101feff0002fcfd0101fcfd01000102fe01ff00fe01fffc020002fcfe0303
0101fe0200fc0200fe010000feff000100ff0203ff030100010001feff0103fd
ff01000400020000020002ff0300ff0000fdff03010001fe01ffff0101fffefe
01000100020105fe00000100010002fefcfe040100fc0101feff010200fe0102
01000101ff01fffefe00000100fffeff02ff000101ff00010101ff0101ff0102
fffe000100fe010001ff0001000101010000fefffdffffff00010000ff000100
02fffdfe00fd0001030101010002000001000103fe0300fe01ff02fffffdff00
0100000101ff000102ff00fe00010101ffff010000ff0002ff00020000ff02ff
000002ff00ffffff03fefd01ffff0002fdfd040001020001000000ffffff0200
01fcff0201fd00fd0101000001010003fd00fe03fffefdfefefc03fdfffe0101
0000ff0102fdfefe00ffffff01ff00fe01fbff03fe0200fefeff02fffffe01fc
00ffff010101fffe000000feffffff01ff0100010201ff00000200ff020000ff
ffff0002fffe02020000fe04000000fffefefe00fffefdfffeff01fe00fffffe
fffd00ffff01ffffff000000ff000001fc00fefffc01fffeffff02ffff000201
00fe020101feff00ff00020000ff010002fc0101fffdff00020200fefefe00fd
fe010000ff0300ff02ffff00ff0100fefdff01fe0002ff00020101fe00fe0000
02fa00ff0101feff0000ff000200fe0000fe00fefefb00010500ff01fbffff01
01fffffe010100fffeffffffffff01fd00040001fe00000200ff01ffff0000fd
0000ffff00ff0003000301010100010303000000fe04fe00fe000001fffd0000
fffeffffffff01000202ff0102000103030200020001010100fe0000ff000002
01ffffff01fe00ffff010101000100ff01ffff010101fffffdffff020201ff00
000000fe00ff0002ffff00ff010001ff01ff00000200ff01fd00ff01030001fe
01fd0100010300fe0000fe0000ff0104feff0301fffb02feff01010100ff02fd
ff0500010002fefffffe00fffe0000ff0500fe0000ff010200000105ff00fefd
ff00000104000102ff0001000001ff01fd06ff03ff02ff010101fb02010200ff
020002ff0102feffff02fffffd0101fd0102fe00fbff0101fe010104fffd00ff
ff000102ff03fefefefd000102000000fd010000fffe000100fe00fd01feff00
ff0000fefe00fe02ffff01feff02000002fe0000010000010002fe000002feff
01fdfffffffdff02fe000300010101fe02ff0000ff0001feff0100fe010001fa
00fdff0201fe00fffe0201010302000401fe0100ff00ff00fc02ff0001000201
fffe01010002fe010101ff0201020004ff00fe000100ff02fdff000200ffff00
0000ff02010100ffff010000020101ff01fdff000101fffe01ff00ff00fe00fe
0200ffff0102ff01fdffffff01ff01fffffe01ff01fe0202fe01ffff0001ff03
0001000202fefdfd01fe00ff010200fbfd01040003fd0100fcff01ff000000fc
00feff0100fd000100fd010200ff000202ff00fefffffe020101ff0100020202
00fe03ff02fd03000100000101010004ff01fe02ff00fffe03ff000100fd00ff
0000ff000001fdfe01feff0000ff00fcfe0000010100ff000001ff0100020100
ffffff0001fcfeff0002fd00ff0100fb05fc02010400000002030201ff00fffd
01ff000000fdffff0000ff010000ff02fc0000feffff0101000100fe01fcff02
ffff020000fe02ffffff0102fffe00010103fdfe0101ff000200000202000101
ff0102ff01fffe00ff01fffe020001030101010000000100ff000000020000fd
00fffe01000302fdfe01ff0204ffff0000fc0201000100fffefe01fdfe01ffff
ffff00ff010202ff01000101fe00ff00fe0201ff00feffff0201fefefe000000
fdfd00ff00ff02020000010202000003fd030101fb00ff02fb020102ff030101
fd000000fe0001fefffeff000100ff010101fb01ffff00fdff010000ff0000fd
ff0101ff00020101fe000101ff01ff0100ff0000fe00ff00ff00010101fd0002
ff000100010100fd0102ff020000010200fe01ff01fefe01010101ffffff0001
ff01ff01fe000102ff0100ff00010000ff0002feff010000feff020102ffff01
01ffffff0000fdfffdff04fffe0103ff010103ff04fe010001fffc00ff01ff00
01ff00fe00fefffe0300ffff00fffffffbfcfe04fc01ff03ffff0102ff02ff02
02fefffe0001fe00ff0000feffff02fd0004010200000100fe00020102010101
fd030001ff06ff000101020101ff0001010102fffcfd00fffc03fffd0300fffd
0104020200fbff010101ff000001fffd00fdff0302fe000102ff0001000101fe
01ff0100ff04fefefffefffeff00ff0202ff01fe02fefe030000000102000203
fefc0102020300fe00fefeff0400fef9ff00fe0002fefffe02ffff04fefffffd
010002010301fefd0102ff000302fffe000200000000fffffffe00fffffe03fe
ff00ff02000102ff010100fffeff00fcfe0201ff0002010103fe02ffffff0001
fefd000101fe0203020100ff02fe0101fffefffdfffe0101fe0204fdff0000fe
010000fffefc000101fe000000fe0103ff00fffefd01fe01fdff00010003ff02
fffe020201ff00fe01000103fffd00fd010202ff020001feff00ff0000010102
fe000000fe000103fe0200ff0100000203ff01ff0002ff00fc01ffff00010100
fe01040100000100fffffc01ff02fffffdfffffefbfc00ff010100ff0102fd01
fe0100fe0101fffefeff0102000201fe01020000fe00fffe00fe01fffffe00fc
0101ffff01fe0203030002fc040001fbfbfdff02ff01000100fffffe04ff0002
000301010104fd0201020000f90200f900fd0102020201020202fe03fd0202ff
000003ff0003fffefe01ff01ffff00010401fe00ff02fe01fe00ffffff00ff01
01fe0001020200ff030101fefe0102fe02ff000001fe02ff02ff0005fe01fe06
01fdffffff0100fd01fc00ff03ff00fe030200000602ff000002fe010100ffff
fe020001fe09fdfdfe0100fbfd010102000500fc00fefd03fc02000203010001
feffffff00fffe010001fffffc010100fe03ff01ff030001020101ffff0001ff
fffd030002fe00fffe02fe00feff0000fefb01000201000101000101000102ff
fd01fffe00fe0000010101fef9010101fdfdfffefffefffefe0201ffffff01ff
02ffff0202fb010100ffff00fdfe00ffffff01fdfcff000201ff02fefefffffd
01ffff0102feff0101fe02ffff01ff0400fcff01fbfeff01000100ff0100fffe
fd00ff00fe02030101feff020201ff0301fcfe01fdff01fefd02020002fe0002
fffe0300020101fffe0000020000fefcfffe01ff00ffff01ff01fffe00fefe02
000000ff0000fefe01fdfffd0100010206ff0002010000010100ff0200fdffff
ff01fe01000001ff00feff02fefefffcff040103fefdffffff02ff0001000400
01010000ffff0102fffd010000ffff0004fc000001fd0001ff0201fc00fd0102
00fe000000fe00ff01ff0000ff00fffffd0101fe0002000000ff01fefe04fffc
0201000201fdfe0402010200ff0200fe00fe000203010202030104fffe0103fd
000200ff0000ffff0000fe01ff02ff00fffe010001ff010003fefeffffffff00
02fdff0101ffff0101000001ff00ffffff0100ff00ff01ff030200ff0300ff01
01fefefe01ff02010100fe02ff010100fefd0001fbfffffefdff00fe00fffffe
0000ffffff0001000101ff02fe01ff010004fe00fffeff010500ff01ff01ff02
fe0103fefe0000ff01ff01020101fe000002000100fffe00000102ff03fd0002
fffefeff010103fe01ffffff00000000fe00fe00fe000000fb00fffe00ff0101
01000100fffdfffe01fe00000200ff0001fe0101ff0102fefd00030001010103
0001fdff00fbff00010200ff00000102ffff010001000100fd0202fe0102ff01
01ffff010100ffff00ff00ff00ff01ff00ff010100feff00fc0300ff00fcfc00
0000feffff00ffff0000fffffeff01ff00fd01fefffe00ff00000101fe000002
00feff02ff02020100ff0000ff000002fe000201fffffefe010201ff00010001
00fe0100fefd03000100ff0101feff03030102ff02ffff01000103020201ff01
0101030000ff0200fd01000101ffff0201ffff0100ff0100ff00fffe02010100
00ff02ff01010000010100ff02010101fffe0102020101fefe01010002000101
02ff0000fe03fd01fc0200fffe0101fffe03000100fd000301ff01ff00fffdfa
00000000fe0200fe0100ff0300fffffe01fe0000ff000001010100ffffffffff
ff00020001fdfe01000201ffff000002ff01ff010100ff020001010301000100
ff0502fffe040000000000fefe000001fefffdfdfd00ff00fc00ffffff01fe03
feff00fffefefffe00ffff02fdff000100ff0000fffeff010100ffff0002fffd
0201ff00ff0003feffff00fffbff0102fcfafe00ffff00fffd00ff01020100fd
0104fefe0103fdfffffdff000002ff01fbffff0101feff0102020000020001fb
01ff000101ffffff0003000000ff01fc01feff02ff00fefffbfdffff000002fe
fffdffff0100ff01fd0101ff030100000203000000fd00000103ff01020001fd
020200ffff04000001fffe01000101fc0205fd010301fe010003ff0100ff0001
02ffff00ff010001000201fe000000fdfe03ff01fffe0002fffe00ffff0200fd
00feff0001ff00ff0100000203ffff0401fc00fe00000100fc02fe020201fd02
ffff00ff010101ff02ff00ff00ff000102fb00fffefe01ffff0102ff010100ff
ff02000100fdfdfd000102010100fffefdfd03ff0002fffffe00000200010001
0002000000ffff00ff00000000ffff050001000100010100fe00010101020301
0101000201040203ff000000fe000104fefc01fffe000100010101ff00fefdfe
ff00ffff0200ff010000ff02ff01ff02ffffff00feff00ff020100000100fffe
ff01000003fbfd010000ff00020100ff00fc01ff000102ff0300fefdfe0000ff
0000ff00ff0000fe02fffe00ff0101fe0102010000ffff01feff0000feff01ff
000100ff02ffffff0103fe00ff01fe01000202fe0100fe00fe04ff0002010300
0101020001fa01fe030400feff01ff0205fe00fe0004fdfe0100ff0301ff0101
0105ffffff00fffeff0100fe0202fefd0202fffffefdff00faff00fe0101fcff
fffd01ffff0301fd01ffff00fe02ff01fe01feff02ff0101f902fd00030304ff
0000fe00ff0400000002ffff01ff01fdfd02040001fffffeffff02fefc01fefb
fe01ff0001010100ffff000100fffffeff020102fe02fffefffffe0000fe0002
02fe02ff0001ff01fefd0000fd0101fffd0001fffd0001ff01ffff02ff00fffe
ff00000000fcff01fffefe0202000100fefffd0003feff00000201000201ffff
0000000001fffffffe010100fffffe030102ff01fe00ff0002010200fffefeff
0101ff00fffffe01ffff01010100ff02fd00ffff0000ff00000200ff01ff00ff
000202010001010000010200010001fe00030000050301fffefe0000ff020000
fefe02fffefe00fd010101fe0302010101ff0100fffe0100fdffff01010101ff
ff0101ff00fcff0102ff00000301ff0202fd01fe01ff000200ff010003ffff03
ffff020002fcfefeff00ff000000ffff00ff00ff00ff00000003ff010001ff02
0200fe0002fe01010301000104000100ffff02fd010201ffff010202fffe0200
fe000000ffffff0101ff00ffff000004fb010103ff01010000ffffff00ff00ff
fe0202fefe050001fd000000020400fa040701020700fc03fffdfe020000ff00
ffffff020200030000ff03ffff00fffffd01fe010201ffff00fdff00fffe00ff
fffc02fffffbff0001fefe00fe01ff0200000000fffeffff0300000101ff0000
fffd02ff01fe010300fdffffffff01fffefe0101fcfc010301000001feffffff
ff0101fe01f9ff020001feff0200fe00fe00010300feff00fefd00ffff010301
fefcfe000000030003feff00000101fcfbfe0002fefffffe010002ffffff0200
01010101ff0100ff0200ff01ff0001010104fffe01ffffff0000fefffffffdfd
fffc000000fd00ff02fefe0002000002ff01ffff0000ff00010100ff0300fe01
02feff0100ffff0000fffefffe0000ff02fe02000303fdfffe02ff0001000001
ffff01000001000001ff0001ff00fe0205fdfcfe00feff02fc0301ffff0100fe
fffc0002030102fdfe00fe01fffc0001fc010100fdff01010000ff00fe03ff01
01ff00ff00fefdfe00ffff00fe0200f8fffd010001fd01ff0200fe01ff0001fb
fffd00ff010100ff0100ff00ff00ff0201040000fd0100ff010102fe02000001
fefcff01fffe01fffffefefc01ff0001fafbff01ff0001fd00fe02fffefeff00
00ff0201fffffe01fefeff0000fffffeffff0001ffff0002fe010100ffff0002
fefd02feff03ff04fb01fefefa00000100fdff0004ff00060300020001ff00fe
01fe01fffdfe01fffffe0000fcfe01fb00030100fffd0201fd0104fffcfffe01
fd00010000fffd01fe01feff0101000001feff00fefffdffff0000ffff020002
0001ffff0401010201ff02ff00010002fbfc0001fdfeff0000fefeff0001fefd
00000102ff0500ff010101fffe010100ff05030101ff01ff0100ff02ffffffff
feff00fffe04fffffd0000fe0100fffd03fcfe01ffff00000002ff04ff01fffe
ffffffffff05ff0101000101fe00ff01fb02fffe000101fe010300fc00fffffe
01fd01000104ff010000feff0101ff0104010101fffffffe0203010001000003
ffff01fe02fd02ffff000000ff000100fdfc01ffffff01fffe0002fe0101ff00
0000fe0202ff00feff010000ff0000fb020200fe0101010100010000ff000000
00fd000101030000fdfefefefe01fffd000201ff0300ff010302020301fffe01
00ff00000002000001fd00ffffffff00ff01ff00ff01ff010402ff0200fdff00
020000ff0200ff00ff01fd00000100020000fefffd01fffefcfd00ff02fe02fd
00fe0001ff010000020100ff0101010001fe02fffffe0000fe00ff0001ff00fe
ff02ffff01ff02fd00ffff0000fffffe00ff0000ff00ff0000ff0201fe0000ff
fffffe01fffffe01000201ff000100020002fffe00fdfd01010001000302ff02
01fe000000fffffe0200ff00ff00020100fd000100ffff0001fe01fffe0100fd
fefd01040100ffff0000ffff020100feff01ffffffff00fe0000fefd00fe0202
fcfe000001fc000200ff00ffff00fffd02fdfffefe00000000ff00fe03fe00fb
fffe000200020103fe00fd00fdffff020001ffff030301fffe01000000fe01fe
0100fefe0001010001fd00000101fe0003050100feffff00fe04fffc000000ff
00ff020100ffffff0101ff0102ff0003ff0000fe0000fe01fe01ff000400fffd
ff00ff00fffffffc01feff000201fffd02ffff010000000101010100000101ff
fe00fe01fe01fefefc03ff000201fffdfd05fc000103fd02fd01fd01fcfeff00
ffff020303fdfdffff03fe02ff0000fe040202fe0400ff00000301ff00000103
020401000001ff00000002000000ff02fefe020000fe01fffcfffe0204ff00fc
03fe01ff00fb01010000fffeff010001ffff00ff0101ffffff00fffdfe01ff01
00fdff000000ff0102fe02000200fe0000fbfe00010000030101ffff03ff0001
ff020001ff01fe01ff0100ffffff01fe0000ff01ff0101feff000201fffffeff
020200fe00fffffefe0002feff0200ffff03ff0000fe010200ff010001ff0000
0100000000fe00fefd00ff01ff010103000100fefeff00fe0000feff00ff0102
0102fe020101feffff000000ff0001fe010200ff01ff00ff00fe000000fe0101
fcfd0000fefc0001ff00ff0100000002fdfe02ff01ff00ff030101fdffff0001
00000100000200ff00ff0000010000ffffffffffff0000000001fdff00fd01ff
fe010000010201010001fe00fe0101fdfeff01fd01fd0103030101ffff000000
fe01ff01ff0002fefdff0200ff00fe04ffffff010202ff00fe00ff000001ff00
0101ff010101000100fffffffefe01fe000000ffff00fe00fe0101ff00000100
00010300ffff0100fc0201fcff00ff0201ffff00030301fffeff000201feffff
fc000201fffcfffefeff00fe0301000002fd00feff00fffe0200fefd01ffff00
00fd00fdfe0200010000feff0200fe010001fffe01ff01ffff0201fefffffffd
01fefe0001fe000102fefe0001ff00fd02fe01feff03ff0001010001ff00ff03
00fb0102000400fb00fd01ff02ff00fd02f7ff01fafc01fdff02fd040100fefe
fffe00fffffe01000101ff0000010000fdfd01fdfe01ff00fc0100000100fe02
0100ff0000fd000400fe02fffb01000200fffd01fffe01020101000003ff01fd
fffdffff0201fffefc0100fd0102fffd0101fffffcfdffff0305ff0002fe01fe
0001010100ff0102ffff02fe02ff00020000000001ffff0000fffdfd010003fe
0000ffff02fe00feff000102fe00ff01faff000102ff01ff0001ffffff0001ff
fffe01ff0000020004ff020001010000ff05ff0002fcfe02fd00ffffff000201
01ff01fefe0000ff0001ff010101000100000000000000ffff01ff00010102ff
01fe03fffffffefefd00ff0105fffff80401020201fc02fefafffe02fc000202
02fe0100fe04ff0003fefefeff01fffc03fd0201010201000101fefd01fd0001
fe00fdfffe02feff000000000101fdfe0503fefffffdff00fe0200fefeff00ff
000100010201000101fefdfeff00ff030201feff0202fe0200ff00ff00fe00fd
ff000000000102fdfeff02fe020101ffff04000002ff00030001feff01030000
fffdfe010001ffff0000fdff020000fe02fffe01ffffffff020002fefefe0100
020000010001ff000001020000000100ffff0100ff00020000010000ff00ffff
fdfdfdfdfffefffefdff00000000fefdff030101fefdfe010000ffff0202fe01
010101ff00fa000003fd01030200ff0102fdfffffe01fffe0000fd02fffffffd
00fe00ff01fdfcff01030000fd0000fc0102ff00fdfdff00020303ff02fefffe
0101fffe00010000ffff0001ff0000040106000000ffff01fe01000101ffffff
01000001fffefe0002fe0001040102fffdfc0100faff0002fd00fd00ff000200
fe02ff000100fffffd000201fd0100fffe00feff01000000fdfdfdff010302ff
0001000000fd0100ff00010001ff000400fffffe00ff0000ff01000001020001
03fefd02000103000300ff02000101fefe00010200ff00feff000200000001fe
fffe00fffffffefd000202ffff00fe0101fe0100fefeffff000002ff00fefffd
fffe00fffe0001ff00ff0000ff00010400000101fcff00fffeff030001ffff00
00ffff0200ffff000101feff010100000301ffffffffff010401ffffff00ff01
01fd010300fbffffff01fffd0300fe04fefffd00fffdfe01ffff02ff010000fc
02feff01ffff0001ffff00000000ff01020201ff00000001fe00ff0001000200
00020000ff01ff00ff00010000ffff020301fefc02030102feffff0102fe0101
01010101000004ff00feff02fdff00030102020402010301fe0100ff02000000
01ff01fe020102ff010000010001ff0301fe01ff02020301fefe0101fffffeff
01010100ff0101fe00fffd01fd01fefc0306ff0005ffff03020101ffff02fffe
010001010204ff000000ff01fd010001fefe01000102fffffefe00fefe010102
0002fe01ff000000fffe0202030001fffc0201fefe02fffffe0200ff0100ff01
00000101010101fe00ffff0000ff01ff01feff00ffff00fe02ff000001000103
01fcfeff02fefefffe01fdfd02ff000400fefe00ff01feff0402fe03030301ff
00fc000101feff01020003ffff010100ff02fefdffff01020402ff02fe0100fe
0001000100fffffffd0101ffffff010102000200feff00ff0001000200010001
ff01ff0000fcfefe01fe0101010101ff0101ff0000feff00000100fe020100ff
0201fffeff01030100000000feffff01ff0001ffff01fffffe0000fe00fffe01
fd00ff00fd0101ff01ffffffff010002000001fffe00ff00fb01fa000301feff
00ff0001000001fefe0100ff000100010200fe010202fffffe00ff0201000002
fe010100010400ff010201fe03fe00ff0201020000ff0001020000ff0101ffff
0001fe0102fc00010101ff01ff010101040101fe0000ff00ff01feffff0401fd
00ffff020104010100000102fe01fffe02020002fefeff00fffeffff0101ff01
ffff0002030303ff03020101fffd0001fd000002ff00ffff00fd0001fffe0205
01fdff0000ff0100020002ff00ffff02000100020001ff00fc01ffff00ffff00
fe000100030002fffffd00fe00ff00fffffe0100fe00fffe0202000201fe00fd
ff01ff01fffdff00fefeff0001010002fc0001ff00ff00ffffffffff00000005
01fefffffffffefe0000ff00fdfe00fdff03fe000200ff0101fefe00ff020200
fdff01ff0001fe000000fe01fc0200fffffb01fdff00ff0405feff000000ff00
fe00fffffdfefe02ff00feff0200fc040200fefdfbfffb02fd0101fd0300fcfb
fd00ffff01ff01fffefeffffff02ff0101fe00ff0000fe00020300000003ff02
000302ff00fdfd03fefe0002fd010103fe040300020103ff02fefd00010002fe
00020100fe0005fffe0000020000ff0403fb0001fe000100fb0100fefe0001ff
ff03ff02010203fe010100ff01fffe010101ff010002fe00fbfd00020101fe00
02030101fefeff010300010101010101ff0000ff01ff0103ff0000050200ff02
fe0001ff0200fe0000fe01000201fffffa00fffefe0000ff02ffff00000000fe
fefe000100fdfefe010201fcff01fffffefa0003fafd0000f5020301ff00fefc
fbfe03fdfc00fdfdff03fffd0102fe010202fffd03fffe01fe00fd02fffffd01
ffff0101fdfeffff01fc0201fa01fc00060502fc0afcfb0101040102fffd0101
ff01fe01ff0403fefe030100fefffefe0201fdff05ff01020201ff0200000006
feff02fffd0404feff01fefdfd0101ff0101fefffefefd03f4000101fefefc02
00fe01ff010102000300fd000100ff010301ff010400010306fd010100000005
000000feff00ff02fffe0002010100fefe020200fffc0401ffff010000000001
fe0000000001000200000000ff0100ff00fcfe00fa0103fff9ffffff000100fd
fffdffff0100000201ff00fe0000ff0204ff00fe02fe00000001010202000200
01040101010100fffffeff01fd00020003fc01ff01ff0200fefe0001010001fd
ff01ff0001feff00ff0200fffc0100fe02030200ff00ffff0100fffd00fffeff
000100010001fe01000000ff020200fe01fc0000fefffffffe00fe02ff0200ff
ff0103fe010503fffdff00fdff00ff07ff010100fdfd0102fdff0201fffe0200
0000fd030002ffff00ff00feff0100fdfe0300fe02ff0001ff01fdff00ff01ff
0100020100fcff000100fe00fe010000fffd0002010100ff02ff00ff00000202
fffdfe0200fe00fffdff0200030000f900fbff01fd0002fefefffe01fdff00ff
000000feffffff00fefd01ffff0000fbfe0000fffffeff01ff01010000000101
01ff00000103fe02ffff00fefd000000010201ff0401ff0101fe00fe00ff0002
01ff0200ff00feff00feffff0000ff0301fcff01fe01010101ff01fefffffefd
ffff00ff0100000101010102fffffeff03ffff01010100010000fe01ff000102
00ff0102ff01fefe00ff00ffff000001fd00010001000002fe01020001fe02fd
02fbff0303ff00ff0000ff00ff0102fe01fe0201fefe01fffe00fffd01010201
0000000000f9000002fffffefefefe01fffbff01fe0000fe000201fdff00fffd
0000fd00ff01ff00ff010200ffff010203fefe02feffff00010101ff02ff00ff
00fc0000fffffffefffe0100ffffff01010200ff03fe02020301fffe01ff00fe
ff02ff010000ff00fe01ff0200fe0000fffe00000200ffffff0001feff000003
00ff01000002fd00ff01000001fdffff02fd0000fdff0201feffff01ff0203fe
fe00fffefefeff000202fdfd00000002fefd00feff01ffff01fefeff01000100
000001fdfffefeff000100ffff0000ff00fdff0101fb0000ff0102ff01ff00fe
0001fe0101fe00020002fe00ff01ffff03fd02fe00000000000000fd000000ff
fffefe01ff01000302fffe000000fef905fffefdfd0000000401ff01fd00feff
fffefe00ff01010103ff00000100ffffff01000000feff000200ff01010201ff
020100ff00000002000200ff01ff00ffff010200fe000101ff0004ff01ff0200
0200fe00ff00000302fe0101fefe01fc01ff0200fcfffe01fe00ff0100ff0102
ff0001fe01ff0201020101010000000201000000ff0301000000fefefe020101
00040001ff03fe00fdfd00fffefffefe0103000101fd01000503000200ff02ff
ff02010103fe0100fe0201fe01010102ff00000001fe00ff01fffefe02fe01ff
feff01fffffe00fffd01ff01fe020104000001fffefffd00fe030101000101fd
ff0001ff0102010201fffffe00ffffff00020201ff0101010200010000030200
02ff00ff0001ffff02010001000000fffafe01fffcff0001fefe01fd0000ff01
ff04fefffffefefe0100fdfef801fcf6ff0601fe06ffffff02fdfbfeff00ff04
01fc0000000000fcff00010203010001010001fefffeff01fe0101ff00000101
ff0002000000010001ff0100feff00fffefbff00ff00ff02fe0102ff0000fe00
02ff0001ff000003fe01fffd01ff00fd0100010102030000fd01fffcffffffff
01fc00010101fd0000000100fe00ffff00fffefffeff000101fd0202fd0000fe
000100fffe01fffffe0201010101ff01fdffff00fbfffefffc010000ff000205
ff0000fffe00fdfefe01ff01fdff00000200ff01ff01ff01ff01010202010000
