07
ff
04
ff
07
07
05
0a
07
31
fd
0a
02
f7
fa
f6
07
04
09
06
0a
31
fd
f6
f5
fc
07
03
f9
fa
0c
04
06
29
ff
f6
fc
09
fc
00
0b
0d
07
01
f8
32
04
08
0d
07
06
f7
f7
07
fb
04
ec
3d
09
fd
fb
fd
f9
06
f4
05
f6
0a
05
3b
fd
f9
0a
00
fa
05
fc
03
02
fc
f4
24
07
fc
0e
f9
03
08
06
03
06
09
fb
36
00
02
fa
fe
00
f9
08
06
06
08
08
2f
fe
f8
0d
fb
05
04
fa
04
02
06
09
26
fa
00
f6
f7
0a
fb
fc
f7
fc
fc
0d
37
f9
00
08
03
03
09
09
f7
f8
f5
fb
41
01
f6
f7
07
ff
03
fa
05
04
fa
fd
2e
fe
06
08
fe
0a
f3
07
fa
fd
fd
f4
4e
05
00
f4
09
fb
03
fb
f7
08
03
07
3f
fc
fd
f9
fe
00
f7
fd
02
05
fe
f9
2c
03
ff
f8
00
fe
f9
00
fa
fd
fb
f4
33
06
02
09
02
f8
09
09
fe
fb
f8
02
38
fd
07
fb
fe
fe
f7
0b
06
00
09
07
2e
00
01
f8
f5
01
01
f6
03
08
06
03
35
00
05
07
06
ff
0a
00
fe
06
f5
04
2c
ff
0b
fa
01
01
08
f9
09
0b
01
07
36
fa
00
08
fa
04
fc
f6
fa
fc
fb
05
36
00
04
f6
fd
07
f8
00
0a
05
07
12
33
f6
fb
06
06
fd
0c
00
fa
f8
ff
ee
3d
09
f5
fa
f9
fc
04
fa
05
f8
03
f7
48
04
f9
03
ff
06
0b
f7
fb
01
07
ff
20
fd
00
02
fa
fd
fa
f8
f5
f8
ff
10
4f
fa
01
fd
fb
fc
00
ff
fb
03
f6
fd
25
06
00
06
f7
f7
f9
f4
f9
f9
04
fc
3b
02
ff
f8
f8
08
03
02
fc
f8
f9
04
28
fc
fc
f8
01
04
fd
f8
f9
fa
fd
0f
36
fc
ff
fd
06
fb
0a
f6
fd
05
02
fd
47
01
03
0a
fd
02
f6
02
fc
05
01
02
26
fc
f7
f9
02
ff
f4
05
f7
00
fc
0c
30
f8
03
fe
f5
f5
02
f4
fc
fd
09
ed
3a
0a
f4
07
fa
fb
04
0a
f5
04
fe
f3
3a
07
00
fe
06
ff
fc
06
09
09
01
ea
49
0b
fc
fb
08
fe
07
f5
09
f9
fe
0b
2f
f7
07
08
0b
ff
fe
f6
fe
f8
fb
fe
25
04
f8
07
fa
f8
fb
f7
00
00
fc
fa
2a
07
fc
fe
f9
ff
0b
f9
fe
0c
fc
04
2d
fc
02
f6
04
0b
05
02
09
f5
fd
fd
2f
01
fb
06
03
05
09
f8
06
02
f6
00
33
ff
06
f4
fa
f4
05
05
fa
05
fe
00
3f
ff
fa
00
02
05
0c
f8
03
01
fc
06
37
fe
f8
ff
ff
08
ff
f6
fa
fd
fe
13
49
f7
01
08
fd
fd
07
fa
fe
fd
f9
11
2d
f6
06
0a
f6
09
05
fc
05
f8
02
05
39
01
fc
04
05
f9
fc
02
f8
f8
fd
ff
24
03
f9
03
04
f9
0c
05
f7
09
07
0e
34
fb
08
06
02
fd
07
03
fd
fd
fa
fa
2c
03
03
07
08
03
0a
f9
03
08
03
f7
30
05
03
ff
00
f5
08
05
f6
ff
fe
f4
39
07
ff
fe
02
fd
f0
08
fe
fe
f9
0e
2b
f8
07
08
fc
0a
00
fa
ff
fa
ff
07
21
fa
f7
f6
07
f9
f5
0a
04
f7
f9
06
34
fd
01
02
f2
fb
02
fc
01
07
05
0e
49
fb
04
f9
f5
f8
07
09
fe
06
03
07
3f
fd
03
fa
fd
fa
f8
fe
f5
fe
09
08
23
f7
08
01
09
fa
08
03
09
06
02
f6
41
05
fe
09
03
f9
f9
09
00
fe
ff
ec
34
0a
03
02
fe
03
02
fb
0b
f6
06
00
33
ff
02
06
fb
fe
f7
f9
ff
06
fa
15
2f
f6
01
08
0c
f7
fc
06
fd
02
f9
05
3a
fc
f7
fd
fb
fd
f9
08
04
03
03
0a
27
f7
07
06
fa
05
f4
ff
09
ff
f6
07
39
fb
f7
0b
08
fd
f5
f5
04
03
fd
10
6e
fa
07
01
01
f7
f7
fe
01
04
07
0d
36
f8
fa
fa
fd
06
fb
0e
fe
09
02
ff
2a
03
0a
fc
09
f8
01
0c
06
09
05
03
2b
fb
fd
f9
07
f3
fa
02
05
01
f8
13
4d
f8
fb
03
07
fa
07
00
ff
0a
fa
13
3b
f6
f9
f4
04
fe
f7
05
fe
06
fe
0e
4a
f9
05
01
f7
fd
05
f5
0c
fb
07
05
3f
fc
00
04
00
04
09
fb
fc
fb
f9
fe
41
03
f6
f7
01
01
03
07
05
fe
07
f0
31
08
f9
01
03
fb
05
09
f9
f9
fd
04
32
fe
06
f6
06
06
fb
fd
0a
03
f8
10
46
f8
05
f7
06
03
09
08
05
f6
f6
0b
3a
f9
03
fc
f2
f8
05
04
fe
02
00
fd
30
02
f7
08
0c
04
fd
0a
01
fb
00
0f
35
f8
04
0b
fc
f9
02
fa
03
03
04
0d
4d
fa
f8
ff
fd
fe
02
fa
f9
06
02
fc
36
03
08
f5
f9
06
00
01
fa
fa
f7
06
1b
f9
03
04
03
0a
08
03
00
06
08
10
5c
fb
f8
f7
03
02
fe
00
00
06
fe
f9
35
05
02
ff
0c
03
fe
0a
f8
0a
fd
06
4f
fe
06
fe
07
09
00
f6
04
fe
f7
04
28
fb
ff
fe
05
f8
f7
f9
f6
08
01
fb
36
06
05
01
02
f8
fe
f9
0b
0b
f7
f3
38
08
09
fa
f7
06
06
00
02
fc
09
f5
39
08
08
fb
fe
08
08
03
0a
fe
06
06
5a
ff
fc
03
fc
03
07
fa
05
02
01
f0
39
05
09
f7
f7
05
05
fc
fc
09
f9
0e
48
fa
fc
04
f8
fc
02
f5
fe
ff
02
0a
4e
fb
03
f7
ff
fa
09
05
05
00
01
16
38
f5
fa
f8
02
00
09
03
fe
fe
fb
05
30
fc
00
05
0a
fd
01
0c
fe
fa
fd
04
39
ff
f9
f4
00
fd
02
fd
06
f7
08
fd
6f
01
05
0e
fd
00
f9
01
00
fb
02
0c
3c
f8
03
04
f8
f6
01
06
ff
f7
fc
f5
29
08
fe
03
0b
06
ff
fa
f7
ff
fc
07
29
f9
0b
ff
04
07
02
fa
0d
fa
fc
fc
24
01
03
02
f8
08
06
0b
02
04
04
02
1e
fd
f8
fd
fa
fa
f2
00
f8
01
fb
12
32
f8
03
ff
06
01
f2
ff
f9
ff
06
15
39
f7
03
01
00
ff
09
06
ff
05
04
07
26
f8
06
08
01
08
09
05
fe
fa
03
0e
47
fa
0b
05
fa
fe
08
f9
02
02
f7
fc
36
01
07
01
07
03
f7
05
f6
fc
fe
fa
2a
05
f4
00
f8
fc
fb
fc
f6
06
0b
f8
26
04
0d
06
fc
0d
fd
fb
09
fe
01
04
21
fd
f2
f9
f9
01
fb
ff
fb
fb
04
00
16
fc
f9
fe
f9
f7
00
fb
fa
f8
f8
fa
22
08
f9
00
fa
f6
fd
fa
fd
fb
fb
f7
25
06
08
04
02
00
04
08
09
fb
06
0b
2f
fa
f5
f5
02
fb
00
04
f8
fd
06
13
4e
f7
fb
ff
09
fc
fc
08
0d
ff
f5
ee
31
09
ff
fd
f8
08
0c
fd
02
04
05
f9
34
03
fc
f9
f6
00
fd
fa
fd
04
08
03
27
fc
fc
f8
02
04
f5
03
f8
f9
fe
f4
3e
07
f4
08
f9
fb
0b
fe
ff
09
07
0c
4b
f9
05
00
03
fe
f9
00
ff
f4
08
ef
31
0a
02
f9
f9
00
01
05
05
04
09
ee
34
0b
07
fc
04
f6
07
f4
02
fd
f7
0c
32
fa
f7
ff
00
03
0b
07
f7
09
fd
f6
25
08
f8
fa
fc
fa
f5
07
04
f6
0a
f1
38
0a
04
f6
08
ff
03
06
f8
0a
fd
0a
37
fc
03
05
09
07
fe
05
f4
f9
f9
03
40
ff
fb
09
00
fb
02
f9
fb
fd
fa
fa
3f
02
fe
05
fd
f7
fe
fb
fc
07
02
f7
4a
04
05
01
fe
f7
ff
07
fd
f9
04
fb
30
03
f7
05
fb
06
0c
04
06
00
ff
f3
34
07
05
07
02
fb
08
07
f7
fd
fd
07
27
fc
fc
02
fb
f8
f5
f9
06
fa
f7
02
3d
01
fd
0b
04
fa
f7
03
fc
fe
09
02
2d
02
ff
06
0a
fb
07
01
fc
ff
0c
0a
2e
f8
00
f6
f7
f3
04
03
f7
01
ff
02
2a
fd
f8
f6
f7
02
01
0a
fd
fd
ff
fa
2f
02
fe
0b
fd
f9
01
fa
04
08
04
0b
37
f8
09
f9
fb
0a
05
f9
f8
02
fb
fd
38
03
ff
f7
f8
ff
06
fd
04
04
02
ee
32
0a
05
f4
0b
03
08
06
05
04
01
ee
45
08
0a
fd
01
f5
fc
02
fc
03
fe
f4
3e
06
03
f3
00
05
fa
01
00
fa
02
fd
40
05
09
06
03
fe
06
02
06
f5
fc
fb
30
03
fd
fd
08
02
0b
05
fa
01
06
0a
40
fc
09
fa
fe
03
fa
09
fc
f7
f6
f8
30
06
f5
fc
01
06
06
03
f9
fe
fd
f2
2f
09
03
08
fb
05
f4
f9
00
05
06
f2
28
0a
fa
fb
fb
f5
f5
f4
fa
06
f7
f0
27
09
0a
f7
05
08
00
08
06
fb
09
07
24
fc
f9
ff
fd
00
f8
0a
f6
f8
f8
21
60
f5
fc
fa
02
0b
f6
fe
fa
fc
0b
02
3f
ff
05
01
f8
ff
fe
f8
fa
ff
04
fc
31
05
fd
06
02
fb
fd
04
f8
f6
ff
ff
2c
01
08
fc
fb
01
03
06
08
05
07
05
46
fd
fa
00
00
fd
fa
02
0a
02
f8
ff
29
fe
fa
fa
03
f9
02
f8
fc
fd
fb
16
35
f6
fd
fd
f6
01
fd
fc
f7
fa
ff
f2
32
0b
03
07
04
fe
fe
00
03
08
07
f4
28
09
04
f8
f8
01
f6
08
f8
f5
fa
0c
3c
f8
fa
03
0a
09
02
03
fa
fa
05
02
40
ff
06
f5
fd
05
fb
07
02
01
fd
0b
37
fa
ff
07
fa
f8
09
06
fa
fd
f9
f7
4d
05
02
09
03
fb
06
f7
07
f2
06
09
31
fc
06
05
fc
fa
0a
02
05
03
0a
02
2c
fa
09
05
09
03
f7
09
01
f9
fd
03
21
fc
f8
f8
06
fc
fb
08
f9
f6
fa
10
3b
f8
f9
f4
fc
08
07
03
02
00
fe