00ff0101fefd0100000002fd00ff0000010100000200
02030104ff02ff0001fefc0202000001000401ff0100
0003ff03fffe04ff00030100fe00ff03030100010100
0000feffff00fdfffffe00020200ff0100fefe020200
ff00ffff000201ff010001020100ff01fe0101fe0000
fefdff000101000002fffdfffeff00fe00fe02000300
03000002ff0100ff02fffc02ff02ffff010402010100
fefcfd00ffff0200000000ff0401fefd02fc0001ff00
fefe01fd0101fe00fffffefd00fefe01fe0100fd0200
ff01020101fe00fbfffe0101ff010103000600fc0100
0302010001030001ff04ff00fe0002fefdfa00fd0000
04fc05010105fffcfc01fe0701020000fefefc01ff00
01feff01fefd00ffff0100fefefffe00ff0101ff0000
fffffeff01fe00feffff01fdffff01fe00010002ff00
fc00fe03010003fd00fe020101ff02fb01010001ff00
010201000101fefeff020201fdfffffeff050000fe00
fffe0000ff0000010100fdffff00ff00ffff01010100
feff020000020001ffff00010000ffffff00ff00ff00
fffe000200000100fe040402fdfeff00fe03ff020000
010000010000ff0000fdff02030001ffff01ff020000
01fe01fd02fe0001020101ffffff0100fffe01020100
0001fe0400050000feff0001010000000101ff000100
0300020001ff00010101ff02000001ff0104fefeff00
feffff00ff0101ff000202fd0000ff0401ff0201ff00
feff0003ffffff01fe0102ff020201fd01ff02030000
00fe03ff02fe00ff01ffff010003ff00ffffffff0000
010001000000ff0100fffe0100fffe00000103fffe00
ff00ff0001fc0100ff0000ff01fe00ff00ff01fcff00
00ff0501010302ff00fe01fe01fffe03ffff00000200
ffffff010000fefefe0300000102ff010101ffffff00
d726e927334f4f47de240d0713fb362e34ede13ff100
2a1d2d1f1e181d1723211f1b142930171939321a2300
ff00ff01000100000001000000000000fffe01010100
fffffd03fdfcfcfd00fdfefffb00fefe03ff00010300
01fa020301f7fb03020205ff0e010000ff0201030200
0100010100fb00fd0001ffffffff00fffd0002ff0000
ff01fffffefe00ff01ff00ff040000fdfeffffffff00
02ff00ff00feff01ff00010100ff00ff000000000000
010200fe0202ff0000000102fe000103ff010001ff00
00fd00fe00010001fffe0202000200fd01ff03ff0000
ff0101020001ff00010000010400fe02fbfefff9ff00
01fefffefe01fdff00feffff0002fefe01ff00ff0000
0001fefe020101000200fe0100ff01010000ff020100
ffff00fffffffe0101010100ff01ff01ff00fe000000
0101fdfeff00ffff00ff01010001ff0000ff00fefe00
0001fdfeff00fffefe0000010001feffffff01000000
0101010101ffffff03ffff010100fe02feffffff0100
00fe00ff000100ff01ff000201000000feff00fdff00
02fd0101fd0100fc01fefe00ff010000010001ff0200
020303fe01feff00ffff0200fe00fffe00010102ff00
00fd0402ff0100fe00fdfefe0100fefefdfe00fd0000
00fe00fdfefcfefb0100fdff020502fd01ff0202fe00
03fe0002fefcff0001fffe01fd01ff02ffff02fffe00
fe010000feffff00ffff000002ff00fefe030202ff00
01fffffefe000001010000fe00000103ff0100fdff00
0101000000ffff01fffdff02ff01ff01fe0100fe0000
0002010001ff01fe02fc00fffe00ff00ff00fd01ff00
01fcfffb0002ff01fffd0103fc01000000000101fe00
00fefffdff01fd0201fe0005000000fe05ff0000ff00
0001fffd01fefffd02000101fe0001fe040001030000
030101ff01fb01fd0100ff04fe01000001000200fe00
feff000001fd01feff0000fffefe0200ffff00feff00
01ff00ff01fe01fd0100fffb03fefefc01fe0000ff00
0004000201fffeff0200010201ff0202ff0102ffff00
00020101ff01fffc0100fffefdfe00fefeff01fe0200
ffff000101fffffffeff020302010001fefeff00ff00
01ff01ff0000ffff000001000203fffffeffffff0100
01fe01fffe0000ffff02fffe0000fd00fe00fffc0000
01ff0200fe000101020101fe02fe0101fdffff000000
01ff0303fffefeff030003fe00fe01fffe00fffe0100
00ffff02ff0102fafeff000001fdff030000fe010200
00feff0000ffffff010102ff0200000100ff0002ff00
0002ff0200fe020000ff00000201010100ff00010000
01ff01fd0100020001ffff0200000002040000010000
02ff010002ff00ff000101fe0000feff00ffff000100
feffffff00fefeff01feff01fefe0000feffff000000
02ff010000fefffe00fe0000ff0000fe01ff00fd0000
01fdfe0202fe010000fcff02fefffefe0400fefd0100
fffeffff0103020100ff00010001ff02ffff02fdfe00
02fefe0000ff0300ff01ff00ff000101fe0000fe0000
020200ff02fdff0100fffefe0000ff00010001010200
00ff03fffd03fd0001030200fe00ffffff00ff000000
01fe01fc0002fe000101fefe0000feff00ff02030200
01fffe01ff01fe0102fd01010000ff01fe01ff01ff00
01fc02000200000001feff030200fefc01ff00000000
fffefe02fffd00fe00000103010100fdffff00000000
01ff020304feff01fffd00ff030200fe010200fdff00
03000200fefefe01010000fe000101ffff0001ff0000
00feff0002fbfe00fe01ff01fafe01fc0001ff000000
00ff010200fe01fa0002fefcfa000102ff0001fdfe00
0103ffff000000fc00fffb010000ff03000000020400
01fffdfffffefe00ff000002fe0200ff01ff02ffff00
0003ffff0001fefe01ffff00feff00ff04ffff00ff00
010201fd0000ff0100000000fffc00feffff00ff0000
fffd02fe0301ff020100fd00ff00ff000100feff0100
0100ff00ffff00000101ff010300fefffeffff010100
000002fd01ff00fefdfe02ffff0100fc03ff00010200
03ff01ffff01000000fffefefd00ff04030000010100
ff0100fe0000fefd01fe00000200ff01fcffff010000
020100ff0000fe0101000000ff02fe020200fe00fc00
01010100ff01feff000001010100fffeffffffffff00
ffff000100fffe0301fe0300fffc0200feff00ffff00
ffff0100ff00fd0300fffeff01ff010003ff00fe0000
ff0100010101fffe000000fe010001ff000100000100
fe02feff01000003ff0100ff0201ff01fe000001fe00
fd0000ff000200fefffffefe0001010000ff01010000
01ff010202feff01010200000001020301ff02fc0000
01fe0100fffffffcff0001fefb02fffdfffffe030000
0101fffffd02fcfc04fffffcfe02fdfffdff00fdff00
00ff00010202000201feff00fe000004ff0001ff0100
01ff00fefffd0101fe0001fcfcffff00fefffefdff00
02fd0003000200030200fffd00fd01ffff0002fe0100
ffff0002fdfd0205fffffd0102010101fc0101fc0000
0200010101ff01fdff000200fe00fffefdff00ff0200
0000fe0100fe0002fffdff0000fdff00fe01fe020200
000100ff00020200ff01fe0001fefdfc0200ff000000
02ff0002010302fd01ff0001000200fefe01ff010200
fffefffeff0200ff02ff00000000fffffbfd00fe0100
01fdff000003fffe020102ff02010103fafd01030500
03fefffdff00fd0300ffff010003fdffff0002020200
ff01ffff00ff03ffffff03fffe01010102ffff00ff00
ff000000fefe000200ff0202010000fefb0100ff0000
02030000000200ff000001fe0200020100fe01010200
00fe0000fefe00fe0002fe00ff0100fefe0000fefe00
ffff00ff00fe010002010200feff01fe000100feff00
ff000101fefdff0000fd02fffffe000000feff04ff00
ff00ffff00fe0101ff00fffffcfc00fefe0002ff0100
ff00fe01fefd00fefefeff00fd0101fdfa00fffeff00
00feff00fffdffffffffff040100fffeff000101fe00
0201ffffff03010200fc0001010102fcfd0000fe0100
01030101010000ff000100000101000005feff04ff00
ffff0200fefffefe010104fd01fb010100fdff00fe00
000101fefd00010001ff0101fefe0102fcff00fcff00
ff01fffe030000ff00ff00ffff00ff0101ff00010000
fffdffffffff02ff010100feffff00fdfd0001ff0000
01ff0101fefffeffff00fffc04ff02fe0401fe050100
010100ffff03ff01020100ff00fe0203feff00ff0100
0100fd01fefe00ff04fe00fd0200010002ff00010000
00ff00feff000101ff00030201ff000100ff01fdfd00
01fb02000000fdfdffff01000200fdfdfa01fffeff00
ff0201fefe00fe0003ff0002000101ffffff0002fe00
0003000201fb00fe00000001020201fffd0100000100
000002ff00ff00fefffffe0000010101ff0001ffff00
02ff02ff00ff00fefd00ff03ff0001030400ffff0100
ff030202fefe00fefe00fe02030100fe010001ff0100
fffe00fc01fffe01000100ff0100ff01fcfd01010100
00ffff02feff0200ffff0000fd00010102ff01020200
0102000000fcffff01fe0001010001ff01ff00fd0200
ff000001fe01000000010100fe000000fe0201000100
01010000ffff00ff0200010100ff010401ff00fefe00
fe010002ff02ff0002fd000004fe01fdfd0000fefe00
000101fefd01fffeff01020300fe00fe01ffff01ff00
01feff00fd000302ff01ffffff00ffff000000fe0100
fffd01010000fefffe000102ff000101000002ff0300
000001fefdfcff00000103fffd000002ff0000010000
020000ff00fefffe0000fe00010001fd020100010000
01fe0000feff0000010001fffefe0100fffd02020000
010102fffcfe0100ff0000fe02fefffd02ff02030100
ff02000002fc03010001000100fffd03010100000000
00fdff0100ff000302020001010103fffe0000fe0200
0000ff00ff0000fe0002010101020103020101ff0000
020001010202fb0102ff00ff030101fb010000ff0100
000400000201fffe02fe020100ff00fe00ffffff0000
ffff0100ff01ff00000101ff0300fd00fd0001fe0000
00fc0101feff0201010000feffffff0000000001ff00
01fd02feff01ffff00010101fd00ff00020100010100
0101fefefffbfe000101fd0400fffffffe0100000000
0001ff00fffdfeff01fe01ff02ffff00ff00fefdff00
ffffff000100fe05fffffeff00ff000102fffffefe00
fffefe01fd0000000203010200ffffffffff01fdff00
fd00000101feff0302fffefe00fd00fffb0103fefe00
0003000000ff0401000201ffffff01fe000002ff0200
00020100fefbfdfe00feff000000fe020500fcff0300
fe02ffffff01ff00ff01000201010002010100000000
00fe0202fffd02fc0101ff02ffff00ff010000000100
01ff01030100ffff01fe00000003fe00ff0002010000
ff010102fffffe020200000000fe0101ff0200ff0000
0102ff0001fe010000ff0001ff01ff0202ff00000000
ffffff01ff01ff0001ff01fdfbfeff03ff0000fcff00
0002ff000200ff020000ff0200ff000001fffefffe00
fe02ffff0200ff0000fffffdfd000100020101000200
ff000300fffe00fdff03fc03fffd0001000001000100
ff00ffff0201fffd010100fe01fc01fd020100fe0000
ff0100fefffffffc0100fdfe0000000201ff00ffff00
0000000101010201fe0101000000fffc01ff0001ff00
00fd000101feff0103fffffe00ff0203fe0204ff0000
0102020000feff0002fe02ffff0001fe000200feff00
01fe01ff010000feff00ff02fd00fe000000ffff0100
0101fe00ffff0100fefe000000010000fd00ffff0000
0201000002fefffeffff01010302000001fe01ff0100
ff00ffffff00ff0300fdffff020300ff00000101fe00
fefc00fdfeff00fefe0201fdfe010105faff00000200
0201fe00fe00010101010400ff01ff0200ffff01ff00
0001010203030000fffefffeffff010201000002fe00
00ffffffff00fefeffff0001fe01000402fdffff0100
03fc0202ff0100fd000101fffa01ff00fcfe01ff0100
00ff00fe00fefff90101fe00fdff01fffffd00fd0100
00ff020001fc01ff000102fe00ff01feff0003feff00
01feff01ff01fffeff0101fafffd0000fdffff01fe00
01ff00fffffffffeff0001fe00000002fe0101fe0000
ff0301fe0001ff0201fd00fffd0101fe010000fe0100
feff00fdff02fdfffffd010000fc010001fffd01ff00
00fd0201fb0201ff02fd01040201ff00fb00fefc0000
03ffffff02ff03fc02fc03020200fe02010000040000
0100fe0101fcfdfd02020103010102fffdff00fe0000
01ff0100fdff02fe0100feff000101010000fe000000
00010200fcfcfef8fdfd0201f70101fe02ffff010000
01fd0002fe02fd020301ff00ff00000001ff01000000
0003fe00ffff010000ff010002ff01010000ff020100
00010200010000fe0100fefeff0000ff010001000100
02ffff000102fcfe02fb0003ff00ff0002000102ff00
0005ff01fffdff01020003f906ff02fcffffff030100
02030101010000fefffe01ff0101ffff050004ff0100
ffff00ff00ffff01ffff000102ffffff000102ff0200
fe02ff00ff000001fd0100fefefefefffc0000fefe00
00ffff0003fffe0001ff01ffff00ff01020001ff0100
02ff02ff01fffffeff020301ff0000fd01ffff03ff00
fe0200010002ff00030003020201ff0000fffdffff00
01020103fffffe00030200fd0002ffff01020102ff00
00ff02fffffffffe010101040301ffffffffffffff00
fe0100fe0000fd01ff0000ff0000fd0100ff00020000
01fe000001000300ff000000fe000000030200000100
ffffffffff00fffffffe01ff00000101fd0001ff0000
00010001ff0002ff00fd000100fffeffff01fe000100
00010001fdfbfefeff0004fefc030100fefffffcfc00
01fcffff01ff0001fe010002fd00ff02ff01feff0100
000000fffdfffe0000ff00ff02ff01ff02ff0000ff00
ff01020001fc01fe01ff030203fe00fefe010102fe00
03fbff0203fffe0203000003010203feffff01fd0200
ff0001feff00fffeff010000fdfffe000100ff01fe00
ffff0100fdfffdfe04fefe04f902fff8f7ff01fbfd00
03fe01feff01ff030200ff0103fc0501ffff02020100
fe0001fffd00010101fdff01ffff010301ff00ff0000
0000ff00010000ffff0101010200ff000100ffffff00
ff010202fffdfeff01fe0100010000010300fe02ff00
0100000000fd0002fffefd0000ff01030001fffe0100
010002ff0004fffffffdff02fd01fefd0101fffd0500
01fdfffdff0301ff00ff00020001fefd00fe02010200
ff02000300fe02fd020001010000fe0000fe00ff0100
00fd0202010100000101fdff010100ff00000000ff00
02fd01ff00fafe020002020100ff01ff01000000ff00
000100fe0000ff02ff01010001010002010001fe0000
fffe02fffe020001fffe000102fe01f9fd0201ff0200
ff010100000000030000000102ffff01feffff020100
01ff01fb020200ff0001010001ff01fcffff01ff0100
0101010002fe01fbff01020001ff000100000000fe00
ffff0000ff00fd0301000002fd010102000002feff00
0202010100fefffd00fffd02020200ff000100000000
ff010100fcfe00ffffffff01fd01000204ff00010100
ff01010101ffff0001feffff00000100000000000000
ffffff00ffff02010100000302fffffe00fffefe0000
0001fdfdff01fffffe01000000000000ffff00ff0300
00ff01fe0002fe0300fdfc00fd04fffe01fe01ff0100
020101ff02ffff01ffff0001010100ffff0002fc0000
ff0002ffff0002000001010301000202020000000000
0100fefffd0000fc020200fe02fe0001faff00010200
01fdfffdfefefefa02000200ff0000fc03ff0100ff00
01ff0302020100ff0000000001fe0202ff010002fe00
000002030001000101000103010201fdfc0001fd0000
ff020000fffd01ff00ff000002fffffefdfeff000300
00ff02feff00ff0201feff00ff03fdfc01ff00fe0200
000101ff0100020300fdff020100fe00ff01fffe0200
fefd02fd000202fe0000030000ff0102fd0000020000
01ff0001feff0102ff0200000100fe01ff02fefeff00
ff0001fe0102fd030100ff02ff0200fefffffeff0200
000000ff00fcfdfd000003000100ffff02fe01020000
00ff02010000000000010300040101fc00020202ff00
00ff03ff0201ff030100fefdfdff0001fdfe01fe0200
01fc0002fefefdfffffd030000ffff00ff000001ff00
00ffff02fe0001fe010003fdffff00ffff000000fe00
000000fffdfffe0500fe0201010002ff01ff01ffff00
fffffe01fe01ff03ffff01000001fefc010200fcff00
010000fe01fffffb0001ffffff00ff010300fffffd00
0004020100fe03ff0100fe00ff010103fffffd030000
fefffefd000000fffffffc010201ff03fe0001fcfe00
00ff0001fefeff010200fefd0400fefe02ff00feff00
ff0100ff01ff000101ffff000000ff00ff0000010100
000100ffff0200ff01000000fe0000fc0001ff010000
010100ff00fd01000202ff0003ff0100030000010200
fffe010002fdfbff01fc01010502ff030000fefe0300
00fe00ff010000feff0101feff00fffefb0001000200
0100ff0000fffd01ff0100fefeff0002ff0000ffff00
02ffff000000ffff0101ff00ff0100fdfe0200020100
fe0101fffefc01fe0000ff01fe00ff01ff0000030000
ff0001fe01ff00fe000000010400010102fe0101ff00
fe0103fd00fc0201010001ff01ff01fe00000002ff00
000100fdffff010101ff0000feff0000030002010200
02ff000000fe01fe0001ff02fdff0101fffe01fe0100
010103020001000002ff01ffff00feff000000fd0200
ff0202ffffffff01ff01010001fe0001ff00ff000100
00fe0100000000fe00ff00fe01fd00fbff010000ff00
0102ff0101fcfefe0201fdfefffffffd00010305fd00
000101010103000502000001000002feff01ff01ff00
02feff01fd000101fe00030101fffefefdfd02fe0000
010002fe01ff00ff0100fc00fbfe0000fc010001ff00
01fefeff0001ffff0000fdfe0204fffdffff00fefd00
010200fcfffffeff0002ff010502fe0002000000ff00
02ff0100ff00fdfffc00fe00fffdfdfefd00fffe0000
000100010001ff00fe0200ff0201010002fffffe0100
fe02feff01ffffffff00fd00feff00ff0202feff0200
01ff02000100fffe0202fdfd0000ffff00fdff01ff00
000200fdff00fe01ff040102fe01fffc00ff03fd0200
00020100fdff00ff000100fffefeff01000000fcff00
fcfd010001fe02fcffffffff000001fbfe02ff010000
00fe0201fe00fff800fdfe01ff010102fe0001ff0300
02ff020000fe04040101ff01fffffd00ffff00010200
ff0001fcfffefdfc0000fafa02ff0102fc000302ff00
00ff010400fbffff00ff00ff0103fd00fefffe00ff00
fe030001fffefd03000102fe01ff000002ff00fc0100
00fffe00fe00fcfe010200000201fffbffff0000fe00
0100fefdfcfefdfcfd000205ff03fffc02000301ff00
0000ff010201feff00ff0000fefeff01fe000101ff00
02feff00fe0000fe01fffefeff030001fd0000010000
0000ff0500feffffff010002fc020001ff00fd000000
ff03fe000003fc0301000101fc0001fefffe01000000
fefc000100fe01ff01000202010001fefdfefffe0000
03fffd0001fc02fafe010003fd01fdffff02ffffff00
02fe00ffff00fe000201fffdfd0201fc00ff01fe0100
0002fffffd0100fbfd00fdfc00ff0001ffff02010000
ff02ff0100fbfb03fffe010102fffffdfdfe02000300
0000feff000000010000ff00fe0200010000ffff0200
fffffffeff00fffffefffe01fffffffefe00ff02ff00
ff020201ff0100fffffffffeff010002030001000000
ff02fefdfefe010001000001fefeff00feff00030000
00ffff000100fffc02000003fd0001fe000000fe0100
ff0101fcfffd01fdfefffc01fffcfffe030000020100
04fd0004fe0001fdfe00fd01fafefe01fbffff000000
0301000000020100fe000300000102ffff0100feff00
000100fefefffffe0100ffffff0101000300ff00ff00
010000ff0201ffff0201ffff0101fffffe01ff02ff00
fe0100fffffffe0301010000fffe02fffeff00ff0300
fe000100ff010105fe0000fffc01fffb02000102fd00
0102ff00ff010202ff02fe0000fe01fefaff00020100
fffd0001fd0302030002ff00ff01fd03010000030100
ffffff010103010001fe01010100ff00ff0001ff0000
02fd0200ff02fffdff01020404ff01ff01ff01fe0200
fffb010001fefe01ff0200ffff0100fffcfffeffff00
ffff01010101fd0101fdff00010000fffeff02010000
02ff00ffff0101fdfefe02020000ff0200010201ff00
01ff0002010102ff00ff000000ff0201feff02010000
000200ffff0100ff01ff030004fffefc000001feff00
ff02fe01fdfdffffffff000102ff00fdfdffff040100
0000ff0001fffffdfe02000000ff000101fffffd0000
010100000101ff02000106000104000102ff00000200
00fd0000fffd0001ff00ff01ff0000ff010100000000
0102ff0001ff00000000ff01feff000201ffff02ff00
0202010200feffff0100fe0100fffd000000ff010100
01fefffffcfd02fffd01fe01fefb010100ff00ffff00
010202fe00fe01fc01ffff02ffffff0303fe00ff0100
01fffffe00ffff010101fefe0301fe00ff0003ffff00
01fe00fd02030000ff00fdfefcfeff00fc0002ff0100
01ff01ffff00ff0000feff030001fe02fe0000feff00
fd01fe010200ffff0000fd00fe00fffefd00fd000100
0003000101fdfefd0000fefefc010003010201010000
ff01020000feff0100fdfefffe030200020100fe0100
010001ff00feffffffffff000100ffff020000000000
02ff00fffefd00fe010101020201fc00000001fd0100
ff00000100ffff0201fe00ff0000fefdff0000feff00
01ff01fffe04fffcff02ff00fb01ffff040101fd0100
0000fefffefdfffdfe02010102ffff01020201fffe00
ff0100fd010000feff0102ff00ff0004060001fdff00
00ff0202ff0000ff01fffd010301ff0101ff01020000
00000000020001010101020001fe0301ff0001fe0000
fffe0000fefffefe0001000101ff0001fefeff00fe00
010101fd00fffe01fefefdfdff02fe01030104fe0000
00010001feff02fefe010200050102fdffff00000000
0002ff0001fd030000010100ff02ff0102ff01fe0000
010300fefd00fe01ff000303fc02fb02fe0001ffff00
0000ff0102fffffe0102ff01fefe02ff00fe0200ff00
000100fdfe010100000001ff0201ff00feff0102ff00
01020001ffffff03000101fd04000101fd0000020000
0002ffffff0100feff02000101ff01ffff01ff020000
00fe02fe020301fc01ff05000103fefe040402ff0000
01040002020001ff020202ff08fefe00ff00fefd0000
00fd0104fffdfdff0000fbff01fdfffc010001ff0100
feff020102000000fffffe00020000ff020102fe0000
ff0200fe0000010401fffe0301ffff000300ff000000
01feff0001fdfeff000000fefefffdff01feff040000
fffffe0200feffff0000fe000300fefc020101020300
01fefffd000000fd02fffd01010200fffe01fefd0100
0200010103fe0000fd00fefefe0200fc040101000000
00fdfe00fe01ff02ffff01fffd0401ff00feff01ff00
ff0100feffff00020003fdfeffff00fdfe01ff000100
ffff000001ff010101fe01fffc02000202fe01fe0000
0102feffff010100000101000101ffff02ff00feff00
fffd00fd00fe00ff00fefe05020100fd0200fe000100
020002fd01fffefe0102000000000001fe02fffefe00
0300020400fefd00030101ffff020001ffff02fc0100
ff0301ff02ff00feff0200fc0001010000fffe010100
01fe010000fffeff03ff0100fffffdfd0100fd010100
01ff00fcfe01020403fefcfffefefffefe01ff000000
000000feff010000000001fd01000102fb0001000000
0200fdfffdfe010002000301010102fffffe02fbff00
ff01feff00fd01fcffff000000fffe0101fffe000000
0101ffff0002ff000100000203010000fcfeffff0000
0100ffff0000fe0204010300ffff010200ffffff0100
ff020000fffffefd00ff01ffff000002010001000100
fffe010101ff01fbfe000002fffeff00000003feff00
feff0101fd03fefc00fffd0200010102fcff02fdfe00
fe0000fefffd01fd0000ff03fdfffffdfd00ffff0300
00010001ff01fe000303ff00010002feff01ff000300
00feff00fffcffffff0000000200fe04fffffe010000
00fc01fe01ff01fefeff02ffff010102fb01ff030000
0000ff0103fe00ff00ff010103ff00ff0000fffe0000
fffd00ff0000ff000001010200ff0000ff0002000000
0001ffff01fd00fb00ff00010001ff0203ff00010000
000000010302fd00fe0100fe000000ff00ffff01ff00
ff0000fdfd01fb0000ff01fd0100000201ff00fe0000
00fdfffffdfefdff0001ffff02ff02fefefe00fffe00
ff0000ff00020101ff0000ffff01ff0100000100ff00
01000401fefffefd01ff03020103fd0300fe02feff00
0001030003fcffff00ffff010300fefdff0002010000
ff0000010202000102000000ff01fffd000101000000
0002ff00fffd00fd0001ff0006ffffffffff00010100
01fd0002fefbfdfffffe01fefd02fffe01fe01ff0100
ffff01fdfffd00fe00ff0200ff020003fcff03010000
fffc0100ff01ffff02ff02feffff0101fe0001ff0100
00ff010200020000fffe010203010001fc02fffeff00
00ff01fe0000010000000100feff01fe0300ff000000
01ff0100ff01ffffff00ff0101ffffffff0200010000
ff02010100010101ff00ff02ffff00ff010001ff0100
0000010100ff02fcffffff00ff00fe0200ff01ff0100
0001fdff0100fefeff0002fefffe0103fdfeff000100
0101fffe00feff0000010100ff0001ff0101ff00fe00
010001fe01fd01ffff01ff0201fffffd00fe00010000
02ff0000000101ff0002ff03fcff0100feff00fefe00
02030001fcfe0003ffff010300000000ff0001000000
0002fe00ffff030100fefefeff01010201ff0200ff00
03fe0102fe02fe0303030100010400f90500fffeff00
01ff00fffffdfe000201feffff00ff03feffff000000
00ff00ff0000fefb01ff0002000001fcfeffff010200
02fb01000104fffc010202010103fe05010001ff0200
ff02fffefffeff01ff03fe02fe00fe00000102ff0200
ff0101fffffefe0100000100fffd0001feff0100ff00
02ff01fefeffffff03ffff01feff00fd00ff00fbff00
00fffe000001000102020002ff0000fe000000010100
00fdfffefdfe020002ffff00050101fd0201fffefd00
feffff000302fe01000000010004fffe020001000300
02fe01fe00020000010104fd0001010202fe0002ff00
03ff0001fdfcfe03fe01ff0200ff0001000000fe0000
00000103ff01feff000001010101ff0102fe02fefd00
00030000010100ff02fe01fc0001020102fffffe0100
01010000010000000104ff00000000fffe000003ff00
00fe01ffff01fe01ff0200ff000002fd01ff01000000
000000000204000302ff0101fe00fd00fc0001010000
00ff020101ff0003000002ff01ffff00fdff02000200
ff0000020000ff0300ff0101ff0000ff020100000100
03ff01fcfdfffe000100ff030102feff09ff01020300
0002000200feffffffff0002ff0000ff02fffffe0000
01000200ffffff0101030100ffff0100ffff0001fe00
0104ff0201fd00000100fffd07fe02ff000000030000
02fd000000fffd0202fc01fffb0000fcfefe03ffff00
000000fd020100ff030101ffff010203ff0000000000
0002000001fdfe000002ff0002ff0101feffff000300
00010201ff02ffff01fdff01fefefe01fffefe010000
00fe0000ff03fe0001000101feff0001010001ffff00
00feff01ff02fffe0102ff01030201fd01ff00fcff00
ffff01010104fe00ff010001ff000200010000010000
ff030002000000fdff010000feffff02ffff00020000
03000200010203fbfffb03010202010202ffff020100
ff00ff000000feff00ff010100ffff0001ff00feff00
ffff01ff0002000501000001ff000001ff0000ff0000
ff020000020100fd00ffff0000ff0100ff0101030100
020001ff0000ff0201000000ff01ff01010002010100
00ff0000fd0100fdff00010101feff01fefefffffe00
fffd0100fffefefe000003fefe00fe04fd0100feff00
00feffff0200fffe00fefffe01000200000000010200
01ff01ff00ff00ffffff02fffefe0100030100fe0100
fffe01ff000000ff00000101ff00ff01ff01fefffe00
01020102fffe02fffe000102fe0201ffff0001fe0000
00ff000000fe010102fd01fffc01020103ff01fb0000
0000fe00fbfffefdfe0201ff02fe00fc05fe01010300
ff01000101fe02fe00000200ff00feff0101ff000000
ff010101020200010101020003030207ff00fdfe0000
0000ff0001fffe000100fefdfffeff00040301040100
fe00fd01ff02ff00ff00feffff010001000001ff0000
ffff0300020002010000fe0201ff02fe03fefffe0000
01010000fe01ff00fefffeff02ff00000000fefe0100
fffe000100fe0100ff0102fc02ff00ff00fe00020100
02fdfe0100fcfdf901ff00fe0002000000010102fd00
01fa0102fe00010302fefefeff020003fe0001fe0100
0202000204020200fffefdff000000ff0401ffffff00
010201ff01fdfcff03000102fafe00fffe00fffc0000
fefd00fefefeff000002ff010000ff0002ff02020100
00ffffff00fc00ffff000100fd00ff02feff01ffff00
000000fd00ff02ff02ffff0200ff00ff01ff02fd0200
010002fdfe00fe00ff01ff02fd02fffefeff02020200
fdfd030200fefffe03fbfffd0302fe01fb0300ffff00
01ff0102fefefcfe01fefc00ff0200fefc02fffdff00
01fe00030103fe000001feff0001ff0400fdfffffe00
02ff01fffefa03f700ff0201fa05fcfc0500fffe0200
01fe00000001fe01ff01ffff03fffe01fcfeffffff00
010000fffc0401fffe02fe00ff01ff03010001000000
030200000002000200ff000000ff02fdff000201ff00
00fe040000fc0000fffffe00ff00fe00ffff01ff0100
ff0200fd01fd00fcfffe0100fefd00fc000001ff0300
00fe00ffff00ff0100000200ff00fdff02fe00ff0100
00ffff0201fefe00feff00fe000000fe010100000000
03050001fefe02fe01fb00ffff03ff01020100030100
0101ff0000fefe020000fffeff00feff00fe00ffff00
02fe00fb01fdffff0201fffdfe0000fe000003ff0000
01ff0102fffd00fc030001020200010102fe01ff0200
ff02ffff00ffff00000000ffff000100ffff01000000
01ff000002fdfd02ff0101010001fe0101fd02020200
ff0001fe02ff00fe02ffffff02ff0102fafefd01ff00
01fffffe000101fe010002ff01ff02fe000201030100
000102fe00ff00fe000000fffe00ff0101010000ff00
01010002fffe01feff01030102ff00fe030000fd0100
feffff00fefefe00fffefefffffffffe000002ff0000
0104ff00ff0100fe010100000002000001ff00000000
ff00fffefe0001fd010104feff010000010100ffff00
0002ff00020201fd01ff00fffe01030000ff00020000
000100fe0101ff040201ffff0000fffffe01feff0200
000000ff0001ff0000ffff00feff00ff01fe00000000
fefdff0000fcfcfcff0000fdff0101fffdff02fdff00
01fffe01fe0100ff02ff0101fe01ff0000ff00010100
ffffff03fd00ff0100fdfffcff010001fe0000fe0300
0101000100ffff01010100ff010000ff010201ffff00
00fe020001010100fe0200fe00ff00ff010000fd0100
00010002ff00ffffffff00000000ff01010100ff0200
ffff00ff00ff0203ff0400fffcff0101fefffe00ff00
0001fffe00fcff0002ff04fc0202fd02fd0101ff0100
0101ff02020200fe02ff01030100fe01ff0101ff0000
01ff01fffffefdfefe0000fe0100fe00fe00fffefe00
0301fe00fc00ff020002fdfe01fe00fd020000fd0200
02fe00000000fe0200fffc03fffefe0004000201ff00
02fe0102fefb01fcfefffcfc04fdfefffcff0202ff00
00010001ff02ff0301fefffeff01fffb030102feff00
020300000003ff0000ff00fffeff010303ffff01ff00
0001ff00fd0303fffeffff0000fe0000000002fdff00
fffeffffff000001fe00ff0001000002fe0200fe0100
fffe02fe00fdff010001fe020000fd0002000001ff00
02feff020000000000ff00fefc00ff01fe0000fe0200
0000fefd00ff02fd02010300ff0000fe00fefeff0300
0000000001fd01ff00fffffefe01010103ff02fe0200
0000ff01000000ff00feff0003ffffff02ffffffff00
01ff00ffff00fe010202000300010102ff0100ff0200
fe01000100fafffeffffffff02feffff060101010000
01feffffff000000fdfeff04010002fcfd00feff0200
02fdffffff01fdffff0001010002ff0103ffff010200
01fe00000001000002ff0002ff00fefefeff01fd0200
0002fd0202fc01fe0100fd0000fe0002ff000001ff00
00010102fe02fd0001fe0005010003fefe0100fe0100
01fc00fefeff02fa000102010001feff00010000ff00
03020200ff02ffff010101000200010001ff01ff0200
3812fb1c28f71b3ef13836f720dd452de812fce32900
151e1c281e2729242c0e182c28272f16251e25231600
01000101ff01ff0000ff01ff0101ff00ffff00ffff00
000000fe0100fc0002fafc010000fefdfe04fefeff00
f6ff00ff00ff020001f90000ff03fe0302fffd000300
ffff01000000ff0100fdfe0100fffffefdff02fffc00
01fe000100fffe00ff02fefeff000005fefd01fdff00
010101ffff02feff00fdfe00fe0000fafd01fffe0200
02ff0101ffffff0000ff0200010100010000feff0100
00fdfffeff0001fe00fd0201ff0201fffefcff01fe00
fffe0200fdff0101fffefd02ff0200fe00fbff01fe00
fe000000feff00fffdfefd01010100ff00010301fe00
0401010105fefffeff03ffff01fe01fbff02fe030200
01ffff01010101ff0003fffffeff00fe00fffffefe00
010201ffff000100ff04fd0101ffff0001fe00000400
010201fffe01020100ff0100000101fe01ffff030100
020200fe010100010000040000010000030101030000
fc02fe0101fffffffeff000001ffff0002010100ff00
02fdfffffe00ff000201000200ff00ff000100fffd00
fefe0002ff00ff0101ff0202010000fb0000ff000000
030003fe00000100010000ff0202000001000002fb00
00fd00fd02fffcfe01000101fe00ff0303030103fd00
fd00ffffff02ffff010102fffe02feff03fffffeff00
01ffffff02fffffdff00ff00ff0100ff0000fffeff00
01000100feff01fe0101fdffff0000fc0201fdff0000
feff00fefeff000000fdff000201fffc00ffffffff00
feff03ff000100030000fc02010100fefe02fe00fe00
fe02010000ff02fdfffd03ff02ffff0201000100fc00
00fc0001fe0100000000fdffffff000000feffff0100
fe0001fe010100fd00010100ff0001fc010200040000
fe000102fd04000100fd0200fffffe0102ff01fe0200
ff010200fd01feff01fc010000ff020100fe01000000
0201fffd0101ff0300fe00ff00fd00ff000001000200
fd0103000105000100fcfffffffe0203ff01fdfefc00
ff000002fe0100fe00fcfd000002fffbfdff0100fd00
fe01010001fffe01ff01fb00fffffffefffe00ff0000
fc000000ff0000feff000000fe00fe00010201000000
020201ff000001fffe02fe01fffeff01000001010200
00feffffff01fffe01ffff010000ff0001ffff000000
fcffffffffff000102fcfffdfefd02fffffe01ff0200
fe0101010001fe0100feffff010100ff00fe00ff0100
fdfefffe00fdff010001030000ff01ff01ff00000000
000100000102ffffffff01fd01ffff05ff0302ff0100
0003ff0000010101fefdff00ffff0000020100000200
fefefe000000fffe0003fe00ff010000ff0100020100
0000000001fefeff020100fe00fefffdfe0002fd0000
ff0000ff020101020004fe03fe02ff0101fe02fdfc00
0201ff0100ff010102fefdffff0000fe0201fffe0100
01fe0000000101fffeff01ffff00ff00fffd02feff00
fffffe02020000fe00ff010003ffff0101000101ff00
03ffff00ff00ff0000ff01ff000200ffff00ff01ff00
03feff00000000fffe0400fe0000000200feff02fd00
fa02010201010000fffe000200ff0200ff0101010100
ff010101fefeff0100fdfffffffffffd03ff00ff0200
ff03ff0001000000010001ffff0100fffefd0003ff00
fe00ff010201010000fdff00020200feff00ffff0000
02020100010101fe0200fb00020000fe010100ffff00
00fffe000000ff0203fe01fe0101fe0101ff03ff0200
fd010000010102ff00fe02fefffdfefcfffe01010400
fb0000fd0001ff010202fdfd00fefefdfd0101000000
ff02020102fdfdfe00fc0101010101ff010300000100
0201ff000102fb0000fffd030001000000ffff000100
0100ffffffff010102fd0100010001fb000100fd0000
fdfe020000ff0202000300fffe000100010000fefe00
03ffff00fe01020102fbfd00000100fdfcfffe00fe00
fe0000fffe00ff01fffffffefe0000010000fffe0100
fffeff02ff0000ff02fcfa04ff01ff00fffeffff0300
010200ff000102ff0203ff02010201010001fd040200
02ff00ff02000100fd00ff00fffffe0201fe02feff00
fefd00000001ff000203fd0000ffff02ff0002feff00
02feffff0300020100000002fe00feff000101fe0100
01000000feffff0200fc04ffff02fffe01000001ff00
0001ff00fe02010100010400010000fffffeff03fe00
01ff000201ff01ffff010002fe0102fe00ff00fffd00
ff0303000003fe0100fffeff03ffff01000200fe0100
00ff0002ff000102fefaffff01ff00010100fe000100
fffe00ff010003fefffefe010100fdfe01fc00000200
0101ff000101ffff00fd0303040300fe0301fd010200
fffffe01fcfe02fc000101fefffefd00feff02fefe00
00ff00ff0302ff010201ffffffff01fe01ff0102fe00
02fffe0200ff0202fe02fd00ff000202010301fe0000
00ff00ff00000100ff00000200fe0000fe03fe010000
00fe01ffff0100010002fd000001ff0103fa0001fd00
01fffffe01010001fffffe00000102ff010000ff0100
ffff02ffff01ff010100fc00ff0002fefd03ffff0200
01010001000001000201fb01ff01fefeff0201000300
00fefe0000fffe0002fcff04ff03fe0501fe0102ff00
00ffffff000102fd01fbfffffe01fd0102ffff00fd00
03fbff00fc01ff0001fefc00010201fffe0301fafd00
ff030100fefd0000fffd05000001000104feff00fe00
0200ffff00fe00feff00fb04ff02ff01feff01fe0100
0200fe00fdfeff0000feff020101fe00fffeff02ff00
00feffff00ff000101fe020002010000ff02ff000000
01010000fefe00010001000201000202030402010000
01fe00fe00fefffeffff000300fffffe020200020200
ff00fe000100feff01fd05000001ff0001000002fd00
fe01000100020001ff00fdfe00fefefd00fffdfffe00
fd0100ff01ff01fe00000202000100fd02ff0201fe00
fffd0100010100000100fe02fffefffdfdff00fe0100
fa01fc00fdfffdfd0301fc0101010001fefe00fefc00
02fffe01fd010001ff0002fffe01ffff02fd02010100
02fffffeffff01fe00fefdfe00fffffffffdfe04ff00
ffff0100ffff00010103ffffff01fffefe0100010000
0102010001ffff0101ff020001ff0102000101ff0100
ff0000feffffff0000ffffffff0101fc00ffff01ff00
01ff0301fe00000200fe01000001feff0102ff010000
00030105feff020000ff01ff00feff00fffefd020000
fdfffffe010201ff02fb0300fd0002000201ff010000
03020000fe00ffff02ff01fefe00ff01fffe01010100
00000000fefe03fe00fe02fe0103010502fefefa0200
000200ff0100010000ff01000000fffc02feff00fe00
00ff010000fffe0000fd01ff01ff000103030100fe00
00010000ff00fffe000301000001000202010101fd00
fffe02010000010000fe000001fffffc00ff0200ff00
fc000001ffff01fe00030100000200ff0000ff020000
01fe000003ff00ff01fd01fffc01fd0001030101fe00
01ff00010200ffff0102fe01ff03000001fe0101fc00
00ff0001ff00feff0100fe010100ff02000000fffe00
feff000001fe0100000101ff0001ff00feff01ff0300
0202feff0001fffe020002ff00010004010001fe0000
02000200fefe010101fa000102ff0104010101000200
00fe000003ff01fe00fdfa02fe01ff01030303ff0200
00010001fe00010102ff00fffd03fe01010100ff0000
fe000102fefe01fffe01fffe000100fdfffe03020500
00fdfffffc02ff000000fffe0000000100ff00010300
0102fd000202ff01fffffe03fd0100fe00ff00000000
ffff0000000101010000ff01ffffff010001ffffff00
fe0200030002ff0000020000ff0001ff0202fd010100
fe020000feff000001fefc01ff0000ff00fd0000ff00
fefeff0001fe00ff0202fe0100fe00fe02fffe000300
fe0000fefe00fe010000030000000002ff00fe010100
fc02010402fe010000010000feff00ff00feffff0300
ff00ff000000010101fffe00feff00ffff02ffff0100
00feff0000ff02ff0101fefffeff01ff00fe00000100
00ff01ff0101ffff02fefa03ff0000020000ff010000
fc010100ffffff0000fe01010001fe0400ff01ff0100
ffff0400ff010100fefffd000101ff0000fe00feff00
000001fe00fffffe01fefbff010101ff0100ffffff00
0202fefe03010003fffeff010102ff0300ff00fe0300
00ff0100fc00ff0100fdff000200ff01fe0002ff0000
02fe02fe00000002fefbff0100ffff0002fe01fefe00
0100ff0100000201fe02fffeff0000feff0000010200
fe01ffff0201000001fd00ffffff00fbfefe02040500
ff000200ff0100fe0100ff00ff0002feff00ff01ff00
0000020100ff00ffff00000000fe0002ff0201ffff00
04ff01ff03ff010001000101000000fb030300020000
fdff0200ff00fffdfdfefdfe01000103fcfffffe0000
02ffff02ff00ff0302fdfeff0103fefffeff01ff0100
010100ff000001fd0200fffffffffdff00ffff000200
000000000004ffff00ffff01010002fffefe01fe0000
ff0200ff02ff0000fe0100fffe00030001fffffefe00
02fe00000200ff0001fafe010301fffffb00ff01fe00
fd00ff0102ff00fdfffd01ffff0101fffdff00fc0100
01feffff01000301feff0300000100fc0201fe010100
fcfeffff010201000103ffff0101fe00000002020000
00fc0101fdfefeff01fe010100fd0106ff00fdff0300
ff00ff01010100fd0101fc00ff0202feff0101010000
01ff01ff0200ff00fefc00000000feff0102fe010000
0000ff00fefe00ffff0000ffffff0001ff0100fefe00
01fe00fe0100fe0102fdff000102ff0002000101fd00
feffff00fdfffe00fffe0302000100fffe0201020000
fcfe0000fd0001feff020000ff03010202fffdfeff00
0001feff0100ff00ff0002ff0100010102020002ff00
040101fffefeff0101fefe00fdfe01fd00fe0000fe00
ff030001ff00000101040101fe00fffe0202ff000000
fe01ff0201ff03010003fe00ff0200fc0100fdfffe00
020101ff00ff01fe0103ff00fefe02fefffffe00ff00
0000ff00ff0000fefffffcff0102000100ff0100fe00
ff0200fe03020103fffefcff07000105ffffff00fe00
00fd000001fffffe00020200feffff0201feffffff00
01ff0000ffff00000001ff0100fe00ff0000ff010000
fc040302020000ff0002ff0105fe01fffe0100000100
fe00fcffff0001ff01fd00000000ff0303fe00020100
0301ff000001fefe00f70000fd02ff010001fefefc00
fe000401000002fffffb02fdfe000100ff0003000400
ff00000200000002000200ff00020100fd0401000200
0000fe00fc0203ff01f6ff01fe03fefc03fbfffefe00
fe0102020101000101feffff0000ff0102010001fe00
ff010102feff020101fbff01000002feff0200ff0200
02fc01000003ffff0003fe0000ff0201fffefffdff00
02fdfefffffeffff0101f900000001feff0000fd0000
fefd00ff02ff0100010102fefffeff02040200010500
00fffd000000ff00020002010002fbfeff0100060300
00000001fe01ff0200fdff0202ff00ffff0201000000
fb03ff02ff0001feff02fbfffc01fdfc000002020100
00030000010001ff01ff010100ffff0100ff0203ff00
0001000000000201fffe02000001010001fffe000200
fd01020301010100fefc00ff00ff00feff0401000500
0100fdffffff01fdff0400010201fffe01000302fe00
fd0201010000fe0100fe010101fe0001fffefe010200
0000fe0201feff0202fffefffffffe0101fd01fffe00
00fe01fe030202ff01ff00fe01ff01020101ffff0100
0002010101000100fe0000ff01010202fe01fefffe00
00ff00ff000000ff0202ff00000000fffefffe000000
0102fe0002fe01fdff030200ff00000104ff0300ff00
fcff01fefe0202fefe0100000102fefd00000101fe00
00ffff00fe0001fe0000fcff0002fffd03fe01010000
0200030102fffe00fff9fc00fefe0105fd0200030100
00000000000001fe02ff0300fe01fe03ff01ff020000
01000101fe0101ffff02fcfeffff00ffffffff01ff00
01fd01fdfeff01fe010101ffff0101fe01fd00fffc00
ff00fffffffffe01fffdfbfffe00fe02ffff0102ff00
0001fe0000fe00fefdffff00ff000003fe01fe01ff00
fffe0100fe02ff000002fe000100010200fe0400fd00
fdffff00fffffe000104fe01ff000200fe0001000100
00ff01ff0101ff0201fe0000000200fffdff00010100
03ffff02fe0200010001fd03010002ff000201ff0000
fe00ff000202000100fffe0100020001000000fffe00
ff0101ffffffff00fefe00fffd010002000002fffe00
ffffff00fe00fe0000fafe01ffffff000100fdff0100
ff01fe0002020200fffeff00fd03fb01fd0301ff0100
020002fe010103ffff0603ff0101ff05fd020000fe00
01ffff03fc000102010202fdff0201ff0202fc030300
01ff00fe00010002ff030000030101fe0002ff01fd00
010100000001020000010000030001fbffff0102fe00
00ff02fffefe01ff00fffc0001000100ff0200ff0200
0000fffefe0000feff0202ff010000ff010001fe0200
fe0000020000000001060001ff00ff030100fffd0000
ff00000001ff01ff02010100030100fefffefffe0000
00ff010001ff00ff0101ffff00fe000000010001ff00
00fe00ffff00fdfefff9fd0000fe00fe00feff010000
fcfe01fefdfe00000100fd030302fdfdfc00ff020100
00fe02fefe00ff00ff010103030100feff04ff01fc00
ff0201fffefe0000ffffffff0100ff00020202feff00
ffffff010202fe000001fefd0002fdfeff000001fe00
fdffff00ff0000fe0000fcffff01ff00ff01fffe0100
fefe0101000002fbff01020001fefffc0203fe02fd00
0101ff00ffffff010100fd00fe01ff00010100030000
fafd01ffff02ff01000200fffe0200fe0001fb010100
ffff01ffffffff02fffd000101fe0000ff01fffdfd00
00ff00ff03ff010100fc03000000fe0200ffff020000
fe01ffff00feff010003030302ff01fefe00fffe0200
ff000101fffe0100010201fe0101fffeff0102000000
00ff000202fe0002000201ff0000ffff00010302fe00
fd000100fe01feffff00fe0201fe02fe01ff00fffd00
05fc00ffff0200ff00020502000401020000ff04fd00
00030402020001ff01fbfdff03fffffe01050101ff00
00000100ff04ff0301000101000201020100ff00ff00
00ffff00feff00ff0001fd0200000000fe0001010000
0001feff02ff01010200020100000002020200ffff00
fd00ff000200030001ff0201000001fe01000101fa00
fd0001ffff0001fe020001ff0002fffe020001000100
fe0100010100ffff0201ff030000ff03ff0100000000
00020100ffff0000010101ff00fefffefffe0001fe00
000001fe01fffffeff00ff01ff0002ff01ff00fe0300
01fd0203fd0400fc02fefd0000ff0103ff000002fc00
fe01000101ff01fefffe0200fe01fe0001ff00fd0200
feff02ff0001000101fffffe02feff00ff0100fcff00
000000fffe01ff02ff01fefe01ffffff01ff00ff0000
ffff0101fffefdfe01fd0502010200fe03feff02fd00
ff000001ff00ffff00fffc01fe0101fe010001020200
ff0000ffff000100fe0601fffe00ff0200ff02010100
01fe01000003ff00000001000000010100020201fd00
ff000002fdfffffffffd000101000000fe01fefeff00
ff000101ff01010100fffe00ff03fffe0101fe000000
fd00000002ff01010003fdff01ffff000200ff010100
0000fe00fe00ff01000501ff010100fd01fdff01fd00
01ff00ff01fe01ff01fe00010002ffff00fe01010200
00fe0101fd02ffff00010002ff01fe0101ffff020100
0101fe00020100010101ff00fe000004ff0102000100
fffd0001ffff04ff01fe0102ff000100ffffff020000
ffff0002fe01ff00ff02fbff0401fffdffffff010200
fe00000000ff0000ffff000102ff010100ff02000100
03fffffd000202feff0001ffff01000003fe03fffd00
04fe00000100ff0401fd0000030100feff0200fefe00
ff00fffffe00ffff00000202fefffe02000002010300
fcfe02fefe00feff0000ffff00fefffaff00fe07fd00
000103fefd00ff03020100010002ff01fefcff00fe00
000300ffff0100fffffefeffffff01fefefeff010100
fdff0101030000fefefffffffdfc01fc02fdff01fe00
0000feff01000001fe00ff00fefffefffffd00000200
fe000101feff0100fdfd0100ffff01ff00fd00010200
0000fe00030000ff00000300ff01ff03010000ff0000
01ff00ff0000fcfe02fefdfefe01000201ff01ff0100
01fe0101fe000100020101000001ff01fe00ff00fc00
010001fc0300020200fffb0002fd0000fffe04fd0200
03010100020200ff02000001020301010203fd04ff00
00010000fe00ff00fffb04020002fe040002ff010100
fe0102ffff000100010002fc000202fdff00fe000600
fdfeff00fdff00feff0003020002ff0102010100ff00
0201fefffd02000001f70002fc00fd0202fe03ff0100
ff0000000100ff000100fe010100000101fffffeff00
fd0102ffff05feffff02fe0100000001000400ffff00
010100ff00ff01030101fdfefe02ff000201ff00ff00
ff0002ff01feff00fe01ff00fd020001ff03fefcfd00
ff0102fe010002ff010100000101ff0701ff01fefe00
00fffefe0101ff0101fc010301010101020302010200
fefe02fffffd00fe0007ff02ffffffff010000ff0200
000200fffe00ff0100fc06fe0201000000000003ff00
01050001ff04fffffefdff000300fffe020501020000
0103ff0102fe0102ff0004ff00ff00fd020200ff0200
fefd0000ff0100fe00fffdfdfeff00feff00fefefc00
010001ff040202000203000102ff02fc0101fe02fd00
020200fdff01feff02ffffff00020102fe01ffff0000
fd000101010000fd0004ffffff010103020103000100
fefe01000102fefe01fcfe0101fffffeff000000fe00
0001ff000002ff00010200ff0002ff0200ffff010200
01fffe00ffff010001ff00030101fe0301ff03000200
fe000102fefffffe0000fe0000ff00fb00fd00010100
00fffffefe00000100fe01ff01000200000201000300
01010000000200fe00fffffe000001ff020001020100
ff000100fffe0000fffe000001fdfffc030100000000
0000ff01ff01ff03fffe00fffeff000200fffeff0200
feffffff010100000000fe000101fe0102fe00000100
fefefe000000fffffefe0300ffffff0001ff02ff0100
010100ff00000002fffe010101020101000002000000
ff0101ff000000000102ff0202ff010001ff02000100
fffffefe010100ff01fffe0001ff0002fffe0000fa00
0000fe01fe00ffffff0201010000000001ffff00ff00
000101ff01ff010100ffff010103ff02010201ff0000
05fdfefe0001000100fdfe01fdffff000003ff010300
ff00fe00feffff00fffd00fe0001fffe00fd0002fd00
0103fffffe000001fffffcff000000fd000202fffd00
04fe01feff03ffff02fffb0101ffff0102000200fb00
ff020101ffff00feff05010002fffefefdfe0003fe00
fdff01ff01ff01ff010102ff00010000030002fffd00
0204ffff0000fe0001ff02ff0102fefc030000010100
ff02ff01010101fe00fffe0001fe0000fe00ff02fd00
fe010100fffe00fefffe0103fefe0102020002050200
fffe0102ffff00feff010200ff01010101000100ff00
02000000fd04020100fffdffff00fffb00ff00ff0100
02fb000100000001ff0100ff010101ff00fe01ff0100
0102010003fe000000fffefffffe0101010000fffe00
000102010101ff010104ff010002000301010101fe00
01fe03ff0100ffff010100ffff02020000fffeffff00
00ffff01fefffe00010201fe0000ff05ff00feffff00
01000200ff02feff01fe00fdfe01fefd040002ff0000
01fe0100fe01000001fe0501fefefdff00ff01000100
0500fffffe0100fe02fe0202ff00fffffffd01feff00
fd00ff00fd01ff000200feffff00010002030302ff00
0003ffff0003fffefffdfd0100ffff02ff03fc03fb00
0103010100020001ffffff000200ff01ff0000010200
fe0100020103000201fefdfeff0001ffff01ff02fe00
000000000101feff00fefe0000fdfffe02ff0200ff00
000101feff0201feffff01010102fffc01fdff05ff00
0101ffff010001ff0001fd00ff01ff0102fe01feff00
020100ff00fe020200fe0000000101fdfe03ff010000
fe00fefffdff01fc020301ff00000100ff0201ffff00
01ff00000100000001ff02fffe0000fffffe03000300
ff0002fffeffff0000ff0001ffff000103ff00010200
000002ff010100fe0000fffffd0101ff0100ff010000
0002ff0001ff000000fffb01030101ffff030001ff00
0200fefe01000001040504fe02fffc03fdff00fe0000
ff0302010000030000fefdff0100fffffd03ff04ff00
fc00fffe0002fe01010300010002ff0100fe01020000
fd02010003feff00ff01fe010100010200fffefeff00
01fb01000203feff0000feff0300fffcfd00ff020100
fc0100ff00feff0201fffb030204ffff0002ff000000
01ffffffff01ff0100fe01fffe00ff0200feff02fd00
fcfd0001ff00fe010001ff00ff00ffff01fd03000100
fe0100010001feff000002000000fdfd02fe01ff0100
ffff00000000000200ff0500fe01ff0203ffff01fe00
fc0303fefd01fefffc03fcfd0000010000fffefe0100
ffff00fffe00fffd0203ffff00ff01fd0002ff02fb00
fd010101ff00ff000001010100010002010002000100
fc00ff01ff00fefffffefa03010101fffefefeff0000
fffdffff0100ffffff00fffe01ff00ff0100ffff0200
fd00fffd04fdfe00000000000002000300000100fe00
fe01fd00ffff0000fefe0000000302020102fc010100
000100ff01fdfeff010001fe0001fd0100ffffff0200
01ff04fe02ff020201fffb020103fffefe0000fffd00
0000ff02ff02010001ffff00010101020002ffffff00
ff01fe00fffe00ff00010300010000fd02ffff01fe00
fffffffd0102010000fdfb01fe0001ff03ff0000fe00
fd0001020100feff01ff040001feff02030001000300
ff000200fffe00fe0001fdffff01010500ff01000000
000102fffe0100ff00fe0200feff01fb0100ff030000
fdff01ff0000fe0101fc0000ff00ffff02ff01040100
ffff000100ff00ffff01ff010001ff0102fd00ff0000
00ff02ff0000fdff01fe0000ff01fffcfd0002fefd00
feffffff00000000010101feff00000100010102fe00
02ff0101fdffff01fffc00ff0002ff01ff00fe00ff00
ff00ff01010001fe01010000fe02fd0000ff03010200
fe000000fefdff0100ff00ff0102ff00fe01fefffd00
fdfd0100ff00fffe0101ffffff000002000000ff0200
fefe010302ff00ff00ff0200feff0003fffe0301fb00
fe04000003fffdfeff010000ff00010001000003fe00
00000001000000000101030000ffffff04000002ff00
ffff00ffff00fffefffefffefe00fefe01ff04fffd00
0000ff01fc01ff00010302fe010000fe01020000ff00
0002fefdfefefffd0100fdfe00fffd010100fc010000
ffff03ffff02feff00000402fe03ffff030300050300
04ff000000ff02ff0002fe0100000100ff0004fefc00
fe0100fe0100ffff01fcff02ffffff000000fe010100
fd0000000100020100010000000000ff010003000100
0201ff00010200fcff0000ff010001f80001ff01ff00
02000002feff02000202ffff00fe0103ff0001ff0000
00fe00fffe00ff0101ff0002fefd00fe000200fe0200
02fe0100ff0100ff00fd01ffff020000fe0000030100
fdfffe0001ffff010002fd01ff02000101fefffe0100
000200ffffff00000000ff01ffff000001000000ff00
01fe01000101fe010100fe02fd00010001feff000000
01ffff00fe0102010001ffff01feff01000100000000
01ff01000100fffffeff00fffffefeff01ff00fe0000
01ffffff0002010000010101000201feff010102ff00
0000fffefe0100ff010102fffeffffff000001000000
fdfffe010101fe0100ff00fffe0101fe02fefffffd00
fe0201000101fefeff010200fe00ff010100ff010300
fbfc00fffb0001ffff01020001ff01ff02fd0103fe00
feffff000002ff0101fffdfefdffffff010101000200
000300fe04fe020001000000010001fe01010300fd00
fdfd0200fe010000020001ffffffff0005ff0200fe00
01000002020002fffffc00000000ff01ff0001fffe00
00010201fe0101010003fa0101fe010201fffffeff00
fe020000000302020103ffff0003fefe0001ff000100
fffffe00ff00ff00010300ff000000fe01010100ff00
fefffffefefdff00ff0304ff02fe02fafffdfc070200
fe00fe0000fefefd01fd030301000101010201010100
0001fe02ff0000fe01020500ff01ff0302fffe03ff00
010102fe0101fdfe000402ffff01feffff010002fd00
00010000fd0002ff0100ff0300000004010001010000
fdff0000fffffdff000102ff01feff0100fffe000000
000100fe0001020000ffff01000102010103ff00ff00
fdffff00fefe00ff0003ff030101fe0100ff02000100
010100ff000001ff000102fffffefffe0000fffffd00
fefd0101ff0000ff000301ff0001ff0103010203fe00
0101000000fe00ff000001000001ff0101ff0100ff00
00fffffe000300fd01fdfd02000000fe00fbff020000
02020101ff0102fe01fffe00ff0000fefdff01feff00
01fe0000000201feff000000fe00000001fe01fe0100
fe0300020001ff0001fbfe0002ff000100000000fe00
fefefffffd02020100fd01020001ff0200ff0000fd00
fefffe01fffe000100fe0000010100ffff0001ff0000
fffe00ff00fefe0001fd0300ff00ff030101ff020100
fdfd0000ff01fffe00fefeff0000fefcffff01fffc00
fefffffe01ff00fd000302feff000002000101ff0000
02ffff0100000102ff0003fefcfd0103fffe02030100
010100feff00fffffffe01ff040003ff01ff02020000
ff020202fffe00ff01000101ffff0300fe01ff02ff00
0100ff01fefffdfe01f103000001fffe0101ff01fe00
0002020300feff0001fdfeff00ffff00fe02fe000200
0201ffff00ff02010004fcfffe01ff01020001fc0100
00030102fe01ffffff0001fe000100fdfffd01000300
fcff0200ff04fd00ff0100000002fe0002fe0301ff00
fc0001000101030101fdff00fdfe01fe0201fefffe00
01000001fffd01feffff020300020002010200000100
01fe0000feff01ff01fe010200ffffff010002feff00
0101ff0101ff00ffff01ff00ff01ff0000fe00010100
0001fd00ffffffff01000001fffeff0301ff03feff00
ffff0001fe0100ff01ff02000101ff0100ff01000200
01fe01ffffff01fffeff02ff0001000100ff0102ff00
01fe02020102ff0001000400fefffffe01ffff01fd00
ff0301010102010001ff020202fefffffe0001020100
ff010301ff0001fefd00fdff02fffffefd03ff000500
fd01000000ff0200ff0000ff0202fffe010100ff0000
00ff03ffffff00feff04ff050000ff0302ff0101fd00
0100ff000001ff0201fefcfeff0000fdfffe00000500
fe02ff00fe01ff01fefeff0100ffff01fefbff030000
ffff00030002fe0202fdff01fdfffffffe0000010000
0000fdfd0201fe0000fc0202fd00fbff01fd0301fb00
00010101ff01ff0102fe0102ff05fe0003fe00000200
03ff00fe0301000101fffefe00020304fe000100fe00
0201fefeff00000200fc03fe010001fe01fffefdff00
030101fffe0100fefffc01ff0101fe01fd0101ff0000
03fffeff010001ff0101ff01ff0001ff00fd02030200
00ff02010001010101fbfa01fe010000ff000001fe00
fefe00fdfe0301fe0101fe020304000202feff01fc00
fe00fcfdfdfdff0102fe0204fd01fe0200fafffe0100
ff00fd02fffc020101000600fc03fb0304feff020100
0102ff03fe030100ff010203ff0001fe010300040600
ff01fdfefe01fefc01f50106ff03fdfe0000fe000200
fe01010100fffdff00fe03ff01000100fd0200020500
0003ff00020100010100fefc00ff0400ff0000fe0100
00fe00ff02ff0000010000fe00000300ff030000fd00
fdfe0100020000ff00000401fe02000101fe02ff0000
04000100fffeff0000020301ff0202fefefe0100fd00
01010100000000fe010102000000ff0000ff0001ff00
010000010100000002fe01000001ff010000ff02ff00
01000102ff0000ff00ffffff00000100ff03ffff0000
00fe0000ffff00010102fe00feff000101ff0001ff00
000000000000fe000100fffd02ff00fffffb00010200
fd000000ff0002fe000300fe01fe02ffff02fd03ff00
0000ff00000201ff0001feffff03ff0101fd00000100
ff0001010201000000fe0103ff01ff01fefe00030200
ff00ffffff00ffff00f9010401ff01ffffffff01fd00
ff0101fe01000100fffe03fe010200ff0002ff000200
ff01ff01feff00ff00fdfd010000000101ff0100fd00
fbfe03ffff02ff000101010001fe01fc000201000100
00fe00fe0003fffdfeffff02010000010200ff02fd00
