ef2e1310feecfd21ea1bddf5ed200d110000
2427271b251b2325222325262d2a23220000
fb0203fa020001fe0400040602fe050c0000
0303fffe0103fffefafe0203fffffe010000
f90504fdff01fc00fefa0306fffe08090000
fafeff00fffefdf9fbfeff05fe0600070000
000205fc030600fc05fe01fc02fe04010000
fe00f70500fefc0305fd03fb09fffc030000
fdfe00010002f9030a0007ff04fbfaf80000
fe03f404f6f9fefc050301fa0afe04f90000
03ffffffff06060100fc0008fcf9fa000000
fafbfdfeff01fbfc0000fefd010002fe0000
ffff00feff000000050101fe00faf9f70000
f8f1f902fffdfaf10dfa05fe0a0c07020000
060301ff0701010afefeff00fffcfc020000
06fafcff010404000707feff03fe04010000
fef7ff0d04040402f7f103fffcfa01f50000
fbfefd000108f5fb0b0503fefdfcff040000
01ff00fcff00fb01080004fc0400fdfd0000
010104000402f7f901f60604fe0701fb0000
fb0503fd020303fefc09fb03fd04fcfd0000
070006f6feff0401040103fafefc04080000
07fc0100ff0800000500000002fc02f70000
0a09fffe090003fb020005fa000600010000
fdff070101ff010afcfd060204fcff030000
01fafcfe06fd000003f405fd050bfefc0000
fef9f807fb02fb0001f7fdfbf9fdf8fe0000
fafc02fff8fefefbf6fb0406fc0303fd0000
02fc01ff0102ff02fcfc06ff02fc04fd0000
fd04fffeff0404fcf5fb070002fd09030000
ff0d07fdfe060002fcfd031005fcfdfe0000
00f6fbfefc05010101000704020606000000
0002030300fffffcfefc020304fe00040000
040204fd030008fdfcff0004ff00fc0f0000
060400fc030302fd0302ffff00ffff000000
fcfe07fb02fefe08f2050304f8fb09ff0000
07fb01fdff0601040402fefcfdfffff90000
00fefffffcfbfefaff020100ff03080a0000
01fb0206fef801fcf9f70804ff0205fa0000
010201fe000102ff090201ff08fefbfe0000
fd02030103fb0107fc02010704f7f9020000
0403fefbff0105fd0a0dfcfd06f9010b0000
020608fffffc0b0101060002ff0400010000
fcfdfe070104fefbfffc05fbfe0302060000
05fd07f906fefb09fffd05fd0200fd000000
fff5fafe01ff0307080102fdf80304030000
ff01feff03fbf9fe0c0204fdfdf800fd0000
0509ffff02ff08ff090500000afe0afd0000
02fbfefeff1004000408fb0505fff8fa0000
fe010002000000fdfeff0201fd0600020000
08fbfcfff30301ff0d00fafdfd03fcff0000
fdf5f903fcfef5fb04fbfefff6faff020000
010603f5fd06fefb0401ff050202f8f60000
0a0102fc0204fcff04fdfd0a000103000000
080205f90805080a090003fefc00fafa0000
06fcfffd050502fbfd07fdff00fe00f90000
070400fe05fe0400fcf60302ff0300020000
0001ff06fffd05fefa06fdfb02f9f9fd0000
04ff00fd010000fdfffdfc02fffefbff0000
fbfdfe08f501fcfbf7fffd05000004fd0000
04fdfd01ff0500fef8fe020501fe04fc0000
fbfdf802ff02fdfa0001fffd04fff7010000
fc0cff0006fe0801fe03040004fe02020000
090101fb010204fb04fa050bf9fbfefd0000
fb0303fd040302fd00feff03ff00030c0000
090303fa07001201fc0a000302fbf0050000
1e2c150fd2eb05fa11f3f027f13dfaff0000
1a1c1b1d2f20142625211d19231b1f230000
020403ff0100fd0102ff01fd0203fbfd0000
fc0101fc000300ff0403ff04ff0103030000
000605fd01000102080304fb010002000000
fcfdfd00fb0203fcfffe020205fd05050000
060000ff06050100ff020801fefdfffc0000
f701fdfdfb040304f8fd07f8f8fcff070000
02fd07ff02000003fdfffefffdfefefd0000
f1f8fcfd04faf909fe0104f406eff7fb0000
fffd01fffd01fb010403f9fe01fa00040000
00ff0305fe0201fbfe07fb0000fefa020000
fb010101feff01000304fa0aff02fcfd0000
fe00fdfb060505020206fceefff101040000
f9fafbfe0205fafdfdfd0afdfeff02fe0000
00fe00020cfd05050401f9000202f9fc0000
f400f90309000900ff070c01fafa04030000
fefb01fffcfdfe00ff030d0cfafa03fa0000
ff00fefe06fdfe0201fdff00fefe00fb0000
05f5fefefe0501f6030008fcf900fcf70000
0afe07ff00fe00fdfeff0505f8fdf8fb0000
020007fffefffb0106fefe020302fffc0000
faf7ffff0109fffb00040cfbfc01fc010000
0602fff80a090501f7070d0402f208000000
fff602f8f8000202fd05fbfc060707010000
fff0fbfe030300fbfffefdf4fcf906040000
fbf9f603fffbfff8f5ff01fd03f900ff0000
f8f8f9fafc000003fdf9fffa070104000000
08fa080aff03f9fbfb0d05fcfdfcfbfb0000
fc0104f9030d01ff0909fcfafefa01ff0000
fbfdfcfafbfefefc02ffff02fc0201020000
fcfefcfd0507fcfdfefdfdfb06fb01020000
020000fe0204fe000102fffa02ff01fb0000
000106fefe01ff07040302fa020301fe0000
0600ff020401fbff0302ffffff03fcfe0000
fcff01010afd010504f2080b0c05fafe0000
010f03050905fffffc09fe02ff01f9060000
fcf2000100fe01f601fefafdf9fc08fb0000
faff02000a0008fcfc03ffff050606000000
fd0200ff0802ff0606ff02fdff01fefd0000
fefd01fcff02fe0800fffe05fa0c02050000
00fc0600fd03fbfcff0a07fefdfdff040000
03060502f6ffff0905fcfb02070b04060000
fb01000a0a05fff9fc0003fbfff8fc070000
fafbf9fd00fcff0403faf902fb0604fc0000
0101fafdff02fd02fdfc02fa07f3fe080000
fff9fcfdfffffb0201fc0108fcfe02fd0000
01050802fdfd0209010a05fafe04fbfe0000
04ff0104fffef704ff02fdfb04fff7fd0000
0106fe0006030200020004fcffff04030000
fb00fbf701fd05fb00fbf9fe07fe01020000
fefef902fcfffffcfafd03f900f302040000
07fe010003fefd0308010a08fbfb00ff0000
06fafdfefc00f90806fdfc03050801fd0000
03fc00ff0407fef9fe020603fd04fdfa0000
04f906f803faf5fd0203f9f8ffff00020000
04f9fdfd02020703ffff0205030307010000
fe02fe0901ff040709fff80e05fe0cff0000
fb04fc0407fd0001fc030304070303030000
fc01fdfafd040102fdfefcf603f9010a0000
02fb0c110000f8fc0009faf800f6f6f40000
fbfff902fbfe0bf9f9fbfe0102f4fff90000
000804fcfc02ff00040002fdfb02fe050000
ff0201fe030202ff0201fefffe060a010000
020300fd0103ff02feff05f900fdfafe0000
0009f6fef907fb0501050503110601020000
fffd09ee05dc25e540e90521cb0004f80000
2f21272922211521232528212039281f0000
ff020102050404fdfd020904060100010000
0202fbfe01000003fe000001fe0200ff0000
02050cff07fafe0001060a050702fe010000
00ff000500fcfa02fe00010300030b040000
0603fcfefe01fc00020202fefd00ff000000
0200fc0201f7fc01f70001fa00fdfd050000
05060101fefbf902fb0003000107fc060000
ff0d0a00fe0afcfef701f70d09fafd050000
01fcff0500fa03ff00fefbfc0102ff020000
f9fd0000fb02fafe00fc01fcff0203fe0000
02ff010301010204faff00fff9fe05020000
f50606010409f8fffd02030008f9fe060000
06fafd03f403f8fdfefc0001fd0002fb0000
fffdf60200fa0cfdfdfef7fa05fcf80a0000
fa0202fffd11ef02f8fb05ff0a01fdfb0000
fefe05fdf808040100000405f7000c000000
00f602ff04020308fb0102fe0406fe020000
f903fb00020305000805010501f7f9ff0000
01ff05ff010701fd0207080403ffff070000
0400fefcfcff0600faff0b070204ff000000
fafb03fafdff030000fe06f8fefc00fc0000
0205fb0300fbfe01ffffff05040204fe0000
0a0407fd03fc0203fafcfcfd0708fafc0000
f902ff020402f404fa0800f708f9fa030000
fff9f90600fcf00501f6f3f600fa0cf50000
01fe06fd08fc02ff030501ff0202ff000000
00fdfb03fffcf5000200fdfc0002fdfd0000
ff0301f908fafefffd0802000807fb0c0000
010a0afe0efa0101060d01fe0d0200030000
fdfcff05060002fe070000fe02f8fd020000
ff02070102fb01fe0402010501fdff030000
04fefc02fb030705fbfe05070002fe000000
050100fe03ffff00000001fb050305020000
0204fffa04fd0cfff906f608fa02f9000000
fc01fa02fcfcfbfff8000201fd0209030000
f702f5070005f7fcfe00ff05f90203010000
06fd0401020501fff40103fd07fffcff0000
00fd0200020002ff05060609fefcfd030000
07fefc0202f80401fcfe00fdfd0304fe0000
00fb0003fafdfc06fffefd04fc0004fd0000
01fffefe01040a01f60201060107f9ff0000
05fffd0504fdfdfffefdfbfb0bfcfd000000
060dfffc01fcff00f802fbf4030202000000
0002faf5fffef8fa0306fff7ff02fdfb0000
0505060bfa08fffefe050100faff09fb0000
000104040306feff05000802050a00050000
f90301fffa0e0200fefefdfc07fefafe0000
04fdfffe070201000606fdfcff050c050000
fe01f30afa0dff07fcfc00fb02fffeff0000
fdf5fb0505fef801faff02fa04f906ff0000
030505f7fe0504fafd0708040404fe0b0000
f8fcfe0001fc04fe00020504030307010000
020200f9fdfe0008ff0204f7010105fe0000
01fafb00fefffefe020002fffdfe01020000
00fcfffe02fcfd05ff05f9fc0305fef90000
0600030dfb050b00fc01fbfdf8ff03fa0000
02f9ff02fc0bf400fffd00fef80608fd0000
00f400f800f9fd02fb0101ff0400fbfe0000
03f8fe05fef8f306fafffefb0106fe080000
01fe00fdf603fc0904fefefbfdf800fd0000
040605060afd01010504ff000c03fc080000
fefc01fe0104fd00080001fc060210fc0000
00040afe0504fefc01fefd0506fb02020000
01fe01fbff110811fe04030007fdfcfe0000
f755e5fd095e17f0f63105ef0a01e6fe0000
1f232c1d37292c272a2c2124261d222d0000
01030503fe0100fd0107fefaf9fd03040000
03ff0102ff000305ff02fd000100fffe0000
ffff080100010200ff04fefdfc0101030000
04fc01ff00fafbff0103f6fa0400fefa0000
0305ff05020502ff0001fffc03f900000000
fef00101fef4fb0301fd0203fd0105ff0000
000100000304fe0300fc010300ff02020000
fdeffbf403eef7040af7fbf5fdfefd040000
0502090702fcfb02fa04fafff9fe05030000
fbf805fa06fbfefd05fd02020a0004fa0000
01ff07fb0205fe000101030301ff00ff0000
fafaff0af9f20202fdf600faff06fb060000
04fd0601020103010103f70100fe09030000
06020f0a0100fff607fe1107020103000000
08f40100faf4fff9ff01000302fa0e060000
fbff02fdfdfd00040201fe01fa020a0d0000
02ff0401f8ff06fffe01ff01fc00ff020000
0004ff08f902ff04fcfafd03fafaff010000
fd0cfcfa0209fe0507f9fb0002fd05f90000
fd0904fcfd0a01fc000800fbff00ff020000
09fcfa05fafc020205030202fbfd08040000
0afd02fc01f9030700f3f90203fd06fa0000
fe0803060408fd0506030303fa07fbfc0000
05f6fd0c00f700f9fbf7fbfdf804ff050000
fcf405fd01f8fff5fef800080805fdfd0000
01feff05fffff602000703fa0000fafc0000
0100fffdf8010007fdfcfe0003fb05f90000
04f7fefd00fb0b0000f80406f8f802ff0000
fcfc000509f9fe030500010303feff050000
01fffc0103fd00fdfcfe00000201fe060000
000002fcff0102fd0209fdfdfdfeff030000
ff0408050106fefe04fe02fcfb00ff020000
00010203fd00ff01ff000001030003ff0000
08fffa09fc02010703fffc07fa01feff0000
fdfb02fbfcfc01fe01fe0afd02fafdff0000
fdfefcf200fcf706faf5fd00fa0303070000
03fcfdfdfe0100000101fe00feff06040000
ffff10020101010104050301fdfafe090000
0201fdfc0306fb0806000203f9fd00f90000
ff0200f6040003fd01fefd0205fc03030000
000ff509fa0e0905ff0700010304fafe0000
05fc00ff000006fc02f9060200fd00050000
01fffcf30809fafd06ff00fe05fd00010000
00f4fffe04f5000204f8fbff06fa01060000
fffefbfe01fffcfd03fdfc00fd01fe000000
00ff0704000002fe04040300fffc05070000
010300060701fd010302faff14fdf9fb0000
03fd010402fc0103fcfe040502fffe030000
f9fefb0af6f6fd04fdfa0205f905fbfc0000
02f909f500f600fdfefefd03010cfe040000
fa00fef4fa0503020300fffeff0003f80000
00050401fe03fafdfc02fef90104fb000000
040601fd02030002f9010204f7fc09000000
0003010503fdfd03fa03fdfdfdfe05fd0000
010106fe0500fc03ff00fcff030400fb0000
fefa020500f6fd0c05fe08030007fcfd0000
fefb06f701fe0102fd0700fb04fe00010000
fffbff0700fafffa03040bfffe0605fa0000
fdf406fefefb0308f9f80101f6f70a060000
fef507fa08f4fff703fffd100b0a02fa0000
0101fd0404fefdfc05060604ff0201030000
000002040102ff00fdfffefafaf907010000
0503fc02fe00fffdfb01fbfffbfdff060000
0701fff5020006fc00050bfefdfbfefc0000
