28ef1408ff05fb0a270d07062c12171e0728070a2722
1d2e252028292e231f26292c2524232e26262d23232a
02feff02ff01000002000001ff01010200fe0000ff00
fe00fd0102ff04fd00ff0301ff00fffffffeff0101ff
fd01fefffdfd0201fe010004fe00fefefe0100fdff00
030403fffdfe0000fe03fe0400fffeff01000100ff01
03ffff00000001fd030203ff01fc01fcfbff00000100
00020604fdfc000405030004fd00fffe01feffff0403
fe0403fe01fe0302fd02fd0100010001fefa01fefefc
0301fffc00020100ff0105fe000000000000fcfb02fc
ff00fe000002ff010401ff020000040000ff00ff01ff
fcfd0203fdfe02fdff0401ff02fe00fe010301020202
0203fdfcfdfffd0000fd01fe00fe03ff0003ff00fd00
00fefffe030201ff00ff0102010103ff0003ffff0001
ff0004010301ff04fefffe00ff01ff01fefdfefffffe
01fefb0100ff00fffffffe0102fdfeff03fe02020002
01fe000100fe00fffcff02fffd01fe02ff00000201fc
fd01fffe01fffe01fd00fd02fffd0301fefd0101fefe
fcfeff010200fd02f70100fd0004fffd010101fdfffe
fc0102fe02000101ffff0102ff010201ff01ff01fefd
020102030102020000fffffe05fdfffffcff0003fe01
fafe010202fe03fdfd0302000000fffffc03ff01fd02
ff01fd00ffff02fefefefefffefefe020204ff01fffd
fffe01ff01010002ff00ffffff0302ff0001fd040301
fbfcfeff0103fefcfcfd01fcfe03010101fefffdfe02
03ff0105010603030100fa01000303fe040103fe03fe
01ff01fdfffffb03ff0002ffff01fefd01fe0101fd01
fb000001010300fbff00ff020202fd02020200010000
050001fb000300fe02fefffe01fe000001fd0401fffe
fefefe040201000300ff02fc0301fe0002fe0202fffc
fe0100040202010203030004ff05fefdfffd01ff00fc
00ff02fcfefa0100fffd03ff0104fd0205fdff0300ff
05ff000002020200fefe03fffefdfffdff0001fcfe00
fd000102030401fd020202fc010101ffff010100fbfe
0001fd01ff0102fffbfd01fefcfefe000201fe030104
fd00fe0001fffe000000fe0102fc0303ff0101ff03ff
02ff0000fffd02ff000005fefffe00fe01fe020102ff
ffff00fe040001fffdff0100fe01000101010001fefe
fd0101ff000000010203ffffffff0101fd0100ffff00
fefffffb0202000202020001fffdff0006000002fc00
feff0202fd0401000500ff03ff02fc01ff02fc0200fe
fa0102ffff0001ff00fd0605fc0501fb01ff00fd0000
ffff0000fdfdff010200010000ff02fefffd020000fe
f7fe00fc01fffe0009fb03010105010101fdfb01ff01
00020404fefefe01fefffe020201ff0201fffe0003ff
01ffff000203000202ff0502fffdfe0101000401ff00
fe010200020200fcfb0201fffa00010001fe02000100
fd00ff020000ff010002000000ff0b010700fefefefe
0100000701fd0201fdfffd03fe0204fe00030000ff01
010200030304fefe0000fd00feff00fd0002ff020001
0402fe01ffff030303ff010003fdff020001ff040000
fd02fe00fffe010302fd0200fffc0000fffd01ff02fc
0102ff00feff00fd02fffd0000ff00fffd02ffff0101
fd0301fefffdff00fefc00fc0001fdfe00fefe0500fe
fd040401fd000000fbfcfb00fefc0101fc01ffff0204
00fe01020203fd0200fd02fefc0001ff010402fffd04
01010100ff010001020100fefd01fefffdfffd01ff00
f8fffe00fffffefefdfb03fe03ff01fc01fdfe00fdff
fc00050001010000fe030200fbfdfc02ff00fefe0202
fc0003ffff00ff01010001ffff00ff020000fd00fd02
02ff01fffffd02ff0200000002010701ff03fe010102
04ff02030302020001fcff0001020202fffffe04fd03
fd00feffff02fffd010401fffe0002fd0001fffd00fe
0301fe01060100feffff010001fc00fffcfdfdffff00
030402fe000002fefd0003ffff01ffff000200000000
fd0300fd0102fd00fdfe00ff00fe050003fdff00fe00
fffe010201000001faffffff01020304fefd00fdfe01
ff01010000fefe0302000202fe02050001fefd02feff
02fdfe01fe000003ff02020402020100fd0001fe0102
fffd030202ff010103fe02ff0103ff00fcff02fbfd00
fe0403ff00ff03feff02010002fc000200fffe020000
ffff0202000000fe03feff02010501fe0200fa00faff
fffffe040001fffeff01fcffff00ff00fffb00fefc01
fdfd03010104fe01fffeffff01fd000100fefb03fdff
02fd0305fdfefffefdff0000ff01fd0002fe00fe0101
fdfd00ffff01fe000102fd05fe02fe02fdfd00000000
0100fefeff03ff0501fffefeff0300fdfefe02010004
fe05ff02feff000000fb01010304fdfefe0002fefeff
0200ff0003000505fc02ff030504fd00fc0102ff0201
fd01fefbffff01fe02ff01fe0100fd03030301000201
fd03fd03feff00fefdff0000fffe000201000000ff01
0402ffff03fd0204feff0000fffefbfffe0202010203
04ff000001fffffffbfffbffff02ff00020002000101
0400fc02fffe02040004000300ff0002fb0201020101
0101fffe000101030002ff01040103ff02fcffffffff
030001fe010400feffff030103fefefffd01feff0102
01fe02fdff03fffffc030100fefefff9fd0201fdfe00
fdfdff000000fffe000303fdfe03010303fc00000200
0301fdffffffff02fdfe02fe0205ff0001ff0501ff02
000001fb01fbfd03020101fdfb04fcff0104ffff01fe
fb0001feff01fd04ffff030200fefeff02fd0101fa00
fe0103fffffd00fe00fe00fd0102fe0101ff02010000
010003feff01010403fe01000201fe02ff02fffeff00
00fffdfe0100fffdfefe02fffffe01fefd01010103fe
ffff000002ff06ffffff02ff06fffd00ff05fe01fd05
fc0000ff01000002fbfeffff0200ff01020000fefe00
fc00ff03080201fffb01fb01fd0103fe050205fd00fd
fb02fe0401fffffd010100fd01fa02ff02ff00fffef9
0101fc00ff01fd00fefeff0201ff0201ff020007fefc
0001fd04fefe00fdfdff0202fdffff00fcfe010100ff
01020000010202fd0403ff00000101ff0100010000ff
01030101fefe01000201ff00fdff0100fcff0100fcfe
ff0000fc00ff000402fe0100030002fc02ff01fe0102
040401fefefffc01010103fffefdfd02fe02fd00ff01
fd010101fe02020002ffffffff0001fe01ffff0003fd
0303050201ff03fe01050200fefc02ff030200020100
0301fd00fe0201fcff00fdfe03feff0102feff02fdff
00fd000004fbff00feff0300fd0104fd00ff030101ff
03fcfeff0100fffefefffa0000040200fffefeff0701
fc0100fefe03fd01fe02fcffff000100fefefe02fe01
fb02fe030100fe040103010200fffcfefeff0000fefe
fdfffefffffe010103fefbfe0201020003fd01fefe00
01050202fdfa0103fd01fa00ff010100fefffbfffc02
ff0202fcfbff00fe020101ff0000fe0105fc010000fa
0502010205010101000201feffff050101fcfe05fc06
0003fc0201fefcfe030000fdfdfffffefe0303fcff00
fe010000ff00fffe020202050203fefefe0001fe00fd
ffff02ff010001feff00fefe0204fd01000000010401
00fefd0001000101060000010100000002fcfe000003
020000fe0000fffc020000ffff00000000fafdfe03ff
feff0201ffff00ff00000000feff000101fefefdfeff
0000fcfe00fcfefe0003fdfe0104ffff000203ff0002
fd000102ff01fe00040200fdfffffd0201fbff01ff01
00fd01fd03ff030603000102fefe000003fffcff00fd
fefcfeff0000000200000301fffeff0001ff0100ff01
fd01feffffff0102fdfefe04fdff02ff000200ffff02
0100f902fcfffe02fffcfd0201fdfffe030100ffff01
00010002fefffc03030300ff0300ff02ff0001ff0300
ff0304fe0101020200fe030001fcff0102fc0100fd00
fbfb02fb00fafbfdf6fe0704000603fb01f9000303fd
fffefe04020204fcfe00ff00fdfd0202fdffff00fefd
feff0101fefffe010201fb0100feff01ff00fc040101
0100fcff01ff0102fffffe00fe010000010001ff0001
020204010100ff02fffc0100fffdfffffffc03ffff01
fe01fcfdfe02020101fffc00fd0102000201fffffefe
0101010103fdffff02fdfffe0104fd010101fe020100
ff010001fcfd01ffffff02000104ff02fe00fe00fffe
ff0201fefe0202030001fc02ff01fefefcfffd0001fd
05fd0101fffdfffe00020001fd03ffff00020100fe04
fc02fffffe0001ff010301fdfeff02fe020601000302
fd01ff01fd00000000fcfd0101fd0002ffff00fffe03
01fe01fd000203fdfe00fefefc04020004fc03fe0103
fe00fefefeff03fb01fe03ff0000fd0000ff00fd00ff
01fefc00fe0300fcff00000005fdfe0001fcfafffeff
0301fefc0001fe01040202fd04fe03fb0000040000ff
ff04fefefe01050002fd000202fd0001fe0301fffd01
00fdfc00020100fc0401000002ff0002fe050101fdff
fcfdfe000202feff00fffefe03fffffffe0200ff0202
01000100000000ffffff00fefefffbfffe01fefb0300
05fffd0001010102000002ff03fffb04fcff01fd01ff
fefcfe0002ff0102010301fffffe00fffefe000101fd
fe010000fe01ffff02fe0100000500ff01ff00050000
fc01feff02010200faff0001fdfeff01ff010003feff
fc00fcfdfbfbff00fffb00000001fafdfffffdffff00
0200fefe01fffafdff0002ff0001fb0202fc01feff02
02ff03fefe01ff01f9ffff00ff00fcfd01fe01fefe03
fe0303fe0403fcfc02fdfffdfd00fc02fffd0203fe00
00fdfdfdfd02060203fefdfffdff000003fffd02fd02
feff00050005feff020201fffdfefe0303fcfffffffb
0100ff0000feff00fefd0001fd0001020400ff00fe00
0500ff0200fe0203fdfdfe02fcfefcfe000200fdfd00
0001fb00fe0100fffefffdff0001fffefefe03020002
fcff0100fe0000fffd00fb010001fcfefefd01fe0301
0100fcfbfc000002010100fe0200fb000101fe000102
0302020001ff00ff02fd0201fcfefffefe0000fffeff
040204fdffff01fefe020200ff02ff0102ff00fe01fd
ffff0000ff02ff00fe000202020000fefe01fd0101fd
00030600ffffff01fe0100fe0503fffeff06fe05feff
fefeffff00feff00fe02fcfefe01fe02010304fe0001
fc02020103fe01fefc01020400fcfefffdfffffffd00
ff0102fe0002ff00ff04030100000001fc0200feff03
ff0001fdfbfefe02060002fefe0101fffcfe0400fefe
fd00fffdfe00fefe02fefd03fffd03fe01ff01ff0101
0301fefcfffe0102fffcfffaff00fefb01000200ffff
03fffd05000501000407ff0402000102fb0501000201
0203fefdffff0203fd0103fffffc080102fefe00fbff
0001020200ff01010201ff02fffeff01000104ff0000
feff020001040002030101fffffa010102ff01000200
0100ff01000000fbffff0002ff00ffff04000202fffe
fffefffc0302fbfd03050106fe0400040003010203fd
fdfefcfdfeff03010001fe03fdffff01fefd01fd02fe
01fe0301fc020002f8fe01fefffb0201fe0102ff02ff
fd01ff0101ffff01fe01fffe00ff02fffffdfd0500fb
01fdff0202fe02fb0101ffff010401fdfeff02050001
ff0001fffeff02ff0203fc00ff01fe0001fd00fe04fd
fdfd03020202fefdfdfe02fd00fe000100000101fefe
ff02fe0202fc000100feff00fefe03ffffff01fcff00
fd050001040200fffe0100fdfeff0002010101020202
ff00fd0001ff01fffdff00feff02fefefffcfdfefe01
ff00010302ff01030100fffffdff0302fb000100fffe
00000002000000000100ff03feff02fffe000101fe03
fc0501ff04ff010000ff020001fffefe02feff0303fd
fc030201fe0301fcfd0103fd00ff0101010002ff01ff
01fefeffffff0002ff010402fd010305ff01010002ff
fbff000203ff020100ff0100fd0501fb00fbff01ff01
fc000000fe00fe0001feff02fffafefc0401fffffffe
02020200ff000002fd05010001ff0001fbff00000501
0000feff0102fefe050203010303ff01ff00fffeffff
fdff00ff020201fdfdff0101fdffff00fd0202ff0100
fe010002fdfdff0006fe03000002fb03fffd01fd0103
00fe00040400fdfdfcfefffdfcfc00feff000101feff
01fdfeff010102fefefe000003fefd0100000103ff02
060100fe00ff0100fc0000ff00fd01fe01ff010001fd
fe030401000201fd02fffeff02010003fe01fb00fffd
fe04ff00030001fe040000fffb02fffeff0501fffffe
00fd010203000103010000fdfd00fcfe0301fe00fd01
0000020300ffff000103fe0101ff0003000301fdfe02
0002000001ffff0102fe000002ff01fe00010001feff
fdfffdff020100ff0300ff02fffd000401030103fe02
0801fefefffd0102fdfeffff00ff0000fe02feff01ff
04f9fb0004fffffffefd00000204fffe02ff04000303
0001020304000102fefdff03ff0001ff01030300ff02
fd01fe0200fb0100fffffffc00fdfd00fdfe00050000
fefffe0001030102fa00fefcff0301fffdfe03fe00ff
000004fffdfffe0000000001fffdfe0200010404ff01
fe0204fc01feffff00ff0402fe0003ff02fefd01fe03
feff00ffff020001050005feff00ff020403ff0201fd
fefcfe0101000100fffffefe00fd00fe00feff0102fe
fffefc01fefefefbfcff0000fe02fffc030001fd00ff
fe0201020101ffffffff04fe00ff03fffffffdfffefd
fe000000fdfe03020002fdfefc04030201fe0304fe01
fcfeff0100fc000103020000feffffff000402fffeff
fd0002010000fdfdfa00ff05fe01fe01fe01ff0302fe
0601fd0102fffdfcfd07fa02fffff900000200000404
02ff01fffd0201fffc030001ff00fd0001fcfdff0302
0004feff00020102fefd00fe04000101ff05ff020201
0000fffdfe00ff01fe00fd02fe00ff03fdff020000fe
fe00fe010000fdfdfe0300ff00fd01020005fe020301
010302fe000202ff0500fe01fe000102ff0300ff01ff
030200fffe0102000200fdff00030100020003040101
ff00fd0000fc010103fffe0100ff00ff02fe01fffd00
fefdfe01fffefd05ff00fb0100ff02ff00fa04fcfc02
ff0504000102fffe0101000101fffd020002fe01feff
fd01fdfffb01fd010301fb02fc0002fdfeff00fc00fb
fe00ff01fdff0100ff010301fcfd0103000001ff0102
00fe02fe0103fb02fefe01fefefd0002fffdfdfd00fc
020001ff0000ffff03ff000302fa010003ff01fe0300
03fefffeff0102ff01fdfefffffeff00fefbfa00feff
fb0300020000fffe0000fe04fefcff00ffff01ff0100
01fffd0104ff0003010003fefdfe0401fe0203fdfd02
ff00fe0501ffff03fdfffffc09fd00fefd01010002fd
ff020001fe03fefefd0000fffdfefdfc02ff010500ff
06fe00fe0603fc0300ff03fefcfe00fc04fefe0001fd
0000ff0100feff00fe010000fdfcfdfe000100fe0200
00fffefdfeff03fbf8ff00ff02fffffe05fd00040001
0300fffe03ff0400fa01000100fefe02ff0301000000
02010000fc01fefe01ff010304ff02ff00fefefeff00
fefeff0102ff0000ff0300ffff0101ff030000fefc01
03feff02ff01ffff02fe0201010000fe0102fe00feff
fffeffff060203fefffc030204fffcff04fdfc00fefe
fe0304ff04ffffff010002fffe01feff0000fb0101ff
fc0400000200fffafa04fcfe0300fffefe0201ffff00
0100ffff030101feff02fffeff020001fd0500ff02ff
03fc0001ff000002fffdfe0002fd0101030102fdfc03
01fd0401010101fe00fe02fb03020003ff010702fd01
fe00ffffff02fe000002fe01030201feff0200000302
fc00030000fe0401ff01fe00fdfefe00fe000201feff
fd01fc02feffff02010400feff02fd02fd0001ff03ff
0103030101ff0501fd020002ff04030202fe01ffff01
25fafa4903f8ce22e2040e1323f92f0ef4eb20fb25e4
1b34251d2c27292128271c3227282024222f25271f27
00fe02fefe0200ff010000feff0000000100ffffff01
fe0400fb04fe010001fdffff02fd00ff010100fe02ff
ff01fe0001fdfdfe0300fd0100fd0104fdffff0000fe
ff0200fe0101ff00fe0200ffff02fffe0102ff00ff02
0100fc0204fd0200fdff010200fefe0101020002fd01
f9020204fd0103fefffe01fefd02fefefd0400010101
01fffd0000fffefdfeff00010200fe01ff0100ff00fe
0202fe01ff04fefe0003030101fffefc02fd000103ff
030001ff0002fd00010502fefe03fc0001000203fb02
0002fef9fffc000101ff0003ff00010002fbfc010000
01fffcf8fefcfe0000010200010300ff0301fd01ffff
fb02ff0200ff020202000004fcffffffff03ff010101
0100fdfefffe000002fdfffe00020002fd02fd000001
03ff01fe00fdffff01000000fd000000ff0202fcfd00
ffff00ff03ff0101010100020002fffdfd020401fffe
0100fefdfd000301fe05fd00fe01fe010101ff020300
fbfe00ffff00000501fffffdfafffd0002fd0602fc02
fffd01fffffe00000301ff02fdfe0302fe000201ff00
0004fefefe0202020201ffff01ff01fc04fefffe00ff
f902fefc0502fe060401fffe01fbfe00fefd00ff06fa
0003fdff000002fd06feff0102010000010001fdfb01
fffe01fdff00ffff00fe00010101ffff01ff00fe0001
040203fdff0401ff03ff020200030600fe0000fffa02
fcff010401ff02fcfeff00ff00fd05ffffff0100fe00
0000fdfeff010101fdfe0101000100fe0001fe0600fe
0401fe0400ffff01fa04ff0103020300fc0402000002
fbfd05ff0005030103fe0600fd0403fefcfe03fdfd02
0103fefdfc0101fffe0101fd000201010000fefe0200
030301fdff03fcff00ff03fe03000002fe0300ff0203
040201ff02fd010004fefd0100ffff0303020201fefe
fffdfefbfefe01fc0100ff020400fffffeffff000002
fffdfdffffff01ff02fefc0102ff010000ff00fefdfe
050100fe00010001ff01fd03fcfeff00ff0201000202
ff000100fe000102ff0101fffffefdfd03fe0000ffff
01fe01fe02fdffffff01fe010301ffff0100fcfd0201
ff00ff010000010100fe040101000000fe01ffff0001
fffe000101fe0302fffe000002ff000000ff04ff00fe
01fd02000205ff01fbfb0400fd0100feff00040001ff
fd0201030202ffff010306fffc03ff00fb02fd010000
010200fe00fc00fd00fdfe01fe010301fdfefc02ff01
fd0100000000000103ff01ffff01000100ff00000000
03fdff00010205fd01fd0202fc00fffe00fefc0301fc
02fd02fd0201010402ff0100fffffefefe01fe0201fe
ff00000502000100feff03030102040003fd01fdfc00
03ffff01fffe0202ff00fc00fefd00ff01fefefffdff
fa0201fffb0000f9ff0400020000fb0004020003fe00
fffbff02ff0103ffff0101020101fdff050101fffeff
ff00fc00fdfe0301000001ff010302fffefe000000ff
01ffff01ff010000fe0004fefd0401fd0205fdfe0100
fb00fcfb02fe00fdff0000fefe00fe0100fefffe0003
00fffe0100ff00fe01010103ff03ff01020001ff0200
f90100fdfff900fefd0303ff0603ff01020102fffe03
ff010000ff03fe00fbfb03ff00ff0201fe0000010301
f7fe04fd000200ff01fefafd0201fffe02fefbfcfe00
0201fe000302fe00ff00fcff00ff01ff0201fefcfd01
030103f9ff0301ff00000402fffffdfeff0102030300
0200fe00ff0100030001fcfffffefdff00fdfe000100
ff010100fe02fffffefffc000003fe01ff01ff0000fd
fe01020100ff00050201fbff01ff01ff030200ffff00
010102fe01fe030000fffdffff00010200010000fc03
0002ff00ff02010100ff000102000000ffff020003ff
fdfd01020201fffffe0100fdfffefdffff0300000100
0202feff00000201030004ff01fe0102fdfffd030001
02000000fe030204ff0303fefdfefffe0102fe0200fe
fa000102050100fa00fffdfffd0304fcfe040102fe03
fefefe01ffff00f8ff01ff00fffb00040404fefe0100
00020001ff00ff0102fc0400fd02010100ff0300feff
020104ff0105fffe0201ff01ff02fb01fd020106ff01
ff00fdfd0103ffff03fd0103010100010201ffff0100
fd01030301fdfffe01fdfbfffffdfd03ff00fc01fd03
010101feff02fffaff0103fdfe00020202ff02fd01ff
fffffe01fe01fe0001fdfdfdfc0304000201fe01ffff
fdfefffd00010300ffff030002020302feff02000000
f8ff0202ff0101010202fffe0302ff03030101feff03
01fbfffdfe01020101fd03ff000202fc02fffcfcff04
000203fb040101ffff050101fe0001fffb0202020202
020201fdfdfe0101fdff0401fcfdf9ff01000001ff01
fc030101000402020200fe0100fe0002000000020202
0201ffffffffff00000101fcfd01fe0002fffe0100ff
ff0102ff00feff00fc0003fe0201fc0200020101fd01
fe010100000001ff0102fbff0000ffff00fdfd02fe00
000101ff01fdfe02fe02050001020102010004fe04fd
02fffffeff02ff00fe00fdff0200f9fe01fe020102fd
04fefefc01fc010002010101fffefefffb03ff0100fd
02fd00fe01fffffffffd0000fefe0300fd00ff010102
03fb0101010302020100fe00fd00fe0102feff00fffe
fdffff01fffd000101fffc020101feff00fe02ff01fe
f803fdfb040201fffe0503ff0101010108020101fd03
ff0000fe0002fffffe02fa02ffffffff03fdfe030202
0302fefbfe02fffe0000fc02ffff02fffdfffc000100
ffff000200fe020303010402000002fefd000201fe05
0100ff0001020001fe000002ffffff00fefe00ff0203
fb00fffcfeff03010000ff010202fffdff01ff01ff00
01fffe0001000000020107fdfe02fa00fd00010103fe
fb0203fffdfcfefcfc0001fc03fe01ff03fefb0100fe
0401ff00ff04fc030100fefd03fffc040101030200fd
fafc000200ff03fe000001ff0402ff010302fdffff04
fa01fd02fe0100fe010100fe010103010103fefe0001
f9ff0100fffeff00050400000001ff03ff03ff0102ff
ff00fffc00feffff02000001fe00fdff0201fd0001fe
fefefd00ff0102fffd00020000fe03fd02fefe000102
fc0102fbfd010201020201fffd00ffff0502ffff01ff
fa0100fd0201000203fdfffefc0100fb01fefdfe0000
0403000301fcfe03fe0204feff020103faff00030201
03fefefbff0002fffe00fe0102ff0300010001fefd01
fd01ff010003fefe010404ff010301fe03fdfe0402fe
00ffff00ff010002fffe040200ff0200ffff0201fe01
fffe0204ff01fe00ff01f602fe020102fffe0200fffe
02fd01000000fe0001040003ff00fc000201010101ff
fdfe0200000200ff0102ff00030000fd00000000fefc
010102fcfdfefd0002020300fe0200ff0001fbfd0302
fdfffc03020101fd02feff0302fd020404fd01fefffb
fdfe0003020205fffdfd01fefd01fbf80302ff000101
030002fafefe00fffffffb010100fffb00fefcfdfd04
fefb01fd040000ff0200fb00fd00fdfffeff0300fe00
000100fcfd02ff00ff00fcfdff000401fffefd0500fd
0100fdfdfdfffc0100feff02ff01ffff0300010203ff
fe0005ff0100fcff010101fd0101ff00fd010102fe02
fe010100fe0100feff00fdfffffffefc000000fffcff
fe0102fd01fdff0000010000000104ff01ff00fffc02
ff0102fd01000202fe0006feff00fa03ff01010201fc
03fffffcff0000fefdfefb03fd00fd01ff0102000203
01ff010000fdff00fdfcfcff00fefefd00fefeff0100
040201feff03fffffe0100fe00fffcfbfe03fcfdfcff
0000fb02ff0102fffd02ff0001fe000101020201ff02
fffb0002ff000103000105fe00fffc01000302fdfc00
01ff01fffc00fd0302ff00fe00010101fe020100ffff
0401fd04ffffff0304050502ff00fd03fe000400ffff
0103ff00ff0103ff00ff0000030001000203ff0000fd
02fe0001fefefe0001fe04ff0005ff01ff0200000200
ff03fe0001000100fffefb01fffd00fffe02000100fe
feff050101fefe03000003fe0004ff01ff01ff000000
010001fdfe0003000700fffcfeffff07000100fe0100
05fe020200fefd02ff01fefe0002ff02ff0303ff0102
0201fffd000203fe0000fe03ff00ff00ff01ff0001ff
ff02ff00fdfeffff040104fe00000104f902fffc0102
09ff0100000101fd0400f801f900fd0000040202fc05
fcfffd040501fe0202000001fc00000205fc01ff0301
0100fe00fe03fe0000fbff02fd0003fcfbfdfefffe02
fffe03fe01fe06ff0000fe0202fffc00ffffff010001
fefffc0004fe00ff030001fe0303fefd000101ffff01
040002fefc02fe00fd04fe000501ff01fc0402000100
ff0004ff00000204010000020100ff02fc03fe04ff01
fefe04ff0001000203030100010001ff000202020001
f904020005fe02fc02fef901fffdff0007fe0002fd00
fdfd01feff030001feff00ffff01fffb0002ff04fe01
fffe02fdfe00feff00fefe00ff010dfffefc0205fe00
fc01010003ff01fd00fe00fffc0003000203fffffeff
0400fffd00fcff0204ff03ff0002fdfefefffefe02ff
0202fdfdfe01ff0200040201ff000102feff0300fe01
00ff03f9fd01040001fafeff00fe02ff0003fe00ff00
040101fe0101ff0504040001050107ff00fc01fe0102
fefe06fcff030102fffeff010004fefefffefd06ffff
fe0203fffe03fe010001f9ff0000030100000404fc01
feff04fffd04050002fe02fe010009ff00ffff000403
f902fe0000fe02fc0002fd0102ff01010203ff00fd01
0601000101ff0500fc00fcff02fffffffb040101fb04
04fcfe01ff0000fd00fefd05ff010201ff0000010002
f80004fc05fe03feff01f900020000000200ff010000
fe0200fffefb0201fffdfd02fffd00fcfcfeff00fdff
ffff02fdfdff04020300fe030000000400ffff010000
03fdfefdfefc00000000fffefdff01000201fefd0002
fe000100ff00ff02ff020001000002ffff01ff0103ff
03fe00030103fdffff0301fffffffc03020201ff0200
00fffe02ff00ff0000fe01ff03fd0003ff000100feff
06ffffffff01ff0207fe01fffe02ff0304fd00fe0104
01ff01010201fe02ff02030001fe00ff0602000203ff
fa000004fe0200fdfdff0304fe02feff04020502feff
00020002ff0200fcfdff0103fe0504faff02fe0300ff
030105fb04fffd010200fd040300fdfff901f90100ff
02fdff01ff02010101000000fb0002fd0001ff000300
04ff00fafd01ff00040504020305fffd0200020205fe
0702ff00ff000001fffc06fd0300000003fdfffcff03
fb01010300fbfffe06020002000500ff010301fefe00
fe000001fffeff00020100fdfe00020202fefd000003
ff0002fffc0403ff01ff0200ff02fcfffc010204ffff
fc010400020304fe01fefefe01fefcfc0201fd02fe03
fefffcfd00fe00fe00fcffff010101fe04fefdfffffd
fe00000100ffff0000000101fffffbfbfe0101fefd00
01fd03fffe0100fe00fefd04fefbfdfe0001fe00fd00
000000fc030304ff010603ffff000003030200fcfd02
fdff05ff00fdff0300fefe02fffefefefffe0100fe01
fb00ff01010005feff0105feffff02ff050000fffc00
fe000106ff0203fcff0501ff0301fdfe01010404fd00
fbff03fe0002fffdffff00ff0001fefe0100fdfe0002
fffefd00fffd02000000fcfffffffb0001fefdfaff02
0001fe00ff000001ff030102feff0002ffff020001fe
fe02020400fd00fc0301fe01fe0002feffff01fffc03
fe020400fffe00010101000100020200fe0201ffff01
ff00040102ff0201020200fe0100fe00fffe00ff0100
fd010401fefe01fdffff00010202ff02fdff02000401
fa0202fefcfd0100feff03fc01ff020d050102fd03fe
03fe0300ffff0505fe00fffcf7fcfe01ff02ff010103
feffff01fd03fefdff000000fe010001ff0200fefe02
01fefe0300fefffdff00020101ffffff01000203feff
000102020002fffd00030100ff000100fcff0004fe01
fb0106fc01030101feff04ff000101fc02010000ff02
fdff050100000000fefc03020001fd00fe00fd03fe01
0102fe03fffe00fe01fd02fd00fe040300ffff00ffff
010200fd030001feff00fafefc0200fd0001ff01fcfe
fffc0200ff01ffff00fd02ff0001010301020300fffe
f900fd010200fe020303fd01fffdfdff01fefe010001
ff01fefd0004ff0001fffdfeff01000206ff04fefeff
0100fb0102fefffeff0200ff04000101fffe0000ffff
0004010003fd010303000100fefdfd02ff00000103fe
03ff04fd0202fd0101fc0103fdffff000000030200ff
fc030000fffefffe04000302fbff03fe02fdfefefe02
ff0201fcfffdfdfbff00ff0100fef9ff030001010101
040000fa0401020000fbfdfc0101fefa0802fefffc00
040601fd050101fd02fcf7fefcfefd01ff00000503ff
0001020106030303fcfb0401fd0004fffdfdfdfdfe03
0500060207fb0202010101ff0400fefcfd0203feff01
fe02fefbfd000302fffffe0000fe0501fefdff00fe00
ff00fd0100ff02fb01fffb020201ff0000fe00010001
fdfeff0400030305020500ffff00030101ff00000103
f70405fe0304fc0000fc00fc0000fc0000fffe010003
0102fdfe00fffffefefefe02000201fe03ff0003ff01
0704ff01ffff0003000002040200000000fffeff01ff
04000201fe0101fdfd0404fdff00fd0102fe00fe0701
00fe030001010100030001fe00000002fffeff0100ff
fe0102fefc00ffff0200fd000100fc00000101040101
0001fff906fffdfc0303fefdff010000fd02ff00fd01
03fffffdff04000300ff04fffefefd04ff0103010504
0002ff0002fd00fe02ff01ffff02ffff03fe01fd0400
fe01010101ff0200fd01ff02030106ff02fffefffffb
f501fd0000feff00ff0201ff03ff02020001fe02fd03
f801000101fffe0100fefd0202030002fefcfeff0200
0001fe00fe0200fd0201fefdfefe00ff000200fc00ff
fc02000200010103020200fe000001fd02fcfd00fe01
02fe0000fdff02fe030002ff030206fef801fdfcf901
fb01fbff000000ff01fffefe01fc030500feff0002fe
01fe0200ff02fe01fffe02010001fffb04fffcfd0102
fa00fcfe00fe020100fc040100feff010403fdfcfffe
0100ff01fe03ff01fffd000003fefefd0003fe0101ff
fdff02ff010004fd02feff00ff00fe02ff03fffe0100
000103fcfdfe02fd0102fdfefe01fffff7fffe02fb00
fd01010002ff02ff0002fe02fffd0104fe050200fd01
fdff00ff02000001fb02fd00ff00fcfd0100fc04ff01
0000fd0103ff0100fe00fdff01feffff02fefffe0103
fe02fd01010001000002fd0203ff030600fe02fd0101
0400fd0001ff030002000100fffe06ff020101000302
fe00040000fd0200fefc00020100fd00fc0001fffe02
fffffdfffe0102fe0000fc03ff00fc04040000fe05fb
00000202ff0203fefffcfefffefdfe02ffff000201fe
0202ff0100ff03010001fe01fffefb0100ff000001fe
fc0001ff04fe00fcff0000020001fdff000201020101
010001ff02fe03000302fdff000200fe01ff0001fd01
fe000103ff00fefefe03fe0202fffdfefe000005fdfd
0005feff000300feff04fffe0101fd01fefe0300ff05
0601fffb0102010400020101fe02fefefffd020100ff
05fffffb000000ff0000fc000103fffdff0100fefeff
0502fe00010401ff00fffd00010300ff040000fffe01
030101fe000400fefdff0000000201010101fe02fdff
000200010101010101000401fffe00fffdfffffefdff
0001fdfeff04ffff01fffffe04000001ff01ffff0000
01fffe020103fd0200fffe02fe02ff04fefe020202ff
0003fd01ffff0400feff04fffffefb0202fefffe00fd
0e021724151d2535dbfbf218ed1211122b0022f20102
2b272726262a2221202b282c331c1921202d26292630
010102ff00ff0202ffff0100fffe0102010200010101
02fdfefd01ff00ff02ff010100fcfc00ff01fe02ff01
fd010203fefefe030302ff030102fefffe00010100ff
020103ff01fb02ff01000002fcfd0001fefdfefffe00
fffc030102fdfe01fe0103ff0003ff03fd020103ff00
ffff010400ff0103fe0101010303fc030100fc0106fe
fefc08000101feff000200fdff06fc01ff030200ff00
0000fd000101fd0001fe03010001fef90401fffc0201
ff02ff01020403ff00030101000001ffff03010103ff
fe00ff01fb020101fb01ff0102fb0101fefd03040300
0001fd010201fdfcfefdfd0101fff9fcff02ffffffff
ff0202010000fe000002fdfefe01fa01010200000400
fdfefd00010301ffff0102010300fe04fffe04ff01ff
00fdfcff01fbfd01000402060101fe010002fffeff00
0203ff00fffd01000100ff010101fafc00ffff020104
01ff01fcfefefeff02fb000000fd02fd00fffcff00fe
02050203fffffd0201ff04ff040108010400fe03fe01
fffc010200fffd00fe02fd0300fffdfd00fe00ff0102
0302fcfd000000ffff000101080002fefffd00000000
020300fefeff0403feff00fffffb0300fffd05000202
fefefb02000002fe0300010202000402feff020203fe
fe0101030001fe0400ff04ffff0003feff0100000100
04fffffd00fefeff010003fe0202010100ff00fefd03
0104fc0000ff0002fe01ff00fffd0002ff02fcfe0203
0001010101fe020205fffdfdfffefafcff00ff01fc00
0101fdfe0202fefcfd03fe010301f8fcff02fe010002
fefe0202fdff03fd02fffffefffc000000ff0100fb02
fffffc00ff01fdfdfe00fffffe02fe04fefc00ff00ff
02fe03fffa01010203fffd00fe0200fffffcfb0000fe
01fe01feff0301fefffefe0700fdfd03fffdfd00fe01
02ff00ff03ff00000001fffbff000400fc01fc020202
00fefd0001fe01ff0201fb02fdfe0301fcfefe03fbfd
0401fa00fc01fe010300fffe01fc01fffc01fdfc0104
010101010201fc02ff010203feff010100020000fffc
030000000200fe01ff0000040202ff0000fd00010000
fffeff02000002010001030000fffeffffff01ff0201
01fcfffdfc00ff0100000300fefefe000300fe0103fe
01f5fffffe01020201000002fd04fffe0202fcfeff00
fe000102fcffff00040202010001fdfc00fd0001ff01
06fdfeff01feff00ff0005fdfffffc01ff03fc000500
fd00ff00fcfd00fd01fffcff0300fcfe0000fc0303fd
fe0000ff04ff0200010403fdff00fdfafdfefcfcf802
050303ff0200030400fffd05fffeff0200ff010200fe
ff00fffd000102f8feff04ff000301fd01fffe01fffd
fdfdfcfb0401fc0004fe00fefffa0100fb02fdfc0203
000100fefe0002fefefffdff00fe03fdff030000ffff
ff01fdff01ffff010100010001020404fffe00ff04ff
00ff03fa02fe01fc000000010000ff04fdfefeff01ff
fffdfb03fb02050103fdfd0100fffdff00ff050301ff
fdfdfe00fefffffefb0000ff0001fd02fffeff0003fc
fd030102040203fe01fffefe01fefeff00000001fffe
02fc0101fdfe0501fd0101fd020005fd02feff0104ff
fb040400fefe00fe000200fe000101fc020101fffe01
fb00010001fefffdfefd02fb020004fdfe0000fe0100
fffefd0200fffe01ff00020201fe03020102fdff0200
fc0102ff01fdfe00020000fbfd03ffff00020200ff04
fffffd01fffffb02fc02ff000301010200fe0203fe05
ffff01ffff01ffff04ff03fefe0000000200000002fe
f9000201ff0200ff0202fc0100fd040100ff0101fdfc
0000ffff02fe0100fd0201feff02030001fefffefefe
00fe00feff01ff000301fdfffe010100ff02fffd01ff
ff0102fffc01ff0003ff01ff0202fbfffe0101000002
02fc0000ff01fe00fefe000100fe0201000301ffff02
fe02fe00fdfefe010300030100ff07ff04fdfbfe0000
fe0201030002fdfd000301fb0001030104ff040003ff
fe020002feff0102040000fd0000feff0103030000ff
fefb05ff02fdfefe020101ff000104ff02feff0403fe
fbfd050101fe0401020103ff0203fc0206ff000000ff
020102ff00fe02fdff0300ff01fffe01ff010202fdfd
0102feff00010101fd03fe00030000fe01fd0002ff01
ff01fdff00000001fefefb01fe00fd0104000202feff
00ff01ff010101fffefd0100010002fdffff02ffff00
fe0003fbfe04fcfe0200fdff010200feff0303000001
000302030205fdfd0103fd0000ff01fdff030201fc00
fefbff050102ff0200ff00fefe0200ff000003fdfefb
ff00ff02ff0000fd02fe00fffffff9fffe00fd010005
fd01020002fffcff0300030002fdfb0001fefcff0003
feff0001fd0101000003ff00ffff060302ff01ff00fe
03fffc0100ff01000102feff04fd01feff02000200fe
ff00040201fe00fe040103fc0105000102010201feff
04fefeff00fefcfc03fffeff02ff03fefefffb000001
ff0401fe01020003fe0000ff03000101fd01fe02fffd
0501fefe0000030301fe01fefffd01fcfbfa0201fffc
0503000101fd020501010202fe03fc02fffd0102fe00
fefeff02fd00fefd03fefffe0200fd04ffff00000102
ff0001ff03000202fffe0205fffd0501fffe00000100
020301ff02010104030003fdfffdfd01fffe0000fe00
010001010504fd05fe01fe0100fb0300fbfd010200fd
fffefffe02ff01ff02fe01020202fcfdfe0000ff00fb
fffeff0200020300fffc000202fe02fe010000fe01ff
0001ff04fefefdfd01ff00010504fa02fc00040102ff
0100fffe00fc01fe0000fefeff010504fd01fe00fcff
00ff02fb0303fffd00fefffd0202fafefffffdfffe01
fb02fd01ff010100fbfe0401020001fffe03fc02fffe
030201fafdfffc01040301ff020101fefe0103fffc01
fe030401fe01ff01040103ff000004fefc01fe000001
0500ff01010102fc02ff02ff02fc01ff02fcfd02fffe
00ff01fefe0101fe02020300fe0102fdfdff01000001
ff0300ff010100000301fcff0100ff04ff01fe0000fe
fdfffeffff00fe05fe030003ff02ffff01fffe000000
02ff00fffd00fffa02fffefffe04ff00ff02fefd0200
03ff0004f9020201fdff0c000106010201ff01000003
fe02ff020002ff000201fe00fdfe01010001ff02fe00
02fd020006fd0201feff00000100fe01feff01010001
01fdfcfafdfd02fefc01010000fe000002fffffd0103
01ff01fe0300ff020401000003fcfa000000fefefefe
ff00ff0002fdfcfeff01fd0203fffe0001fc01000002
fbfcffff0302fe02030003fdfdfefefa00fefcff01fe
fffdfc01fefe0000ff030101ff0000ff0000020000ff
0204010000fbff020004ffffff0004fe020101ff0101
ff04fe050002ff02ff0101fcfdfefefc020000fe00fe
00fefdfd0003000100fd020001fa0602030101fbfe00
0100fcff01fe020502ff0004feff01ff02010301fd02
03ff01010201fc0002feff020002fe0001fc0101ff01
00000001020100fdff0103feff00ff04fefe02000203
0102ffff01fefb0301fffe01fffa0000040501fe00ff
fe0100010104fffc00fffefeff05fd00ff02fdff0200
00010100fe0000ff0301fe020102fb0104fefdff00fe
ff0104fe01fe00ff040402000002ff0102feff00fd02
ff01fdfc01fefe00fffd06fefefcfa01000001010301
01ff010102ff020300010402fefd00ff010400010002
02ff00fc01fefd0102fefd01fbfe01fe0300000101ff
01fdfefd00fefefe0400fdff0100fffffe03ff0101ff
010200ff0500fbfdfffffe000002fefffefeff010102
fa00010101fe0100050000fefe02fefd0203fffe0003
fefdfd00fffe01010200ff0400fe030100fe03ff0100
fe010104ffff02fffd01ffff0002fe000300010203ff
0408fefc04fe06fef9fd06fd0204080100fdfdff02ff
02fffdfdfe00fb040100ff0104fcfdffff0001050105
0100fefc0100fd00000002000000fc00030202010101
01fefd00feff02000000ff04ff02fcff010102fe0001
00ff0600010100ff020303ff000000ff00ffff03ff01
ff000101020003010102ff00010302000203ff020100
0405fffe0301000001fffe01fffefffe01020201feff
feff000001fefd01020000ff00fafe00ff010300ff00
02ffff03fd01fffe0000fffd0302fdff01ffff0202ff
fb02ff0303ff02ff02020100fe010500020003fe0000
fd01fc030000fd01fefc020300fc0004feff0300ff03
fc01fdfefefd00ffff02ff0000fd030100fdfcfffd00
fd030100ff0102030000fd02fffffefefefc01fdfe01
fdfb0200fe02fdff000003fefffdfefffe00fe050100
0000fe00fc0200fe000500000103000100000000fefd
fffe01fd02fb010200fefe020103feff00fb0100fe01
01ff00fdfffbfffe010502010401000300010100ff00
fe0500fd0000fefd0603fdfeff00000304fefcfffb02
010100fe000002fe000000000101fe01fd000002fd01
030000ffff01040100feff000202fb010100050402fd
000100010101fd0101ff02010001fe00fdfffcfe0103
ff00fefdfd0000fffffcfefcff02fefd03fd00fdff00
010201fdff010002fe00010201010502ffff04fe0202
02fffffeff00fbfcfcff0402fffdfffe000101fdffff
00ffff000002fbff02ffff00fd04fdf9fb020301fdfc
010001fe0101fefb03000502fe08fb000200fcfefdfb
fe00010101ff0001fcfd04fefefe0401ff02fdfe01ff
fe0104fefefe0200ff0101ffffff04fefffefffdfbff
01fcfb00000402040100feff00fffc00ff020101fcff
00fdfd01fd0100fffcfc04ff02fa08fe01ff0203ff01
0100ff0700fe0101010000fd00000300fd03ffff0100
07fdff0202010102fefffcfe000103fefe01fe020004
0001fe0000fefdff0001fd020000fe00fffdfffe00ff
ff00fefdff0100ff050002ff0000fb0201050501ff01
01fefcff0301fefffcfd0000ffffff01fd02fefdff01
ffff0100fe0102fe01fd02ff00fffe00ffff00020200
02000200fe0103ff01fe03fefefffe0102fdfefe0502
020101fe02fe00fcfffc040201fe04000100fffe00fe
00030403fa00fefbfcfcfafcfe02fefc01fffdfd02fc
030201fd03fefdfbfd02ffffff020501fc01fb01fcff
0201fffe02fffefcff00ff040501fd00fffc06fe01fc
ffff0601fe00fe0304020002010000fefc020004fdff
0003ff0204fefb00fe0100fcff01ff020100ff020002
0300feff02fe00fdfdfe000200010201ff00000101fc
fdfd07fffe03fcf90600fa01ff07fa05040606ffff01
ff0104020002fbfefffeff02fdfe0100fdfefeff0600
03ff05fefffefeff0200fe01fe00feffff0104000303
fefe000201010002ff00ff01ff02fdfdfd0301020000
fcff0002ff0300fc060202fe0103fd02fafefefe01fe
00fffcfefd0005fe05fefe0101ff05fb0000fe01fefe
010202fd02ff00ffff0103000201050602fe00fffeff
fe00fdfdfdff04fd0200fe00000304010202000203fe
ff0001fd020000fdfb0400fe000101fe01fe03fd0301
fe0104fefdfd0404fd0200fe04fdfa04020001fe01fe
01fdfefffffefeff04ffff02010300fffe02fd000204
fefe00fefffd00fffe010101ff04ff00010100feff06
00fefefcfefe01fe01020100fffdfbfbfd03fe03feff
fe00fd030001fefe04fefbfffffffa00fe01fdfe0202
01fefefefe0103ff0201fd00fefffe01fc02ff01ff01
0000fc000103fdff0001ff00fe020002fdff04feff03
01000101ff00fffe010101fd000101ff0000ff020103
0202040102fffdfd060001fdff05fb03ff02fc0201fe
010203fefefffdff010100fdff0000020200fe03ff00
0305050101fefefefd04000101fffe01fd0003000200
00ff02fdfd02fe00ff01ff0003fd0300fb03fe020103
0101fc00fff80002fb00010202ff01ff00fffd000603
00010200fe0001020301010201ff0205000300fffffe
000003000202fffd00fefdff01000102ffff0202fcfd
fd0101ff000201ff020100000201feff01000100ff01
0000fd01000202feff03fffe00fdfe0001fc00010001
0406ff020202fe00fa01000102fefbfe0102fc000302
fd00fafe0203ff00020002fffff9fdfffefffe0400fd
02ff0101fb0102fe02fefe0100fdfcfffcfffe02ff01
010002010301feffff000300ffff0102ff0201fd0202
000302010203ffff0301fffdffff05fdfefe00fd00ff
04fe0000feff020001ff03fe01ff00fdff01ff030000
fe00fd00fd01fe00ff01fb010200fffdfeffff000002
00feff03ff000404030201ff020402fffd0000030000
02ff0200fe00fdfefefffffe0002fdfe0003fefffe00
0200fffe00feff01fc030100020000fefcfdfd0201fe
00010100fffffd0201fe01000002fe03ff01fd01ff01
fdfefcfdffff04f802fe01fd00fc00fffd0201010102
02ffff00fcfd020001fefc02000003010000000100ff
fdfffe0002fd02fefdfe02fd030102fa000000fd00ff
01ff00fefe00fefbfe02030101fe0400fd00010202fc
00030003fffeff02ff01fb0001fcfefcfafdfc02fffe
02fe02fdfefefefd030100fd01fbfefffefeff01fefc
00fe03030102ffff0400010202010500000600fdfaff
0403fcff020301ff00fdfd01ff000a0204fcff030202
04ffffffff00000000010200010000fefa00fdfeff03
0000fdfe03010202fcffff04fffeff04fb0600000201
0000fdfe0202fdfd00ffff02fffc02fffb0100020103
feffff04fe01fe0001fe0200fefe06fd010101030100
ff0100fd000100ff01ffff0303fdff00fc00feff0300
010301fcfc0100fe03fe00fefdff02fdff000300fdfb
fd00ff00fd01000301fffe000001fa0102fffffe0001
0103fc0001fe040001010200fffcfe0102fd00fd0000
00ffffffff0201fd02feff0301fffefefefeff02fd01
0000feffff030303fefffe000001ff00030201fe0100
fe00fffe0000fc010201ff00fe0100fe0300fe00ff00
feff02fdfe0701fe0001fdfffffdfd01fc0100000300
0202feff01fdfdfdfffeffff02010200fe0000ff0001
02fefa030101fefafe0302ff050003ff00fefe00fef8
ff03fefefd02fdfc010100fbfffcff0001fffe01ffff
02fe0000fd0006fc0203fefeff0101fbfd010000fffe
fe01fd0001000100ffff0201fefe0401030303fe01fe
fe0101fdfeff01fcfefdfdfdff0304fbfd0203fe01f9
fd00010201000204ff00ff0301fef8ff00030201fc01
fffc030400fe02000101fdfdfd0605fe02fffa02fffa
fd02fcfd0201ffff0103ff00020201faff030401fd01
03fefc0000fffd01050000fd00fe0201fd01fe0200fe
000500fe00fdfe0004020002fefd070001fc0102fefe
01fbfcff030001fdfcfe040100ff0400fe0200020003
00ffff0001fe000102fe0201ff01ff0000fffcfc0401
010102fe02fffcff01fefe040100fcfc00fd010000fe
fefdfcfefdff02ff00000102000204fefc0401020203
000aff0000fefcfe02ff030500fb040202feffff0000
fd03fe010000fd00fe0100ffff000101ffff03ff0004
00060001ff0000000000020402fcfdfe00fc01000001
03ff010100fe00020101fc0401feff02fc02fcfd0202
04fc00ff01fffd040502fe030302fafdfffdfe03fe04
00ff020404fe01030100030000fdff03020303000002
ff000100ffff0101fc01050202000103010304000402
01ff000100010100fffdfefe0000ff01ffff01000002
fffffaff000202fa0000fd0002fd00ff000100fdff01
00fffd00fdfb0200fcff02ff00fa010001fdfc0203ff
fe01fe02ff0100fe020201fd0000fe000103ff000003
03fe01ff02000100fefefd010201ff01fe03feff0102
02fefe000400fd010001feff00fd0202010002ff00fe
010504ff0000010000ffffff0003fd0101fd0001ff03
33f71ee617121e2b00fb0bfd3417100a1c210b4303ef
2123242a201f222223292c201e302b261f2c23272720
ff010101010100010201ffff00fefffe010100ff0100
000002fe01000000fffffe0205ff00ff000302ffff00
ff00ff00ff020200010000ff01ffff00ff0001fefe01
02fd02fffe02ffff010201fd02feff01000001000101
0202fc030400010200fd02fc00fe00fdfffefffc0000
02fbfc01fb04fefdff010202fe0001fffeffff01fdff
0201ff02fd00040100fe00fffc01fd03fa03fdfdfeff
fefbfa00fe02fcfffeff0100000200fb02fc02fefdfd
0300040201fdfcfefe0002fdfd02ff0103fe01ff0003
010002feff00fb00020100ffffff0301fdfcfc010401
0202fc0000fbfdfdfffe010100fd0200ff0000000000
010201fe00feff010202fe00fc0001010102ffff0000
fdff00fffcfefffe02ff0004faff00fe0301fefffffe
fc05fffefefc01fffefefffe01fffe0001020003ff00
01010202fd0101fe01000103ff00fe010002010001ff
fe000000fffaff01fefe0000fe000002000102fe0301
000000ff0004000303ff03ff0103fa03010004010602
fdff0000ff01ff000000fe02fbfefdfd0101ff0000ff
fffe01010101000101fc03ff0104fffe01010001ff01
00000001010305fd01fc02fdfffeffff0002fd0101f9
fcffff0202fd02fe0200ff00ff01020002fffffcfe00
010100fffbfc0103fc02ff0201fd00fd0100010101ff
0000fd020300ffffff000201fd010003fb0203ff0002
0400fe04fd00fefcfefe04ff04040000010302020204
00fcfffe02fc010101fffdfdfdfefefef60103fd0101
00fd03fffc00fffbfd0003feff0000010000ff00fd05
fe02ff01000101fe03020000fffefffd00ff05ff01ff
fffdfeff00fffa010006000404fe03fffe0102020002
fe0100fc0302fc00fffd010302ff02fe00fefdfd0200
fe01fe04fffe01fb02fcff00fcfffcfe03fe00030000
0202fd0001fffefbfcfe01fefafbfffeff020200fe05
fdff000101fe01fefd0203fdfffeff01ff01fdfffd03
fe03fefefffe0200fe00000404ff0203000102000101
020203fefdfdfc0100000101ff0101feff02feff0101
fffd0201fffe01ff01030101ff000102020100020501
fe0201fe0000fffeffff01fe01fe0001fe0202fe0102
000100fefd0300ffff00fe000001ff01fefe020002ff
0000fd02feff03fcfe01fffefaffff0200fffbfefd02
0301fc0202fefe010301fcfffd0002fffefff8fd0301
fe00fe02fdfe00fd00fdfefffe00ff01fefefdfcfeff
02fffe0203fe01ff01ff0201ffff01fdfd01fffefd01
00fd01040200ff00fd0603040102fb03fe0105fa02fd
fd00feff0103010103fdfd0001fe00ff01fe01ff00ff
00fffffffd010200feff00fefe0201fcff0005fefd03
0303fbff0002f9ff0100020501fe0302fc0004fe0200
0406fffffb00ff03fefcfffe020100fa00fc01fc0401
0304050000fd01020401020101fdfffd01020400fefd
ff0102fd0103fdfc000301fffdfefefffaff0101fd00
fdfffeff010301ff0303fe04fefdff01ff00fefe00fe
ff0202fffe0101fc00fe01fbfe020001fa000100fffd
03fffe000000fc01fe02ffffff00fdfefffefe03ff00
fe02fd02fe05fe0204fefe0502feff0202fdfb040100
fbfdfa02fb03020403030100fe0201fefd01fe000000
fcfefdfdfc0106fe00ff01fefe04fffefcff02feffff
01020201fbfdfd0101fefd01feff00fc030001fefffe
fffdff0300ff0000fefefe00fe01fd03000002fd01ff
ff0501ff03fe03ff01fd02fe00ff0002010101fefe00
fe000002ff0001010401000100000102fdfb00fefcfd
01040101fe00000300ff04fffdff0101ff0000fefffd
ff020101fffe03fffffd01fffcff01ff050003feff00
ff0201fffcfe00ff0101020401fe0002feff03ff0001
ff02ff02ffff02ff00ff03000101fe00fb0204ff0004
0001ff03000202fffffffffe01fc0101ff00ffffff00
ff0002fe03010102ffffff0100ff000303fffc0300fe
0104fc00fdfffbfdfbfdfd00ff0202010101fb01fdff
0200fdff01feff010104fcfd0101fffe03fefeffffff
060200030500fb040001fffc01ff00ff010002010300
ff0200ff00fefbfe04feff02fb0200fefcfd02fe03ff
01fc020400030300fe00feff0001000303ff04fffe00
fe0100030004000003fefc010003ffff030102fe0005
03040000fffdfe010202fbfc0000000003fffd000301
ff02fc02fefb01000300ff02ff02000004fefffffefe
fc00000101fefb01010101fdff0203ff0001fffe0001
fc04000100010800fc040002fd02fb04010302fe01fd
fdfe0300010401fefbfe0102ff02fbfdfd00ff01fb03
01ff0104fefffefe0002fffd000101fdfe030200fd03
01ffff0401ff05feff0000fffe0103fffd0000fd0004
01010300010201000101030002ff00fffffeff00fe00
fffefffe01fcfd03fe03010301ff00ff0203ff01fc00
020300ff0203ff00fdfffeff020000fd02ff02020100
0603ffff02010302ffff020102ff0004fcff0103fd02
0102020101010100fffe04010001fffd00fffdff0202
0000020002000502fdfb020100040102ff00fdfe05fc
00fd0201ffff00fc01fffffe01fdfe00fefefffb04fd
00ff040000ff00fe010002fe0102fe000201feffff00
00010100ff02fe01ffff00fefffefe030202010005fd
fe02fffffe010000fd01fffffd01ff0100fefe0300fd
fcff0001fefe03fd0700ff030100fd02fd00fd02fdfd
00ffff0601000101fffc00010002fd03010005000102
ff0102fe01fefe020200010304fdfe0000fdfffffdff
fcfffffdf9ff01fd03fefd03fe0001fffefdfefdff00
00ffffff0101ff0100fe0102000000ff030103ff00fe
fd02fd00020402fb0002fe00fc02fe00fe0501ffff01
fe03fefeff02fb050101fe000401fffbff00fd020100
0300ff04fefd0401fe0200feff010105ff040001ff01
fcffff0002fefcfffefdfd00fb0001fc03fdfe010002
01ff040000fdf8fb02020003ff00000202fcff01fdff
03ffff030304fc0000fb0400fc0100fcfdfefd000100
ffffffff0000fb03fe01fcffff00040000fefdfe00ff
0100ff02ff02fd00ff00fffd01fe010100fdfe00fc00
01fd010101ff01fffe03fffefd010100fffe00ff0303
fe04fe02050500000105ff0201fe00ff02ff000102ff
fefffefdfffdfefffe000100fe00fefefd0102fe0101
ff01fdfc02fc01fb01030102fe0300010100ff010400
000402ff0001fdfffd0103ff00020300010100ff0102
0303ff010106ff05040000fe0000fe000307010201fe
03020003fefdfcfffefe00fe010000ffff0000fffe01
ff02ff00000301fefefdfefffb01fefffe01000101ff
000000fe010101ff00ff00fe00010002fcfefdfd0201
fcfe0001feff01040002fdfdfe01fe02fe01000002ff
fd03f800000006fcfe03fe0402ff01fe0000fc020000
020002fe0402fd0404fe00ff0001000106fdfc02fdfd
01fcfefffa00fe02fa02ff0002fffefefe0003fe0006
fc02feff04fdfe0000ff01fcffff0203fe00fefe0002
fffc0000feff010200020101ff01fe01ff00ffff0002
ffff03ff0203000001fcff0304fd00fffefdfeff0000
fe03fe02fdfd01feff0100fc00fffffe000101010001
01fcfa000101ff000300ff00fd0105ff01ff0200ff02
05020001fdfefc01ff000102fdfeff02fe00ff020201
fe010400fffd0002ff0300ff000101fd00fefc0003fe
fd03ffff01040700ff02030201fefefefbfe03030102
06fdfe01fcfe0100fe0304fc00010202fe0200ff0401
fdfcfdfffffffffdff01fc0000fe03fe02fffefffd00
0207fd0301fb0001fffdfeff01000100fb010102fc00
0104ff04fc02fbff00fc01f7f903fe0001fe0201ff00
0505fffe0200fffdff00ffff02ffff020100ff000000
fffbfc0000fe02020001020301000101fefefffffc00
f7fe04fd010a020204fbff06f902fd0301fef50003f6
06fc010102fb00fefe0201fe0201ff0300030201fe01
00ff000304fffefefe02fefdfd020003fc0000ff0201
01fe0300fdff00fefe00fdffff01ff020100ff00ffff
00fffe03fe0002fe0101fdff0000fe00010001fefe02
ff03ff02030201fd000103010202ff01fcfe02fe00fe
fc05ff010204fe01fe00fe0001fffeff00fbfcfcfe00
0100fd000304ff010001010305fe03ff0300fe010000
0301fe04ff01fdfe000202ff0101fffd0101fe0202fd
fefa06fe0502fffb01010004fc0000fb0404fffe0401
02fefd0401050100ff00fe00030101fffcfdfd0001fc
00fc0201fc00000001fd0200ff0101fdfcff00000302
fefbfd01ff0000020001feffff010100010001ff0300
fd0100fbfd02ff040203fefdfe01030001fefe000204
ff010100030104fe000301fdfdfffd0002fe02feff00
030201020100fffa05fd01fc000200fd0101fd00ff03
ff0100ff01ff0001fe0100ff00fffefe02000102ff00
fb000400010006fffe0202fdfe0401fe04fe05000201
fefefefffe00fd01ff0301feff00ff01fc0001010100
ff0100ff0002030005fc050102fe03ff00ff02feffff
fc00fdfd02fcfc00020102fd020200fcfd0002010402
00fd060002fffd01fffe0101fffeff02ff00010402ff
fe020002fcfe02fe0103fe0302ffff000300fd0300ff
fcfefefdff000200030202000001fefffeff03010001
fc01fcfc03fe02fffdfcfc03fefcff06000201fffe00
fffefd01fd0001fd01fefd0300fe0001fc0004fc02fe
ff00fcff0102fbff02050002fd03fcffff000004fe00
feff0100020102fffffcfe01ff01feff0200fdff0101
00fefe01fc01fdffff01010200fe00fefbff00fd01ff
ffff03fdfefc03fcfc03fffd000101ff0001ff01fd03
020302feff05fc04fd00fe0205fe04ffff01020001ff
0102000004fd0200fc00010000fe000001ff00030104
0202fffe01fd010100000100fdfd00ffffff0003fdff
fe00000100fefeff02fefffd01fe01fffcfe02fd0102
01fefffdff04f90300feff02ffff00ff0200fbff0101
000100fffefd0202fefd01010203fe040400fd010301
fffe0101ff01fe010202030002fe01fffffefdfffffd
ff0202010402fefa01feff03000102fc03fe01010400
02fe00ff00fef9ff0600fe0507ff010208fdfd030102
fcff04fefdfd03fdff0101fe0104010001000104fffe
01fc060401f7fcfc0300fe0603fefefcf90103fcff00
000002fffcff0300fefdfffefbfe00fe00fffffffcfe
fe0000fd01020200000002fefffffefe0205fffcfe05
fefffc01fefe04fffe000500fffffe000400ffff0001
fcfffdfafc01fdfdff00fe00fefdfd02ff00fe020405
04ff0001fffa03ffff030004ff0400f8000109010204
fc0405fd01fffefffcfd01fbfc0001ff000204fd0102
00fe00ff00fffcfe010102fffffe02ff03fe010100fe
ff00fffefdfbfffe0205010300fefd00ff0103ffff01
fdfd0000ff02030000fefd0502fcff07fffb02000202
fe0203020401fd0201020403ffff00020200f8fdfcfb
00ff00fc01fd00ff0000fcfdfc00fffc02fffd000200
fffafe02fdff040102010103ff050100ff020000ff02
fa06fbff0101ff0007ff0104fe00fe020002fa01fffc
fefffdfefd01fe0001ffff02fe05ff00010200000000
feff0305010001000101fffff602030003fefeff01ff
fffffffdff00fffeff02fd000100fe00fe010101ff00
fd03fafefc01fb00fffffffefefe0400010201fffe00
fcfe0001fefcfafdfd01ff0100fefdfd0001ffff01fe
fffd0102ff000300fffe010401fd0003fe02ff0000ff
0201fe02ff0200feff04fd030400ffff00ff01020002
000102000100000001fe00fefe0003feffff0200fffc
040001ff03fffc010104ff0303010105ff000202fb00
fe01fdfffd000100010001fd02fd01000105fe00fe02
020802ff0202fd0203040100ffffffff00fffc02fe01
fefef901000102ff07fdff01fd010201ff02fa00ff01
00fe0401feff02fe0004fdfd01000100010200fffd01
00020001fffe0600000202fd02fc02000100ffff0002
fd0100ffff000502ff0000ff01ff02fe02fdfefe0001
fe00fffffffd02ff010303ff00ff00fffeff01ff0001
fcfe00fe01030500ff03fffffcfdff0100030400fe01
ff03000202fefbfe020004fc02fe0000ff0001fc0000
02020000fe0002fdfe030002ffff02ff000102000101
ff0004fffffbfb0003fe0101feff01fdfefcfbff0601
fd0102020000ff02fe0100040301ff03ff0000fefe01
ff00ff0004010101fffc050202fc040301fe0001fe03
ff06ff01000303010300feff01020201ff0500fe0004
0003fc00040502fdfffefcff00010005ffff01fb0101
fcff010201feff0001ff04fffd000001000001000400
02fefeff01fffb02fe0503fffd03fcfd04fdfefefd02
0603fc0101fdfc00ff00fb0400ff0001fdff04000201
0300fdfeff0201fefdfdfffe010200fffe0204010003
fe02000101fe00fe0200fe000301020103fffefdff00
fffd02fbff020303020000000004fffd01feff030105
fd01fe01fc00fefeff02fffff90001fffe0601ff00fe
fffe00fe0000ff03fdff00fc0000ff01fe00feffff03
040300fcfefb0300fc03fe00050003fffeff02feff02
000404fc00ff0403000200ffff00000401fcff0100fd
0100ff00000103fe0204fdffffffff0105ff01fdfc01
0100fd040102fe02feff00fdff00ff01fc000300fe01
0001ff0103fefcff02fdfeffff00ff030602fe0001ff
fd05fefffdfeff0500ff03020201fcff01fe000502fe
fffffefefe01fb0200fbfdff00fe00ff000000fffdff
01fcff00010400000403010001ff0100fdff030100ff
ffff000102fc04fffe00fe00fd02fd0002fe01010302
010000050004fcfd01000001000100ff01fffffe0200
03fd000200fe0201ff04000302fdff0301fe0201fe02
01ff03fffd010102fe03ffff03000101fc0201fefb00
00fa02010302fe0003fb0103fe000103fffbfb020000
00000000fffc04fc03ff0003ff02000100fe00fd04fd
fc0201fffafb03fffe0101ff0001000000fe0001ff01
010101feff000301fd0101fcfb0302fffefdfe0101fc
02fcfe020001fa010102fe0401000002feff00fe00fd
00ff05fd0204fe000100010202fd01ff00fffdfeff01
fdfa00050008fe01fefdfdfcfc010103fb0201000300
fdfe010102fe010200fe0000000101fe000002fefffc
0201010201fffd00fe01fd00fefc00030103ff03fdfe
fffdfb03ff0201fffd0201020101ff00ff0005fdfe00
fe000002fe02faff0200fbff00ff02feff0201010400
fd02fc02fc02fffefdfd00ffff000202fcffff00fe01
00fdff0001fe0001fffd010100fffeff0203fd000100
fd0301fe0501fe0201fd03fe00020204fefc02010103
0003ffff000100fffe0003fffeff0100000203fe0500
010102ffffffff00fe000000fd00fe01ff0102feff03
fc0000ff0300fefefdfffd0100fffd0202fd01fdfe01
04fffc010001fffe010202010000000203ff020000ff
fffefd0100fdfcfeffffff03000000010003fffffcfd
ffff040002fe01000101fffd01ff0000fe010202feff
