fefe00fefffd00fc040200faff01ff00fefefdfe0200
fc020103000204010101ff01ff01ff02010201010201
00fb04ff01fe01fc0201fefefe00fe02fdfefcfb00fe
fd010002fc00060205fcff02ff01fe02fe0001fffffd
0200020100fd010200fdffff000002020001fffc00fe
fffeff0002ff01ff0301010300fffe0002ff00fefffe
ff020108ff00ff02fe030204fc01010303ff0202fd04
fe000100fc0203fd0303fe06040001fc02030400ff05
fe04ffff00feff0000030101fcff00020300fefc00fe
feff00020000fe01010003030200ff00fd01fbfffd00
ffff03fdff01030201fafffd0304fcfefd0100fb03ff
fefefe0001ff01010102fe0000fd0300fdfeff00fcff
fcee24122517eb2bf6f1fc0811111f32fb12eff50d00
26222e2529282b1b272a26281d26221c252831232300
fe000102ff010100000100fffeffff01ff01ff000100
fd0100fe030300ffff00fdfefdfe02fe01ff01000000
020001000001fffbff050501fffcfeff00000101ff00
00fffe00fffe03fffe00fd020000010102ff0002ff00
0100ff0300ffff00fd0201fefe0201fdfe0000000000
07040002fffd00fcfefb060004fffdfdfe020105fe00
00010004ffff02fffe040100fffe000101ff0001ff00
00ff03fe0100fffe0400ff0101020102fa020101fd00
fffffdfffdff0102feffff000003fffe0300ff030100
fe040100fffffefcfffd02fffe0002fd030105010400
020100fd000101030201ff000503fd0001ff0100ff00
fdfffe01fffffffdfe0003000203fd00000001fe0000
02030101000301fd0200010002fffafe0002ff000100
fffc00fefffe0000ff000001fe000200010300010000
0302010200fe01fc0102ff00fc02fbfdff0000fffd00
0000fffe02ff020100fcffffff01ff03000001fc0200
fd020100fc01fe05feff02fd030002fc020002ffff00
000102fffefffffd0100fd01fefffd0001ffffff0000
020301fcfe0002ff01fefbff00fe020102ff00fe0000
fbfcfdfb00fffeff05ff040202fbff040304fffc0100
010200ff01ff02ff0102fdfe02fefefc00000203ff00
02ffff01fffdfffdfe000002fc0000fe000200ff0000
0005020001fffdfcff0002fffe00ff020000fe020000
01fb020904fffe0100000200ff02030500ff02fcfe00
000101010203010002fffefbfffc03fd03fd0100fe00
0301ff04ff0102f902040003fd0100fdfefeff020200
ff000001fe02ff010003ff02020305f8ff0200010000
0002010203010000ff000203feff01fefefc0300fe00
04fe00fa01000103fffe0100fefefdfffe01fc01fb00
ff0100fd0202fefb0202030104fdff0200fc04fd0200
fe01fefd0200ff03fffe0300fffbfefd02fb01fefd00
fffe000000fc010103ffffffff00ffffff010102fe00
ff00fdfd00fdfc0501ff02fdfffefd0103040002ff00
02fefdfd000301fe0101feff01010000ffffff01fe00
fd02feff01ff00fe02ff000100010002000001040000
00ffff0102ff0002fffffd0101fe01fc03fd01ff0000
00020103000000fd00fe0101fc01ff000004fe030000
0004fe0101fc00fcfe010000000202faff0000000200
fdfcfeff000300ffff02fa01040101fdff01fe01ff00
fe0504fb0301fe00ff0100fe03fdfb0400ff0203fb00
0100020000ff010104010000fffe00fdff0100ff0200
01050401fefb0301010300fe000201fd000300fd0100
010501feff00020003000100000004ff040000010200
01fdfd0000fdff020400fe01fb00ff03ffffff010100
020304ff000300ff00fbfdfefa0300fe02ff00010300
fffeff0202feff0001fbfe010000fc05fd04ffff0200
ff02fffdfefb02fe010002020000000403fe01fefe00
0200fffffc01fd0000ff000301fefeff01fc01fefd00
fdfe02fe00010002000101010603fd00ff00fd07fd00
fefffe04fe0402fdffffff0001fcff00ff01ff01ff00
010300ff01fc0201fffd00fdfb00fc01fdff04fd0000
fe02ff01ff020400ff0304ff0001fffafd0001070100
0506ff01fe040100010400000101000002fd02010000
03fd01fffb00ff0100fd05ff0201fefb00fd0304fd00
0104010202fffffbfd01000201fffffd02ffff00fe00
fe0301fffefe01fcfe02fb0001fd0000fe020100fe00
0300fefdfdfefefd01010103fd010100fe0103fc0100
fe00fd03ff000101ff0302010101ff0102fe0001fe00
03030000fcfffe04010102ff0201fc030002fe020300
fc030202ff010001ff04ff0100fe0001010002020200
0002fe020004ff01020000ffff00ff00fdfd01fe0300
01fe00ff02fe000301000300fcff03ff0403fd00fe00
fffe0200fffffd0302fcff02000002fe0200fd02ff00
0002000103fefffd0303fefe0305010102fdfefdfc00
0502ff0301fffefbfd01feff01fdfd00fefd0100fd00
01fffefefb00fe01000201000001000000fc0200ff00
000001ffff01fd0101fc0301ff0300fcffff02fdff00
fdfffffe0004ff01fe01ff00fbff0100ff0001fe0100
fd000000ff0003fe0201010202fd000103fdff02fe00
ffff000201fd0101fefffd010302ff02000003030100
fffffffdfdff03fcff020200fefffbfbfefffffffc00
ff0203010100010403030101040002ffffff00000000
00010101fefc02ff010203fe0202010201000200fd00
0102fdff0102fffcfd0202fcff03fd00fcfd01010300
000301010001fffefe01fd000102fcff00ff00ffff00
000404fd00fd03fe0100fc01fffe0001fbff00030000
01fefcfffe02fffdfe01fffeff020000fe010200fb00
0106fe0000fe01fefefd01fe03fffdfd01fe00ff0100
00fefcff000102fffd02000203fe01000000fe010400
03ff0001fcfe03fffdfe02fe0102fdfe000101010000
00040303fffefe00fe04fdfcfd00ff0102010000fe00
01f9faff02ffff0400ff00ff000401fe000100ff0200
fefc03fefffe0002fbfafffefdfd01fd01fefdfe0100
fefffe01fe000302fdff0301fffe05fd01fd02fcfe00
fd010101fffffffffcfdfe01fe01feff000200fffe00
0303fefe02ff0301ff0003ff0101fb02070302ff0000
000001ff00030201000300fffd000100ff01fe000000
fefe00fffc000102feff0201fe03fefd02ff02040000
0104fc0003fdfdfd02ff01020101fd0001fefd03ff00
fd040200fd000102ff01fe0101fefeff000104000200
0501020002ff01fe01020301fffbfafe0101ff060600
fdffff00feff01fd02010000feffff010100ff01fe00
feff0203030201fcfdfdfe0001040100fefdfffb0000
0000fcfdfdfd01ff02010102fe0101fb01ff02ff0000
000300020404fe02ff000200fc00ff0301fffe040600
fc0203fefe02fefefe0101ff01fefefcff02ff01fd00
00fdfafe00fe050003fefffeffff00ff000100fd0000
01000201fd020201feff01000300feff01ff01000100
00fffd00fefeff0102ff0201fe0003fd0000ff000300
01ffff00fffefffe03feff0100000001020100fffd00
00ff0100ff000004fd01ff020200ffff0000fe010000
0301fdfdfefc02fefe0304000001fffffd00ff04ff00
01fdffff00ff00fd01ff0304fd00feff0004ff000200
fc01ff000200fd01fd03040207fdfcfb04fcfe020100
00fd02fefefffeff00fdfe0401fdfdfeff0000fdff00
010002ff01030102000000fe0500fffe0200fd020500
0002030000ff0102020100ffff0002000101ff000000
0408fffffe00ff01010200ff0200fefd0001fefe0000
03fe02020203000104010301fefe0000ff00fdff0200
02fe02fd03fb01fdff02fd00fd00ff00fffe01fd0200
02fb0100fc0002fffe00000001fdfefe0201ff000200
fdfe01020201010401ff010203000202fe0101feff00
0106ff02fffcfffa0100fcfffa03fffd0702fefffd00
fe00020003fe03fd020001fffdfefdfd01ff01fb0000
ff0101000100fefdfefefeff0201030001ff0102ff00
fffefefe0104ffff0202fdfe010101fc020000000300
fefb01fdfffe0000fe00fe02000001ffff01ff02fe00
fd01fdfd01fe0300ff000201fdfffdfdff010000fa00
01feff00fdfe00ff0001fd0000020200fdff01fffe00
fdff0100000000fffffefc0200fefffe040203fefd00
01fefffefcfc04ff0203ff00060005ff01020100fd00
0000fe0004fefdff010001fe00fffe02fffd0002ff00
ff040200ffff00fcfcfd01ff000100ff02fffd01ff00
0202000102fe00feff0003040101fd00fe010001fc00
ffffff04fb000801fd0301fcfeff000303fdff010000
0302fffffc000101fffd04fdfb030400ff0101feff00
ffff0100fffe00010001020305fd000200fe0200ff00
fd04ffff00ff00ff080202f506fc0300000601fe0300
03fb03fc0400ff00060301fffe0105fffffcfffefb00
ffffffff000001fffffefffffe0004fe02fcfffd0100
ff01fe00000101fffdfd01fffffdff00fffe02020300
0100ff0101ff00fffe00020205feff0102ff0001ff00
fdfeff02fdfc0005ff00ffff000102010401ff040200
03010001fcfffbff0303000005fefdfdff00ff00ff00
000400ffff0001ff010000ff00ff01ff020101000300
fffd02fffe000302010102fffe030303fd020100fc00
00fffcfffe04fd01040101fe0103f9fffdff0309ff00
0302ff03ff0602ff0100ff01ff03fefe010204020200
fffd000003fffffcff000201ff01fcfcfd01ffff0000
ff02010000020200fe02fcfeffff04fe000000fe0100
00fe01ff0003ffff05ff01fdfd030200fefefe040000
00fd0407ff0501ff04010202ff0002fb02fffffd0300
ff0202fdfefdfc0201ff01fefffd00ffffff03feff00
fcfe00fb00fcfffb02010301ff0003fffc00fffffe00
fcfe02040101fefd03fffe00faff00ff02ff01fb0100
000101ff020001000101fcfbfeff020402fffffd0300
01ff030301ff0000000003fe03fe0100fe0000ff0000
05fdff0501fc0105fefe00fe00ff0003000303ff0300
02f9fe00fe0200fc010000fc0104fe06000002010400
04ff01000000fe00fdff02fffe000100020000010300
01fffe01ff00fdff0403fefefd0003fb000102010100
01fefe00fefe02fc0004fb00fe0002fafcfdff01fe00
030202fe03fc0403030100fdff0101fe020102fffe00
fd04fd00fefefc0200fe03fe04fefcff0503fe04fe00
fe02fffd01fe0202fe0201fe000105fefe04fefdfe00
00000000fffefc0000010302fbfefefe000602fd0600
02fe0003ffff010104fefc03fdfa01ffff020204ff00
0202feff03ff000105fe01fefffefeff0103ff010100
ff0001ff01fb000301fdfc00faf9000201fd03fb0300
fe00fffe00fffefcff0201fe00000201ff0004000100
fd0001fffdfeff04fcfc01fbfdffff00000001020200
fefd00ff01fcfe01010201fd030003fe0002ff04ff00
fdfeff0000fe00030003ff000401010002fdfe00fe00
ff0000ffff0002040202000300ff01fc0001fefefe00
00ffff000000ff02feff00010000fc00010102fdfe00
fd010000010401040100fc0102fd01fcfa05f803fd00
fd010103fd00feff0300fffffb0400fd000001ff0200
fffffe04fe0203fcfc000205fa0101fcfffffd02fa00
ff01fefffffd03fc01fe000302fffefdfffe0004fe00
fdfe01000100fe01fefffffffefe03fd03fc01fc0300
0200fe00010300fb040100ff02fffefe020301fe0300
01fffc01fd0101fdff0100020201fffcfb000304fd00
0501fffd020002fd00fc0501fa0306f900fafefe0600
03fffefffe00fd00fefeff03fd00fd03000200fe0000
0102010001000202fffdfe0300fffffc010102030200
02000100000304fb01fffe0201fefdfffefe03fe0300
0003fcfc0201fd020303010102fe000300fefb000000
ff02fc0201050206010203fc00ff0107fe0002fcfd00
01fb01ff00fd0001ffff0101fb00fffdfeff0102fd00
ff04fdfffd01fe00fefc00fe0401fd01fe020206ff00
01ff0200ff01010202fcff080001fb010603fe020000
fe0001ff00fe00fe0200ff010000fffdfdfe03010000
03fefaff010001fdffff020001000301fd0400fe0000
020400fb010100fdff01ff01ff00000100ff05010000
ff01ffff00010001fdfefcfe00000301ff030104fa00
ff00020001fe020000000202fd00fe04010101ff0000
060102ff020001feff000002ff0100030103fe00ff00
00fcfe0100fd01fdff0203030002ffff00fdff030100
ff03ff00fd0502fe010201030002010102ffff000000
ffffff04ffff00fc020102fe05ff0002ff01fe030400
ff0306fe010200fe00fe000000fcff0003fe01ff0000
04fbfe02ff01ff00fdfb01fe02fffc04fe03fdff0500
fefdf9ff01fefd01ff0004fc02fafffc08fb03060400
01fcff00fd0102feff01ff0004ffff02fe00ff010100
ff00fffffeff010401ffff01fd00ff00fdfdfdff0200
020201fd010200ff01fd0200fffcfefffcfefe03fe00
01fbfefd00fe02feff00fe0103fdffff00fe01ff0200
00000203fc0002fdfd0202fffe0102fcfc03fcfefe00
ff01ff03fdfe01000101ff02fd0502ff030000000100
000300fe020203fe01fdfe01ff0101fe0002fd02fb00
01fe02000004000201ff03ff010000fe01fe04fd0200
01000201ff01fd000001ff0000ff00ff03fffe020500
0201fe01010002fc0103ffffff010401030002fe0100
050101050604fe02fefefe0300ff010002fe01000000
03fd000100ff0201060200fffe0504ff010602fcfd00
00020201010200fdfe0000ff0401fffdffff02000000
010003feff0001fd010500fdfefefc00feff01010100
ff020100fffd0001ffff01fe010201fe01ff0000fe00
fdff01ff0500030204020001f803030200fe00060000
fe02fdfc02060001ff02fcfffc010001ff000003fc00
ff04ff020002030002fef90000fffdfe02ff00030200
01fd02fc030301fcfe0304fdff02fe04fefffe000200
ff0003fe00000104feff00000001fffffefdfefe0300
020302fe02fdfefe01ff0000fe00ff02fdfffe020000
0600fcfe00feff0003fd000002ff0103fe02ffff0300
fefffb00fffffefc0004020001fc030005fc00feff00
030402fe0200020000fd00fb00ff0401feff01fefe00
fdff01ff020200fffc04010206fc04000000fffffd00
0101fe040100020101fffe02fffe01fffeffff02fc00
01ff0001fd0000fe010001fffbff00ffff0300000000
ff0000fe0000fdfffefefc02fc0001ff01ffffff0300
01fffcfefb03fffffefbff000002fffe00020300fd00
03040003fcff01ff0001fffefefefd03ff0103fefa00
01fbfe05fffe0001ff01fefeff0501ff000003fe0200
02fffd01fffe03000102fe02fefe00fe0000ff000300
0100ff0300fe00ff00fdfe040303fefd0200ffff0400
ff0501fffd00ff02fe0303fe00fcfd0001fe02fdfe00
0004fe02010102ff04fffeff00fefefefcfe00fd0100
ff0004feff02fffcfe01010204fffdfd04ff01ff0000
fa04fd02fdfc010203030103fcfafefbff04ffff0100
fffeff04ff000004010000010400fb0002fcfb010000
020100ffff03020203fffdfd000301fdfa0401000200
0000fefefe030201ff0104fd010000040101fffe0100
02020000fe030101fb0000fe0000fe060102ff010000
00020003feff000201030003020205fe010002fb0100
000202000205fffbfefd00030401fd0300020003fe00
ff0000fc000002fe0001fffefefffe0201ff00000000
010100fe03040003000101ff0201ff03ff02fe040300
fffefeff0103000000fefbfeff00000201fefffffe00
fd02ff03040002ff00fdfd01ff000100fdfffefd0500
fcfc010101fefefefefdfe04fe0000fd0500fd00ff00
ff01ff02ff01ff00ff010100030100fefefefffdff00
fffefdfc01ff010404020001ff000103ff0002000200
010005010200feff020002020103fffa00fffffbff00
0100ff0000fffe01fe01ffffff00fe0301fefcfe0100
fe0000fefffdfeffff02fe010003000000ff03fffd00
fdfefe0100fffeff03fe010101010200feff00000000
00fb06fcfd01fffbfe000203ff03fdfe01fd01fcfb00
0000ff02fefd01fd0104feff03ff01fe02ffff00fe00
01fe0100fd0100fa01000201000102fdfe01ff000000
fc000102010100ff0000fefe0103fc00ff010301fd00
000401fe000201fd02ffff04ffff0001fd01ffff0000
000402fa03fffdfc0201fe010001fd00fe00fefeff00
fe0300fffeff01fd0302010001fe01ff020001000100
fefd0101fffe0302ff00fe010100fe00fe00feff0200
ff0100fe0003fefffd00010102ff0001fe0003000100
0100010001000003000202ff010002fe02fe0102ff00
ea1613f51511000807031b1e1f2d48172c1015030b00
2a22252b1e272f242b282924232724221820231d3b00
0001000201fefe0202fefe0200fffffefe00ff00fe00
fffd01030005fe01fc01000303ff01010202fffeff00
fe02ffff04fe01ff00fd0100fc00fdfb0300ffff0100
00fbfffdfc00ff010201fcfffefc0201f700fefe0100
ff0202fd01010003fa01fe000100fe03fe0201000100
02fe06fd0502fe01f8010503040206fcfffffd030000
01ff00fe03fe02fefe00fefffdff03fe05fd00ffff00
fe07feff02fc0007fffefdfffefef702fb00fdfe0200
01010102fd00fe00fffefe0003ff010205fefb050400
fdfcfefc080100030000fd0003ff01fd0200fefdfd00
01fe01fffd0100fb00000102fffbfffffffc00fefe00
ff010300ff0003fe000200fffffe010002020000ff00
fe0100ff0100fffcfe0203fb01fdff02030000020000
0202010104fdfefcfefcff0101ff0000fffe0001ff00
0002fffd02fe000101fdfd00010102fe01fa02010000
fcff00ff02ff0200ff00fd00fd00fc0400020002ff00
fff503ff00fdffff030200fcffff03fa01ff02010600
01fe01ff00ffff000101fd0101fffd00fe02ff010000
feff00ff0300000afe020101fe00000301090700fe00
fe040100ffff02fffb01fd000400fdfb0205fcfc0200
0101000302fe010101fe0001fe02fe04f7fffefe0400
feff0100fe0100ffff00ffff01ff0002ff00ff020100
0001ff04fd0102ff0401ff010200ff01fffdfe02ff00
0204fdff0103020203020100fffcfb01f7ff0303fc00
03fcfd0203ff03fe000103fbfdfefafd0204fbfffe00
020100fefcfd0104fffefffefd0005fa01fd01030300
00fe0002020003010200ff0302fc02fefd01fd020100
fe02fe0101020004010202fdff00fd0302ff02050100
01fe020102fc000102fd01fa0000fa0201fd04fffc00
fb00ff01fbff01fe000100ff0300fbff00fffb010100
ff02fa01ff03ff0001ff0503fefef9fd000401fdfd00
fcff00fe01fe00010102fd01fffd02fd000000ff0200
010401ff01ff00fd01020102fe01fffefffb00020000
0302ffff010101fcff0001fd03000100fdff04000100
00fdff000100fdfe01fefdff00010103fc01ff000000
010300ff0101fefe0101ff020004fd0101ffff010000
01ff0200010100fdfe00000003040101ff0102000000
fdfcfdfc04fe02fe01020002fefffefbff00fcffff00
03fc0001fc0000ff02fe01fa02fdffff01fafd000100
0204ff0001fefe020404fefe00fefc0100fd04010100
00ff0402fdfefffe0000fffc000003fcfefe0204ff00
03fbfffe03ff02fbfefdfefc01fdfa0405fffdfe0400
00fefe00fe010001000003ff050100020304fe020200
0300fcfffcfe01fcfd0101fe0002fffffe000000fe00
01fc0003fe02fc030402fdfe0301f804ff02ff000000
ff050303fe0001feff0001fe01010100fd0300fe0000
0000050002010203fd0101010200fefcfe0202ff0100
ff0001fffbff00fd01010100fdfb00ff00fe00ffff00
0202010101fe0001fe00fdfbfc04030003010001ff00
02fa010301fb0105ffff03fdff0206fdfefefd010100
03ffff0102fe0200fd0001fcfcff00fffcfe0100ff00
fdff02fe02fe0103ff0104fdfcfe01fdfd02fd000000
0301fd0402010302010107fd000102000106fdfb0300
0501fb0204ff0303fc010100fe0106020405ff00ff00
00ff0100fc010201fe020000fd0002fcfefe02ff0000
01fffffdfffe07fefdff010200fb03ff020000fb0100
fe0001fd000101ff00fd00fa0302fd03fffc00ff0100
0103ff0000fffd000500ff02fcfe03000202fe020000
01fc01010100fffd0001fffefe00fdff00000101ff00
00fffffff9fffffefe00fffffe000103ff04feff0100
fe0000fffefe01ff0201020202ff00ff070102010000
00fefdfd0200010101ff02000201fffd000100ffff00
01fcff02ff020003fffe0201ff00fefffe03ff000000
01fc010000fdfe0001fffd0200fdfdffffff03030200
0005fe02fdfe010203fd0203ffff0000020303030000
02010101fe0101fdfe02fc01000109fefeffff02fd00
02ff0301fb010101fc01fe020000fd00f80201fc0100
02000000fffe020001fefcfc020102fe03fe0001fe00
01ff020201feffffffff02fdfcfeff02fdfd0101fe00
0002000401030000010300fc01ff04070001fffe0100
02fffe030000030000fe04fefd01fe00fffc01ffff00
0002fffffe000101ffff03fdfffffefffdfdff01ff00
fffcfd0102ff00010101fc03ff00000001fefc02fd00
0102fd01fcffffff030202fcfffe07fd030401000000
01f900fe000205fe0200fffcfd00fa0302fffa03fe00
ff000201fc00ffff05ff0307fdfbfb010500fd010200
ff03fffe02010100000101fffffd020103fe0402fe00
ff04fcfcff0100ff0002fcfd00ff0300fefffffffe00
0000fefeff00fd0405fe0101ffff0001fe0302000100
000100000000020000ff02ff0101fc0003000000ff00
02fd000000000201ff0102fe00fefa05ff010101ff00
feff010302000003ff0000fd00ff01fcfcfffc01ff00
fe0204fefefd010401ff01ff0001fdfef8fd02fdfe00
fffc000002ffff0202fe03fd040303fc0006fcff0600
0403fcffff00030101000204fe00fcfffc0202000100
0002030000020003fefffffeffff020101ff02fe0100
0200000201ff000002fe010100fd0300010004ff0100
030004fdfffd0201fefef9fffe0100fffd05fefd0000
feffff000001ff05010201fefdff00fd01fc02000200
01fdfd000001feff00fffeff0000fd01fefffeffff00
fe00fefe04ff000202fe0206fffffefbfefe0002fd00
0001ffff01ff01000100fffdffff010100fe01ff0300
06ff01fffbfefeff03fe010200fb0403fd07fefc0300
fd0403fc0000fe00010103030300fefffaffff040000
04040300fd0500fdfeff02fd02fdfe03ff03fefe0000
01fe000300fe00fe02fcfd0002fe00fe02fc00000200
000403ffffff00020301ff01fd01fbfefeff0001ff00
ff0301fe02fffc02fdfffd0100ff0000fd06feff0000
0000ff03ffff000102ff01ff03fffefe00010100ff00
fffdff01ff0100fefdff00000103fd04fbfc00000100
03000102020000ff0300ff00fffefa000202fffc0100
ff0602010404010201fbfd00fd00fd0100fb0004ff00
fcfe0000ff02fffffffffdfefffd01fdfcfdfd00fd00
01fdfd01ff00ff010102fe000103ff01fefefdfd0000
00fd00fefffdfffdfe030002010301fbfe00ff000000
03f90303fe030000fcfe03ff000103fefe0203020000
ffff0002ffff0001ff00feff0001fb00fbff0200ff00
03fe01020000fefa0000fa00fe010601080000010300
01fc01030101000300fc02000001fffe010101000400
ff0000000401feffff05ff00020204fdff0000000000
01000200fdfffe03fffffb00ff02fefeff05fcfe0000
fffc03fb03fe00fffefffdfd02fffb02fe0200ff0000
ff0302ff0107fefdff030100000101fffc00fffa0100
fefd0201fe03fc0101fe0002000001fe0403fffd0100
fefa00fdfefd00fefffffefe0301fdfb0103ff010100
0201fe00010001ff0303fefa01020101fd0301000200
01fffafefcff01fefefeff00fefeff00ff00fdffff00
0200fd02fe01020103ff03000003000105ffff02fe00
02ff0101fefd02fbfefe0200000102fc000401ffff00
02030102ff040000ff000202fa02fdfdffff02010100
ff0402fdfc0200fe0200ff00feff02fefdfffefdfe00
fe0001fdfe0400fcff00ff03fd010101fa0000ff0100
0206fe0100fe0000fb02fd03fd010301ff0101ffff00
ff01fe0204020200fe0002fefdfc000104feff00fe00
03fefffeff000002fe00fd010200fc01fbfe01000200
0303fefe05fefc01fd00ff02010102fefd0002fe0000
01fafb0002fe00fdff0100fd0202feffff0200fffe00
01f3030000f80202fb010304f90104fffd03fb010100
000400fffe02fe00010303fd0101fefffafd0000fe00
01fd0103ff02fffffd00ff010301fe01fa000002ff00
fefd01030100ff01ff000002fe00fcfefdff03fefe00
02fefe0000fe00030104ff0001000100fe0400feff00
0201ff01ffff02feffff040106ff00fffa01fcffff00
0206030003ff000201ff01fffdfd0101fdfd00fefe00
fffeff00fe01fe0000fffe01fe00ff00f9fc05ff0000
0201020002fd0305fc0002030001fc00fdff05fe0100
fff5010103fdfefffe00ff02fefdfe0302fc0304fc00
00fc03fe00fe00fef90007fffefe000003fd00020300
00ff00020103fdfd0203fcff00ff03fbfffd02fafd00
fe01fffcfc03ffffff00fffdfd00fb0502fe0000ff00
ff010001010001fefd01fe02fe000102fcff01ff0100
fffeff00ff03fdfdffffff000001fffb0400fe01ff00
ff01fe01ff0302fdffffff01ff01ffff0200ffffff00
030001fcfefd03fafe01ff02fe020003fbfefffe0300
00fa03000000020103fefe000000fe0301fffffc0200
02fdff01fc01ffffff0101ff00ff0001ff00fdffff00
02000001010000ff000600fffb04ff00ff0002ff0000
00feff0002000004ff02fcffff02fe000401fd020000
fdfd0100fd0302fe01fdff01fdfc000406ff0501ff00
00fe0401fffffffe02ff0001fefeffff0101ff000200
fdf9030100000002030102fffe01fefc00fdff000200
fefdff01fefffefc00fcfe00fe02ff0000fefefe0300
0602000300030202010204fe0400fcfe0201fdfdfd00
03ff00fffe01fdfdfffefc0300ff02fd04fb01ffff00
04fafefd01fc02fd03fffe0202fd0301fffffe010300
03fb01fffeff03fe05fe03fffe01f90001fe00000000
ff00fffeff04fa02ff000404fc01fffdf9fd01ffff00
02fefb0001fefffeff0302fffd010002fcff04fdfe00
0305fe04010103ff03ff02ff0004fdfe01fefefdfd00
0000fe0000ff00fefcfe00fefdff0004fe000201fe00
ff04ff01ff0001ff02fe00fb0404feff000301ff0000
0103fc0103fe00fa0001fefc0202fd04ff00ff020000
fefc0201fefe000101fe0301ff010200fd0100ff0200
ff04fc0202ff000000fffd00000201fe010003ff0200
02ff0101fefeffff00fe00fffd0301fefd0000ff0000
00fffe0107fc0203fe01fd0000ff0202fb01ff06fd00
01fffcfefc00ffff00000101fe0302fe04fe02010200
0100fdfffdfd010000ff04fa0301fffc02fd02fcfd00
0502fd01fcff0202ff00fe02fe00020100ffff000100
fbfb0003040002010000fd03ff0000fffc0201feff00
fe01fe01ff040102fb030100010002fbfe0201ff0300
fbfd0104030101f8ff00020101ff03fe0aff01020200
010007fffe00fd0005ffff0006fffdff01fdfffa0100
ff0503050104fd0004fd02ffff02fc0409fffe01fd00
fe00fd010000ff00fc01fd02ff020103fffe0000ff00
040500ff01010204fdfe010302fc01ff0200fa000100
ff020001030203010101ff01ff0201ff00ffff010100
fffd00fe08fa0202fbfdfc00fdfbfffd03ff0104fe00
0001000200fffefe01fefefffcffff02fdfe01030000
01fefe0404fffcffff040501fff9fefe01030101ff00
030404fe01fdfd050204fe04010302fffe0003fffb00
0004fe00fe01fe0000000100fffffd0300fe01fb0200
010400ff0100fffd0001ff00fcff0002fcfc01fe0000
010002ff02ff02fd01ffff0102010600ff03fe020000
01fdfb06fd00ff030201fdfefdfc0106fb04ffff0300
fdff01010200fffdff020100fefbff0001030001fd00
02fd0002fffe000002fe000200fefeff050002020100
fc02ff01fdfeff0200fffd04fefefdff020301fd0000
02fc00feff0101fe0200fe02fffefc02010301010000
01000201fe0200fefb00feff02ff0002fc0301ff0000
00ffff0101fcfcfeff0303fd02fffdfdf7fc00ff0000
00070303ff040003fd0000ff00fe04fc00fefd000100
fc06feff01fb0108fc05fbfe0002fcfcf8020001fb00
0102010102010100ff0200fefffd040003fdfefdff00
0201fd01fd010006fbff0002ff02fbfefbfeff010000
000302fe0201ff050102000204fe0001030001040100
fd02ff000100fdfd0002000100fc03fe0201ff000000
0302fcfe01feff0202fefdfdfe00000201ff04ff0000
fefeff01ff01fe0401fefc00fd000300fffc01ff0200
fe00feff01ff020001ff0001fefef900f90301fe0500
0301fdfefffe0002020100ff00fc05000102ffffff00
00fffe00fd03fd01010103feff0004000003fe010000
01020000fefdfe01ff01fe00fffd03fc0402fb000000
fffc03ff0102fe000003feff00fefffffd04fffb0000
01fc03fdf900fe010003fe010207fe05fe01fefd0000
02fe0102fc0000fe02fd05fffcfe0400fefc01010100
0104ff01fd01000100fffe02ff0004030003fcff0000
00fffffffe00fdfdfffffffffcfefc0300fafefc0100
05fe0201fe010500ff0401fefffff902fa030102ff00
fefdfffefdfe01fefffe01fefe020100fbfdfe010000
010501ff03fd02000200000304020002000400fffe00
fffefd0101fefeff0201fe0301fefdfe05fdfe00ff00
01fdfe00ff01fd0000ff0402fdfefeff000103fffd00
ff0401ff02020301fe050102fdffff00fb0001000100
fffd04fffefd00fe01fa0100fd06ff0200ff02020200
0404ff06020200ff00fcfdfe01ff0102fc07ff010300
030102fd0203000004fffefefefdfc02fdfef9fd0000
fefbfd0101020101020101010201fd00ff0000000000
0205fd00fe020004fdff010501fcfe03f9fa02030000
01fbfeffffff00fefefffefb02ff000001fffefd0000
fdfdff00fd00ff040300fffdff04030001000200fe00
fb00fe02fb01fc0302fdfb05ff050101fffefffdff00
ff03fd0102000100030201fb0204fdf703fbff020100
fffefe0203ffffff03fd02fd0100fdfef702fe040000
fdfe01000002fefe010200ff00fffdfefe01ffff0000
fefd03fffdfffbfffdfffe04feff0102fb0801ff0000
00fffdfffffd00fe030002fffdfffcff0402ff020100
00fefffe0002ff000100ff000001fe000001fc00ff00
ff000001fffeff000201fe05fdfffcffff0400fffe00
fefefefffd02ff02020200fbfc03fd02fb0101fcff00
ff01fd01feff01fdff01fdfe010301030502fd030200
01fe03fef6ff0102fefd00010102fcfd02fd0004ff00
00fdfe0203fa00fffd00010400fd01fd0001fb030200
fc0000fdfe00fefdfe04fefffcfe0101fefa0404fe00
02fa000002fe02fc020101ff040001fffffbfd030200
fc02fd010205060001fe020201fd01fc030400fd0100
030600fffefdfe0102fe00ff0101010001fdfe01ff00
fd000203030200fb01fffd03fe010005030403000200
00fefe0001fefe01fffefeff0401f901000401fe0300
0201fffefd0300010202ffff00fefd01fcfa01010000
00fffdff010101fc02050304fe0001fc01ffff02ff00
01fefdfe04fefd0000fbfeff05fd0300020300feff00
ff0602ff00ff0301fcff01fffa00fdfefdfffefdfd00
fdff04fc0200fe0104ff01fe01fcf5fffdfbff050000
fffc02fffd03ff03fe0002fd02fefd03ff03fdfd0000
ff060103fc00ff01fe00ff0101ff090101fefefffe00
02fd01ff00feff01fefe000001ff0000fb0104020000
0004fe0000fbffff040002fa0001000004fe02feff00
010203fe00030200ffff00fc04000303f50001ff0300
fe0201fefe02030203010200040200fc050205010200
00000000ff000202ff0002010201fc0002fe00fffe00
0101000201fe01fe0300ff0201fdff010200ff05ff00
0201ff01ff0003000202ff02fffc0001ff01ff040000
fcfc010200fefe01020001ff00fffe0102fcfe01ff00
00fdfdffff000002fd02fefd0100ffff00ff00fffd00
0200030202ffffff0100fbfefffd01fe01ff02ffff00
0406010002020101000101fe03030003fbff02000300
1049e50bf9f019fb111420f50d0c25081e2702060500
252223232a26212b1a27232b2828212c1c2b2a262900
00000000020101ff0001fe00fffeff0102fefe000100
00010000ff0004000000ff0301010100fd0202000100
0003ff0200fb030301fe00ff00fc06feffff02000200
010000ff02fc01fffdfafbfffdfffefefc00ff010300
fc0300000101030300fc0400fdfc02000001ff00ff00
030802fc01000001fefcfe020101f9020000fffa0300
0102ff0100fffb00020305fffe00fe01ff0004030100
01000200fe01ff0401ffffff01fc0000f8fc04feff00
00fe03ff0100fefe00ff030104fcfc00ff010001ff00
fd0607fffe0108fffe00fefffdff0402fe0103000100
fefb01fffefeffffff00fefffefffcfe04ff00000000
fdff0000ff0004ff04ffffff0200fffdfffffe010200
01fbfffe0202ff01fe0300fefcffff0001ff0303ff00
00fffe0100000102fffd02fefc00ffff0002fefe0100
fdfffefcfe000201040103fffd00fe02010100ff0300
00ff01feff010202fffeff0402fffb030100feff0100
fb03fc050302030003ff0102fe0600fd06fffcfd0500
000300fffb0100fffe000202ff030003fdff02ff0100
0001fd0100fe05010300ffff00fcffff06ff04fefd00
fffe02fd0103ff01020002fcfd00fdfdff0400fffa00
fbfd00fe0202fffffdfe01010000fc0200fe00010000
ffff04010100010301fffffdff0002fffd000100fe00
0101ff0000fdfcfdfe000001ff02000002fc01fe0200
02fe0301feff02010000fc0203fcff0104ff01fe0100
0101fe02fe0300fe00ff01ff050100fdffff01030100
010005000000fb03fffffffffdff0201ff0100fe0300
010102fbff02fdff03fd01010102fefd01fd01fefe00
00fd000202fefe00ff04ff0603fe03040100fe00fe00
fffafffffffe020000ff02fbff01000506ff03fd0200
03fefd01fd03fefffcfffcfe05fd0201fe04fe00fd00
00fe02020300fdfffefd020202ff060000fffe00fc00
ff01ffff0002ff0200fdfe02030101ffffff00ffff00
01fe01ff02020002ffff000300ff01ff020202fa0300
01fc0200fd0302000000fdffff0200fc0002fefffc00
fe03ff00fe02fffe04fefb0200fffd02ffff00010400
0103ff01ff0000ff00010002fffe00fe010102020400
03ff02010100fd0103feff020100020002ff01030000
fffe01fe04fe01fe0001020003fffdfffc0202000200
fd00fffdfd020102fd0502feff03fdfe02ff01fbff00
01fa03010002fe00fe00fdfd00fe01ff03000203ff00
0102fb01fd0100010102fffffcffff00fffffffe0000
01fcfd02fd01ff00fdfb02010204ffff0300fe03fa00
0000fd03fd0000ff0100fe0101fefffcfd010001fe00
ff0000010203010103ff02ff00feffff020102020000
01010503fdfffe00fffbfc0104fffe000301fe04fc00
0001fb02fefdff01fe03ff0004fe0003fdff00ff0100
ff0001fffd01ff01f90103fd03020101fe01fd02ff00
00fffeff03fe01fffe0201ffffff020102fe00030100
0001ffff0100fffc02020000020003fefe0301010000
02fcff0202ff00fdfdfffb02ff01fefe01fffeff0000
fbfdfd00fd02ff04fffd0000feff010000fcfdfe0200
fb0202fe0208fefd03020101ff00ff0009fe04fe0000
070401fd0503fffb03fe00ff000506fcfc0002040000
030003000202fcfefcfb0002fffd04010401fcfe0000
02ff010000000001fe00010101ff0301fd0001010100
ff03fc0002fffefefbfdffff000405ff02010105fd00
02010201ff03000004fffefefc0004fefcfffd00fd00
0200fe020100ff01ff0002fe01fafe0004fe00000200
fefd04ff01fe020303000100fffe0001fd00fdff0300
01fefe0302ffff02fe02030102ff0001030000030000
050202030100000100ff000102fe000100ffff000300
02feff04fe010200ffff03ff0001fdff000000030100
01fdffff01ff00fefefdff000101fe01fe0301ff0200
00fafefcfe01010002fffe040301fcfffefd01fe0100
010102fd03fcff000001feff00000100fe01ff02fd00
ff000202010101fe01ff0101fe00020202ff00fffd00
0100020001fe0301fffcfa03fe00fffc030300ffff00
0200fefcfcfc0102fefe00ff0307fffdfcff00fe0300
fcff00fe00ffffff0102fe0000ffff04020100fe0000
01fffe02fffe0001030203fe000001010100fdfeff00
02feff0003ff0100fefefffefffffdff000401fe0000
01fefc000003fefeff0100000200ff04fd01fdfe0100
fdfb00fcfe000201ff00000102020102ff0201ff0000
0002fc0003ff02fe01fe010201040003ff00ff02fe00
01ff0506fc0101ff03fe0303030001fd00000106fc00
0000050400fcfe00fc00ff0101fefe0001ff0100fe00
02020303fc00fe01ff01000000ff010001ff03fefe00
01feff010002ff0103fe02feff01fdfe02fe00fffe00
02fdfdfe01010002ffff01000000fefd0001fbfdff00
02fe01fe0100fefd010003fe0001fffe0000ff03fb00
0006fffe000103010003fd06fd02ff0100ff01ff0100
02fc030501feff0002fd0000ff01fffefefc03ff0400
fbff00fe0400fefdfe00ff04fe00fefe0602ff020100
03fcff03fb0303fefd02000100020203ff000302fe00
fe00feff020001fcfffefefffeff040100ff00000100
fefdfe020001fbfffdfeff0303fe02fe01fe03fffe00
fffefffdfffffc03000201ffffff00ff05fdff010000
fffaff00010200fdfdfe00fc010200fd01fe0203fa00
fcfdfffdfefefe00fb02fe0301fdff01fdff01ff0100
00ff0301ff01ff00fdfffe00fe01ff00fd00fe01ff00
ffff0a0000ff0102fd02ffffff04000102fe00000500
fffc01000000000101fefd00010000ffff0101feff00
fefc04fe01fdfc03fd010001000302fffd00fc020200
02000103fa02020300020200ff05fd01fdff01fe0200
ff0103fc0301fa05fefd03030501fe03020000fd0000
03fd0103ff01fe0101020104010001fffdfffe02fe00
fef601fe0300fc01fd0401020002fffe02fc01fe0100
fb000102fefcfefe010002fdfc030002fe02feff0000
0000ff03fc010201ff0003010101fe01fd00ff010000
0001fe000000fffdfe0000ffffff0000fc0102000300
fefe050202fe03ff000401000202fe00000100000100
fcff00000401fd0004000502fe01010106fe02fefd00
fffdff02000000000200010100fffeff0002ff01fc00
fd020101000006feff0401feffff0000fb0102000300
ff01fe01010201ff020000fe00ff02fe020000030300
fffdfcfbfefd03ff05fbfe01fe0500fffc0100fffe00
0000ff00feffff000301fe01fd03fdfe02ff0000fe00
fdfcff04fdfcfafe01ff010101fffe0204fd02010100
010301fe0002fd02000001040000fdffff0102fffc00
00fefffd02020001feff0200fe01fc0203fefffeff00
fcfdfc01fdff04fefafffc04000404fefb030203ff00
ff00fb01fd03ff0403fe010000fe0101fc02fa01ff00
00fe00010000020003fc06fe00fe03fc000101050000
fffd00fe00fd00fffeffff01010201ff03fe0205ff00
03fbffff01fdff000000ffff00fcfd01ff0101fefe00
00fcff0101fe00fe040400fffd01fc00ff0300ff0300
01fffc000000fe0100fcfefd03ff0401ff0000fdfc00
ff0202fd000000010101feff00fd00ff00fe00fe0400
0101feffff00fd000100ff01fd01fe0103fffd000000
feff01000200ff02fe0404feff02fe00010502fe0100
fefb000000fffe02ff03fd000204fb02fe00ff010200
fb0102fdff0301fffdfcfe00ffff01fffefffd03fe00
0102fe01030101fffdfefe010000000202fffd000000
ff0100fc000001ff01ffff0600ff000300fc00000600
fd02fdfd0101fe000100020000fefdfffe0300040200
00fe000000fe0200fd0102fffe0101fcfd02fdff0000
feff01fe02020100040100ffff0300fffffdff030200
fcf80101fc01030000fefefbfdff0401fe0300040100
0204fffafefe0201ff00ff0504fffeff01fc01ff0300
01fdfefdff0103ff0402ff03ff03fefffcfd03ff0200
03040003000100fdfeff02020101fe00fc0102010100
000100ff01020001ff01fa010103ff010301fefd0200
00fe01fc00fefcfcfefd01fd04ffff00fd02fffd0100
0400020100010002fffdfd03fefffd0201fffffefe00
ffffff020002ff01fdfefd00fdfc00fefe01fe020200
01000101fe0003fe01010101fdff0002fffe04fcfc00
03ff04020203fa02fe00fc0303fdfa00010303020200
00fc020603fffbff05020100fbfe0101020300fc0100
010002fd03010000fc010001ffff0101ff030101fe00
ff01fe02fdfdfb01fc00ff00fe0302ff020201060300
fffe03fffe00fe000101fdfe0001ff02fefefffd0100
fdfffe03fefe010001fe03ff01fe0004fb0301000900
0001fffffdff0301fb02fe00ff01fd0000010205fe00
02fc02fe020102000001fbfdfd03fc000201fefeff00
fd03fdfe02fe0100fffffb0100fffffd01ff02fffe00
010002ff020200fffc00fbfffdff010002fefd020200
0202030401fffefefffefdff00010001ff020201fd00
fef9020300fffd010000fe01fd01fffe02fbff010000
02fb01ff00ff0002ffffffff0300fd00ffff02ff0000
00ff01000101ff02ff0001fd01ff000001ff00010000
01ffffff00fffffe0301fe05fffc03fd02fe00010000
00fefbffffff060200ff0301fe0201fcffffff020200
fffafefdfe01fe00000401fefeff0100fdfc05060200
fe0103fffffe000403ff00fdfe0102fdfdfe00000200
000103fefe01000003fcfe00fe01ffff08ff01ff0200
0007ff00fe0102ff0101ff0100ff0400fa0001ff0000
fd01fd0002fffffcfcfffc04fefb0001ffff01ff0200
00fd0400fe05020105020100fafc01000005fd03ff00
fc040304fe03fefef8000000fffc0000fdfeff02f900
feff0001feff0001020301ff000002ff0602ff02fe00
050205000001fbff0001fafffe02fdfff7fefc02ff00
00fa01fe0200000000fc00fefefc05fffffe00000100
ff0200fffefffe000302fa010000fd0002ff00ff0200
fefa04ff01fe00fe00fe0002ff01ff00fefc01ff0100
fffefe00fe000000fe0101fefffe0000fffffefc0200
fe000006000400fdfe01fcffff000002fdfb00000500
03fa01030201ff02ff0004fb020001ffff010200fe00
0400fc00ff01fffdff0102fd000001fe000603020300
02fd03ff04fdfefd000000ff01010100fa0302020100
fafdfefefb02040002fd01030100fd03fcfcfc00fe00
01fe0202000300ff05ff000001feff010400ffff0000
f8fe0102ffffff0004fb02fe0301fd04fefd01ff0300
0306fbfeff000404fc01fefdfbfaf9fff9fd0204fe00
0001fdff04fe0100fefc020001ffff020200ff00fe00
0300fe01ff0300fe00020200fffdffffffff02000100
fffefefffe02fffdff0102ff0400010000fe02fd0300
000101ff0405ffffffff02fffffdfdfefa03fdff0100
02fb00fffcfffe0101fefd01fefffc02ff00fefb0100
00fe01000104fefefe0001fe0300ffff02fcffffff00
0002ff0301000000010201fa020400fe030103fcfe00
fefe020304fdfe04fd0303fffd02fbfeff010000fe00
02feff00fefdfdfffefe000100ff0101fc0001fe0300
fe00000302ff0000ff03fdfffffefc00040202fdfe00
0401fb030000fffe00fefefeff0103ff040005fd0100
fffefe0104fffd030001fcfffe00010101fe02fd0000
0102ff01fe0200ffffff01fe00fbff0002feffff0000
000202ff01feff030102010201fefe000204feff0000
01ff0303020002ffff0001ffffff03ff00fe0201fd00
03000000fdfd000100fd04fe01010003fd0000000100
0200ff02ff000101fffe03fe01fcfffdffff01fefc00
01feff0000fffefdfd04fd02ff01fc0700fc01fdff00
fefa01fc0202ff01000002fffefe00050200ff00fd00
03fa05fe0604fffd06fcf8020302f9010700fe000100
fefd0101fefe01030001fd010000fc0201fd01fffc00
0105ff02ff030101fefffb02ff00ff00fd000201fe00
fdfdfffe00ff0001ff0000000001ff0004ff02010200
ffff00ff0102fefeff01fefc0003fd0001fefffffd00
02fefc00fefffcff020105ff05010202feffff04fe00
feff0003fefe0004020201ff00fe00fefb0101fe0300
fc06ff0001fe01000401fafd02010004fefffcfe0100
020105fdfe0200ff0201ff0202fffb0001fc0101fe00
02fffd0101fcfc0100030200fdff0201ffff0402ff00
0401fffefe0002ff00fffd010102ff01fffd0000ff00
01070200fdfe05ffff02fe0201fe000000010001fe00
01fc040002020100fb0100fffe01fefdfe05fe040100
0001fdfdfffefffe0202ff0400010003fd0102020500
fbfbfcfc05fefcfc010102fffbff0202fffefffd0200
0202feff0003fe00ffffffffff02fefffefdffffff00
03ff00fc08000201ff01ff0002fbff01ffff01fe0200
01f905000302fe00fd02fffdffffff02fe00fc03fd00
00fe05fd02000300010201ff04fdff03fe0101fefc00
fffc01fd0302000500fe02ff0302ff04fcff01000000
ff03fe00fe02fe01fe01000005ff03fa0301ff01fc00
020600fe0000fefffdfcfd00ff000200fcfffcfffd00
ff0002010103fffe07ff00fd0004fc0105feff000100
faf903fe03030300fd0302010405fe01020101010100
0201fffefe00ff0100ff01ff03ff0100ff0003fdfa00
ff00fb03ff0101fffefe04fe00010000fb01fe030000
00fb01ffff02fefd00fdfd02fffc03ff00ff02ff0100
010102fefe00fe010102fefffffdfffefcff00fd0100
0102020101fd0002fd00feff030000fe00fffefc0200
03ff01fe0601fd05f9fd030509fd01ff040001fafe00
fefe01ff020000010601ffffff01040002fefdff0400
04fdfd040300fefd0301ff0403fcfdff00fefdfefd00
ff00fefd0200fd06000000fe010100fd00feff05fd00
fcfbff010000fefefe01fc00ff0300fe02030001ff00
04feff03fe01fcfd01000303ff020202ff020004fe00
ffff0101fefefd01fd02000200ff00fefffffffffd00
0100ff02fdff01feff02fb01fe00ffff03feff00ff00
fd00fefd0602fefdfd06fa01feff0303000002fafc00
0205ffff020202fe010003fefeff00fffe00ff010100
fe0001010200fe0302fffe02fffc02fdfc01ff000100
01fe05ff000101fe00000001fe0003fe01feff020000
02fd00fd03ff01ff01fe02fffe0302fe010403fd0100
00020001ff02010304fd01010102000003010003fd00
01000302fdfefc01050305fd0000ff02fdfe0408ff00
0102fdff00fefd00feff02ff02010000ffff0402ff00
fe010001fe030302000006feff00ffff0000fcfffc00
fe00ff0001ffff0001ff00fc00fd000102000102fe00
fd00030001fdfe010302ffffff010301fdff01fd0100
03000004fd000401fe04fefffffe0102050100010400
00fefd03fcfd000000fe00020302fe00fe0100fffe00
03040000010301010301ffff020003fdfe02fefe0100
fc04ff020300020304fe00030101ff000401ffff0200
ff03feff000101feffff000001ff0001ff0301feff00
04fc00fe00fefd03ff0103ff01000402fffd00030200
02fe0100feff0100fffefd0200030100fefefb040000
010503fffe030003030400fd0201fffffefc0000fe00
040000fd00fe0505fefd0000fd05fd02fd02ff020100
ff030201feffff00ff040100ff040000fbfd01feff00
fffb00ff03ff0000fe03ff01000000fffd02ff00ff00
fe0100fd000100fe02040401ffff0002fffe00ff0400
010100ff040505fbfe00f900ff030203fbf9fefb0200
fdffff010301ff00000000fffeff02feffff00030100
01fe01fefe010004feff0202fefe00fefb0002fe0100
0103ff010300fffd000001000301fc02010301040000
010203ff00010501ffff0101fd00fdffff02ff040000
f81508fe1c151af00ce3eb1de9e61bf3390d0920e500
23262b2c29232a22272e291c2c2823301f2523212a00
0100ff02fe0101ff00fe02fffe000201ff0001fe0100
020002010101040002fffefc000201fefffefe010000
fd0100fd02020000010301ffff00fdfd01ff04f9fd00
0400ff0101fdffffff01ff000103000102fd03ff0200
06010204fffe0005010002ffff00fdfe02fe01fe0000
020001fefb01fbfcff0300ff0201fefdfc00fdfa0000
fe01050203ff00010000010b01ff000000fe04fe0200
fefdfbfefc010001fd0300ff01fbfdff050402fb0100
0000fe00fe0100feff02fefe01ffff03fffefdfdff00
0001ff010301ff00000004fd00fd03fe0102fe030200
ff02fc02fc00fd0000fe05fd000100010100fefe0100
00000202000102fefd00fc0001000300ff0102ff0100
ff02fd0004fffa0001ffff03000001fdff0202ff0100
02ffff03010100030005010100ff000201feff000400
fffd00fe00fd0302fd020001010200ff01fffefefc00
fe03feff03fefefc0001fdffff00fd00010201000100
ffff00feff03ff02000101000507fb02f8fefe050000
0001010007ff00fffffdff00fd01fc00010102010100
ff02ff02000101feff03ff01fe00fbff040001000200
fffefe030302fffa000102feff00000405fefd010200
fd00ff01fd0501fe000000ff00fefffffb0200030300
fe000003ff0000010004feff0003ff01030000020100
00000401fd00fefe01030101fffdfc00fd0003fd0100
030101fe030103ff010400fbffff000100ff02ff0200
00fd030106fefefe03fe00020000fe030002fcff0000
feff01fe02ff03fffeffff01fdfdfe01fdfffffc0200
00fe0301ff02fe00fe0203ffff020103fffe01000200
02ff000101ffff0200ff00fe0101ff0000fe01fffe00
000201ff00fd0105fe00fdff0301fe00fefcff00ff00
030600fe01fe03f9fe01fefcfe02fd0101fc02fc0000
fdff000003ff02fcfffefcfc00ffffff08ff00ff0100
0101fe00000000ff00fffffbfffffc02fe0101030100
04fe0002ff0100fc0001020207fdff00ff0000ff0300
00000000fd02fe0001ff02ff02fefe0102fefefb0100
0200fe01fe01ff01ff01fcff0203ffffff00fe020000
fefd010101ff0100fe010002fffdfe0002010301fe00
fefe020100ff02fdfe02000001010200fdfffc01fe00
feff0002fd02000201fffcfe000101ff01000201fa00
ff02fe00fd000100ff02000000fe0200fcfe03000100
0301fefe0201fe03000201fafefffe03fd010001ff00
01fefeff02fcfd01030102fdfc01fefcfe0201fffe00
010202020100fe04fd0102fcff00fe01ff0001ffff00
fffdfd0203000101050204fffe00fffefffe02fffd00
ff0100fcfefffe0001fd03ff030100ffffff0203ff00
ff00fcfe01fe0003020102fd010101fd02fdfeff0100
03ff00fd00feff03ff03fe01fe000601fcfffffe0100
00fd00ffff010002fffd0201ff000000ff040000fe00
00000401fb03010003fd04010102000001ff00fafe00
0001fafe03fdfe00020103fdfffd0402ff00fdfeff00
0301fdfffd01fffc010601000202fff9f8fefefe0000
01ff00ffff00020300000200ff01fefefeff04ff0300
0004fc020101000301fd00f9ff0201fefe02fc01ff00
fefd07ff01fbfafd0102ff070100fe05faff00fe0400
0000feffff00fefbff02fffd0002faff01fcfd030100
0202fefffe040300ff03fbfffe00000200fefdfe0100
fffefffdfdfe020104000104fdfdfffd000000fdff00
01010202fffdfe02fc0300ffff020302fdfeff00fd00
04fe02010001fdfe02fefe0503fffb03000207fefe00
feff00fe0001ff01ff010201ff000103fcfefe00ff00
04010101000602010101fe0001020202000000fdfd00
04ff00ff0000010001feff0203ff0002ff0102000100
00040200020203ff02fe000303ff0000fd0203fffd00
0200fe05fd010101010102ff01feff00fe020104fd00
0102feffff030102ff0103fd020105000101ff010100
fd04fffdfe010100ff01010100fe0503fefff9feff00
0105fefffb00ff0000000001fffffffefafefe050200
03ff0003ffff00040002fefbfefefffe04ffff01ff00
fe020101fffffdfe000101fd00fdfd060204fefdfe00
01fd00fe0000000002fb020100fe030000fd0001ff00
0101fd0200030201fefcfefc010002ff000003010400
ff07feff01ff0000fafd01fcfe0101020001fdfffe00
0202fefdfe0102ffff00ffff00030002fd0001fd0100
01000100ff01020401ff0301fcfefe0300fe0101fe00
fcffff0203fe0204fd03fc0300fcfd010300ff030100
fd02fdfd0302fd00ff02fe04fd00fffe03000100fc00
feffff0001ff02ff01fffffdfe03fdfdff0402ff0200
fd0304fc01fe0005fc00fd0300010101fcff03050100
00fe00fe010300fffdff00fd000302fe02feff010100
0301ffffff00fe0102fdfdfdff01fe00fd00fe020000
0001ff01fe0000000000020000fffd01ff0100fe0000
01010101feffff0601fffefc0000010000ffff020200
0101fe0100020100020401ff01fe04fffcfe00020000
000001fe000204fdfa0302fd02050000020000fe0100
00fefffefffe00fffcfd000101fd000000fe0303fe00
00fd0001fe00000000000002fd020003fc0000fd0000
fffdfd0001000001ffff01fd020001ff0102fe030000
fffe000001fe00fd01ffff0100010404010100020300
0404fe00fd01fafd01fd02050000fcfd00fc02ff0100
fffe020302030002ff00ff0001000201fd01fefe0200
0403fd00ff0402000102fdfe0103010001fefbfe0100
ff000202fefe0300ff01fe0202fffe05000200fcfe00
00000101ff03fe0101ff010002010002fdfdff000200
fafefdfcfefd010101fe02fe0104fe01fdfafcfdfd00
0201fd000100ff03fe0200feffffff01fd00fd010000
0104030401ff0204fe0300fd0202fdfe000300fe0400
fbfc02fd02fefeff010001040301ff00fc0202040200
fefffe00fd0100fe00fc04fd00ff00fffefe00fd0100
ff01ff00fd01fe0000ff04fe00030100000301fd0000
feff00ff000001fffe0002050100ff01fdff01010100
01fe02020302fefffe0501ffff0103ff00fefefe0100
fdfffe00fe0101fe0000fe0203ff01fffefffc00fe00
02ff0002000100020300040301020300000002ff0100
0201ff0202fb00fd020100fd02fc0301feff04ff0000
0304fafe01010101fe000400fffd0002000001ff0100
fffe020200000206fdfffdfcff010001fffcfbfeff00
00fc0102ff010000000101fe010002050602fffeff00
0303fffffe0102ff00fffefefffe010201000203fe00
fefc0200ff0100ff030200030303ff05ff0202fe0000
000300ffff000103fe0003ff030000fffeffff000000
fc00040102fcfc0100010302000001fffdff04fd0100
0102fdfd01ff00fe03000001fffffffefc04fe040200
fffefefffd04ffffff020100fe040102fe0702010000
04ff0201fefe0201010002fefffcff0104fb0102fe00
fdfe02fdfe0202ffffff0503010103fffefefffefe00
0101ff00feff0100020001010301ff02feff0100ff00
02ff01fe0202ff03fdfe01fdff0000ff02ff02000200
fd00020302fd00fdff020101fffe00fffefffffffe00
fefffdfe00fffffffe0001040000010101fd02fffc00
ff000102fffd000103fe01000200fe0200ff02010100
01fdff010101ff02ff00ff020000fa0001fe02000000
00fd00040102fffa00ff00ff01020200ff0403ffff00
010000fffb0203fd01fffdfd0203fe020104fcfe0100
ffffff0101fd00ff0101ff02fc01fffffc01fd00fd00
02ffff0101fc0202010100fefdffff000100fffe0100
fe0001fd00faff0300ffff020102fd0401fdfcff0200
fefdfe0001fefe00ffff01fe00ffff00fa0201feff00
02ff00010103fe0100050000ff02ff01fc030000ff00
00f8f801fe0403fffffd000000fefbff01fafcfe0200
0502040301ff0101ffff03fe0001ff0205fd0202ff00
fdfefd01feff0105ff0001000100ff000200fe010200
fffffefe01fe00ff00ff00ff0102fffdfefe0002fe00
020101020200ff01010005fd0003ff040103feff0000
fefeff01fe05020102030200fffdff00ffff01ff0000
fe0202fefffbff01fffe00010105fe00fdfcfe030000
010300fe0200fefe0101010001030002ffffff020200
02fb0001fefc000000ff000002fffffd03000300fd00
01ff06010004fc03fe010102ff03feff060000000000
fcfdfffdfd01fc0702030402020206fffdfefe030300
ff03000102ffff0001fefefd0000fb0002fbfeff0200
02ff00feff00fffffe00010101fe00ff020202ff0000
ff01010201fd02fd01fefdfcff03fffd01ff02fe0100
fdfc00ff01fffe00fffffe06030000ff00f901fb0100
030000fffd00ff04000200ff0301030003020000fe00
0001ffff00fe0204020001fd02fefd000000fefb0000
fffc03ff02fe0003fd01ff01000000fcfcfffd000400
01ff03feff00fe02fdfffd0100ffff03060104fe0100
00fe000102000000fefefd00fffeff03fcff01ffff00
00fd00fc0100ff0000ff02ff06010002000101010100
ff02ff0000fcfefc01ff0304fc04ff01000100010100
fdfe0000000101ff01feff0202000001010101010100
01ff02fdfcfc0002ff00fd01fdfe01fffffd02fffe00
fdff0500ff00ff0200030102ff03fc00fcfffffeff00
00ff04fefe01ff01feff000200fcfb00040101fbfd00
01020001fd02fe01ffffff0402ff0100fe0404fd0000
fcfb0300fb05fe00fefd01fd0201fb0200ff02040100
0200fe03ffff0000fe00fe0005fffd0002fdfefeff00
fe0100fefa00ff000100010005ff00fefd00fdff0200
05fffd0401010101fefeffffff0001fdfffefd000000
ff00fdff01fd0002fe02fefefffd01010202fe010100
ff03ffff00ffff03010101030000fdff02ff0200ff00
fffe02fffefefe0203ff0102fe0001fefdfffffd0100
fd01fafffd0000fd000000fcfeff01fd00fdfc000100
ffff020001fd01fffe0103f90302000001fe0101fd00
02ff0001fdfdff02ff0100ff00000300fcfe0100fe00
0100ff01fefcff0000ff02fe0001feffff00ff01ff00
09fdfefd00f3ff0105fefbfc01fffdfdfe00ff0b0400
01feff03fe0001fe020101040204fefe010101020000
ff03fd00fe0304fd01feff020204fdff01fd0200fb00
fe0002000202fffcff01fdfffffffe02fe0501fcfd00
00fc01ff01030204fcfd0102fd0100fbff0301ff0000
01fe020001fffe010000ff020002ffffff020000ff00
fcfe0103fefd04ff05000205030203ff040201fdff00
fffd00fe03fdfafe0100fe00fefb0203fe0201ff0100
000202000100fd0002020106030204020201fefe0000
0202fe0204010100ff0001ff00feffff0000ff00fe00
00ff00fefcfdfdff0001fd0003020106ff0401fd0000
00ff0003fd01ff00000000fe00ffff00fa05ff030400
0203fffc0100fb04fefd0200fd0102010103ff04ff00
02ff0000fffffefe01020200fc00feffff03fc01fd00
01fffefffe0503000001ff03feff02020003fcff0000
0200fffe0402fe010300020000000305fe0306010200
fdff000002000002feff0201000100fe03fcfe010100
020101fffffb02010101ff02fcfcfd0002fe00020200
020102020000030102fffffffdfe0101ff0000000400
fffefe0000fffffc02ff00fefe0200000000fefefc00
0203020104fd01fdfe0000030000fe0100ff02000100
fe0101fffefd01fd0200ff0100ff020003fdfb010000
000600fefbfd00fd000202010000fd00fe04fe020300
ff0002feff000300ff01ff0203020001010000fcff00
0101ff04010101ff0203010000010200fdfe01010100
0000fdfe00000002fc00fe0000fb030103fefe01ff00
0003fd0400fefa00fdfdfc00fffd00fff90000020100
0104fcfff906fdf8fa00fff60002030003fc01feff00
ff01fe00fe01fd00fe02fcffffff00ffff0300fc0000
04030200fdfdff050001ffff0004fcfe000200010100
00ff060201ff00ff000000ff04fdfe01010401ff0500
02ff00ff010001000501feff00ff020102fd01feff00
fdff030100fcfd0000fe0101000301fd0100fd00fe00
03000401ff00fe000100fffb0101000002fd02000100
02fefdfffefd02f8fc02fefb020200010100fffdfe00
0001ff02fd0201000001000001000101020101fe0000
fefe040303ff0002020200020102fd01fefe0001fc00
fe0202fd0100030100010001fffeff010001ff01ff00
0300fe01030000000101fefbfe04fffeff0102fd0200
0000ff0203fc020001000100fd0001fffe000103fd00
fdff00fc00010002fc00fe01ff05fe00fdfcfdfe0200
010400fefefefbfffe03fc00010100000001fffe0200
fffe0001fd0300000302ffffff0200fe0203fd000000
fd010102fffc040102fdfffc0102ff00020200fd0300
02010104fe01fffe01fefefe020200fefbfe04030200
01fc02fffeff01ff05fefffd02fdfffdfdfdfeff0100
fc03fc0201fe02ff0200fffd0202fdfdfc0001000300
fd02040202fd01fd02000100fd000102ff0002010100
03ff010001fdfd0001fe00fdff07fefffc02fffe0100
fefd08ff020205fffd000202000400fefe00fe030000
04fd00040203fcfffffefffe0501fffd0203ffff0100
fcfdfdfffe0401010202ff0204fe0200ff00ff010100
0102fcff030301fe03ff01fcff00ff00fefdfdff0100
fe04fdff0302fdfe0002fdfe0100ffff050100fefe00
01fe020100fffe00fdfffefd000000ff00ff00ff0100
ffff02fd02fe02ff02fe000103ffff0301fefffe0100
0102ff00010001feff0104f904ff01ff020001fefd00
00fe01fd000300fd00ff010001010102fefefe02fe00
0200fc020000fd01fdfefefd00fe01fd02ff07000300
fffd00000100ff0003ff0302fe01ffff000200000300
01fd000001000002010201ff000004000000feff0000
fc0102000101fcfffe00020401ffff02fe0203fe0200
fe00fefc01fefe000001fd0302ff000000fe00010100
ff00ff01000200fefe0302fe000200fffffffcfcff00
fe08fbfc00020001010401fafffffbfef8fefcfcfe00
0600030202fcfd0301fe0000fe0100fffeff02040000
fe000302fefe00fe0105fffe020203fffb00ff030000
ffff02fe01fdffffffff03fdfffdfffffffffeffff00
