fb02fefefeff02000000ff0000ff00fe0300020203ff0004fe0100fcff0003ff
01010101ff00010100fffd02fefffd00ff00fffe00fe01ff01010104ff020601
fdfffdfdfffeffff02fe0100ffff00ff02ffff0000000201fd0100fdfd00fc01
02000100ff010202010001000102fe0101ff00000102010101feff01ff0203ff
010102fefe00feff03ff00030000ff010203030402fe02fffe0101ff00feff02
0402fef902fffeff0000fbff050101ffff010002ff000104ff01fe0302010200
fe000002fefffd0100010202fe0203ff0100fe010201ffff00fffffd01ff0002
fb03030000fffe00fdffffff01ff00000200fb010000000001fefe0100020000
fffd0200fefe0003fffe0200000002fe0001fcfe000100fefeff00000001ffff
fe0200fe00ff020200fefffefe00040001fffeffff00ffffff00010100fe0300
02fe0200010000000000010200ff000103fffeff03ffff01fe00fefe00fe02ff
ff00fe010100ff01ff0100fefdfffc00040200fe00ff03fe01000000fe01ffff
010000fb02fefd01ff0104fd01fffe030302ff02ff00fefe0400010200fffeff
fe01000000020100020001fe010002ff0100feff0001ffff01ff01ff00010101
00ff01fcfffffeffff0102ffff00ffff020101fdffff0000ff00fe0101010201
00000001fffefe01fe00000000fe03ff02ff00000000fffd01ff0100ffffff01
02fdfffffe0000ffff000100fdfe0300fd00fd0000fd01ff0000ff0000010000
fdfe0000ff000100fe0000fefe00000201ff07000000fffdfd01fdff0000fe00
fdfffffdfefffeff0000ff0200fffc00fe03ff0102ff01030001fdff0200fb01
00ff020000010102fd010000ff0003010100fffdfe00ff04fdfefdff0002ff02
ff020202ff01030101ff010102010002fd01ff00fffe01030400040402000300
0000fe000001ff010101fe00fffffefe0200fc02ff01fffc000000ff0102fffe
fcff02fc01fffd000100ffff00fe02ff03ff0501fdfd03fd0000fffeff02fe01
fe00ffff00fffdfe020001010100fbffff0000fd00fe0101fe00feff0100fe00
