0200020100fefbff00ff03fefefe01fd000004020000
00feff020305ff010401fffe0400fe00000000ff0100
fffe03000001fb00010101feff0200030102fd01fd00
00ff0201fdfefd010202010001ff0101fc000002fe00
00fd03fdff000800ff0000fcff030202ff03ffffff00
00fe03fe0300fdfe0101fffe01fc03feff00fefffe00
fc0102fe02ff03ff05fb01ff02020101fffe01ff0000
ffff01fe0304fcfdfdfb020000ff02fc01ff02020100
00010100010404fd000404fafd01ff01ff0101000100
01fe0100fe030401ff020101ff0200080202fdff0000
fffe010202fffffe00030000fffdfd0100ff00010100
03fffe00030504fefe04fcfe000100fd00fdff030000
feff020100fffe01fefffafc040300fcfffffc030000
03ff0001fcfe00fd01ff02fbfffffe05feff02010100
fffdfe030206fc02fcff000002ff00f900fd00fc0200
01ff03ff010001030301000100010100fefefefeff00
02fffdfefefd0201000300fe0002ff00010000ff0300
04fefeffff03010500fefd000104fffc0102ff020100
ff0202fefe02fbfe02ff000201ff0403000006feff00
00000001fffdf9fc0101ff0202fd00fffe0303fefe00
02fd00fc02040501ff03fefefc00ff0002ff00000200
fe01fcff010202fd02ff01ffffff000100fefc02ff00
fd02040201fffd0001030303000302ff0800fb01fd00
00fefdff02fcfc010002ff00ff00ff00030101010100
ff03fffd0402fdffff00fe02ff000201ff0103ffff00
00000102ff00feff01fd020101ff01fefefffffd0100
fdff0004ff000101fefe00fffd010201fffbfc030400
fdfe00fefb04fefefe03ff03000000050201fe01fe00
010001000200fc0003fcfe03ffffff0101fdfe00ff00
03ffff00ffff01ff03fffd00fffe02ff0201ff00fe00
030400060101fbff00ff010105fc01f600faff000000
020503fffefeff02fffe0a02000501fe03fcfdfbff00
00fcffff020100ffffff000200fd0003fdff00feff00
fe01fefe0201010404fe01030102ff00fd0100010000
ff02fffeff01fd000400fc0001fc01010103ffff0200
fffe02ff0400feff0001fffffdfeff010304fe020200
