1a27f52a0808ed1d240321161306261a0000
261e2723241f21202921231d221c25240000
fbfb01fd03fc000103fbfffa01fc04fe0000
0506ff0103ff01f7fb0bfeff01ff02fb0000
02fe010100fcfdfd05010304fa0201ff0000
00fe02f9faf703fffa0202fffc00fffc0000
0101020404fe0103ff040302010504010000
020502ff0001fe070406fffd0400fe060000
fffbfffe05fff9ff00fffefefe0300fd0000
0000ff02ff03000501fb06fe00fdff0a0000
01fbff0001010102010300fe01fe00ff0000
fbfa00fe02020604f6020204fefb02fe0000
00030000fffc00fffeff000900fefdff0000
fef8fffffd01fe0102ff02fbfcfefefd0000
fd0003fefefe08fcfd00000002fcfdfc0000
00ff04fe0201fc0103fd0004fffd00fe0000
fb0400fcfd00fcfffb00fdfd010000010000
0703fc00fd020300fb0109010002fefc0000
01010104fbfffdfe0206fffffbfbfffd0000
03fd0206fefb04fbfe08fcfb010205030000
fefd000101fbfffffffb01fffc02fd020000
01fefffd0202fefe0100fd01fb0201fc0000
fdfc0101fd0302feff05fffbfcfb04fe0000
fc0001f9fe02000503000001fefdfefc0000
f800fafcfdfe02ff020601fe01fffbfc0000
fffefffd0100fe000100fdfc0001fffc0000
fcfc060002020afb02fbfffffefc01fd0000
0100fb04010503fdfcfdfffc08fb02fd0000
06010400fefe07fdf9fffeff00fd01fd0000
ff0300ff01fe03fe00fbffff00feffff0000
04fa02fe0204fe01fc050203fafdfc020000
020504fe0205fbfdfcfc0201fcff00020000
0003fffffdfdfdfefffeffff020004fe0000
0201010100fd00010104fa0100fd00fe0000
02fa010100f900fd04fafef6fcfc05010000
01fbfd01040000ff07fffe00fe00fe040000
04050501fefb03fdfe03fefe0803fdfe0000
02fcfe02fc00000300fd0104020001000000
01fcfe0500000203f7000601fdfcff020000
00fffcff000204040000ff00fa01fb080000
01fefeff01010001ffff00fd000205ff0000
01fd01ff03fdfd01fafb02fd040301010000
fb00fd05fdff0201fffdfef900fbfd030000
000102f700060304ff00f9030502fc020000
ff07ff04010402fd0004ff01010303fd0000
00ff03fefb030106fafe02fe00fbfbfb0000
fbfbfc01fe0308030100fafcfb02ff020000
fcfafe02060201fdff0e0402f807f8fd0000
01fefefefefa0600fdfdfd01ffff02030000
fc020100010001ff060001fa0401fcfe0000
01fffe0300fc0300ff02fcfe0301f7050000
fb0400fefcfd09fd03fc000308fffc030000
fffdfb0000fa0005fdfffcfffb02f9000000
fffe00fcfe0402ff00fc02fcf8fd00010000
01fffffeff03fe06fc00fe070001ff010000
01fd00fe06fe00fc04ff04fe0004fcfb0000
00fdfefffd01fefe0200fd0300ff02ff0000
fefd00fdfe0aff02fe020002030006fd0000
00ff060201fdfdfb05fe030008fafdfe0000
fc010401fdf800fdfffffbf7fbfbfefd0000
fbfb02fafe06fd0501fbfeff01fef7ff0000
00fdfcfdfdfd00fcff0400fefffffaf90000
feff01000401fafdfaf1ffff08fb06010000
05fb020200fefcfe0301fc01fb04ff040000
00f8fefb05fffd01fc01fdf9040800fb0000
00fe030001f7fcfffef7fb0104fefd000000
01fb010304ff00fffc05fbffff0401010000
0004fd02020306080706ff02fcfe05090000
fffc00fd00ffff010204fdff02feff020000
02fcfffdfafdfd00ff0600fe0101fffd0000
00fbfefb000004fefe0001fcff0001fd0000
0505fe060a070504ff040003010bff0b0000
01020201f9fefd0100ff09ff01fd02ff0000
fe09ff04fefd00f70301fdfc070006f80000
fcfd010004fffdfefd04feff00fffdfe0000
fdfe010104feffffff000000030203010000
fdfefdfe00f7fe06fd0102fff903fe040000
fdfcfcff000001fffffe020101fcfe000000
0404ff000205f9fb0204fdfefefcfd010000
fd0003feffff00fa00fbfbfffafdfb000000
fefe0201fd06fafefffe01fcfffdfd030000
010c01fbff02f901fa010401fffffa000000
04f8fe07fafefefe02fffbfd020601010000
fe02fe05fffe01fc00fefd01ff0304fe0000
02ff03fffc01ff030600fe00fd0000fd0000
05ff0001ff02fefd03ff0100fffe02010000
fe0200fcff03ff01ff06fefc01fdfcfd0000
01fcfe00fe01feff00000602fcfc02010000
f70500fffcf904fbff01fdff0300fd000000
00ff01fffefe000005ff03090001fe000000
fdfa00fe01020600fafefb00ff05fffd0000
fdfffdfeff0600ff00fcff0001fd03000000
000104fe030100ff02feffffff0b03000000
ff000100fbfffdfe02000300fefe00060000
03fe0002fdfdfdfefb020102f9fc02fe0000
02fefffc01fdff01fffdfe0201fffd010000
00fbff0002fd02feff00ff00fc0106010000
0101fefefefffefd0002fa04ff0101fa0000
00fe03f800fe0001fef804030203ff020000
ffff0001020403fdfbfdfe0400f9fffe0000
00020200010002fd0300fffd020207ff0000
020105fa01fd00fffe040303fcfc00030000
ff00fb0302fd01fbfffdfdfdf9f7fc030000
0100fdff040205f6000301fdff03fdff0000
01ff0101ff0101fd0402fdfc0103fdfb0000
ff00fefc0601fefb02f800ff0bfcfefc0000
fdfe0104fefe000001fefefefffe02030000
0003fdf902030200fd03fa030701f6030000
fbff01ff020500fefa05fb00040200fa0000
02fe01fd00fd0806fcf90001fcfc0d020000
010201fb000005000203fffe02ff00ff0000
03ff04fbfe02fefc070805fffe0602ff0000
fdfefefcfd0105fffdfbfc000201fd020000
fa00fff9fffbff01fc060104fefffffd0000
03fe04ffff0000fefcfffefdfc03fdff0000
02ff030101ff05fefff80300fcfffe040000
fafd000503f9fe01f7fe00fdf906f8040000
fdfcfe02fc04fcfe00fe03ff0001fbfe0000
fe01fcfdf901fe000003fe0000fe02000000
fdfa000102fbfc02fffeff04fdfd01010000
fffe02feffff000003ff020301fdfffb0000
04fd07010205fbfb0101fcfc020103000000
fe000101fffe010505fd03fe00fcfd040000
000602faff00fa01fffe0603fe06fcff0000
fb0000000402ffff00ff02fc01fbfd020000
02f9fe05faff0100ffff02fe03fc01000000
030303000000050204f9fe030604fff80000
0104fd00fefe0100fff80106010402000000
03010201fb0002f9fcfef8f90500fffd0000
01ffff0802030101fdf8ff02020102000000
200deb1c1c0b1fe71f1e2e21031bf9f70000
2728151a2d2723282222211c3128262c0000
01feff0103fefd03fcf9fc03fcff02010000
01ff00fa000001000400000202fe00040000
fe02f902020201fe00ff01fefd0102030000
05f900fe030201000200faff030400fd0000
0702fe0001030100030103fe0200fe020000
00fffdfcfe030001f801fc010003ff000000
03ff01ff03000204010001fffe0302020000
070300fb01fe0104fdfffe03000400010000
0002fefdfefb00fd00feff01fffeff040000
fc03020702fe00fe010100030405fd010000
01010000fe0401ff0301fc01fdfdfb010000
fcfc02fcfeff0200f8fcfd020200ff020000
01fd0205ffff0200ff02050000fc00050000
00fc20fefc000103fe040200fffe00fc0000
fe03fffcfd02fdfcfa02fdf9fdff00fa0000
0202fffffe000509fcfbf5fffe0a00fe0000
01fd00fc02fffd03fafbfdfffcfefe010000
0101fcfe00fdfb0003fcfe00030101020000
fffdfe02ff03fefd03f9fc0501ff09030000
fd00ff02feff03fe0104fffefefdfe020000
fd00fefc01fcfefc0107fcfd05fafffd0000
fcfdfe05fbff02ff02fdfbfefbff00ff0000
0104fe01fe030401010107ff010200040000
fc01fe040101fb03fafd00ff020402ff0000
02fbfcffff00fb010002fefe02fa01040000
fe02fdfb07feffff0300fdfd0200ff060000
000400fcffff050604000204020001fc0000
fe020001fc000000fd00fc0400ff01010000
fc01010002fffffc0301ffff040402ff0000
fcfffc02f9fd02fd06f9fd060200fcff0000
000603fa05fd02fffd0001ff00fffe030000
00fa000202fffd020304fffc00fa02000000
fc01fdfc01050203fef7ff0002fe05fd0000
fcfe0200fdfeffff01030100fefefdff0000
0001f9000108fe010603ff0501fb09000000
0002fd0402fdfd00fb0001fc03fdff030000
fc05ffff010100fc000603ff0703ff010000
0004fe00fcfafb0402fc0302ff01fc040000
fefe01fefffffd0000fe050301ff01020000
fdffff040102ff03fffdfefbfd0301ff0000
01fc0003fd02fefffd0100ffff00fb000000
fefffc03fafdfffc00ff0100fefaff020000
00fcfffcfdfffe0002fefaff02fdfd020000
0200fb020002fe00fdfbfefb040002ff0000
0100ff020501fefffcffff00040200ff0000
000001fcfd0102fa0202fbfc0b0200010000
00fffffefaffff0500fffdfe000405f90000
0103fe000100fdfffd0201fcff0302010000
02f701fefefbfffeffff02fe0205ffff0000
fbfeff02ff0100fdfa0408fa0203fe000000
fd01fe0203fc01fffafbfffcfbffff060000
fd00ff03fdfa0101fd030201fafefd010000
00000001fc0500fe02020101010404010000
0401fe0100fd04fe0001fd000200fcfd0000
0005ff02010101fbff05010203fcfdfb0000
fbfa00fffe00fcffff05fdfefcfdfeff0000
fe0301fcfefb000001f8fdfef602fdff0000
fefff6f50203fe05fefe05fdfb0000fc0000
fcfb0000fffd0503fcfffffb00fafc000000
fffd01fc0401fd0101fcfeff040405030000
01fe00fd0204000506ffff07fffffc050000
00fe04fd0003fb02fffe00fdfeffff000000
03fc02000001000001fdfdff00ff05010000
00fd00fcff04020101fbfcfbfbfd04fc0000
0302fcfdfffbff07fffbfe00ffff02020000
fbfe02f8fe000206fc0afe0001fdfc060000
ffff0203fbfcfe020001fdfc040400020000
ff010402ff01fdfe010003fcfbff00ff0000
fe00fd0301fe0101fe02fcfefbfdfc010000
fdfffdf800ff02070404fe080202fc020000
000200f902fffa0002fffffe0300fd020000
050201fc02fcfe0200fffefefffe02020000
03fdfffffffe0300f9fdfefafffe01010000
0100fdfe02ff00fb05fdfc08fefffe010000
03fdfd0404fbfefdfcfcfffe03fe00020000
fffffeff020001fd02ff00fcfbfafeff0000
0401fc04fe03fffd01fefa040400fc050000
fdfd18fe01000101fe02fe0101fe00fb0000
0001fbfa03040000ff0204fc01fd03020000
07fefe06fe00020301fdfd00fefcff020000
fcfd01fe0601010100fffa02fa0400ff0000
fd040006fc03010302fefe02020004fd0000
0000ff0100040000fefe000001fc01ff0000
01fe0000030201000301fd04ff01fefe0000
00ff0205fe010003fe010101fd0101ff0000
fffe00feff07fc03faff00f9fd0102fd0000
010600fb0103fe0305fc09fdfd02fb010000
fd0402fe00fe00fb0c030104000002fe0000
01020000fe03fd000002020200f903fc0000
ff0201fb03fdfafe03010103020400040000
040506fd0305090405010308fbfffcfb0000
02050102fffffa06f9fe0304010201fe0000
0604020003ff0100ff0206fb000002ff0000
fd020200ff000200fd00fe05fc0504fd0000
fffffafc01000201fdff00fafd00fffe0000
0201fefffefffffefe0100fbfdfffbfe0000
02fd00fcfcff03fffffbfcfe0204ff040000
fd03fdfd0000fc00ff0000fdfffeff020000
fe020500fe07fb0201ff0201fd0008fe0000
00020000ff0000ff00fa0002060101000000
ff04ff06fc020404fdfffdfc0001fdff0000
fffd0405fff9fa03f9fcfc06fffafb020000
fe0000060302fafeff0100fffcfe01030000
02fefffeff01010101fd00fffc01fefc0000
000100fc0103fcff01000000fefcff010000
f9fb0207fefdfffe0107fcff0100fffd0000
00ff0001fc02fd00fe00fcfd02fd01000000
00fb00fbff02ff03000505fdfbfb03fa0000
04fe0201fc000601fdfcfe02fefe01020000
fd0201fd0103fc030101ff0406fe01000000
00fe0205fafa000401040401000103fc0000
0005ff0105fffefcfe0006fb00fbfefe0000
03ff00fb05010002000402fbff0101ff0000
02fe0105fd01000200fbfe00fe0100fc0000
fd0000fe01fffbfdfffffe0101fc00030000
0102090103fc0302010807fc01ff01080000
fdfd00fa01fc0102feff01fefffefeff0000
fe03feff02fd06ff00ff0200010001ff0000
fefefe0000feffffff00fffffc00ff010000
010200fc01ff02ff04fe03fc030005fa0000
fffdfe0200fd0003fcfb01fefb0105050000
02fdfefd00ff0304fdfffefdfe00fefb0000
0301fd02010103fc00000000ff0202fe0000
02010201020502fd01fe04fe010305030000
fe00020002feffff02fcfe09fdf801010000
fd03fdfefbfdff02010303040103fc000000
0002f9fdff03f9ff0001fbfafffffefe0000
fe000404fffdfeff0003020101fcff020000
08153117150304fc1b2ffffef40cfb1d0000
212e21232b1c2226202024262a2228160000
0304fefa02f905fffe08fe06fffcfefd0000
fb00ff0201fe00050306040001fd03fd0000
fe0100fefe050002fe02fffe020004fd0000
fe0d020007ffffff030002fffc01f9fd0000
00fefdfdfdfbfc050303ff040101fe030000
fffc040102fefc01fefe0000040aff020000
fcfdfb0601f502fafdfcfd0001fe03020000
03ff02000201000100000102020101040000
ff0200fc00ff0401fdfe02fefc0201ff0000
ffff02fb0201050106ff04020300fb050000
fc02040000fe02ff01fe0103f9fe03f60000
fe04fdfffffbffff01fbfe00fd00fffa0000
03ff040103ff04ff010202fe01f8fffe0000
fffeff0003fc000003fbfc0302ff01000000
fb01f9f801fcf8fef9fd0000ff0300ff0000
0d0004000009fb03000208f804ff01020000
fefffffb05010200fefe02fdfd0301000000
0002fcf901050701fc04fefdfe0001010000
fffa00fdfdfcfc0200fc0100fffc00f60000
fbfffbfefd0102fefdfbfdff0200fd000000
020305fdfffe0001030200fe00fbfff70000
ff00fffeff09fe01fa0003fd02fa04fb0000
fefd0205fe0306fd02f703fdfcfc02ff0000
0000fe020003fb03020002ff07ff00070000
00ff000202fa020502fb000002fcfc000000
0205fe00ff00ff02030007fc0201fc020000
08fb06070800fc050301040602fefc050000
020101fffffffefefdff0000feff00000000
0107ff0601ff01fd0001f90101fe03fc0000
04050e0001fcfbff02fffd04ff02fc030000
02fdff0200fbfd000202fb0101fffe010000
0303fffd050000000000fd00fe0509010000
050101fa03f8fd01ff03fdfffd0203f70000
0101feffff0000ff00fffdfefa0101fd0000
00fdfdfdfe04ff02ff0505fffdfffdfd0000
fe000201fcfffe04ffff00fe00fe02fe0000
fbfc05ff0201010201fffafe0202f9020000
0005fefffbfbfffbfefb0301fe05fcfa0000
fafeff04020401ff0001fc0203ffff040000
01fff902010100ff02fe02010001fffd0000
0501fe02fe03fe01fffffefdfcfefcfe0000
fd01fa010107fcfefeff0000030400fb0000
fe01fffefd0102fcfc000104fe02fefd0000
fbff000302fc010300fcffff04fb00fa0000
0101fffffb02fe020300fe00fe00fc020000
0501fa020006fc0306fdfb0203f807fe0000
0301f804fffd0102fbfefffcfd0802fc0000
05fb05fefffb0202fafa0002fffe02fa0000
00ffffffff04020001fd0200060201000000
ff00fe05fe0103010102fefefbfc01ff0000
01ffff00feff0000fafefdfffffd02010000
fffd00fdfd0500f7f8fd0400fe00fefe0000
010301fb00ff00ff00fe01fffe0304fe0000
fd00050101ff00fdfefefffefd02fffe0000
ff00ff04fdfe010502fd0001feffff020000
0003fefa01020102fcffff02fb04fdff0000
03010100fdfe0206fcfe0101fefe05020000
fffafc0506ff02fdfd0007fd00ff00ff0000
fbfe01ff020504ff00fbfe00000afeff0000
ff04f904010300fbfc02fd02fef700ff0000
01fdfefb05f7f5ff04fdfd0302f900fc0000
fe01fefe01fe02fdff02fe03fa0104010000
fefefa00ff0000fffb04fd04000303020000
00fefcfd01fffe00fefe00ff000004000000
02fa00fefbf90100ffff01010101fe000000
fe06f6fe0201fe00f90501fffe05ffff0000
000100ff01fdfd0701fd02fe020405fa0000
01fdfefdfff9fffdfdfbfc01fa05fbfc0000
fb01f9fe0004ff05fbfd00ffffff05ff0000
06fe0004f907f80300fefefe020404060000
fdfa040303f5fffefffe0100fdfe05000000
020000090000040809030601040004090000
fffd010302fc02fbfffb00fe000100ff0000
fcff0203fffefe020303000300fffe030000
fd01060102fa010403fffffd0805fefb0000
fefdfef900fdff02fcfd0201fcfefbf90000
ff0001030101ff02fc02fefd000107000000
fd01fcfefe04fdfffb0001fb010005fe0000
0003fbff0000fffcfe02fffdfdff01ff0000
07fffaf800030100f6040000fd0002fd0000
0201fff9fbfc0100fb0204fefe00ff000000
feff0100fc030400fbfcfffd0001fefc0000
ffff0204020301010302ff010205060a0000
fb0602ff000302fe0003f90103fc01000000
fafdff00fffefffcfbfd0303fd0102000000
fe04fcfe04fcff0000fd00fefffdfdfc0000
01f9ff05f9ff0601fef8040001f602010000
ff0201ffff01000203feff05fe0400f80000
0200fa01fafefd0204fd0703fffffe010000
fd04fd00ff01ff0207ff04fefe01fd000000
0401ff04fbfffefb07ff040402fd00010000
02ff0000010200fcfb0004010102ff080000
fdfbfffdfdfe04fdff01fe0200f9f8000000
03ff000301fefe00fdffff0006ffff000000
fffbfafbfefefdfdfdfe01fd01ff07fe0000
020106fd01fd03fefefb0000fcfb01fe0000
00fc01fdfd0305fb03f80402010103ff0000
04fb03ff00020100fbff01ff04feffff0000
0200fefbff04fd02ff070101ff05ff020000
fe00fd0702fdfdfffefeff0104ff00020000
fef701fcfe04fd04fdfd06fe00fc03020000
00080202fbffff0103fb02fe03fffc090000
f8fdfd00fc0400ff07fffe010501fd010000
01020400fffc0208fefe0401ff02fb020000
fdfffb00fe07000202fdfe01fd01fafc0000
fafefafefdfdfa0802f9ff00010701fa0000
ff04fc00ff0403fefffd030402fffbf50000
0302fffffe05ff02fd0002ff0107fa000000
07fefd0602fffe03fb01fffdfe00fe020000
fb04fb0109fc0303fffc00030603fe020000
fd00f801fdff03fffefdfffe020206040000
03fd000102f9ff010100f7020302fefc0000
ff01fc0303fdff0001fe00fe01fffffd0000
0105f904000004000204010100fdfefe0000
fefe0104ff04010107f9fbfe0201fefc0000
fefe02fdfc05ff000800fefd00fe02fd0000
010202ff03fe04fdfc06fd0401fe03fe0000
ffff01feffff02fbfffe030b000103fe0000
020002fc03fd0004ff01ff00ff04fcff0000
01fdfc00f9fc04f9f90301fd010000fe0000
fe0004fdfefefbfdfb00fbfa0600fffe0000
05f5fcfcfe0401010000f60401000c060000
010501faff05000400fefe0304fefe050000
feff0402fe0409ff0100fffe01fbfa010000
040002ff01f9ff000001ff020103fefd0000
fbfd01fe020203fbfd0304010306fe000000
ff02f9ff03fbfa02fd0304fffcfffcfa0000
ff04fbfcfd0006fd03fefd03fefe03020000
26fe163911300f1be829f61ae00206370000
202d26212d22192e2e202f25252f34180000
fc01fcfa0303f50403fd040500fd06fb0000
03fffdff0201000103020309040301000000
ff00ff010001fefb02fe0504fb0301fe0000
ff0407020303fcfb03020003fd0400f60000
fe0000fb04fafe01020004030100fc010000
fe050201fbfff800030001feff03fefe0000
ff0000fdfffefa05fb00fcfbff0400fe0000
fa030400fe0103000204fffd09fd03fd0000
01fd02fd01fc01fdfe0000fe010101010000
fc0101fafefc03fe0100000001fcfc000000
0afffdfffffdfc010406feff0401fa030000
fa03fcfdfb00ffff01f8fffbfd03fffa0000
000306fc0301070100000100070304010000
00fe02fdf9fefefcfe01fdfefe0203fc0000
02fd000400fdfe010101fbfdfafe03fa0000
fb010ffe03fc03fc04ff0508090001020000
fe010004fffefe01fffe010100fd02fc0000
fc0301fefffc0200ff01fd03000300fe0000
0400f700fff7f702020200fcfd00fe070000
fc000101ff04fe010202fffefe0300ff0000
0001fdfe03ff01ff00fd0506fd0106fe0000
0102ff0200ff01fffd00fdffff0100fb0000
0000fcfd02fd00fffe0007ffff0300000000
fd07fffefefefdfa01fa0200fe0201fd0000
fdfffc04fbfffb030202fb00fa0202fc0000
ff0205fe010000ff00fd04020600fdfb0000
03ff04f90501fcfcfe07fb07ff0005060000
0403000101fdfe0000fefdfb05ffffff0000
01fffb00ff00fefdff0105fd00ff03040000
fb0205fc0401fd0701fc05fffe06feff0000
00ffff030300fbfefc0203ff020102010000
fdfefb020106fcff04fd0105010003010000
fbfffcfeff07fefc01fe01fcfd00fbff0000
000002fe00ff040202fdff01fe01fefc0000
07fffa00fc02fffc0204000502fefc020000
fb0002ff00fe02ff00fe01fe0400fdfe0000
ff03fefffe000100fdfc0100fbfffdfe0000
0203fff7ff0003ff000200ff04fffdfc0000
05040001fefd02fcfdfcfffd020403030000
0002fffcff01010204fdfe0303fe01000000
00fdff00fafe02fefefbfcfefffe00ff0000
01fcfffcfefa060001fffcff020001fd0000
00ffff0003fbfd0603ff01fe01ff03010000
fc02fffffc0300fcfefc02fd02fbfef80000
f90100fe02fd02fa00ff0202fdfa00f50000
00fe0105ff050801fb08fc060300fffd0000
02fefdff0300020504fc01ff03fe02010000
02fd00fd00040201fefb04ff0301fcfe0000
fd0102fdfdfc040101030002030104060000
fc01fe01fe06fdf9fcfb00fd00fbfcfd0000
fbff02fffdfdfefd01fe010000fc01f90000
fdfb04fafefcfc0301fa0006040105fd0000
0001fd0000fd010204fdfffd000201000000
fefc01fdff030108fd0202ff06fdff020000
020101fe05ff01030101ff01ff01ffff0000
00fe000103fd05fb0004fefe0301feff0000
020200fffefcfa0302ff01f902fe00fd0000
0200010001070103fdfafefe0701fffd0000
fe05000001f8fe0001f400f90000fc010000
01fe01fa00fbf7feff03fdfcfefffefe0000
000100020003ffff0300040003f805010000
0101fe01fefdfe02fe000000fcfdfffd0000
01ff03fdfe01fa0004fbfd0403fdff040000
00fdfe0500fa01ff0a02ff000106fefc0000
03fdfd00fffe000202fd0504000402060000
ff01fd010003fc04ff0504fffdfefdfd0000
01feff04fe0405fcff010102fd01feff0000
fd00fefe0003fd02fd0102fd0303fffc0000
fcfdff00fd00fe0500fb00fc0402fffc0000
040306fe0004f9f9fe040304fcfd0a060000
fb05fd06fe09fe02030204feff0700f80000
fefffc01fe02000202ff02050400000a0000
f90000fefefc00ff01fc01ff060201000000
f8ff00fffeff0102fffeff00fefdfe050000
ff0502f801f802fc02fe0503fbfb05ff0000
01fefafefe01fd0201000300fffcfdfd0000
f902ff01fe05fc02fdfe0201fe0304fd0000
fffefcfffd00fefc0202fafffd0300000000
fcfbfc0100010300ff01fbfe000100000000
0003fe01fffbfc0409fefdfefe04fd0a0000
02020304fdfd000400fe02000500faff0000
fffb00fdfd0301fd01fdfc000401ffff0000
0307020600fffe030000fc03040201fb0000
0001fd01fffe050000020201fffffefe0000
03fefdfd00fd02fe04ff06ff03ff04fe0000
fe04fdfc00fafefefcfbfefc000203f70000
01fcfefefff90aff02fc08fd0005fb010000
010200fc03ff01ff02070200000000010000
ff01fefdfe00fdff0305fffffb01fd010000
0005fc0300fd01fd00ff06ff04fe04fc0000
02fe04fe0502f805fefd07010504fd030000
0304ff01fefcfcfe000100fd040402fa0000
00fbfdff02fffffcfafffa02fffeff010000
00fd02fd00fe010003ff01000200fffd0000
ffffff0305fefffd03fbfafeff01fe010000
fe000001ff03fffefd0403ff0100fe010000
fc03fef703f50efffffffff60601fffe0000
04fbfefa02fd04fdff050101fd0103fe0000
05ff03fffe02020202050006fd00ff020000
02fe00fe01030101ff010000feff02fc0000
0400020100fcfa0104ff06fc030600060000
010101f803fc0005ff02000300ff02000000
07fefffbfcfa020105fbfdfc01fc00f80000
ff0100fefffafd0203fcfcfc00fefb030000
04ff0301fdfd01ff02f9fffdfefefdff0000
020102fd04fb04f9fffff9fb0400fefe0000
fdfcfcfd01f9fd0101fffd0101fdfdfe0000
000303fe05fe04fcfefd0002fdfffc000000
f0fc00feff0001020203010104fc010a0000
0103fc01fd00ff00fd0201fd0301fefa0000
fc01fefd00fdfbff00fefffdfe0200000000
fefb010502fdfcfffd020200fcfc02fe0000
fe0102fffd06fefefefdff000203fff90000
fe00010bfe04fdfefff90100fb0002fc0000
fcfffe00fefb000001fc00fe0204fdf70000
fe00ffff06fe0403fff7ff02020903010000
ff0300000200fcfdfd0100ff000101050000
0cfefd000bfdfffefb04fffdfefd00020000
03fe01ff00000101ff0102feffff02fe0000
00ff01fc02030102ffff00000100fe000000
01fc01fcfefafbfffe03fefa0100fffd0000
fffcff070101fefd0206fdfbfefcfafd0000
fafffffffb0401fcfdfd000305feffff0000
fffe03fd01fcffff00fe02ff0200fffe0000
fefefe090202ff04fafcfffd01fe05040000
0400fdfcfe010501040100fe00fd03f90000
02fefefefd05fb0202fbfafdfcf7fcff0000
ff020000fe0203f8fe01020202fd00ff0000
2825ed24211220291b1011312e15100c0000
1d1d2c14161f251e28241f2222242a2a0000
fafc00fbfa0503fd07fb010503fe05000000
02fe06050301fd000402fdfe02fe01020000
ff000000fb01fb020200fc03fe0502ff0000
f80003ff02040001fe06ff01020302ff0000
fd010301050102030107fdfc0202fe050000
000203fefff903feff00ff0202fa01fc0000
020303fdfefd0005fafdf9fefd02fdfd0000
010205ff01f8fdfeff02fe02040302000000
02ff00fffd01fd04fb0002fffefc02ff0000
fcfb0300fb0101fcfbfdfcfdfa03fdfc0000
0303fe030dfc0202ff0400fbfdff00010000
fb01fdf4ff0100f8fb020203fefcfafc0000
02fe0100060700040102fd04fffbfbfd0000
fffffbfffffff802fd01fef9fd0401010000
fbfa00fdfcfffcfdfc02fefc0300fefb0000
fdfb06020303fa070cfcff09fefc06000000
00ff01fbfffefefe00fd0005fc0003fe0000
fbff01fff3000100fef9fa0104f802030000
fdfdfe060303f8fe010402fb0004fa020000
fe0001fcfeff02fefdfffd01fc0103fe0000
f802fcf5f4fe02fd0200fefbfe0201020000
02fbfdfcfffffffffcfd030100ff00fd0000
02fd03fef90405fbfbfb01fffcfefc000000
ffff06faf9fd02fc01ff03fdfd02ffff0000
fd01fc00f6fefd020100fc03fffd01000000
00fbfdfb0204ff0101ff04060100ff000000
fe04010900fefc00fc00fd030604050c0000
fd01030100fe0203020101fcff0101000000
fd02fe0102ff06fc010004ff010102020000
00030003fc020501f9fd05fd0203ff060000
fefe01fefbfffdff0304030405fefd060000
02fafc05fcfb06fe03020104ff0202fb0000
040100fb0507fbff0302fd06fefe07000000
07fe000002fd0000000104fffefefefe0000
01fdfdfffdff06fc08040602030202010000
fefb04fbfe00fffc05fa04fefb03fdfe0000
0500fffcfe0803ff00fbfffe050401ff0000
f7000103ff000303fc00ff00feff01ff0000
ff030001f9fcfcfeff02fefbfd0502000000
01ff01fb03fefcfa0005fefcfbfc01000000
05fe0001fc00fefefcfbfdfd0100fe000000
fefb00010203f902030003fb07ff00000000
fd03020003040103fd0605fb0304ff020000
030001fbfb0002fc02fefd0000fcfc030000
fbfbfcfefa02fe02fffc03ff0105fffe0000
000400fb0301ff03fa0103f502fdfe090000
fefdfffffdfcfffdfffdfffcf8fdfd000000
fefc03ff0101fafefb03fe0502fbfffd0000
fefffe000506000300ff0405fefefd020000
02fe03f7fd030300fefbfe0001fe01ff0000
080103ff0403ff05fdfc0500fe0100000000
0601fdfbfe020aff04000003fffc00030000
ff00fcff05f902fa0000fe00fa0503030000
0104fd000f03fffeff01020000ff00fe0000
fc01ff03fc020301fcfc00fcff0000010000
fdfc0202fefef7fefb01fcf700fbfaff0000
fbff0000040400060400fefe02fdffff0000
0bfb03fffbfb0200faffff0401fffeff0000
feff02fd0401f90301fefefafe04fd020000
f7fc000102fffaf9fdfb02f909feff050000
0003fefeff0304f8fd000005010205fb0000
fffcfd02fd00fd01fbff00fdff0102ff0000
fe0304feff01fcff04000203fdfefefe0000
fb01fffefe03fefc0206fffefffffc020000
fbff04030106fe02fffe020502ffffff0000
02fd03fefe0003fc0401fe03fbfe01ff0000
fdfbfffffffffefefefdfafe000105fe0000
02fe01fffcfafefefe0401010cff02ff0000
00ff00fcfe05f9010000fcfdfbfd00fc0000
0703060305fe020106fafe02020d04ff0000
fc05f8f6f4060201fe00ff04fefcfdfc0000
fe01090102fdfefffd01fc030003fe000000
fe0602fb09fffefefa0300fbfc0200fe0000
fe01030102fcfc0103fffdfd0100fc020000
00fdfefcfb05fdfefffc0101fe01fffe0000
fdfefd02f8040102fff9fc03fbfafe000000
fefbfdfdfbfeff0101fdfd01fa02ffff0000
0000fcfc0101fdfefe0203fef700fe010000
fdfcfefc0100fc00000102030200fe010000
fb01ff0b0005f9fd0003f80302ff04030000
0002fffe01fefd0104010304f8fb02010000
000103ff00ff00fbfb0102fcfffd01fc0000
060202fa00f9fe03fe0002fd01fc03000000
fb0001010000fb0502fbff02fc0203ff0000
fd020000010105fffa030004fcfffbff0000
020301f8f9fc03fb0100fe02000000030000
08f902fe010302fe03fffdfc05fcfdff0000
fcfcfe0ff900fd0001000101fdfc01ff0000
030104fff5fdfdff0102fd01feff02000000
fdfafcfdfff80100fffefffe030400020000
000602ff0dfaff05fc000001000404010000
fe0205fffeffffffff010202ff0401fd0000
fbfdfdfc00050a010600fe040afcfc000000
0000fb0003fdfd04fefffefffffdfd010000
0703fe00fffb05fdfeff01fc03fc03fe0000
fdfd03fffcfd02fdff0400fcfc0203010000
fefb010008fe04fcfb0002fdeffdfe030000
fefc0000fb03fe010105030005fffa000000
02fefffff9ff01fd06030201040003010000
ffff01fefafcfffbff03fefefc0101ff0000
02fffd0306fd00ff060204000101fd000000
fe0100fbff040201fc00fe04fe0801fe0000
05fc0000fefdfff9fe0106fbfafdffff0000
fcff0501fffffffefffe0001ff0000040000
0302fd00fd0002fe0302ff01ff00ff020000
02fc01010505f80004fdfffbfe01fffe0000
fffefe02fbff02fffd0004fd04fefeff0000
02fd0000fefe01fd010500fc02fefdfd0000
0005fc0400000102fffefdfdfe0001fe0000
fa030001fcfd03fbff0701f9fc03ff020000
000004fc02fd03fc05fefffffafefefe0000
000300fef902fffcfd0200f900fafd050000
ffff01f900ff04fe07fd04f90000fc030000
fbfa01fefc0503fd02000101fdfc00ff0000
02fff8f9fc05fe01fdfd0402fdfffd020000
0201fafd0506fd0002fe0300f9fd04fc0000
0001ff0402fd0102fefbfafdfefc01000000
02fffd0203fe0106fefc0000ff01ff050000
ff00fc02fe0301fd00ff00fffeff00fe0000
fcff0302fefc0000fd04fc03fefb00000000
040202fe0500fcfffcfdf8fb00ffff020000
fe0001fe05fffbff040302fdfbfaf9fd0000
fefffffc000100fdff0104fa00fefbff0000
fefefcfc02fe00fcf8f9000a02ff02fd0000
03fefb02fe0100060002000002fffdfb0000
fd050206020202fd05ff04fb0204fd010000
fefbfefbf8fdfbff01fdfdfd000100010000
00fd0504f800fdff000102fb0202fefe0000
220e1e25161a260c17170d2bec1a07030000
24282118242b232f282b291d301d26310000
0001fb000104fd02ff0006ff00f703070000
fafe0703fe0503fdfafdfe03020301030000
00020303fdfdfa0701ff0000fe02fd030000
0105ffff03fcfc0106f9fe0102fe03000000
020704fd03fe00010407fdfc07ff03020000
ffff02ff000006fe01fd0200030200030000
fc03fd01fefcfefc00fd01fe01fe00070000
fe070200fe000e0104fa0202010205000000
fd0005fffffeffff000100fd0004feff0000
fc00fb040001fb01020104fdfcfcfc000000
00fe03fefcfdfbfefffd03fdfffffffc0000
00ff0006fffcfdfd01feff02ff00fe020000
0001fffdfe00fe03fffc010303fe01ff0000
04fbfdfcf9fefefd02fd02fd0106fafd0000
fe01fd0000feff00fdfffbfdff01fa020000
05080403fd01fc02ff01ff000200fb000000
0302fcfc01000103fdffff0702fe03010000
020200ff0204fc02ff00fdfafefffffd0000
fcfffd0104fc07020300fefafffd01000000
fc0001fcfb02fc05fefefa02ff0402ff0000
fe0101f8fcfefffdfb03fefd0206fdfd0000
01fdfb01f902f6fefd00fffefefdfafe0000
fefd07010202fffd05fd0103030001000000
fc010105fdfeff00000102fefffdff010000
0503fdfdfc02fbfe000003ffff00fffe0000
050203fd02050300ffffff07000203000000
0502fc0403030203000210fc080104fd0000
fffffdff00fd01fe0305fffcff0102fe0000
0002fff80205ffff0003fc07fffe00000000
0701f701fd040201fd000604ff06fe000000
0303feff0500fefd00020100fe01fb020000
02fe0101fbfb00fffcfe040600f702fc0000
fe00f70200fcf80202ff01fd0203fe040000
02fdfefbffff01fffd00feffff0001ff0000
fe00040604010502010404fc030600000000
fafbfefeff030000fcfdffff01ff03ff0000
fcfffefd01fdff0307feffff01fd03010000
05fe04fffc0301fdfefc0000fd03fbfb0000
f8fe00fc00fd04fdfe00fe04060000ff0000
fffeff0201fe000300fefdfc030001fd0000
fc01f803fafffffdfffefdfffcfc01000000
fafdfd060102fefffefbfaf9010001ff0000
ffff060201070302fe0403ff03fd00030000
0302ff01fcfbfc0301ff03fbff05fc030000
020000020300fbfd020001fffffa00030000
04fbfdfc0407fcfc0005fef80505ff000000
00feff0001fc0000fb00fb01fd01ffff0000
01fe040301feff00fd02feffff01ff020000
0103fb04fefd01fffeff00fefefdff010000
01fbfeff01ff030305fefc0b0302ff010000
0000feff02010002fc00fffd030202fe0000
0104fbfefc01ff0c0102fdfd00fb01f80000
f8f9fdfcfdfe02fefffffd02fcffff060000
01fc00fbfffd0201fffffdfa040002ff0000
fdfffe030000fafd0100fcfdfb0000000000
fcfa05f9fffffefffe00fffefffa00fb0000
fdf902fdfcfc0008030a03fc03ff01fd0000
0706040a0300fe0201f902ff02fdfb020000
fd02f8fefefc02fffffcfefe02fc01ff0000
fe0300fcff00fd0003fbfcf800ffffff0000
02fcfe04ff03fffa01fa0300fefd00040000
fffe01fffefbfe0102fefc02030302ff0000
f9fcfd0401fc03fe0101000503f903fe0000
fefdfefcfcfe0204000003fcfe0001ff0000
fffd01fa0805fffffd0500000100ff040000
fafefcfb01020000ff04fefa00ff04020000
f800fa000300fa020202ff00ff03fcfe0000
060402fe06fbfffe00fffdff01fc02000000
fefffc00000100fbfafffcf602ff04050000
0407fdfa02fe02fbff00f901070608fb0000
04fc0101fbfcf8fefc05fffcfafe01fb0000
fd0005feff0305fdff000a04060108020000
fc03fdff03fb06fefe0000fd03ff04000000
fc0203fafefdfd01fd00fdfe020304fd0000
0205fe0401fdfc01fdfd06ff01fcff050000
fcfffd05fffef8fefafafc02fc03fe010000
01fafffd000000fe00030207ffff04030000
00fbf80000ff0100fefdfffa0001fefe0000
0007fbfb01fbfefefd00fdfd01fbfd020000
fafe04fcfaf9fa01fffcf905fafffffe0000
000103f8fefc030501fe0102010501fd0000
0700feff00fcfe01fdfefdfefffffb010000
0503ff02030202fdfd00010104ffffff0000
0001fefaffff0007010101ff030200010000
fffb05fefe00000001ff0007fffaff010000
fd03fdfffdff01ff08fd0004fff800030000
08fd03fcfe050200030002fd02fd01050000
0102fdfeff000403fd0001fcff01ff030000
03fdfcff050504ff06010500060003020000
00fe02fc000101fffd03fe060001ff030000
07ff0000050301fdfa02fdfb030604000000
010801fdfffd040102050103fbfefe010000
fd0200fb020100fffd030104fd05fe010000
fffe00ff00010005030101fd01fffdfe0000
0500fdfa020700fefefffffefe00fffd0000
fe0001fcfe0000fdfffb00fcff0002fe0000
fb00fc02fcfffe0203fa01f301fcfa050000
00fc01010000fbfeff06fefcfe02fe010000
fc000602ff01fffdfefe02fffe02ffff0000
000200fdfe020208fffd0100020300060000
ff0002fb07fdf801fffdfe06fdf8f9040000
fdff0102fb01040001ff02fe010303fe0000
00fcfc03ff00fefcffff010202f803fd0000
02fe01fe000101fefeff03fdfd00fffb0000
01fefc00ffff0100fdff00fffdfd00010000
fcff0405ff02fe0200fdfdfcff06fdfe0000
fefd0205fa05fd0204040301ff01fdfe0000
fafc010404fffe0105fffffffeff00fd0000
000001030303fd010404fc00fc02fd010000
0006fffe01fe01010b04030b08ff02000000
ff0203fcfdfc06020002fc0202fd06000000
ff0402fc0702fafe00fa00fc01fd01010000
02ff01fa01010105fd01fffc00fd02ff0000
fe03fc00fc00fefbfcff0301fef9fe020000
04fffe0306ff03fcfb00fdfcfefd02000000
fbfd03010002fb01fa06f9f7fafefdfe0000
fcff03fa03fdfdfffefcff06fc01f9ff0000
ff00fdfd04fdfdfdfffbff010102ff010000
fe000004fe0103fffefffffefbff00000000
fefd03fd0100040000fe01fd02fd03ff0000
ff00fefcfdfbfefd0304fffafbfbfe030000
fbfa01f905fdfdfafffef8fbfe03fdff0000
ff0002fc000001000101ff05ff0303fe0000
0001fe00fe00ff00fc0002fefeff00ff0000
020300fafefefdfc00fc0b0001fd00fd0000
fa000400fdfd08ff02fc000302fd08000000
fffc0202fa0100020100fe04fdfd01ff0000
fe00fbfffbff03fefefffefc04fc02fe0000
160406f81f0e0c18260f2516160b292e0000
1f2722291f241d2b23241d261f2729120000
fdf9fcfffbff000101fcfbfdfdfa02ef0000
fc020308fc04fcff0103040101fb01fe0000
fe01ff0200fffefdfffe0000fd0403ff0000
000106fd08ff03ff0101fe00fffa07010000
000202020204fe030003000203fe07010000
fe0200feffff030402fd0207fa0202010000
fffe0203fb00fb0000fcfd02fcf8fdff0000
04fcfe010104fefa0701010404fd06000000
ff010000050701ff000301ffffff04fc0000
0105000101fb0402fdfdff0803fcfbfe0000
ff00fd04feff01040504fbfefffe00fb0000
fdfe03ff020203fcfffffdfcfc00fafc0000
03ff0401fb0200fb01010e000100fc010000
0007fefe03ff02fbfe0001ff0002fdff0000
fcfe04fdfc01fefdf8fdfe03fcfb00000000
ff09020107ff010001ff07fc030103070000
fdfdfffe0500fe04fd00fd02000504ff0000
fdfa0500fdfb04f802fefffefb0404040000
fdfdfe010102fc02000200010200faf80000
01fefe0103ff020103fffffaff0003f60000
fdfe04fefbf9fb02fef9fcfbf6fefdfa0000
02ff03000100ff03fdfdfcfd0101fcfd0000
fbfefe01fbfcfc020103f900ff0afd030000
ff0202fdfffbffff0003fdfd0206fd010000
03fffbff04fdfdfefcf7fefefffffdfe0000
fe00ff02fbfe0201fdfd0405fdfe01fd0000
00fd020205fafe0204ffff010b02fe040000
ff01fffe05ff0002fefe0101fe0200ff0000
0001fa030300fcfe01fffffe02fffefd0000
02f7fdfdf6fb02ff0207fffb0500fafd0000
fbff000000fdffffff00fd00ff02fffc0000
01fa00010303fe0202020704fbff05f40000
fefe02fffdff0200fcfcfb06050000f60000
06ff00fbff05fffefd060202feffff010000
fe01030102ff0000fffefd030402fafe0000
02fefe01000001fefcfeff00fffafeff0000
04fffefcfcfc0903fc00ff0afdfffd000000
0000ffff01f907fcfe04fbfdfdfd04fc0000
fe02030400040200ff030003fffb02fc0000
feffff03fe04fffe00020202f9ff02070000
03fdfafe0503ff01fe010101fd0000f80000
fbfd05fc00fffd01000102fe010201fd0000
fd0104010000fc02ff0204fffe0401030000
0203ff01f900000202fffdfcff06fd080000
01fffffe030501fe02020200fbfffefb0000
ff0400000701ff04fcfbfdf9070600030000
fcfefcfffbff0202fc0003fcfe0808fb0000
fa0701fefefeff01fc000103fcfcfd010000
0301040101ff01fe0102fe02fc01fd050000
fefa03010202ff020102fe02040201fb0000
fe03fffe04ff00fefbfcfdfbfc0301020000
010406fdfa000601010200fdfd05fffd0000
fefffdfe00ff0105fefffc01fb00fff90000
02fe010400090303ff0402fcfafe00010000
ff03fafeff02fffd020204fc04fe02010000
fffb0603fc05fef9fe0401fdfe05fd010000
0203f801ff01ff000004fd04ff0402030000
01fff600ff02fafdfcfc06f60001fc020000
0304fffffc05fcfdfe0300fbfe00fbf80000
f7fe0002fafcfefdff02faf7fe0204f40000
fdfcfc080100f9010508fd0200fc02f80000
0000010000fc03ff0201feff0203fe000000
fe020504f9fe03fe0201fd02fefbfaff0000
fc0400010102fdfefb04ff00000405fb0000
fcfc0405fdf6030401fdfcfefd03ff000000
fd0201fe02ff05000501ff050005fb010000
fd0302fe0703ff0001ff00fe0304ff030000
00fff8fe06fcfdfefb05fbfbfc01ff030000
fdfafefdfc0b05fbfcfefefcff08fffd0000
0606fd0202ff070301fdfcfb0801fe010000
f9f9fc03f9fafdfd0102fb03faff00000000
0106f902fd02010206fdfe0306fd06ff0000
010101fffffc0100fdffff00fc03fffa0000
ff04fc01fffe04fcfefffe03010000090000
04fff90404fd06fcfeffffff00fdfefd0000
00fe01fe01fdfdfffdff0402fdfeff000000
fcfe0303feff020208f90101fa0200020000
ff0400fffc00fcfefffcfdfdfb04fcff0000
02fc0103ff02fd02fc00fffff9f900fd0000
fe00010505ff03ff08000100fffe02020000
f90101020602fa00fe030000ff0503f70000
fefe06ff0004fdfbfcfc03fcfc0604f50000
fe010304ff0001fc0002010103fd00f90000
00fefc00fffffffffefefafd01fa01010000
0500090300fffa0dfe03ff0200fafbfd0000
fe03000104fdfb00f802fc03fc0205fe0000
fafff900f803ff02fefdf8ff0200fb070000
fc01fd0100ffff020300040007fffefd0000
000305fd06f4fb03fcffff06fe02fcfb0000
0000fffdfbfe00fefffdfe06ff00fefc0000
fd02ff02fefbff00060100fefafb04010000
01ff00fefdfe03020101010001ff04fb0000
0301fefd02fd0201faff0001010006fb0000
01fffefcfd01fefffe00fffeff01ff060000
00010502fd03fe04fd01fe010204fefa0000
ff00fffb030100fcfffeff02fdfdfdff0000
0a000901f70100fe03fd030405faf6ff0000
02fffb01fe0003030101ffff0c03feff0000
fefe020003010101fe00fd030502ff070000
03fffcfffffa0002ff0100ff01fcfef80000
000104ffffff00fdff010101fc0002050000
0407fefdfe0206fb0003f6f900fc02fe0000
020203fffd04fc00fd01fdfd01fcfdf60000
0004fcfefc03010104fd03fd03fd02050000
fffffd010102fdffff01ff03fd01fff90000
fa0302fcfd0206fefd0007fd0200fefd0000
020003fe03faff00fc0306fdfefffe030000
01010afefd0000fffdfe06070001fdfe0000
fffd01ff00ff00ff01fe050301fb01fe0000
0103f70302070005fb04fd02fdfa02fe0000
fbfef702fe0208fffffefd0302fd01f70000
020405000100fffbfc07010005fffffd0000
03fdfb05fefefefffe02f803fd0203020000
0204fdfdf6ff000500fcfafdfa02ff040000
fbfef8fe0306fd00f9fe0000fffffd020000
fe0402fbfa0002060000050400fbfdf80000
fd00fffefcff00080300fe04fffb01fa0000
ff020005fe01fffdff030303feff00030000
ff02ff02020401ff000000ff06fe00fe0000
fe030302fa01f50004fb00fcfd03fdfe0000
01fffc0202020501fb000100fffffef70000
fd040301ff01fefd04f902ff0204fe010000
fdfe07020402fffdfefcfafd030303000000
07fffe0005fd0004fd09fdfcfefffefe0000
03fefd00fdfcf6fe0005fa0403fffdfd0000
010003fffd0405fa02ff00020100fdfc0000
fef7fe02fd00fafb02fcfcfcfcfbfbfc0000
050003fefafcfdfefdfc07fd01fbfefb0000
32f406390b23151a0817fb22e80f221f0000
19201b2226202e1825201d25281f23250000
f70502f5fffc0bfe0000fefd01fa01fe0000
ffff02020301fdfd0000fffe000601000000
ff0306fefd00ff00fffffdfefffaff040000
fa07fe0102fcfcf401fcfd00fd0201fb0000
00fdfd00020102fffefe02fd040103050000
0001fc0403fe0804020502fffc0301fe0000
00fb00fd0104fcfdfd0000fd0401fb000000
ff0203fafb0303fd000a03040406f9020000
0001ffff00fffcfd03010200000503fe0000
000200fd01feff0900fefffbfef9feff0000
fe0202ff02fefffefefffdfe010208ff0000
fd0103f8fcfb01ff020502fefbfffdfa0000
ff0002fefd0400fe010505fffdffff020000
ff0200fcff0002ffff000300fb0001010000
00f6fafdfbffff00fdfb00fdfa0101010000
0200ff01fe0700fcfe02fb01040602070000
fe01fbfd02fefefa02fd00fe04fefc060000
fb00fd00fefefefa01fdfc06fffe02060000
fc06030205fdfe0203fafefffdfc00fa0000
fe01010002fffdfc020001ff010001ff0000
fbfdf9fe05fc05f8fc02fdfd02fdfef90000
fffd03fd01000000ff00fb0404fe01000000
fc0206fe05020404000000020408fefc0000
00fe030000fcffff00fd01fe0401fefd0000
fc030600fcfef9000100fdff06fafbfd0000
fefdfdfd01fc02fe02050204fcfd02030000
06faf401010105feff04fefffb0401ff0000
0003fefefb01fffd03fffe03000202000000
00fbfb0200fcfffb01fdfdff03fd04060000
f6fb04020300f9fefa0200060301fafc0000
000000fcfefd01fafefcff01fffb00010000
fc01f9fb04ff07010607ff0001fa01050000
fffcfc000203fbf7ff0102fa050205fb0000
00ff000001fcfd0503fc07fe04fe01ff0000
06fefefd020300fd00010301000305000000
fffc05fffe0101ff0001ff01fffdfdfe0000
fa01fbfffefc0a0403fd03fffbf900fb0000
fdff00fbfffe0203ff01fb0206fffd000000
0200fe02fcf904fd0004fffdfefc04fc0000
01020002ff01000800040101ff00fc060000
fdfe02fefbfefb0200fc01fffd0002010000
ff0409fcfb0103fa04fd05fc020102000000
fa04050105fffffa00f80502fe03ff010000
0001fffbfdfa06ff02fd07fffffafbff0000
fdff04fdfffefffe010406fffbf8ff000000
00fe02fd040202f9fdf5f906fe0101030000
fc03fdfffe01fa0904ff01000503fefe0000
050001fe04fc0102fffe0503fbfb01fb0000
010403ff03feff02050300fa0400f8ff0000
06ff04020002fe01040204fc0402fefd0000
0100fdff000101fe02fdfffe0402fd050000
fd00fdfc01ff00fcfcfefd0202ff05fe0000
fe05fefffc0400ff02feff0103fefbfe0000
0102010504fefffe04ff01fe01fdfdfd0000
fffdfb000004fd0303fb0300ff02fc010000
ffff04ff01fffc00fefb03faff0103030000
fdfefffcfa0002090603fd0103f7f9070000
0700fcfefcf802fa010403ff03fef8fc0000
fb0105fffb00f902fffbfefefc00fdfc0000
f8fefefffdfa02f001fc02fb00fffdf90000
fa030201010302fff605fb01fd02fd030000
06fefb02040002fe0000fd00ff0500ff0000
fd08060303fa01fafe00feff040506f70000
fd0402fcfdfbff0202fdfa0202fd02020000
060502fe0701fc0203020202000402ff0000
00fffe030107fe00fffcfefe01fffffc0000
00f803fbfcfdfa0504fe02fe00ff03000000
0303feff05fe02fbffff010203fffcfb0000
fc0606ff00ff02fd00fc03fcff02f7fb0000
fafeff0709020502fb0101f9000d00000000
0106f9fb02fefb080001fb0501fafbff0000
000200050301fefefc05ff030102fefe0000
00ff0303fe01fafe02fc01fe02fefcff0000
fdfcff0302fd0001fe02feffff02ff000000
fe04fcfafcfdfe0a03fb02fd010001030000
020303fefc02fc04fdfe0002fefffdff0000
fbfd0001060405fefe0101ff0304fefa0000
0101010101010002fdfe01ff00fd02fe0000
fcfd0001fffdfd02fcff00030200fe030000
0300ff01fe020103fcfff906020408010000
f60b04fe0100feff02fdff0102fd01f90000
020107fc0005fe0401fc03020101ff090000
fffffc02ff02fdfdff04fefffdfeff070000
02fcfb020200feff0000fef9ff03fcff0000
03fd0102fcff02040100fe02fffd06ff0000
010002fa01000500010000fd00fcfcfd0000
f40806fb0001fe07fc0605000504fef80000
03fdfffdfefffd00ff02ff0302fffdff0000
01fd00ff04f80101fd02feff0305fb000000
02fdffff01ff07000007fd00fafa00fe0000
ff03fffd050404fef80700060501fe040000
fe00fd03fa050000fe01fe0300ff00030000
fdfbfe00000002fcfcfffd010003fb000000
ff0304fffd01fc02fc0102fcffff01fe0000
00fd02fdfc01fef601ff00fffe0200030000
f9fcfdfefefffe0301ff0002fd030a010000
fb01fefffdfdfd0700ff04fc030202fa0000
04fbfb00fb00000002fc040100fb04020000
fbfffbfc01fefefa0102000100fd07000000
01fd0101fd00fefcfffcfdfcfd00fe030000
010402fffc0a08030600fc0401fb02010000
fcfd01fe05fa00fefc05ff0006ff00040000
f901fe03fcfcfdfd000102fd0202fdfc0000
01fefd080203ff020002fe01020301f90000
fefe0000fefffffdfdfc0000fdff02040000
02030500fd0103ff06030afa000001000000
fa0104f8fefd01fb01fafe00010100ff0000
00fc02fe0000fdfd02fc04fdfcfd07010000
0500fe05fffffcfefdff03fffffd00020000
0101000202ff04f9fdfd04ff0102fdfd0000
f80405ffff00fcfe05fcfffe0806f6000000
fd00fdfefdfcf90208f908fcfefd03000000
