ff
03
fd
ff
fe
fe
fe
01
02
01
00
01
02
00
00
01
fe
02
00
fc
00
01
fd
ff
fb
00
02
fe
00
ff
fe
02
03
fc
00
01
00
ff
fe
fd
02
01
ff
02
00
00
fe
00
01
fe
01
03
01
02
fe
ff
ff
00
03
fd
01
01
02
01
01
00
fe
ff
00
ff
00
02
01
02
fd
ff
01
fe
01
00
02
ff
02
fe
03
01
02
05
02
00
02
01
00
00
fd
03
02
ff
fd
02
ff
03
01
ff
ff
ff
00
fb
ff
fe
fc
03
fe
00
ff
fd
00
00
01
00
04
01
02
03
01
05
04
00
ff
04
ff
00
00
fc
01
00
fc
01
01
01
00
00
fe
00
fd
02
00
02
00
03
01
04
fe
01
fe
01
00
00
00
00
ff
02
00
ff
fc
fe
ff
00
fd
fb
ff
03
fe
01
fd
00
fe
ff
fc
00
ff
ff
ff
00
00
03
02
04
00
ff
02
01
02
ff
01
fe
00
fc
01
ff
fe
fd
00
02
01
00
ff
02
fc
01
02
00
ff
00
01
ff
ff
fe
02
01
00
00
01
01
fe
fe
ff
fe
01
fc
01
00
fb
01
00
ff
00
01
fd
02
00
00
ff
00
ff
01
01
01
00
01
fe
01
01
00
01
03
00
fe
01
00
01
fe
03
00
ff
fe
ff
ff
01
fe
02
ff
ff
02
ff
04
02
02
00
ff
ff
ff
03
01
00
fe
ff
02
ff
ff
fe
fc
01
02
03
ff
fd
01
fe
02
00
00
fd
00
02
00
00
00
ff
fd
03
fe
03
fe
fe
01
01
01
01
02
00
00
00
fe
ff
02
01
ff
fd
ff
02
fe
00
ff
01
ff
01
fd
ff
03
00
01
fc
ff
01
00
fd
00
fe
00
00
02
02
01
ff
01
00
03
fd
fe
01
01
03
00
00
00
fd
02
ff
01
03
fe
00
ff
02
03
03
00
02
fe
fd
02
02
00
ff
fe
00
00
fd
fc
01
01
ff
ff
01
01
02
fd
ff
fd
00
01
02
00
02
fd
fd
ff
ff
00
04
00
fd
01
fe
01
fc
ff
03
ff
02
07
ff
03
03
00
ff
fe
ff
fc
05
03
ff
fe
01
ff
ff
01
00
fe
02
ff
ff
00
02
00
03
01
01
00
01
03
fe
ff
01
02
02
fe
00
00
04
02
01
01
fe
ff
ff
fe
02
ff
fd
00
00
00
01
fd
00
02
01
fd
2e
16
ff
01
f9
01
ff
ff
fe
ff
fe
00
04
fe
00
01
00
00
ff
ff
fd
fd
fc
fe
ff
00
fe
fd
ff
00
ff
01
01
01
00
fe
ff
ff
00
01
fc
ff
01
ff
ff
ff
ff
ff
fe
01
01
ff
00
fe
ff
ff
00
01
01
fd
ff
00
01
01
00
00
fd
fe
ff
00
00
00
ff
01
03
03
01
fd
fb
01
fe
fe
fe
ff
00
00
fd
ff
ff
fe
fe
00
02
00
fe
fe
00
ff
ff
fc
ff
00
00
fe
fd
04
02
fe
ff
fd
03
fe
01
01
ff
fe
ff
01
01
02
00
01
00
ff
fe
fe
ff
ff
00
fe
ff
ff
fe
01
fc
ff
ff
ff
ff
00
ff
01
ff
00
00
fd
ff
fe
01
00
03
fd
fe
fe
00
ff
00
01
ff
fd
fd
ff
ff
02
fe
ff
00
fe
00
01
fe
ff
fc
fd
03
ff
fd
fe
ff
00
ff
fe
00
ff
ff
ff
ff
04
00
00
fe
ff
03
ff
fe
fe
00
03
fc
00
ff
ff
fe
fd
fe
ff
00
fc
01
fd
ff
00
01
ff
fe
03
ff
fe
02
01
01
ff
fd
ff
00
ff
00
01
fd
ff
02
fe
01
00
01
fe
01
fe
ff
02
ff
fe
fd
01
00
00
02
fe
01
00
fc
03
00
02
01
fe
fd
00
00
01
00
ff
01
fd
ff
fe
ff
01
02
fe
01
ff
00
fe
fe
ff
ff
ff
02
fe
fd
00
ff
00
00
ff
fe
01
01
04
00
fd
00
ff
02
00
fc
ff
ff
fe
00
00
04
00
ff
fd
ff
00
ff
fe
fd
ff
01
01
00
ff
fd
00
ff
00
ff
00
01
00
00
00
ff
00
fb
ff
00
02
01
fe
fe
ff
ff
fc
02
01
03
01
01
01
fe
fe
01
ff
00
ff
fe
fe
ff
ff
ff
ff
00
00
ff
00
00
04
fe
ff
fe
01
ff
fe
ff
00
00
fe
fe
02
00
fe
00
00
fe
01
fe
ff
02
02
fc
ff
00
ff
01
ff
00
01
01
01
ff
02
fd
ff
ff
00
fe
fe
01
01
ff
00
fd
fd
fe
ff
ff
00
03
ff
ff
01
00
01
ff
ff
02
01
fe
00
fe
02
ff
ff
ff
f9
02
03
01
01
fe
00
03
ff
fe
00
00
ff
ff
01
02
ff
01
fc
ff
fc
fd
03
ff
ff
fe
ff
01
fc
fd
00
01
02
01
ff
01
02
02
01
ff
01
fe
01
00
ff
01
ff
00
02
ff
fd
00
00
00
01
01
ff
fe
00
00
01
03
fe
06
00
ff
00
fb
fd
01
01
fb
fe
00
fd
01
fe
fe
00
00
00
ff
01
ff
fe
ff
18
26
01
01
00
01
01
ff
fe
01
01
02
ff
ff
02
01
ff
ff
03
ff
00
00
04
fe
02
01
ff
00
01
01
fe
fe
00
01
00
00
fd
fd
ff
01
00
00
01
01
00
ff
fe
ff
ff
ff
00
ff
02
01
00
00
00
fe
02
01
00
02
fe
01
ff
00
01
fd
01
00
00
fe
00
fe
01
00
ff
ff
01
00
ff
01
01
ff
02
00
02
01
01
03
fe
01
00
03
ff
ff
01
01
02
01
01
fd
00
ff
00
fd
fd
00
ff
01
00
ff
03
ff
fd
03
fe
ff
fe
fe
01
01
ff
fc
fe
00
ff
00
01
00
ff
fe
00
ff
fe
00
00
00
01
fd
00
ff
01
ff
ff
fd
00
00
01
01
00
01
03
03
00
ff
01
00
02
00
04
00
00
02
00
02
00
04
02
fe
01
00
fe
00
fe
01
00
00
00
00
01
ff
00
01
00
00
01
02
00
01
ff
02
00
ff
fe
fe
02
00
ff
00
01
00
ff
00
fd
00
03
00
00
00
fd
01
03
01
fe
ff
00
fd
01
00
fe
fe
01
01
ff
ff
00
fe
ff
ff
fe
00
00
fe
00
fe
01
00
ff
fe
00
ff
fd
00
fe
ff
00
ff
00
fe
01
00
01
00
fe
fe
00
ff
02
ff
ff
01
00
03
fe
02
01
fe
ff
00
ff
fe
fe
02
02
01
fe
fe
fe
01
ff
fe
00
01
ff
00
02
ff
02
00
02
03
ff
01
ff
01
01
02
00
02
04
01
ff
01
00
00
00
01
01
fe
fe
ff
04
01
01
fe
fd
02
ff
fe
01
02
01
00
02
01
ff
00
ff
01
fe
00
fe
ff
01
ff
01
ff
ff
ff
01
00
fe
01
01
fe
fe
00
01
00
ff
00
01
01
01
01
ff
fe
00
03
02
fe
ff
01
fd
ff
fe
ff
00
ff
fd
02
00
00
ff
fe
00
01
01
00
01
02
ff
01
00
ff
00
fe
00
02
ff
00
01
02
00
00
00
02
00
02
ff
fe
00
01
01
01
01
00
ff
ff
00
00
ff
fd
01
fd
ff
04
00
02
fe
00
ff
00
01
ff
00
fe
00
02
fc
02
fe
00
01
ff
00
02
ff
fe
00
ff
02
fd
02
00
ff
ff
03
fe
01
ff
01
ff
fb
ff
03
fe
00
01
fe
ff
00
01
ff
fd
01
ff
00
02
01
fe
ff
ff
ff
fe
01
00
02
01
00
00
fe
01
00
01
00
01
02
ff
ff
01
01
ff
ff
03
fc
00
01
ff
00
01
02
ff
02
02
00
ff
ff
01
00
01
fe
ff
00
28
19
ff
fc
fe
01
fd
fe
00
01
fe
00
00
00
fc
00
01
ff
fc
01
ff
02
fe
01
ff
ff
fc
01
02
00
00
fc
01
02
ff
fd
02
fe
ff
fd
ff
00
03
fd
01
00
00
00
00
ff
00
00
ff
ff
00
00
02
00
fe
fd
00
fc
00
01
02
01
00
01
fe
ff
01
fe
02
00
fe
ff
ff
00
ff
ff
ff
00
ff
01
02
ff
fa
00
03
fe
01
01
02
fc
00
ff
fd
ff
fd
01
ff
ff
00
ff
ff
fe
02
02
02
01
ff
00
00
fe
01
ff
fe
02
00
01
01
fe
00
ff
ff
ff
00
00
00
fe
ff
04
00
01
fd
ff
00
02
02
fe
01
01
00
00
00
01
00
fe
00
ff
03
fc
01
fe
01
fd
00
ff
00
ff
fc
ff
ff
00
01
00
02
03
01
02
ff
ff
fe
ff
00
ff
03
00
fd
01
fe
00
01
00
03
00
fd
fe
fc
00
00
00
ff
ff
fe
00
ff
03
00
fe
00
ff
00
ff
00
00
01
00
ff
fe
00
fe
01
00
03
fc
01
01
00
ff
01
00
01
03
01
02
fc
02
ff
00
02
04
01
ff
ff
fe
ff
ff
fc
00
ff
01
fe
01
02
01
01
01
00
04
00
01
ff
fe
00
00
ff
00
ff
ff
00
fd
ff
02
fe
ff
fe
01
01
fe
fd
03
ff
01
fe
fe
fc
01
ff
fc
03
fe
ff
00
fe
fe
00
00
00
ff
fd
02
fe
06
fd
05
ff
01
01
ff
fe
ff
02
02
00
00
01
01
00
ff
01
02
ff
ff
01
00
fd
01
03
fe
fe
00
02
01
ff
02
02
fe
fe
fd
fd
00
00
fd
00
fe
01
ff
01
fd
ff
00
ff
00
fe
00
ff
01
ff
ff
00
ff
fd
01
02
03
01
fe
fd
fe
fe
01
00
01
00
00
ff
00
01
ff
00
01
fd
01
01
ff
03
00
01
01
00
00
00
02
02
00
ff
00
fe
fe
ff
00
00
ff
ff
01
ff
ff
01
01
00
ff
ff
ff
ff
02
ff
05
ff
fe
00
ff
01
fe
ff
fd
fe
05
01
01
ff
01
00
ff
01
ff
fd
01
fe
fe
01
00
01
fe
fc
ff
ff
ff
ff
00
00
05
00
01
02
fd
fc
fd
fc
01
ff
00
01
00
fe
00
ff
fc
fa
02
fd
03
02
ff
fb
00
ff
01
00
fe
01
00
ff
ff
fc
ff
ff
01
ff
02
00
ff
00
02
fd
01
00
fe
00
00
01
00
00
01
01
00
00
ff
00
04
fe
ff
01
03
ff
01
00
ff
00
00
01
00
fe
ff
02
1a
13
ff
fe
0a
00
01
00
00
03
fe
02
ff
fe
ff
01
ff
fe
ff
00
02
04
02
03
01
02
ff
ff
ff
fd
fe
fe
01
fd
fe
ff
00
ff
01
fd
00
ff
02
02
01
02
01
01
00
00
04
02
fe
00
fe
04
01
fe
00
fe
fe
fe
01
03
ff
ff
ff
ff
00
00
01
ff
00
fd
00
fe
02
03
fd
ff
fe
00
fc
ff
fe
fd
00
fe
03
fd
01
01
01
00
02
fe
fd
02
ff
00
04
fd
00
00
00
02
00
02
07
01
ff
fe
ff
fd
05
fe
00
01
01
01
ff
fe
00
fe
fd
02
00
00
00
fd
02
04
02
fe
fd
fe
fe
02
ff
00
ff
ff
02
00
01
00
fd
00
01
01
01
fa
fe
02
02
01
fd
00
00
05
00
fd
01
02
00
fd
fe
fe
00
01
02
fd
ff
04
ff
00
fd
00
02
fe
fe
fd
04
02
01
ff
00
00
01
ff
fe
ff
ff
00
02
02
02
fe
04
ff
fb
01
04
00
00
fe
fd
fe
00
01
00
fe
00
ff
01
00
01
fd
fe
00
01
ff
fe
02
ff
fc
ff
00
fe
fe
fe
00
01
02
ff
00
ff
fb
ff
01
ff
ff
01
01
01
03
ff
ff
01
04
ff
01
00
00
00
fb
ff
fe
01
ff
04
fc
00
fc
02
02
02
00
00
ff
fd
02
00
fb
fe
ff
02
ff
01
06
00
ff
02
ff
fc
fb
fd
00
01
fe
01
00
03
01
00
fb
ff
00
fe
ff
01
00
ff
ff
02
00
02
00
ff
01
fd
ff
ff
01
ff
00
03
ff
00
fe
00
00
fe
fe
00
00
01
00
fe
02
01
fe
fd
03
fe
00
05
ff
01
00
01
ff
07
02
ff
fc
00
fe
01
00
03
00
fd
01
fd
ff
ff
04
ff
fe
fd
01
ff
00
ff
ff
01
03
ff
fd
ff
ff
00
00
ff
fe
03
fe
00
00
01
04
00
01
01
ff
00
fe
01
01
ff
01
02
ff
03
ff
01
ff
fa
fe
ff
fc
01
02
02
00
01
01
ff
02
02
ff
ff
fe
fe
fd
00
fa
01
00
00
fe
fc
ff
ff
00
02
02
02
05
01
fe
ff
ff
ff
fe
00
ff
fe
02
00
00
fe
ff
00
fe
00
02
ff
fb
00
02
fe
00
01
fe
fa
03
0a
05
fe
04
ff
fa
02
01
ff
fe
fd
02
01
fd
ff
04
fe
01
01
fe
fe
fe
03
02
fd
ff
01
00
fd
00
fe
fc
ff
01
01
fe
ff
fc
06
ff
ff
02
fe
fb
ff
05
01
02
ff
ff
00
fc
ff
fd
02
01
01
29
29
00
03
fd
00
02
ff
02
00
fc
01
02
00
01
00
fe
02
fd
fe
ff
fd
fe
01
01
fe
ff
ff
01
00
ff
00
ff
02
fe
ff
ff
fe
fe
01
01
fe
02
00
ff
00
ff
01
ff
ff
02
02
01
01
02
ff
01
00
00
ff
fe
fe
ff
01
ff
ff
00
ff
fe
00
ff
ff
02
00
00
01
00
fe
fd
00
fe
00
ff
00
01
01
ff
ff
00
fd
fe
fd
ff
ff
ff
ff
01
02
fe
fe
ff
ff
ff
01
ff
00
01
03
fd
00
00
fe
ff
00
ff
ff
00
fd
00
00
01
00
01
00
02
fd
01
00
00
01
fe
ff
01
00
00
ff
ff
01
ff
00
00
00
01
01
ff
fe
03
fe
01
01
01
ff
fe
fe
00
fe
fd
02
00
fe
ff
01
00
fe
ff
fd
ff
01
00
02
00
01
fc
fe
02
ff
01
fe
01
ff
ff
02
fe
ff
00
02
00
03
02
00
fd
01
01
01
fe
fe
fe
00
fe
01
02
00
01
ff
ff
ff
00
02
01
00
fe
02
00
01
01
01
fe
ff
01
fe
ff
00
ff
ff
00
ff
01
01
fe
00
00
01
00
02
ff
ff
00
00
00
00
00
00
fe
00
ff
fd
ff
fe
ff
01
01
00
00
fe
01
fe
ff
02
03
fd
01
02
00
ff
ff
ff
01
fe
00
00
ff
03
02
01
fe
03
ff
00
00
ff
ff
03
fe
fe
ff
00
01
01
01
00
00
00
00
01
01
ff
00
fe
ff
00
01
ff
00
fe
ff
01
00
fe
01
01
00
01
ff
ff
ff
fe
01
ff
ff
00
03
00
ff
02
01
02
fc
02
02
fe
01
00
02
ff
ff
00
01
00
01
01
ff
01
fe
fe
fe
fe
00
ff
00
fe
01
fc
01
01
01
00
ff
fe
00
00
02
00
ff
01
01
00
fe
00
00
01
fe
00
fe
01
01
02
02
00
01
00
02
ff
00
02
03
ff
ff
02
00
fe
ff
ff
01
00
fe
01
00
01
ff
ff
00
fb
00
01
fe
00
00
01
01
fe
fe
fe
00
00
01
00
02
02
01
00
02
ff
fe
00
ff
01
02
ff
00
fe
00
01
ff
ff
00
00
02
00
01
01
ff
ff
ff
02
02
fe
ff
00
00
fe
00
01
fe
00
ff
00
ff
fe
ff
ff
02
00
00
00
ff
00
00
fe
00
fe
00
ff
fe
fe
00
fe
00
01
fe
00
01
ff
00
01
00
fd
00
ff
fc
ff
01
00
02
00
ff
00
ff
00
ff
ff
01
ff
02
fe
00
fe
ff
00
00
01
fe
00
00
00
00
f2
25
00
ff
02
fe
03
00
ff
02
fe
ff
03
ff
ff
00
fe
01
00
ff
02
01
ff
02
00
ff
00
03
01
ff
00
02
01
ff
02
00
fe
fe
01
ff
03
01
00
fe
01
01
00
fe
00
ff
01
02
00
01
fd
01
fd
ff
ff
01
fe
ff
01
00
ff
01
00
02
fd
ff
ff
00
fe
00
ff
ff
00
fe
06
01
00
ff
ff
01
00
01
02
02
01
01
01
00
00
01
ff
03
01
ff
03
02
fd
00
00
00
02
01
00
04
00
01
00
00
00
ff
01
02
fd
00
01
ff
04
00
ff
ff
01
ff
00
00
00
01
01
ff
00
00
01
fe
ff
ff
01
00
03
01
00
02
ff
00
01
fe
00
ff
01
04
00
00
ff
03
fe
01
00
ff
00
ff
00
00
02
00
02
01
02
ff
02
00
01
fd
00
ff
fe
02
00
01
ff
02
00
00
fd
00
fe
fe
00
01
00
ff
00
01
01
00
01
03
01
00
04
00
fe
01
02
fe
fe
02
ff
ff
ff
ff
01
02
00
fe
00
fe
fe
fe
01
01
fe
00
ff
01
ff
ff
01
02
fe
fe
fc
01
00
01
ff
00
ff
03
01
01
00
fe
03
02
ff
01
fe
03
00
fe
fe
ff
00
02
ff
00
01
01
00
00
00
02
ff
00
05
00
00
ff
01
ff
03
00
01
03
ff
00
02
02
00
00
02
00
fe
02
00
01
04
00
fe
00
fe
02
01
01
fd
01
fe
01
01
00
02
02
02
01
01
01
ff
02
01
01
00
02
fe
ff
03
01
01
00
01
01
fe
02
fe
fe
ff
00
ff
00
01
01
01
01
fc
02
00
00
ff
00
00
00
01
01
ff
01
00
ff
00
01
ff
01
04
ff
ff
00
00
01
ff
fd
01
ff
02
01
00
00
fd
00
02
00
00
00
fd
ff
ff
00
fb
01
01
01
01
00
01
00
02
fd
02
01
00
01
ff
02
ff
fd
00
01
02
ff
01
02
fe
00
01
fe
ff
ff
06
fd
01
01
fe
ff
00
00
01
fe
02
ff
00
ff
fe
01
01
00
01
ff
fe
ff
ff
02
02
01
ff
00
00
00
ff
00
03
fe
04
03
fe
fd
01
00
ff
fe
00
00
ff
00
00
01
02
ff
fd
02
01
ff
03
fe
ff
00
01
00
ff
02
01
ff
00
01
01
02
00
00
fe
02
01
ff
ff
01
01
02
00
ff
00
00
00
00
ff
02
01
fe
01
00
02
ff
ff
ff
ff
00
00
fe
00
ff
00
00
00
02
03
ff
fe
ff
02
fb
29
00
00
01
ff
00
ff
00
02
00
02
ff
01
01
01
00
00
01
00
00
05
01
ff
00
01
00
01
00
00
01
fe
fe
ff
fe
01
03
00
fe
fe
fd
00
01
00
00
fe
00
ff
01
00
00
00
00
00
00
01
02
01
fe
00
00
02
ff
fc
00
00
01
00
00
02
00
fc
ff
00
01
01
01
02
02
00
ff
fd
01
00
fd
fe
02
00
01
03
01
00
00
01
ff
fe
fc
01
00
01
01
fb
fe
00
ff
ff
fe
00
ff
00
01
02
01
00
01
00
00
00
00
ff
fe
fe
00
00
00
00
fe
fe
ff
01
02
01
ff
00
ff
00
ff
ff
ff
ff
fd
ff
00
01
ff
03
fe
01
fe
ff
00
fd
fc
00
00
ff
00
00
01
02
03
01
01
ff
01
01
ff
ff
fd
00
01
fc
01
00
01
01
01
00
ff
00
00
ff
01
ff
fe
00
00
01
02
01
00
00
00
ff
03
00
ff
fe
02
ff
02
fc
ff
00
00
ff
01
01
00
01
ff
01
fe
ff
ff
ff
01
02
01
00
ff
00
04
01
00
fe
00
fe
02
ff
03
00
ff
00
02
00
01
ff
ff
ff
00
01
00
01
01
00
00
00
ff
02
00
ff
01
00
00
ff
ff
ff
00
fe
fd
ff
00
ff
fe
04
02
fd
01
ff
00
01
fe
00
01
ff
ff
03
ff
01
03
fe
03
02
00
00
01
02
ff
ff
02
ff
01
fe
00
fc
fe
01
01
01
fe
01
fe
01
00
ff
01
00
00
ff
ff
ff
ff
04
00
ff
ff
fb
ff
01
fe
01
00
01
03
00
01
00
01
ff
ff
01
fe
ff
02
01
02
02
fe
01
00
ff
03
fe
fd
00
ff
ff
00
02
02
04
ff
02
01
01
00
02
01
ff
fe
00
01
ff
01
ff
00
fe
01
ff
00
00
01
ff
ff
01
00
00
ff
01
03
00
01
ff
02
02
ff
01
ff
ff
ff
00
fe
00
ff
ff
00
01
04
00
00
03
00
fd
ff
00
01
04
01
ff
01
01
00
00
00
ff
00
02
00
ff
fe
00
01
ff
fe
ff
02
00
ff
02
ff
00
ff
01
fe
00
00
fe
00
02
01
fe
00
03
fe
01
ff
ff
ff
02
02
00
fe
00
00
ff
02
02
02
01
05
ff
01
ff
00
fd
00
00
03
00
00
00
00
01
ff
ff
00
ff
ff
02
01
01
00
ff
01
01
01
00
ff
00
ff
02
00
00
fe
fe
fd
01
ff
fe
00
00
00
00
01
ff
01
fe
00
02
00
fe
00
01
00
dd
27
01
00
03
ff
00
00
01
02
02
