28f7e509051efbdd07fd0dff1e1c270827ef
1d23233129222b2a292028232e1f2b1d2320
020100020100ff0100ffffff0201feffff00
fe000001ff00000103020101ff0002fb0100
fd00fffffd02030100ff0000fefffffeff01
03fd0002feffff00fefdfd02ff0000ffff01
030200fd0001030103fcfdfefcff01ff0100
00fb0202fcfe0104000201f9fefe000204ff
fe01ff00fe040003fdfffe0201fa0002feff
03fb020102fc04fd050001010002fcfd02fd
ff0003ff02fcfe05fffd0401000301040103
fc0007fefefbff0201fffdfcfefd01000201
02020100fffdfffd0101fefeffffff00fd00
0002000002ffff0201000200ff01ffff0000
ffffff0001ff0102fe04fc000103ff00fffe
0105feffff010203fefefc00ff0102040000
0101fefffe0101000203fdfe0200010401ff
fd000101ffff0200fd000201010000fcfe01
fc00fc000000000100fffefdfd01ff03ff02
fcff000100ffff010102fffe0101fffefeff
02fefdfe020001ffffff00ffff01fffffe01
fa000202fe05010302fdfd03ff0004fffdf9
ffff00feff02ff01fe0000000202fefeff00
ff01040101010301ff02ff00ff0100ff03ff
fb00ff0203fffd000101ff0201fbfc04fe02
0300030006fe01fffaff03fefe01ffff0304
01fcfefeff01fe0102fd0502fdf6ff03fd01
fbfd050103ff0300fffefdff020001000005
050202000301ff02ff0001000000fd01ffff
fefd00fd01fa0000020403fd00fe00fdff02
fe01fffa02fc00020003fffefd00ff060000
0001fdfffa01ffff03000500020304010000
050202fe02feff0403fe0203fdfffffefe05
fdffff010401020102fd0301fffffffdfb03
00030103010202fd010400ff000002ff0101
fd020200fffc0000fe01ff0003ff02ff0301
02fdff01fd01fe01050100fffe02ff000201
ff02ff0200ffff0001feff0001fe0100fe02
fd01020200000103ff0001ff01fefffeffff
fe0001ff0203fe0100fe03fd00000201fc02
fe01fffe04fe0200ffffff0301feff020001
fa0003ff0000000106ff0001fbfe00fe00ff
fffffb00fd0101010101fcfefefdfffd0001
f7fdfdfdffff00ff0304020001fe00fffffd
0000fdfefe01fffefe0001f8020101ff03ff
01ff00010302010005fe000101ff0100ff03
fe03050102f90001010504fc00fc01020100
fd06fb0000ff010000fe04000100ff02fe01
01040101fd0101fffd0103fefe0101fffffd
0101feff04fdff02fdffff00fdfafe040000
04ffff01ff01fc02010402fc02ff03fc00fe
fd02ff00fe01fd0002fbff0100faff0002fd
01fffd02fffc04fffdfffe00fffffcfd0100
fd0202fffdfefd060005ff00fe02fefe0000
fdfd01fe0002fb00fb00000501fd00fe0200
00fe03010306fe0102feff00fffc01fafdff
0102010101fd010200010100ff0300fffffe
f8fdfcfeff00fe0103000002fc0001fffdff
fc0502fd0103000202fefc030201ff000200
fc00feff000101010101010002fdfe02fdfd
02040402fd00030000ffff0001ff00fa01fd
0402fe0002030201ffff02fe020500fffd00
fd0202000200010101040201fdfeff010001
0302ff0101020000010000fefffb00ffff04
0301fffd0002feff03fe0100ffff03000000
fd00fe0202010003000103000003fdfffefe
ff0402ff00fb0000ff0000fe040101fffeff
ff000202fefffe0202fdfeff0003fffefeff
0202020000fb01ff02fcfefe000103010100
ff02fefdfffb02020202030400fcff00fdff
fefc0001ff03ff0101ff0003020301020000
ff01feff00000101ff0100fffe030001fa05
ff04ff0101fe0001fcfcff0100030400fc01
fd02fc010401feffff02020201040101fdfe
020000fefefb01ff00fd0200000002010101
fd04fc020108fe04fd0201fe0201000000fd
01fe05ff0301fffefe0203fefdfd00ff0003
feff05fffffe000201fd0102fefefffffe03
02ff03ff00050103ffff000000fdff000204
fd01ffffff0101030100ff0003fffefe0200
fdfefd02fffd020200030000020201ffff00
04030102fdfffdff00ff0001ff0200020200
0403fffdff0301fffb01fd0000fcff000102
04020303fe0100010001ff020200fc000102
010000000105fd00ff01fe00ffff0201fffc
03fdff010400fe0203fe0000fffe00ff01fd
01fffefe0300fc0001fefefff902ff00fe00
fd01feff00fefffe03fe03060302fe0002fd
0302fffeff00030102fffffe0000fdfffffd
00fffffbfb03fdff01030104fffdfe0101fd
fbffff0301010004030101ffff01ff00fa02
fe010303fdfe00fe0003feff0100000300ff
01ff0a02010102010103ff0402fefe05ff00
00ff010000ff010002020101fe03010103fe
ff020402ff0203010200000000fe0003fd01
fc0301ff00fb0302ff00ffff01ffff05fe00
fc0003ff02040503fbfe0501feff00fd0001
fbff01fffffc0104000001ffff03fffdfe02
01ff010101f801ffff0300fe0102fcfdfeff
00ff0101fefcfeff0200fcfe00fd02010000
01ffffff02fb0100ffff01ffff0000fe00ff
0100fe02fefdfdfffffdfffd00000101fc00
fffd05ffff01ffff01fe02fefcff01020103
040400feff0000010302fefb0202fe03ffff
fdffff0402fe00feff000001fefd02ff0301
030101feff01fefb0202ff00ff0101020100
0304fefe02fdff02fdff00fd010100fffd02
0003fcfefbffff0003fefefcfd03010001fe
0302ffff00fc0002fafefd0100fffffe0701
fc02ff000301fe00fcff01ff00fefdfdfeff
fb0001fd000102ff01fe0004fefc0101fe01
fdfefffffe010102fbfdfe0200fefe01feff
0103fcfffa06fefffa040002000003fffc00
ff00fbfdfffd04fe01ff0004010602fe00fd
05fc000201fe00010100000001fe0101fc06
00020002fefeff0200fc0100fefefe01ff02
fefcfffe0001000102010000feff01fd0002
ffffff000000fefffe03fdfd01fe03ff0400
0003fcff0001010100fc0302000000000001
02fc020000ff0101000000030001fe030302
fe02fefefffc00fe0002fd0201feff00fe01
00010100fc0002fffdffffffff00050100fe
fd0300fe010702fe0002020102fb0001ff02
00fd0200ff01fffb01fcfffe00fefffc0001
fefcfe0100fffffd030000fa0002ff01ff00
fd070000ff00ff03feff00fffffbfcfeff00
0104fd00fffb00fffdf700fdfe010306ff00
00050001ffff000000fffe00020102000300
fffb01fe010200fe0303ff0001fefdfffd00
fbfe0104fa0200ff0706fd06fb0103fe03f6
fffcff03020001fefffe04000200fc00fe01
fefffe02fffeff03fbfdfffe01fcfdfe0101
01fe0000ff00fd01feff01000001010200ff
02ff0002000201ff01ff01ffff0101ffff02
fe0301ff0201fcfffc0104ff00fc0201fefe
01050203fdfe0203ff00fe030100ff000100
ff00fffefdff01040203fdff02030100ff00
ff0101fd02fdfefdfcfffd01fe01feff01fd
05fa0400fdff02fd00040302ff0403fdfe01
fcfe02ff0001ff010100fbfcfefc030403fc
fdfc020100000000fd00ff0002fc0300fe02
01fbfe0002000100fefffe04000102000100
fe0103feffff00ff03fd00000001fefc0004
0101fe020304000400fd010100020302fe00
0302ff0101ff010102fcfffdfb0101020003
ff0102ff010000ff00fffd0101020100fd00
0000fd01010600fb00fd00040204ff00fd01
fcfe02fe02fdff00fefefd00fffcfefd0200
010103ff0003feff00010006ff0002ff03ff
0500020001fc010402fdfdff04fdfbff0102
fefd0103fffd020001010300ffffff0001ff
fe020101010202ff01030100ff03ff0200ff
fcfeff010102feff0000ffff01fefe00fe01
fc01fbfcfb0202030003fe05fd00ff01ff00
02fefe02ff0100fd0203fe0502fcfc01fffe
0200030001fb0400ff02fe00fdfffefefe00
feff03ff03020000ff01fe040202fffffe01
00fefffe02fdff00fd0200ff00fb00fffdff
fefffd020503fc0101fdfe000300fffeff03
010304fffefc01ff0002fa0202ff05fefeff
05020302fe02fefefe00ff01fe01fefdfd04
00020000010101fefd0000fefeff02fe00ff
fc00050100feff01fbfdfe01fefcfe000302
01fe01fc00f900ff0002fe020002fefe0101
030100ffff0200ff020100fefe04fffefe01
04fe0400fffefe010200ffff01fffc0101fd
ff02fefd02fe00020203fffefe03ff000100
00fe00fefff9fdfe0005ff04fe08fbfffe02
feff0104fe0302fcfcfe02010201010000fe
fcfcfcfefefcfdfd02060002fff90603fd00
ff0003030203fdfe03fe010201000302fffe
ff00fe00fe02000202fe0102ff02fc03fe05
fdff02000004ff01fd000105fe0400010101
03ff0100fefd0005ff000304fbfffd05ff05
03fffbfd05030401ff04fb030200fdff0204
0204fd00fffe000203fb01fd01000002fb02
00fefe01fffcfefeffffff020103fffe00fe
fe00fe0204fffd03010304fe01fffeff0201
01fd01030003ff000005ff06ffff03fcff02
ff02000102fd01ff0103fe010402000103fb
fdff0100ff00fe02fefd03fe0102fc000200
01fafffd02040001010302fc01ff01030202
fd060204ffff04fdff04fd00ff00010300fc
01ffff02fefeff01ff020001fd0100ff0000
ffff00feff0100fffcffff010003020904ff
fdfffb0202fffe000200ff0501fe00fdfe00
ff03fe01fcfb03fffffefefeff01feffff00
fdfeffff02faff00000100000200feff02fe
fffd02feff030301000401fffefe0401feff
ff010301ff00ff02ff03fffd0200fe01ff02
000100fe00000101fffe01ffffff0004fefc
fc00ff00fffc01ff02030103feffff010300
fc01ff000301fd0103fdff010101fc000102
01080100fffd01fd0400fefd050000ff0201
fbfe0503ff02fd06010103fcfbff00fbff01
fcfe010200020301fffd00fefc01fd00ff01
0202ff04000601fe01fdff00010100070502
0001fffe0205010103ff00ff0102fffeff01
fd0000ff0202fe0101ff00fd00fefe010101
fefefcfffd05ff0003ff05fe0300ff040101
0003000300fb0401fffc00fefeff01f9fe00
0102ff0101020000000202fd0100ff00ff01
06000500fffbfffc00010200fefefcff0101
fe01fd0202ff0102fe04fd0203fffffeff01
fe00ff030001ffff000201fefe01fdfeff03
000602fc0003ff0200ff0102feff01fbfd04
000304fcff0200fffefffe0203ff05fffe01
00fffd04fffffefe00ff0000fe000102fe00
fdfefc0101fbfc02fffffb000404fe00fe02
0803fe03fdfc0001ff04ff0000fdfd010101
04000001ff01010100fe02fffefeff010303
000205ff00000000ff00ff00ff0300fcff00
fdfd0501fb0300fcff0004fe000101fe0005
fe01010003fe05fffeff03fffffeff0200fe
00fefeffffff01fe00fc05ff02fe01ffff03
fe0300fffe03ffff0400ff03fffefffefe02
fe0402000204fe0005ff00020201fe0601fd
fe0003fd00030004feff0400fe0501fe0201
ff00ff01fefe01fe00fd0302fcfc00020001
fe01fbfd01fcffff04ff00ffff060102feff
fe050101fefffd00fd02fffb0201fffcfefe
fcff0203fcfb010100ffffffff00ff00feff
fdfc0203000002fdff00030101fdff0202ff
06ff0105ff040501fa000902000200ff0402
020001fc02fc01010001fffd0001fe000300
00fdfd020202fd03000303fe0101fe020202
00fffeff00010601fdff01fe03fcfe010000
fefaff0300fefefe0003ffff02ff03fb0300
0100ffff0204fd00fe03ff03020002fe01fd
03020100010301fdfdff00000000ff000101
ff01fffffc03fefdfefcfe01fffefe00fdfc
fefcfefffefafd00fb04fefdfffe0002fcfd
ffffff0002fefe030002fe04020000fffe01
fdfa01ff01fe0300fbfcff00fdfb01000000
fefe05ffff01fe000300fefe0300fefe01fc
0001000303fdfffe0100fe000201040100fe
02fd000000010303000201ff00ff01030300
0300030201fa01fffeff00ff00fffe02fe00
fb02fdfe00ff0004feff020200fcfffe0101
01fd0001ff0002000301ff00010200fafd00
ff03fffcfffe00fdfffe0001fefe00fd0203
ff030302030001fe00ffff00fc00ff010000
0601000103ff01010300fffffcff01030103
0000fd00fefe00fe000103fefe0201010201
00ff0000ffff010300010202fe0302fe00ff
03feff00fffc03fe000301ff0200010300fd
02fffefe0101fe0001fd01fefffe03fcffff
fefe0003ff0003ff00fa0102fffefdfcfc00
030201000104000002010003fe01fe00fe01
fffb0302020103fd03fe0202fffdfc03fefe
fe0100fbff0605fe0202fd03fffe020001fd
fc0002fe00010000fcffff03fe00fd04fffe
01fe00fe010100feff0300010102020202fe
030200fe00fffe02fe04ffff0103fe04fc04
010000000103fb020206ffff0302f9f9fd05
fe04fffe02ff0002fe01fe00fe03ff0003fe
fcff01fefefe0401fe03fefe00fd00fefe00
fdfffffeff03fdff00fd030102fd030103ff
01fe03feff0101000000fd0102fd0200ffff
25ee0819f8ebf0060e08e9090efb0d092500
1b222b28272b22251c282c2f2425252c1f00
0000ff010201ff0200fffe0100ff0000ff00
fe010201fe000000fffe0003ff01fe000200
ff000000fdff0000fd01ff000400ff010000
ffffff020103ff0100020100fe02fd00ff00
01000200fdff050401feff0201fefefffd00
f90401fe0100fc0401000200fefe00000100
01010501ff0201fd000001060101fe000000
02fffbfe04ff01fe03010104fcfa04fe0300
03fffeff0201fe00020001ff0003fefdfb00
0004ff02fcfe000200ff00fd000302fe0000
0101fc00fc01000202000000ff010001ff00
fbff02fdfffffe0100000103ff0001010100
0103fdfcfe0100ffff000001020002010000
03fcfffffd000305000100fe0001fe00fd00
ff020000ff0102fe00000101fdffff01ff00
0100fefe0002fc00fdffff00010002fc0300
fb0200ff00fe0200fffd05000002fe02fc00
ff010105fefffffeff01fd0002010100ff00
0003ff020202fefffffffe00fc0200030000
f9fcfe0202fefa00ff02fffd0003fe000600
0002ff020002fe02fffe0001000002fffb00
ffff000000ff010000020002ff0000000000
040504fe04fdfefd02ffffff000000fffa00
fcfb01fdfffefffc0000fffeff00ff05fe00
000103010101fe0001fb0000fe0302030000
040101ffff02ff05ff03fd0100fefffc0000
fb0003fc05ff00020602ff01fefffefefd00
0102000301000205010301ff01fefe020200
03fe01ff030105fe030003fe02fefc020200
040100fffdfef905fd01fe000300fcfefe00
ff010000fefffcfcff0000ffff02fffe0000
fffefeffff01fffffcffff0100ff01fcfd00
0500000101fcfc00fdfd0702000300000200
fffe00010001000401ff0200fdfffeffff00
0102fe02fd000103fe0102fdff0000010200
ffff0102000000040401ff00000301000000
ff0202fefe00fdfe000101ff0000ff010000
010400fd050002ff040000fcfeff00010100
fdfcfeff020000000601000000fffefc0000
0105fe01fcfe03fdfefefe0401000101ff00
fd00fe03000101fe0100fc0201ff02040000
030502020203040202fefffdfe0000000100
0205fd03010201010100fefdfe04fe010100
fffd000100ff0001030103ff00ffff01fc00
0303fc02fe0003fefcfe0103ff02fd02fd00
fafe00ff00ff03ff0001fe0100fdfffffe00
ff020000010202020102fffeff0304fffe00
ff0004fffefd0000010301ffff01fffc0000
01fefaff010000fd0401fffffdff00010100
fbfffdfefe02fc020000020001fffefb0000
00030003ff0203fe01fdff0101fdff010200
f902fc00f90403fe03fffffe01fd02fcfe00
ff0607ff0301fd05030001000102ff010300
f7fdfe0102fffb04faff0000fe00fcfdfe00
0204fe0002ff0000fc02fefeff02fe00fd00
0303ff01030101000400fd00fefe00020300
0200020001fe0204fc03ff01fffefe020100
ff0002000201fe02fc010303010202000000
fe0300fdfffe0102fbffff01ff00fe02ff00
010301fffe000103fd0101fe020100fefc00
0002000202ff000100ff030200fd01030300
fdfe02010100ff01000003feff0402010100
02fefefe00fd010204020102020202000000
0202fe0103ff020603fe02fffe0201010000
fa02fffe01fe00fbfdff00fffcfeff02fe00
fefffefffffe00ffff00ff010400fe010100
000000ff00fd04fd0401fe0001ffff01fe00
02ff010105fffefeff0000fd01ff0401ff00
ff00000003030000010200fd0103fd010100
fdfffdfffd010100fb01010003000002fd00
01fffe01020300020300fe0002fe01000100
ff02feff0101ff00fd01000300ff0004ff00
fd0101030102040303fefc020201fe010000
f802ffff01ff0400fffc000203fc00feff00
0103fdff01ff00fe0300fd04fc0000faff00
0004ffff0103ff010101fe02fffb04fd0200
02fe0403feff05fb04fe0001fffeff01ff00
fc0600000401ff00fefe00fe0201fe000200
02feffffff0201020102ff00000000000000
ffffff01fe03000403fe0001020001fefd00
fe04010100fe06fefbfc00ffff02ff01fe00
00f9fe00fdff000105ff01020200feff0400
02fc01020200fd02fdfe0201fe0100ff0200
04ffff00fc03ff01010101feff01fe010000
02010000ffff00020001fd02000000010100
0303fdff03030103feff020001070204ff00
fd0000fdfd02fd03fcff0000ffff01000100
f8fefe010201fd01030100020102fcfdfd00
ff04020002fd0201fa0201feff0101010200
0304fd0302010002fc0101feff00feff0100
ff010204fe010002040102fefe0102fffe00
01ff0102020101ff000002000001fdff0200
fbfffd00ff0101fdff0001fefdfefafeff00
0100fd02000103000702ff02000100fe0300
fb030300fcfe040001000203ff0103000000
0402020104feff02feff03ff04ff02fe0000
fafdfe03ff05fe0301fe00fd0100fe00ff00
fa00fffe010200fd000000ff010103fe0000
f9ff0000fefffffe000101020300ff000200
ffff0201feffffff0001fffeff02fe000100
fefffe020100fe0302020304fd00ff010100
fc010003010202fe010001fffffd00fb0100
fafdfffe0100fd00ff040201fb00ff020000
0401fafefcfd01000402ffff030400fc0200
03fd020100fe06fcfe04fffe00fffcfefd00
fd0001fe0301000304fe0100fe0202ff0200
0002ff020101ff0004ffff0000010001fe00
ff08020201fffffff6ff03ff02000204ff00
02fe0000000003010001030000ffff000100
fdfe04fe02010101ff000002fdfffffdfe00
01fbfd01fe02fe000300ff00ff0204fe0300
fdfefe010101fffdff02fefd04fe0700ff00
fd0602fb02ff010001ffff02f807fb000100
03000202fe03fffefbff0100fb01fefdfd00
fe01ffff00fe00fefbff03ffff01ff01fe00
00fe010102ff0300fcfeff020102ff020000
01fb02feff00fdffff02fffcffffff020300
fe01fdfe0003ff020101000100fffd01fe00
fefe010201000102fd0002fffcfdfffffc00
feffff00fd00020100020002ff04fe01fc00
fffe00020004fafe06000101030104fb0100
030000fe00fdfdfcfbfe02ff01ff04010200
0104ff00fd00ff03fcfffc00fd0201fe0100
0402ff00030002030004fd02fbfe0001fc00
00ff01ff010803fafffc01fe0103fdffff00
ff02fe00000100ff05fd000101ff02fdfc00
01ff0000000001ff0003ffff010003ffff00
0404f806ff00ff0205f500ff0300fafbff00
01fb04fd01ff010200ff000400fffdff0000
02fffdfffe0105fe04ff0101010200000200
ff01fe010001fffefbff01fffffffeff0000
fe0001fefe00010103020000010203000000
01fefffe00000102fffffffe0704ff030100
05010201fefb0100fe00010102fffc010100
020400010201fe01feff01ff0002ff000100
fffd00fdfe0300fe04ff020504fd00000100
09ff06fb01fd03fdf8feff0000fd0001fc00
fc02ff0001020700000102ff0201fe030300
01fd00fe03ff00ffff010003fcfdfb01fe00
ff0200fffe02ff01fefe01ff000002020000
fefe01fefefffdff01fdfffffdfefffcff00
04fd00ff020100fefe0203030102f9010100
ff0200ff00fc040100fe03ff02ff0200ff00
fefeff0101ff040201010200fffc00ff0000
f9fe03fffefe03fcf90000010002ff00fd00
fd0103020301020100fb0000fb020103fe00
ffff00ff000000fbfefeff01fffeff02fe00
fcfd0002ff0100ff00fe060000000101fe00
04f9fffffc00fcfd03fcfcfffe0001020200
02ff000101feff0302ff02fd02020102fe00
00ff02fe01fd02fefefefdfdff00fd01ff00
04fe0501010202020000fffefffcfffc0100
fe0204fc03040100fffd0000fe020103ff00
fe04000103fc01fff9fe02fd010504fefc00
fe020300040200fc02fe0202fffeff010400
f900fefcfefc0000fd0205fb0100fd01fd00
06fe00ffff010000fc030501ffff0003fb00
0402fd01000001fffdfeffff0101fe010000
f800fd00fe0002fbf900fffd000102000000
fe00ff01fbfe03fffdfe0000fcffff02fd00
ff000202ffff02fafefbfe020400ff040000
03fdfafefcfefdfefffdfe000000fdfd0000
fefe02fd0000ff00000003fcff02fe010300
030000fe030202fe010300fe0300feff0200
00ffffff00ff0001010100fe03010002fe00
0601fe03010101010101010103fa00010100
0101fffd01fefe0403ff0202ff0001020300
fafffdfb0203fd04030502fefffffdfdfe00
000102fe0203fc000103ff02faff05fe0000
03fe0100fffe04fdfdfffdfeff0303030000
020002010200010300ff00fdfd0202ff0300
04ff01000101fffe040203fffdfb02ff0500
070100fd0002fe010601fefd00000200ff00
fbff0203fbfd00fd00030305ff0001fdfe00
fe02fefffe020002000300fe020100ff0000
ff0000ff0404ff0302020301fffe04ffff00
fc0300ff03fd0002fe010000fc0005fdfe00
fe02fffefe020400fffcfdfdfefe0300ff00
fefb00feff00fe020101fcfffbfe0301fd00
0104fefd01fe00fffdfefefffefe0304fd00
00ffff02030101ff030800fd030603fefd00
fd000000fd0002fffe0100fffefdfcfcfe00
fbfe01fe000101020500fc00fffdfe03fc00
fe040204020001010101fdfefe0000fffd00
fb01fefc0200fcfe00fefe00feff00ff0000
ff0002fdfd02fd01fc0200020001ff00ff00
000101010001fd03010200020201fd010100
fefc00fefd01fdfdfe030002fe000401fc00
fe0302fdfe020000000303ff00020001ff00
ffffff02ff00ff0100fe000300fffefe0100
fd03fd01fe000201000000000203feff0400
fafbfdfdfdff00fd03feff030dfe00ff0300
03fdfcfefffdf801fffc00fe0108fcff0100
fefcfeff030200ff0000ff0101fe03fefe00
01000200fe0105fb02010002fffd0201fe00
000206ff0200fffd0100040100fc0400fe00
fbfb000003020000040100fffc00fd02ff00
fd0003fe000200ff03ff00fc00fc00fffe00
01010400fe010001020201040303fd00ff00
0103fd000003f801fa0102fffd0000fdfc00
fffeff01010000fd02ff0100030101ffff00
f900040100fd0201fd000103ff03fe020000
ff0102fe040201fefdffff0002030100fe00
0101fefffefe00020003fe02010201ffff00
00fdfffcfd02000501fffdff020100ff0300
03020003020002fd01ffff0100fffc000000
fc0000fdfe01fffc03fd0102fefe0100fe00
ff020002fd0000fffffeff02ff0103010100
04ff010001030103fd0101fefa000203fc00
040201000100fefef7ff02ff01fffeff0300
000402fe0303ff00040002ffff02fd02fe00
05fdfc00fb01ff0001fd0202fcfe0001ff00
fe0004010001fdfffe00fd0101fe00fffe00
ff030101fffe00fdfb00ff0100fd02010000
fd00080103ffff020000000001fe00000100
f7ff000004feff02000005fc000503000000
0104fdffff0201fefefb0400fefe0000ff00
07fffc00ff00fefe0202fffe0000fdff0100
0401fdfc0102fe030402010201fe01010700
00ff02fe010000ff01ff000002ffff010000
fe00020000fdfffefd0203fe0001fe010100
00fffffdfffffe01fe00040000000000fd00
030401050401fd0004fe01fe04fffeff0500
00fbfc00fd00010601fe00feff00ff020400
feff0003ff0300ffff02fe00ff000202ff00
f5000002fe0002ff010400ff020200fefd00
f80502fefffffffdfdfe01ff020102020200
0004fefb02020001feff0202fffcfe030000
fc00ff0001fffe0000020002fd04fffcfe00
0204fb04ff0101000203fffefefffe03f900
fbfe030300000301fe01fe020502ff000200
010103fe0202feff02fd02fefbfa00010100
fa000201fe02ff0004fdfffd0101ff00ff00
0102fdfc0301020400fefcfdfd0103ff0100
fd02ffff00000403ff0300ff020104000100
000202fefefffd00fd03fe00ff00ff00fb00
fd00fe00ff020204fefe02ff0401fe00fd00
fd01fe0200000000fdfffefefdffff01ff00
00fefeffff0000fffdfefe00ff0100fe0100
fe0201ff000203f9fd01ffff06fd02000100
04fc00fefffefffd0104fffcff0500fe0300
fe010002fdfffdff0000ff0000fefdfffe00
fffefcfd01010002fc01fffd04ff03010500
0000fdfe02fe0204fe020000020001ff0100
0200fefffffefefdfeff0001010101000100
fc0001fffefefd000001ff03ff0000010100
01feff00fefe0001fd010403fefe0201fd00
fefbfdfe00ff0600fe03ff01fe01fc00fd00
0000ff01030101fcffff02000102fefeff00
06fe0104020004fd0101ff00fefe01ff0000
050002020000fefffcfefefffdff0000fe00
0504ffff04010202fd040100fffdff00fe00
0304020104fdfeff000101fe01fe05fefd00
000300010101000104000101ff020001fd00
00fd01000403fffeff01020101fe00ff0000
0101fe0203fe00fdfe01020104fe01030200
00000201ff00030204fffd000202ff000000
0e16ed191d00fff9f21e1a1b122c37390100
2b22292a2a2f202a28242128211819242600
010101fffffe01010102000202fe00000100
02fdff00fffe01ff010302040002fd02ff00
fd0200fefe01fa01ff00fcfeff03fdff0000
02fbff03fbff03ff00fffe0001f7fffffe00
ff02fffefd0001020300000503fe03fcff00
fffe04fdfffe05000103fd0203ff00fd0600
feff01ff0102010000ff03fd010502ffff00
000706ff010001ff03ff0100f9fb00020200
ff01010204fe04ff010000feff05feff0300
fefc00fe0200fcffff0000ff0102fffb0300
00fefefe010002fffd02fdfefcff02ffff00
ff0100ff00030100fdfffe00010201000400
fd01020003fffeff02fb00fb040300ff0100
0002ff01fbfeff020201000001ff0300ff00
02020203fd00fcffff0000fefc0103020100
01fffd00fe02ff010000fdfdfd00fd010000
02f500ffffff060104fcfdff010100fdfe00
fffe0301ffffff00fd010000fdfeff030100
03ff02030000000001010300fe0100000000
0204ff03ff02fb00000003fc000201020200
fe0101ff000100fe010105fd02f700000300
feffff000100fe0004ff0002feffff010100
040100fdfe02feff0301fd0001fffefffd00
01040603ff020203ff00010202f7ff040200
00fc0300fe03fc03fdfb0400fc020102fc00
010100010201fdfefefefefdfc0101000000
fefe0302ff030300ff0302fe00fdfd00fb00
ff02010401000202fffdfb02040200fe0000
02fefdfe0100f9fefdfa0002ff0100ff0000
010009020301fe03fefffe040300fcfdfe00
0202fefffffffe02ff0303010000feff0200
00fffd02fe00fffefb01feff0100fb00fb00
040403ff010003ffff0203feffff00040100
0102ff020101fe0002fd00ff01fdffffff00
03fdff0000fdffff00fffefe00fc01fc0000
ff03010200fe01ff030201ffff0101fe0200
01ffff040000ff020300030100fffe050300
01fc01fe010200fe0002fe01feff03feff00
fefc00feff0000ff02fafe03fc0101feff00
0604fe02fefefe0005fe02fe0100fffd0500
fdfffe00fdfffe01fcfcfe02fefefdfb0300
fefbfe02ff02fafd03fcfffcfa05fef9f800
05fe03fe000002fffdfffe01020301fe0000
ff00fd020101ff0004fe00fefdfefeffff00
fdfc05ff01fcfffe00feff0100fffc020200
0005000100010005fdfe05fdfdfdfffcff00
ff000300ff0201000101000304fe00fc0400
00000001fe00000000000003040001fc0100
ff0201fe0200fcfffdfbff01ff0302040100
fdfafeffff01fb0200fd03ff02fe00fe0300
fdfffe03020200fdfefc02fffffc0001ff00
02ff02fdfe01030101fd01fffdfdfd030400
fb0101fbfe03040100fd01fefc01fffefe00
fb0100fffe03fdfd0200fdfcfd0400ff0100
ffff00fdff02ffff0200fe0102fefcfe0200
fcff0000fd07fffd000206fdff0200ffff00
ff0003feff01fffffffaff0102fffffbfe00
ff03050001fdfffe0302ffff0002fd010200
f9fc010002ff00fefcfe02fe01000000fd00
00ff00fdfefffdfe01ffff0000fffefdfe00
000000ff010101fefd02fe000007ffff0100
fffe0102010102000100ff03ff0000030000
02fc02ff010000010001010201fe0001ff00
fefc0104fefe00020302fdfefffffdfe0000
fe05fefc020100fd0103fffe0102ff020300
fe010200ff01ff000001fcfffffe00000000
fefffffffd0100030102fef9fff8ff020300
fb00fd03fe0204ff03fc00ff020301fd0000
02ff0102fefffc0200fd010001fdfffffd00
010201000100fffffefc02fffe00fdfeff00
ffff00010003fc01fbfefffc01fffbfcfe00
000200fe010101ff01fdfe02fdfd0000ff00
fefcfffe0400fefffd030001fe01fe040000
0002020005ff03fdfdfcf9fffd0300f8fc00
fef9fd040205fffd00fcffffff02fffdfe00
ff00fe0100ffffff000700feff05fd000000
fd0301ffff01000203ff0600000304fa0000
fe040201010003fffffdfcfd03fefffe0000
030000fffffd0102fe010503fefeffff0000
ff01fefffe02030103ff0001010301fdfe00
04fd0100fe02fffffefeff00feff01fe0000
ffffff010200fcff00fd000001fc01ffff00
050200020001ff0201ff0403fcf802ffff00
05fc0201fdff010102fdfbfe0200fe00fe00
fe03fefe0003fd01ff04fc0104fcfe000100
ff020200000002fc02fe0301010100020100
0200fffe010001020301fdfe01010101fe00
010002ff0402fffffefffe0000fd01010000
ffff0000fffffe0201fe02fefd01fdff0000
fffd010002fefdfd00fffc03fefefdff0100
0000fcfefe00fffe0006010002fe03020200
0101fefffc01fdfffefdfb01040001fefc00
00fffcfe03fefd03ff02fdfefefdfdfbfe00
fb0405ff01fe01030403fe00fffa00feff00
030402fcff00fe0001fdff03feff0101fc00
fefefdfe010002fe03000402fe0200ff0000
0504fe010100fdfe02010201fffefd00ff00
0003fffe01fcfefe0301fefdfdfd04fe0000
ff0001ff010000fffcffff010400ff000000
fdfd01ff0000ffff0000fffefffbff000000
020000fe00000400fe000001000204ff0200
0306ff03020103020c0004fe020002fd0000
fefe01ff02ffff01fefe010001fcfc02fe00
02fdfffbfdfffcfe0000fc0101fe00050000
01fd0000fdfffeff0102fd0200fefc010100
01f901000000010300ff010300fe02fdfe00
fffffbfefd000202fdfffe0100fb02000000
fbfe020202fe0402030000fffa08fd050100
fffc0000fe0001010100ff01ff01fefe0000
0200fc01fbfe02feff00fd00feff02000100
ff00fe0002fefcff0100fcfffcffffff0000
00fc03fe0300ffff02fd030002fe0002fe00
01030000fefefe0100000400fffcfe03fd00
03fdfbff01fc02ffff02fefe000402ffff00
00fa02010100fe0003fefffe040102fc0200
01010100fe01fbfffefa030200fdfc020000
feff00ff04010202fe00fe0200ff03000200
0000ffff000204fdfe0001ff010501020000
ffff0002fe0200fc0200feff0100ff00fd00
ff030200fe0003050602000201fffe000300
0104ff00ff0000fe0400fdfffffdfdfd0000
020001fcfe0001fefd03ff00fefa00010100
01060200fe00ff03fd030100fffffe020100
010101fc0002fe03fefefeffff0401fd0100
fafe02fffe0000030001fefffdfb04fe0000
fe03fd04fefcffffff02030401fdfd010100
fefa0100ff000202fffdfc0100ff01000300
04f3ff00fe02010006040bfc01fd01030200
0204ff0200feff04fffd0103fffafc030100
01fdfefe00ff00030201040200fa00030100
01fd0202fffffffeff0201fffffd02ff0000
00fe0000010001ff03000000fffe04ffff00
ff0102fe00020002ff0100ff00fafd050100
040600fe0100fdfffeff0101fefd0100fe00
fefe03fffefefe00000101fd00f9fc01ff00
020102ff01030101ff030402fffdff030200
fbf50101fffe0301010205fe0002feff0000
fdfc02000000ff0102fffd0004030000ff00
fcfffcfffdfd0001ffff01fd01fffdfefd00
fd01000001ff0300fdfdff01fe020101fe00
fd01010202010002030202fefffcfffd0100
00fe010002fd00020000fcfd0104ff00fe00
ff01fd00fb0202fffe01fd03ff0202fefe00
01000003fb0301000202030103fbfc00ff00
fefafdfb000202fdfd00fa0303010503fb00
01fd000100ff040100ff010101fffd00fd00
0300fe03010002fffffffe0001ff02020200
00feff000100020102fffcff000401fe0100
fffd02fe000202fffe01ff00fd06fffdff00
01feff0101ff00020101fc000201ffff0200
02f9fc02000001ff04ff04fffe00fd06ff00
00fdfffc02fefd02ff000400f9000100fd00
0102ffff0102ff0405fe04ff0002fd02fd00
fefffe03fffd02fe0403faff0104fd000100
fefaff01fe0200fd01020200fefff900fb00
01fbfdfb0403fefdfefffc0200010202fc00
000000fd01fa050004040601fef9ff02ff00
01fe0101feff010200fffd0200fcfefe0100
0705ffff01030001fcff0000fe01fe010000
00000100fe00ff00fdfe00fe00fe00fe0000
ff0401ff010103fa02fbfffe0200fdfeff00
010302000100fe0100fc030201fffeffff00
fffc0202010000020201000100fd00010200
0204ff030100fe00030002ff0101fd020500
02fffdfffeff00ff04fffd0000fdff000000
00ff04ff0002fdfffa0004fefcfbffff0200
03ff0202feff00ffff01fdff0104ff01fc00
020001feff0101fffffafdfd000205fc0100
ff0200010002fbff0002fffefe000100fd00
00fb01fefe020301000301ff02fc00020000
030101fffe0101000000fc0201fe00000100
fdfdfe01030105fefa01feff050a02ffff00
ff0003f902fd01feff0003000001fc020600
0305fe01fefd0201feff00ffff0902fc0300
fe00010001ff03ffff02fffffdff02ff0000
fc0501ff03020301020303ff0202fdfa0100
0002fdff000300fffe0106fdfb0000fffe00
01fdfe02ff0204020300ffff060303fffe00
fe0100fffffefe03fefffffe01fdffff0300
fffe020100fcfc020001fffefe0103010300
fe0400fefdfdf7020004000104fefe010100
010403fdfefe02fcff00fe03ff00fffd0200
fe04fffffdfffefa010000fd00fc0401ff00
0000ff01fe0200fc010104fcfbfffc02fe00
fefd000001ff01fefbfe020200fb00fd0200
01fffd0001ff0100fd0000030101fe01ff00
00fd02fe0300fe00ff02fc02020500ffff00
0102fffb00fffefe01040300ff0202fd0100
02fc04feff0102010102fcfe0301fe010100
0100fe00ff00010000ffff0202fc0100ff00
03ff0005fefc050100fdff0201f701040200
000701020200fe01fffffeff000004ff0100
01060900f801fd0001fe02f8fff8fcf80600
00020000000104fd01feffff0503ffffff00
000101010200fe02fd02fbfd02fb01fefc00
fd0302ff02ff0303000200ffff0300ffff00
0002fe0002fdff00ff0103020002fe000000
0402fdfe02ff04fd00fdfafefe0101000300
fdfefe0003fefefd020002ffffff00fe0000
0200fd0201020203fe010101fff9feffff00
0101fdfe010002ff03fffd02020102ff0200
00ff02fe03fdfe03fffefb01fd0000ff0000
04020303fffe05ff0300fd00fd0401000000
fefc010101fe0201fbfffafffdfdfcfb0000
00fc030600fefafb01010301fffe01030000
02fe000200000202fffffffffefe0001fe00
0204fefffe0000030102fc01fe0005010100
00ff0000fffd02fd01ff010003000100ff00
fdfe0102ff05ff0201fefe01fffafcff0100
02fd0200fd01fe02fcfe000301fbfcff0000
fd05fefffd0201010203fd00fa0001020000
01fe010200fe0002030301fc0005fa010200
00fdfcfdfefd0601fb020100fc000000ff00
0204fd02fe03fe010002fd04fffbfcfefe00
00fdff01020005fc010000fc000001fefa00
0404ffff03000103fdfefe0102fcfefd0200
04010102000003ff02fefe02fefd0305ff00
00fb00020101ffffff01010104fffdff0200
0005030202000302ff050702fff9fd030100
fefb01fd0100fdff02fb02fffd01fe000100
fffd010201ff06fcfffd00fd0001fcff0300
0100020101fcfd00000501fefdfffd04fd00
fd0303020101fe04fefb02000103ff000000
01fe0300feff010102fdfe0201f706fd0000
00fefe0102fefd02ffff02fffefefe00fd00
00fd02fd03fb00fffe04f90300fb03ff0100
feff00fe00000101fffffdfcfe04fffeff00
fefe02fe07fffe05fd00fe020100fb010300
020002fefdff01fdff0500ff00ffff020000
02fe000001fffc0002fbff01fffbfe01fe00
ff01ff000201fcff00feff020005fcfdff00
02fe01020001fe00fe0101fdfb02fd00ff00
fefd0000000004fe0204fe01010002ff0100
fe000101fffefcfefdfffd03fbfe03fc0100
fdfa020100020301ffff00ffffff0002fc00
ff02ff03fe0603fcfd0201fffe03fc00ff00
fd06fdff01fe0003ffffff01fa0100fefd00
0300fffeff0002000003ff020103fa000000
00fefffffdfe010000fffe040000fffffe00
010102fe0000020204ff00ff00fc00060000
00ffff01fe010101020403fd0001fe030400
01fefefcfffd00fffefffe00fc02fd000000
fe06feffff03ff0201ff02fffefd00fc0200
00ffff02fefefb0103fe000302fd00fb0000
fdfc00ff00ff000000fd000001fffe010000
000600fd00ff02ff0201fe00fe01ff030000
03fdfe02feff0001fc00fdff02fb01ff0200
0404ff04ffff00fefefaff01fd04fdfcfe00
0002fefefe0201fe03fcfd0003f500fe0000
ff02ff00ff030103050003ff030501fe0400
0100ff0001020103fe01fffe010200ff0000
ff0100060201fe00fd0202fcff02feffff00
0001fffffb0302ff0202fc0500fffdfd0300
fefc00ff01fefcff01ff01fd0002fe000000
03fd01fe00000404fdfd05020100fc000100
020005fe00ffff04fefefffc020102ff0000
0106fdff00010200fffe01fe01fbfefeff00
3349e8ff12190a0d0bf518170a1e0a0a0300
21222f281f2121262c2b3523261c25232700
ff0000ff01010100ff000201fe0201000100
00010102000400fffe0302fffffdfd01ff00
ff0301fd0203ff0100ff00fe00ff02fdfe00
020002fd0201fe0301fffffe01fcfe000100
0203ff00000300020200ff01fd00fc000000
020801fd040002030202feffff0001fffd00
0202000100fbfe0200ffff0003ff00fefe00
fe00020002ff000101ff0000fbf801fbfd00
03fefe00fdfeff010201030401ffffff0000
0106fffd0008ff0400fffd0001fe00020400
02fbfefdfbfffefd01ffff03000401000000
01fffc03fe04fefffefffb0301ffffff0000
fdfb0103feff00ff00fe01fffe0100ffff00
fcff0100fc01fefffffe03fe00000202ff00
01ff0000010205ff01ff00fe010100020100
feff0001fa02010000040303020100010300
000303020403ff01030200ff030600fd0600
fd030202010000fffe02fe02fdfdfe010000
ff01fd010105fdff03ff00fffe060203ff00
00fefe0203fffb0302fc00fffffffe010100
fcfd01fffdff03feff0101fe00000401fe00
01ff0101fc010100fffd0202fdfd02040100
0001030100fc02fd0201fe01030201fd0000
04fe0501000205000402ff030004fcfe0200
000101fffc00fc00fdff01fefeff04010100
0000000100fbff0003ff00fd01ff0001fd00
fe01040001fd03fe00010200fd0100010100
fffd0202fffe01ff0006fefeff0101020000
fefafe020202040301fbfdfefe0602ff0200
fefe01fefefefffdfffefefdfefefe030000
02fe0102fffdfffe010202fffe0004fcfe00
fd01fe03fefffe020302000101ffff00fd00
fefefffffe0000fd000302fe0302fd030100
02fcfe01fd02ff0001ff0103fe0002ff0100
ff0300fffeff00000102000002ff04010500
fe0301040000fdff0102ff000101ff010100
00ff000003fd0303fe020001010200ff0200
00feff02ff01fe02ff0001ff02fc0002fd00
030001fdfe01fd00fcfefdfcff02ff020300
fefafffffefefafdfefdfe01010302fdfe00
020201fdfe00010002ff0102fdff0100fd00
00fcfe0100fffefb030102010303ff010200
fd00fefe030004fffd01fffffffd02000000
0000ff02010100ff00ff01fefc02ff01fd00
0301fd0202feff0202010201020301000200
0401ff0000ff0002ff00010bfafd01fe0400
03000101fdff01ff02fdfc04fdfe0000fe00
ffff01030301fe0001ffff00ff02fc02fd00
fd01fdff03ff03fffe0000ff01fefe040000
fffc00ff010003fd0102fd00010103ffff00
03fdfefe00fffdffff000100fe0004ffff00
fe02fbff05fe00fcfe0101fd020902050100
fb0400fd03fffbfc01fffe01fefcfdff0000
fc00fe0201fcfafd01020201fe0400ffff00
01fffefffd00fe01fd0102fefcfd0401ff00
ff0300fffffefbfbfeff02010302fe000100
ff010201fe00000302fefefc02fcfdfefe00
fe0002ff00fffe0000fe00ff02040000fc00
01fdfeff000204000400fc0701fd0101ff00
fffe0103fefffefc01010002ff030204ff00
ff0200fffe00040402010002020002fd0000
fffe0106ff0203ff03ffff000000feff0000
00fd01000200ff00ff0000ff01fe0100ff00
fffa00010101fffeff04ff0503fe02000000
0101fc01fffffffffdff050301fefcfdfd00
0200fd00fe01fe00fc010005fe02ff02ff00
060003fe0003fd02ff030101ff03fbfe0300
ff000202fe0100fefffffefffefcfefb0300
01ff000003ff0002fe0003000302fd02fe00
feffff000400fefefcfefd01ff0101000000
03fefc00fd010001fbfefdff0000fffe0300
fffe0201fbfe03feff00ff0000fdff03fe00
fcfbfdfdfe0204ff010101fdffff02fe0000
fc02ffff01020602000201fe04ff00000100
fdff02ff040101ff01030200fd000101fb00
010002fefffe02fbff0102fdfd0103fefd00
01020103fffe02020000fefdff01fdff0000
01fefeff02ff00ff03fe00fdff020200fe00
fffdfffefc0002ff01000100ff00ff00fc00
02fe000303fe00fffefefdfbfd0003010100
060601010103feff020601ff04000000fd00
01fcffff01ff010404000000fdfe02020200
00ff000000fe0302020402030206fcff0500
00fc0201ff0305ffff0103fe00ff01ff0400
0000feffff01fc0302ff01ff0000fffdff00
00fd040002fbfa030003ff01030101000500
fefe00ff01fc03feffff02ff010503010000
fcfa0101fe00fa01fffc01fc020104fffd00
00fd02ff00fe04ff0003fffe03fdfe010100
fffffffffefffefe0100fffe00fdff01fd00
fcfffeffff0100fefdfffffeff0202feff00
00fcfe010100fffe01000001fffffd010000
fdfcfe0204fcfefffe0100fd00fdfd01ff00
fe00fd01020203fefe00fdfffbfd05fe0100
03010408fdfafe0100030503050200fdff00
fcfdfe01fefe0001fd040302fcfd00ff0000
01f6fffffdfcfefe000201020202ff07fd00
030002fe04fe01ff04fdfffffcfe01010100
ff00000100020003fc01fd0100fd01000000
010101fe02ff0101ffff000101fcff00fc00
01fe0100ff03fefeff000102000004fe0300
fefffefe05fdfe01ff0201fdff06ff000200
fefd01fefd00ffff01010001fe00ff000100
ff02ff01fc06010501fefe0201fb00020400
000103fe0101020003feffff000203020100
03fd0004060300ff0001020400fc02010100
03000101fdff00ff00010202ff0202fffe00
fffcfffe03fa0202fe01fd01ff0403020100
0003010101fd00030004fefc02ff01000200
fcfeffffff0002fefd00ff02020300fe0200
fdfdfffd0004fa01fe040101fefbfeff0000
0200fffb02ff00010000fefe01fc0100fd00
01fe030500020002fffe0105fe0002050000
fcfd0001fd0001000101feff0303fdfc0000
fffbfeffffff000201ff01fe01fffffe0000
fffc000103000100fffffefdffffff010000
feff0201fdfefe0000fdff00feff00000000
010200000100ff00ffff0000ff0001feff00
0501fefffefdff000101ff000203fffd0200
fefffd00fdffff0300fe00fffd0102ff0300
fdfb00ff04fe0502030001fdfefe03010100
06010203fe01ff000400000002fe00ff0400
fd02fe00ff01fe00fc01fffffe020200fd00
0201fffffb0100fefe060302000005fffc00
0102fefc02fefffc010002ff00fefbffff00
05fefffe0002fe03ffff00ff02fd02ff0000
ffff0201fe0101fe02ff00ff01ffff00fc00
f7f801000a03fffefffbfd0303fef9030300
06040602fb0200000105010203010000fe00
00fd02feff030101fe0300ff03fcfd040200
01040001ff0000fffd02000002fc00ffff00
0001ff01000003fcfd0101ff000302fffe00
fffe01fe02fc02ff03fdff0201fdfeff0000
fc00ff030400fefdfe0300fdff010202fe00
01ff01fc04ff00ff0100fffffffe00000000
030001fe01030101020103fefdff01000200
feff00ff02fafe020003fffffb0102000400
02fcfffe05fb0203fe00fe02ff0202000100
000000fd0000fdfc0201ff00fdff00ff0300
fe01030000fb0400fe000002000201fe0300
fdfe00fe02fe01fefefefffd00fefefd0200
ffff00fe0101020001fffefe00fb04ffff00
0301fe00000300020100fe03fd00fc00ff00
fffcfdfeff0200fd00fd0000fe0202ffff00
fb0303020001fc0102010000fe0100010200
fe00ff02000001ff01ff00ff010202ff0100
ff02010002fe00ff05ff03fbffff00fbff00
fcf90101fcfdff000201fffbfc0204fd0400
00fbff02ff00fe0301ff000002ff01010200
feff00fefeff00fefefd0100000100050000
fcff020200fffdff020500ffff0200030000
fcfe00fbfe0602fbfc0104fa06fffdfffe00
fffa000100fefe00fdfe02fb01fd00fe0200
ff0100fe020000ff00fd00fcfffdfcfefe00
fe010204010001fdfe0000fcff08fd030100
000701fd0102fcfe01010200fefa00020100
ff010000fcfffe02ff04fdfefffffefffd00
02fd0000050202fdfe00ff01ff00fd000100
01040300fdfefffd010001fc00fd00fd0100
02fffffefd00ffff01ff02ffff060502fd00
fe0202fefefbff00ffff01fcfff7fdfe0100
01fa00fc0400fa01fffe01fbffff01000100
00020401fdfe02fd010100ff0402ffff0300
fffafeff010002020302fefffffe00feff00
fffefeff02000000fffe0200fcff03010400
020000fffe000101fefffeff02fdfb050100
fcfaff00fdff010201fbfefe00fffffeff00
0100ff03f7ff0a01fefdfdfefc0003ffff00
00fd0000fffefc04fffffe00fefafdfefc00
fefdfffb0204020002030001fefc0100fe00
fefefefefe0001fe050000030004feff0000
fcfe03ff01ff04fcfefe02fe02fefd000400
04060100fa04020700fd0001f8f9ff000200
fc0102ffff01fc0101000008ff0200000100
0000fe00ff00ff01020001ffffff00ff0000
fffe0301fbff010101fffe0100000100ff00
fd01030002fffefffdff00ff07fa00020200
fefb020301fe05050401fc0002fffd02fc00
00fe03fefdfefd01fcfe02fffc0200fd0200
ff0203fcff00fffe01faff020003faffff00
fafeff0101fefe0101ff000202ffff05ff00
fefe010201fdff01ff01fe0100fc01050000
fe0000fe00000203ffff00fe000401fe0100
ff01040200fffbfefdfe03000004ff01ff00
fdfe020201fdfffefffffe03000101fcfe00
fc020204fc000301fffe0100fd0203020100
ff02010100ff01ff010200fe0302fefe0000
02fffd0202020000fdfffe03ff0000000000
0000ff000000020000fe0302fefdff01ff00
04000104ff01fffffffefffe05ffff03fb00
fefefefe00fe000101020101000001fffe00
02fa01ff02ffff0101ff0103ff02fd00fe00
fefa020301ff01ffff02010101070101ff00
00fd03feff01fdfefd0102fe000101fffd00
000500fffe01ff050202ff0000fdfa000000
fdfdff01000000020000fefffe0400fe0000
feff0002fdfeffff03fc02ffff0103ff0000
fcfe01fd03fcfefeffff01fb01fe01fdfe00
ffff0104fe0005fe04fffe0000fbfc010000
0206fe010001fcfe00fd03fdfffeff030100
ff01ff00fb00fb0001020101fd01fd000600
fdfffe0000fc02ff0000ff0003fffb00fe00
ff0100030102fe00050102ff03fffffffe00
ff0702030305fe00fe02fffc010004000000
00fc010005010203fcfffd0005fe03fd0100
fc010001feff00fe0404000101fdfe010400
02fb0102fffcfd0003ff0200fdff0203fd00
060201fffdfefcfefbffff0001feffff0200
03ff02040202fefdff00ffffffff03000000
fef9ff04fefe00fdfefd000101fefc00ff00
fffefe00020304ff00ff00fdfdfe00050100
fdfc01010000ff00ffff0001fffc01fe0000
ff0301fd00fe0100000002fe0103ff04ff00
04060001fbfefefffe000103fffc0201ff00
0000fdffffff060000fd03ff040503020000
01f901010103fffffd01fa0001020001fc00
010104fe02ff00ff00ff03ff01ff00fdfe00
0000ff01fe0100fffefefe0303fb01ff0100
fdfb02fdfefe020203020103ff00fe040200
ff01fe0001fe0302fdfffefffffc01fffd00
0102ff000400fe0001ff00fe0000fd030000
ffff0202fcfdfe07fe05fcf90004fc000300
01fe02fd0400fa0300fffefdff02ffff0200
03fd0000fefe01fd0004ff0103000302fe00
010001fe01fd0100fffe01ff0100ff00fb00
00fb010002fe01030100fd010302ff020000
00feff00fcfc00000003000101fffeff0400
fcff00fefbfd00000102000100ff0304ff00
010001000001ffff0101fe00ff0301ff0100
0200feff01fe0400fe01fd020200fdfc0000
0005ff010402fe0101fe00fdfffe0001ff00
fd00fffb08fe0401fd02020203fc04fc0300
fdfe01fdfe0100010001fd01fe0103ffff00
02fd0001ff0104fefdff0000030101fdfd00
ff020100020102ff0101fc010003fdfefe00
fe0000ff02fcfffdfbfdfffffefdfe000400
fd02010002fd000000ff01ff02fffefffe00
00010004fe03ff0001fe0004ff0001fd0100
fd00010101ff02ff03fcff000402fe000100
000000fe01fe000003ff00fd00fdfc050500
01000506ff04feff00ff00000105ff00ff00
fcfe020000000001fd0201fd02fefefefe00
0404fffe0101fcff02ffffff02feff040000
ff04fe03fd02ff01ff0300fe01040000fc00
ff0304fcfe0101ffff00fe0200fffffefe00
fefc0102fdfd000300fffe0100ff02fe0200
fcfe00ff020102feff02000002feff000200
00050306fe00fffcfefdfffc02feff000000
fd00020400050500ff0001fe02fd0301ff00
0203fd02fdff0104ff0000ff02fb04ff0000
fffbff03ff0000020101000000fd02ffff00
ff0102ff0000fdfd0201030103ff04fdfd00
fe01fe010205fbfefe000000fcfb0302ff00
feff00fffefffe0201ff020102ff02000000
fefefd00000000010302fffe00fbff01fd00
ff03fefe01ff0204ff0001fdfe0100ff0300
fe020101ff050002fe01ff0300fffefffc00
fc153d03171aec04fc1d152f3239f2fb0d00
2626282c282a2227261c25201c1f29272300
fe00fffe0101010000ff010001ffffff0100
fd000004030400fdfdfcff00fefffffe0000
020100010100fe0005ff0001ff01ff00ff00
0000ff01fefffd02fd0000ff0102ff00ff00
0101fd04ff00fdff01fffefefd0202020000
070002fdfdfbfffe06ff03fefdfcfc01fe00
00010100ff00feff010b01fe010002ffff00
00fd02ff00000003ffff01fe02050001fd00
ff00fe00ff000005fffe00fcfefffd030100
fe0101ffffffffff02fd0001fd0102010400
020202fe01fd0101fffdfd000001fe01ff00
fd00ff00ff02ff000300feff00ffff010000
0202ffff03fa02fd01030000feff01000100
ffffff00fe00ff00000101000001fffc0000
03fd0003fe030101ff0102fffd010201fd00
0003fffdfffe0205fffffcfe030102020200
fdfffbff01ff03ff0200fffdfcf80202ff00
0001feffff00ff01fd0001030001fc010000
020202fe0001fe01fb01ff01010401fe0000
fbfefe05ffff020104fe01fe040502ff0100
0100fe00ff0102fefdff0100fcfb01fdff00
020000fffd0002fe00ff00fffe0300fe0000
0000fffffffefdff0201ff0602fdfeff0000
0101fe01ff03ffff02fb01050500fd00fe00
00fdfaff03fe04fefe02ff00fd00fd06fe00
03ff02000103fe0400010003fdfdfe000200
fffefd0002fe01feffff0003f8ff02fd0000
00fffefc01fffc0102fe0101fe0000fefe00
040205ff0001ffff01ff0000fffefcfffb00
ff06fe020203fcfe03fc05ff020102010200
fefffdfe0002030003fcfefffd080100fd00
ff01fffffc00fffefffbfd01fffefdfefe00
fffe0100fd0003010202ffff01ffff00ff00
020000fe03fe0001feff00fd0002fd00fe00
fd00ff02fffffc0100ffffff02ff01fd0000
00fdff00ff0102fefd020000fc02ffff0000
00feff010002fdfe0100fd0000fd00ff0000
00fffd02fc00fcfb00fefd00fa0100000200
fd02fe020301ff03fa0000fffdfcfb01ff00
fe01fc0001fefbfd00fafe0304fd0202fb00
01fefc00fffd00ff00fdfd00fdfe02000200
0102fb01fbfefefd00fc02fffdfffe030100
01fd01020001fbff01ff00feffff00020200
0101ff02fdfe00fffeff010403fffefd0100
020000ff0300fc00fdfdff00fe02feff0300
fffffbfbfeff0004fe01fffb05fc01030200
fffdfefffb0003010201fffd04ff01fffe00
020001fd0101000000010002ff010300fd00
fd01fdff01fe010001fdfe0100ff03fefd00
fe01ff0204fffe00ff0002fe00f805feff00
01ff0000fc02ff01000000ff01fe02ff0000
fe04fdff0200000304f9fffffafe02ff0100
05fd00ff04fafefb0007010200fa01010000
0300ff0000fe02fe05fdfefffb0102fcfd00
0102fe03ff03020000ff0201fd0000fcfe00
fefe02fffe020500fb04fcfd0000ff03fe00
0301fdfffefe020101ff01fd00fdff000100
fefe00fe00fdffff020502fe01000000fe00
03ff0100ffff05010201020103fcfeff0300
fc010201010201ffff0000010100fd000200
00ff05ff040104ff0002010000fffd000300
0104fe02fe0302010303fdfdfffd0000fe00
ff00ff00ff01ff00ffffff01fefeff03ff00
000200fefe010403fefd01ff01010302fc00
05040105ff01fffffe01fd0400feff02fd00
0105feff00ff00010101fe0000fafffeff00
00ffffff010001fc03fb0201fc040000ff00
fd02000104fd0401fffd07fb0002ff060100
fdfd0101000001fd010101000100fefffe00
ff010201fd0202fdfdfc04fd0200fb010100
ff0700ffff00020102fc0302fb0002fdfc00
ff0200fe0002fefd01ff0004fffd00010000
00000000fc02fdff0301ff030200fd00fd00
01ff00ff02020602020301ff0003fefe0300
0002fdfe01fd03fdfd04fd02ff03fffcff00
00fffd04fd020305fcfdfa0101ff00020000
0103fdfd020001ffff03fef900fc0101fb00
01fefe00fe00030001fd0000fd02ff020100
0001ffff01feff0100fdfdfe00fdfe010400
0301ff00fe000000020000fcfeffff010000
00010000fefffc02fdfcffff0100ff02fe00
0101ff01ff01ff0200ffff01fefc03fe0200
fe0001fffe04fd00fffdfff9fd0202010100
fefe030100000101030102fefd000301fe00
fdfd0001ff00fffdfe020003fffc0101fe00
03fd0001ff00fc0003fd00fe020103000000
00fe00ff030000ff000100fe000100ff0000
fe04ff0400fafd0502050201fd0002010000
01fe0000fd00ff02010001ff00fdff03ff00
fd03fefe00020000fefeff02ff0100000200
05000200ff03ff0103020002fe0000010600
fd00fd01fffeff000000feff01fd01fffe00
fefefefe02010100fefe01ff00fdfc010000
00010201fdff050101fe00fafbfd01010000
0004fffd0402080002fd0101030001010600
fcfc01ff02feff000104fffcfcfc0102fd00
00fffe00fe000200fffd00fffffe06ff0000
010104fe02fe030101fefe03ff0002fe0100
00ff00fffe01fe04020501fffdfd02010300
01fe0000fefe0100fffffffd0100fe00fd00
00ff01ff00010100ff02ff03fffe00000000
03fffffdfc000102040302ffff0005ffff00
01010002ff0001fd03fdfd00fffefefe0200
fc04fe01000100020400ff01fb0002030100
00fe04ffff02fc00fefc0003fefffdfeff00
01fcfd000300060400fe0201fe0601040500
000300ffff02fffe00feff02000103010000
04fc01ff0000ff0100030201fdff04000000
030303000301010403ff01fc00fefd010200
02000100fbfc0002fd02000000fdfd000200
020202fd0000fe0200010200fefc00fd0200
fdfe020201ff00fe0100040202fe02feff00
01fffc02fc0201fdfcfefcfbfd040200fd00
fefe01fefe02ffff0103fefffdfe05fd0000
ff01ff040001fd00fe0102fd00fefd00ff00
fffffefd04ff0200fdfd0004fc0201050300
fe0000fdfe00fffefe01fdfffffeff02fe00
fdff0301feff02010204fffffd01ff02fa00
010000fefe00fe00fd0005fe000000fffe00
fdfd020100ff0301fc020104fe01fffffd00
01fd0401fcff0100ffff00faffff0102fd00
0000fffffe03fffe01fd00fd0201fe00ff00
fffffd00ff0000fc0102fffefffcffffff00
02ff01fffe02020103fefefc0001fffdfc00
ff00fdff00ff02020102fd000301fe010000
03fdffff00feff0104fefdfc00fa01fdff00
ffff01fcfefe03ff0200000102fcfd00ff00
fdf804ffff03fb05020000fd0001fc000300
030201ff0001feff01fe0001ff050100fb00
fffefefe0001fefeff00fffffe02ff000100
ffffff010100fffe01ff010000fefe010300
01010001fffffe0002fdfeff01010100ff00
fdfefefefc02fd00ff00fdff01ff02fe0200
03020600ffffff010001fffffdfd01ffff00
0003fe0000feff00000000ffffff03000300
fffb00fd00000201020000010303fefcfc00
00ffff0004fc01000102fffdff060002ff00
03fdff0506fc0100ff020500fefdffff0200
ff03fcfefffffffb02fd0203fc02fcff0000
ffff010102ffff00fc0100fcfe02fd010100
000101040302010001fcfdfe000101ff0000
00fc01fc05fefc040206fefffb00fd000300
ff000100fdfffc0001ffffffff030104ff00
fc010000fc02000303fd0101ff000102fe00
fcfc0105010000fefe0101fffffcfe020100
00ffffff00fe01fffc01fdff0406fd040300
01fe03feff0001fe0300ff0d00fc00050000
05fdff03fcff00fe00ff0403030001ff0300
0202fe0002fe04ff000401fd060000fe0400
04fe00fe0001ff04020202010001fe000300
01ff00fd000001fafe010102fbfffd000100
01fffd01fefffa04fb02fd07fafc02fefe00
03fffcfffcff00fe0002fffefe040106fe00
fd02fefefefe01010304fe03fffefe04fe00
fefbfdfdfefe04fe01fd0209fe000000fe00
00000000fe00030203000501fe0204000600
02010601fffffd00fc00fbfffffd0001ff00
02fffeffff0101fe01ff0102ffffff010100
ff00fd05fb000101fcfefd00020201010300
fe0301feffff01fd0103ff00010202000100
fdfefffdfefeff000102000000fd00010200
fe01fffefc00fe0001fc0301fe00fffdff00
fdfffdfffe01fd02fff9fd0200010401fe00
fffffd0100ff030300ff02fcfcfc02fffe00
000000ff00fffffe00fefd0000ff0000fe00
fdfdfeff04ff01fefcfc05fffcfe04fefd00
fdfefc0200010002ff040300fd01fe020200
ff03fffe020404ff020201fefc01fe02fa00
ff00fbfffdff05ff00fffc04fdfe0003fe00
fdfcfb040002fe00ff02fffdfdff01010300
02fe00ff03fe030000020202fefffe000300
01fefefd0104ff050005fefffc04ff02fd00
05fd00ff00fa02fc0500fc00f9fefffc0600
0302fe0000fdfe02ff06fb00030203fe0000
010200ff00010101feffff02fc0000000200
02fffbfc03fd01fffe0000fcffff03040300
00fffc0201ff08fe01fefcfc03faff020000
ff03ff0005fb01fc0300ff01070102fffd00
01fffd00fdfe0200010000fbfdff01fefd00
fffffffe010301fe0003fdfd0100ff00ff00
0100020301fe0006ff00fc0001fe04fc0000
feff0000fe0001feff0100fefd03fe000000
030100010002ff0102020102010200ff0000
020102ff01030005fffffffd01ff00040000
fffeff0001ff00fffcfefcfe010000fefa00
ff03fcfffe01fe00020300fb040000fa0000
060100ff0001ff030001ff0003030100ff00
00060200fd00ff0103010302fffe02ff0100
ff0003ff05030301010200020101ffff0000
ff010102ff01fd02020002fe02fdfeff0400
ff0001fe020002ff0000ffff0003fe000000
0403fcfc01faffff0100fe0204f9fefd0500
fe0400fffefdff0004f6fffefc0307010400
0101fefd01fd0000ffffff0002fffefe0100
ff03ff00ffff0200fffffeff0000ff030200
02ff00000200060302fffc01ff010204fe00
01ff0101fe0102fffeffff01ff02ff000200
00fffd0000fd02fc0201fffdfc010103fe00
ff0002fffefe02fdfffbfe04ff0200000100
00fe00030202fe00fefbfc00fe010201fb00
0101fbff040103fd03000101fe0202000200
01fe000201000003ff02fdfdfffeff010500
0202fe000003fdffff01fc000100fffe0100
0500fe0204000002fefb000100fffd000000
03000003ff0201000000fffdfffe0001fd00
00ffff02020000fc000103fffdfd02020000
0104fdff00fbfe000000fc030000fffe0100
fffefefffd00030001ff01f9fe020301fe00
fd01fe04000400fb00fc00fe0202feff0000
fe01fd0506ff00fcfcfe00fd01fb0105fc00
fffc0106020104fbf9fd0004fefd02fd0200
010301070302fe0104fdfffe04fc00fe0200
ff0201fd000103ff00000205ffff02000300
02ff0100fdfdfeff00fdffff02fc02010000
06fd0300fe0500050002010303feff000300
fefd0203fffc04fc02fe01fc00020001ff00
03fd0200000105fe0002ff0101ffff03fe00
fd02ffff0201000001fc000000fe00fffd00
010400fe00fdfd04fefefdfdff05fffefc00
01fefd0100fe030001fd0200ff0000010000
ffff01fc0002fb00fc01fffcff0102040300
0102ff060301fd03fff9ff00fe020300fd00
03fe00ffff0000ffff00fffd03fefe01fa00
0100fc02fefdfffffefd00ffff0201fd0200
02fdfe01feffff01fe02ff06fe00ffff0300
01fdff00fe000302feff0202fd0000020400
ff01000100fc03fe0304ff0000fe03fffe00
000000fe01fe0101fe030000fe0000fc0100
ff00fe000200010201fe0201fdfffe000000
fa0802fdfc00000001fa0506fbf8fffc0100
ff00000000fd01ff0000030300fe02000000
020001ff0300fffefdfefffffdfb04fd0200
00ff020003ff03fc04fd02ff04ff02fc0100
0204fdfe03ff02fd0002fcfe06fcfe010000
00fb0301fffe01fe00fe01fefefafffe0100
00ff00fd050003020004ffff03010302fe00
fffb00020003fe02fffe010102fcff000000
010100020401000201fd02fc030300040300
fffd030303fcfe00fb0602ff02fd03fefe00
fd00010100fe0002fdfe020300fc02fd0500
fcfa0001fe04fa00fe000006fd010200ff00
ffff000001ff04fc0105fffdfe0102ffff00
fffd00fefffe010000f901fc030701fe0200
01fdffff000102fc02ff05fefa000102ff00
01fe0300ff02ff01ffff01fb030000000100
fefe0204fd00ff00fe03fffd0000fe02fd00
fd000102ff010202010001000001fe010000
000201ff0101020302fe03fdfe030105fb00
00fc0200fd03fe04fe0401fdfe01ff00fe00
01ff01010100fe0202ff00fefdfd03010000
fc00010001010000fe0001ff00fc01fefd00
00ffff01020201ffff00000001fdfeff0000
0001fe00ff0001fffef6040100010202ff00
fe01ff01ffff000001010000ffff00fe0100
fe0100fffefe00fffe02000000fd01ff0200
ff02fe010300feff01fffdff010104020100
0103ffff00fe01ff020201fbfe0103feff00
ea060415110bfffb1b07f71117133ff20b00
2a1a322627252b2b292c2b19222026293b00
00010000fe0000fffe00fe01fefe0101fe00
ff00fe0105ff02ff00fffefc0100ff02ff00
fe0001fefe000402010000fefbffff010100
00fd000100010000fcfdfe000100feff0100
ff03010201fd0001fefd00ff030401030100
02fefe0002020301050000fcfcfffd010000
01fd0301fe000102fefe00fcfefe0000ff00
fe000201fc02f9fefd00fcfe0201fcfc0200
0100fe020001ff03fe00ff010204ff010400
fdfffffb01020101fd010101fd03fd04fd00
01ff020201ff02fd0102fef9fffd00fffe00
fffdfe000002010200ff02fa00fffe00ff00
fe03010100030201030001fe02fdfdff0000
0201fe01fd000004fffc03fe00fe00feff00
00ff00fffe020000fd04fffafe0401020000
fcfe00feff0004fbfd020102040202ffff00
ff0100fffd0200ff00000008fafb02030600
01010300ff030202fd03fefd0000feff0000
fe01ff0000ff01000100fe0203020500fe00
fe0101fefffefdfffdff0003fb07fd000200
01fd0100fefe000000fdfe04040300020400
fe07010001feffffffff01030203fe000100
0001010001fefe00ff01fc010103fffeff00
02fefd000302fd0101fffd000105fdfefc00
03010001ffff05ff0300fefafdfefd01fe00
02fcff02fdff0203ff02fcf8faff00010300
0003fefd0002fdfffffeff00fefe03000100
fe0002ff02fc010002fffffe030103ff0100
010402fafc0001ff01fe03000203fe00fc00
fbfdfdffff0300fe000203fdff0201000100
fffc01030300fe010504fe04fd010102fd00
fc000101fe030101fd020003fd0102030200
0101fefcfffe000001ff0301fe01fefc0000
03fe000201feff0101fffe0100feff000100
00fe020200feff00fd01feff0302fd010000
0100fe0001020101ff0201fe01fcffff0000
01fe02fc01ff00000000fdfe01fcff010000
fd04fefefefdfd00000005fffb01fefeff00
030100fc0000fd02010105fdff01fa010100
02000201fefe0100fefefdfc01fdfa000100
00fe01fcfe0000fffffb00fcfcff0103ff00
03ffff04ff000104fefefffd04fffffc0400
0002010201fcffff030001ff0201fd020200
0303fe00feff00ff01ffff01fffe0201fe00
0100010402fe01fefd01fe0104fcfdfc0000
ff0001fe000002ff01010103000403000000
0005fa010101020001030204fc0102ff0100
fffcff02ffffff0001ff02ffffff00ffff00
0201fffbfe00fffdfd0002fd00ffff03ff00
020101fefbfe010003fd01fdfd02ff000100
03020204fe01ffff01fd01fefffefe01ff00
fd0303fdfefd00010400fc05fdfe01010000
0300fffe01fd00020704030100fffcff0300
05fefe01fffd04fd01fe000402f7fefeff00
0009000001fc020000020003fc00feff0000
01fbfc01fe03ff00010001fffffd00000100
fe0100ff0101fe0200fe010103ff00030100
010102ffff02fcffff02000000fbfd000000
0100ffff0002fe02ff000104ffffff01ff00
00fe0002fffffe02ff03fe03030000fe0100
fefd00fffe0100010202fe01ff01fdfd0000
000100fc000202ff02ff01fbfdfdff00ff00
0100ffff02ff00fe02000002fffb00ff0000
0107fffdfd020100fd000107ff00fdfe0200
00fbfd00fe00030302ff020300fe01000000
020300fe0100fd00fc00fffefe00ff00fd00
02fdfe0201000201fe00fd04000701040100
02010201fefe0101fc0301fcfe04fe00fe00
01040200fe000003020002fe0204ff02fe00
00010200030100030003ff00070200020100
02fe01000000fdfe040300fd00fc0002ff00
00fe00010000fffd03fefe02ff0202ffff00
ff0000feff00fd00fcff000000fe0000fd00
01fd0202fffb01030202ff01fdfc00010000
0104fd0102ffffffff0204000300fefdfe00
fffd01ff0000fffe0302fef90100fe010200
fffe02020102030001fffffb010202fffe00
ff0300fd01ff0203fcff01060003fffffe00
00ffff000001ff0201ffff01010300020100
00ffff010003ff0102ff010000030101ff00
02fdfe0000ff01ff020005030500ff00ff00
fe05020100ff020000010101fc030302ff00
fe02fe00fd0300fe01000001fe000101fe00
ff040101ff00fd0103ff01fcfc0302020600
04fe01fd00ff01fe02ff01fdff0102000100
00fe000302fe01fefffd020501fd04000100
02030102ff01000001fffefd00ff01000100
03040005fd00fe01f9ff0403fffd00020000
fefeff02010204fe010200fcfd00fcff0200
01fffd00010400fcfe02010201ff00feff00
feff04feffff02ff02fd01fafbfc0101fd00
00ff0200fffeff00ffff00050102ff000300
06fd0203fefe02fe010300fa030101ff0300
fd08feff0001fefe03fffe01ff0202020000
04fb01fd05ff000302fcfe010300feff0000
01fe01fefefefe01fdff0004fefbfc000200
00050101ff0204ffff000101fe020202ff00
ff0200feff010202fd0101020001fe000000
0000ff01ff02ff0101ff00fffefefe00ff00
fffe01ff0100fd030000ffff0400fc000100
0301fffd0000fdfffffe03ff00fd01fd0100
ff0400f90401fefffd00fe0101020000ff00
fcffff0002fd0001fdfffe01fdfcfe02fd00
0102fe06000101fffe0602fe010500010000
000000fdfd00ff0100010100fb0402fd0000
0302fe030306fc01030102fafe01fefe0000
ff02fe02ff00ff01fe00fffe00000000ff00
03fefe0300000200fa0400fe01faffff0300
010302fe01fd020302000000fe0001000400
ff01000001fffe04ff02fd04fdffffff0000
0106ff00ff000001fb0402fefefdfefe0000
ff030000fe0000fdfd02fe06020401fb0000
ff04000107f902ff0105ff01ff01fe010100
fefc010203ff00fe000101fefefa00010100
fe000702fd010401fe0100fffbfdfb000100
020400010001fdfffeff0100010201fe0200
01feff01ff0301ffff00fefd00fd01ffff00
0200fefe01ff040103fffdfb010401fffe00
0201ff01fdfd0104020000fffc02fe00ff00
02060401040300fd02fe00fafdfd02010100
ff0202020200fe01fffefe00fe000001fe00
fefafe01040000feff02ff0101ffff010100
0202fe00fe000100fd00ffff0101ff01ff00
ff08000502fe00ff0200fffe01fdfe01fe00
03fdff0100fdfd00fd0000fe01fffefe0200
0303fefffe01fd00fffd0103feff02ff0000
010302fffe01ff01000101fefffe0002fe00
0100fc04f8ff01fd03000208fffafbff0100
000605fe02fdfc0003fffcfdff000205fe00
0101010102000000ff0100fc0101ff01ff00
feff01fe0000fe0000ff01fcfefe00fefe00
02010301fe010003fffcfe000000ff03ff00
02f4fd02fffe000204010302ff060002ff00
0200fe03fffdffff01fe04ff01010301fe00
ff00fe0101000100fe00fdfe000201000000
02ff04fdfd010000020102fd0000ff020100
ff00fb03fdfd0102ffff010503fcfdfefc00
0001ff00fe00fffc07fe0200000403000300
0000fffe03fd0202fc030303fbfd02fffd00
fefd01ff03020000ffff01fe05fcfcfdff00
fffd00fe00ff0100fe0000fe02fbff050100
ff0001fc03fdfd05ff010000fb03fe00ff00
fffcfd0203fffefeff0202feff000100ff00
030000fffd020105ff000200030300000300
00fe010000fdff03fefe00000300ffff0200
0201030001010000010000fe01fd0202ff00
0200fcff00fd01fe000000fb00fe02040000
00ff010100fd00fffcfefffe000400fe0000
fdfcfdfd03fefffcfffffffe040000fdff00
0007ffffff00fe0000010205fffd01fe0200
fdff02ff000001ff020000fffc0002fd0200
fef80000ffff03fffe03fffd00fffc010300
06ff01010300050004fefefbfefe00fefd00
030000010105fffdfcfeff04fdfefefeff00
0401fefefc01ff01feff0104010000fd0300
0301fe00fffd0100030302fc0003ff010000
fffc02fd040000fc04fd0208fd000003ff00
0202ff00fef8000002fefe0302fffefffe00
03ff010201fe00ff0200fc03fe000102fd00
00000000fffe010100fc01fe04fb01fefe00
ff0002ff0002000000fe01fbff02fc010000
0101ff03fefe00fdfe0101ff0405fffd0000
feff02fefe0200fd03fffdfe0000ff020200
ff03fffeff0300fefd0001fefefdfffe0200
02010102fefefefc00000304fe01fffe0000
0000fdfafcfefffcfdfc06fe020103fdfd00
01fcfe0300fffc0201000005fe0003010200
0103fc02fd030200040608fdfc02fffefd00
050001feff010202feff0100010202040100
fb0104040004ff01fd0002ffff01fe02ff00
fe00010204fffcfe01ff0202fb03fb010300
fbfd00fe0103030002fdfcfafefc00ff0200
0101fe0000fb03feff00fc01ff0101ff0100
fffd00ff04000200020100fe04020000fd00
fefffe0100000000fd00fffd03010002ff00
04fdfeff01fe010201ff05fdfffd03fe0100
ff00fcfd02fffffeffff0305ff01fc010100
ff010002fa020101fc000205fd0300fffe00
000000fdfffc0000fe00010402ffff020000
01fc0302ff05030405ff0001fe0100fdff00
03fe02fdfd00ff02fe0001fafffb00fefb00
0000ffff01fdffff0101fd0003fc02000200
010901ff00020001fffe03ff02ff01fe0000
01ff00feff000102ff0201fb0002ff030000
01fc000000fd02fefd0102fa06fffdfe0300
fdff01fe00020101010202fe00ff0001fd00
0202fe01feff010100010200fffefefe0100
fcfe00fffe020001fdfeff01fffe03020000
02ff00020102ff00fe02fffb020101020000
010102fe0201ff01fe00fe0002ff00030000
00ff0301fcfd000403fffefefdfeff000000
000200fd0400ff0100010003fc01fc020100
fcfbfcfffbff0000fb000201fcfafd00fb00
01fdfffe01fffe0100ff03020002fcffff00
02fffb020102fefe00000101fe0402020000
00fe03000104000100fbfefe0102ff000100
fd0401000001ff03000001fefe0001010000
03000202feff0301fd00fefb02fe00000000
fefafd0201fe0200fc00fdfd00fc00040200
feff00fbff0103fe00ff02fc00fefd020500
03fdff03fe01ff000001fe01000201fdff00
0000ff020300fb010300ff0500fdfffd0000
01fefefefdfcfffffe030300fc00fe030000
fffffefd0204fd01fe03ffffff01fe000000
01ffffff00010102fefefe0205feff030000
02fe01fe000200ff05fffdfd00fa01ff0100
0100ff000103ff03fe01ff000301ff020000
00ff00ff00fe03fefffefffe03ff00010100
05fffeff01fa01fe01fefe000201fc01ff00
fe0000fcfefc02fe0100ff030003fe010000
01010202fdff00fe000000020201fbfdfe00
fffdfefefefd0402fefefe04fe000202ff00
010001ff01fe010104ff01fefffbff02fd00
fffe01fe0201040101fffdfe00ff01010100
fffe0101fd02ff0001ff020502fd02fd0200
04020202020100fdfd00000a020302030300
0301feff0301ff01fe04ff000203fefe0000
fefffd03020301ff010203ff0002fe000000
02fdff02020000ff01fefd020303ff020000
010200fefffe01fefeff010600ff00030000
fdfe0100000200ffffff02ff00fd01fffe00
fbfd02fc01fdfffefb00fe0201fd0000ff00
ff02fffd00ff01ff010204faf70100fe0100
ff030301fffe00010202fffefe0402fd0000
fd0202ff02fd01fe00fe01fefe0300020000
feff03ffff0000fffe05ffff02fd03fe0000
00fb0300fd02fe0102fe0100fffe00000100
00ff02fe0200ff01fffe02fd00fffe00ff00
fffc0101fe00fdfefe040002fffdfffffe00
feff010102fffd0300fffd0302fd0100ff00
ffff01fdffff0101fd02ffff030102010200
01fe01fdfffffe0300fbff01fdfeff00ff00
0004fe01fa01feff01000004fdfdfdfe0200
fcfd02fe00ff01fdfe04040401fffffefe00
02010001fe01fd000103fff8ffffff010200
fcfffe000501020102000205fcfefd020100
03fb0302fdfe03030001000100fffe01ff00
fdfffd0002ff0100fd00000205ff00020200
00fdfe00fe040502fe00010701ff02020300
020102030302fefeff020104010000020000
00fb000101fffcfe030102fffc0103fcff00
01ff0002fe0101fefefffcfc00fdff00ff00
ff01fcfdff01fd000101ff04fe01fe02fd00
fd000400000200ff01020004ff0500ff0000
fffefd0003fe010102ffff01030001ff0000
fffdffff0003ff00ff00fffd01ff0100fe00
02020100fe00ff0100fd01ff00fcfffd0000
00000001fb0101020200fdfa00fffb03ff00
010300040301fe00000100ff03fd01000300
fe0301ff0202000102feff01fcfefd000200
0000ff000001fffd0203ffff00000100fe00
01060000fe07ff00ff00050001fcfafdff00
02fe03fd000302fffffd000101fefc020000
fc01fffffe01ff02010000fe0103ff00ff00
0003fe02000204fefe0001ffff0301fffd00
02ffff04ff000001fbff0102fe0203ffff00
04ff02000202ffff0101fdfd030304010300
101d0817f0f227fb20fb1210081207430500
2524202026201f29232f242b2c1c2d272900
00ff020101ff0201fe0101ff01ff00ff0100
0003010100ff00fffffd000000fdffff0100
0003fffffbfffe00000200fffefb00fe0200
01fffffefcfffe02fb03fffffe0001000300
fcff0004010003fd04fffc00000000fcff00
030104fb00050501fe050001020bff010300
01fefefdff03fdfe05fd01fd01ff01fd0100
01fbfcfe0103ffffffff000000fffcfeff00
0006000100fe040003fe00ff000100ffff00
fdfe03ff01feff01fe02fe03020001010100
fe01fc00fe0000fefefffe02fe03ff000000
fd01fe0000010002ff000101fd04ffff0200
010101fc0200feff000101000003feffff00
000101fe0002fffe02fefdfeff0002030100
fd0001fd00fffc00030201fe02fc00000300
00fdfeff01fcfdfefffffd0003fc01fe0100
fb0301000202f7ff01ff04fafdfe01010500
0001feff0100ff0002ff01fd03ffff000100
00010301fe0100fcfffffdffff010001fd00
ff06020103fffdfc020100fffd02ff01fa00
fb05000202fdfe0001fcfe020202fffc0000
fffefffb00ffff02ffff0300ff00fd01fe00
01fdff03fdfdfc0000fe030000feffff0200
02fe05fdfffe01fefc04030001f303020100
0103fd020303ffff010001fefd0501fd0100
01fb01fc00ffff00ff000200010300000300
01fdfb00020302020100fefffd0104fffe00
00fb0400fefe0006ff00010304fc0202fe00
ff040403fe0303fd02fd0502050401fd0200
0300fcff0301fffcfcff04fc01feff03fd00
000100010001fefe02fffdff00fe0100fc00
ff02020102fe0202fe0301fffffc01ffff00
010101ff0200fb000000fe02fff7fe000300
01ff00fd03010000fd02fc01fc0001fffc00
fefb00ff02000003fb02fe01020202020400
0101fe000001fdff00010100fefe00fe0400
03fffffd00010200ff00ffff00fe00000000
fffdfbfefe0402010203fdffff0100fe0200
fd03020202fe050102000202fe09fcfdff00
0101fffd02ff00fdfdfe05fffffd00fcff00
01fe0003010002ffff01ff0100fe02fe0000
01f6fc020103090602fc05fbff01fbfafa00
000304010000fefdfe010100fc03fefffe00
fffd00fd03fe02ff0202fd01ff0104fe0000
01fe0000ff00fb00fc01000300f902fefc00
000502fbfd0200fcff02ff0003fffefc0100
ff02070001fefd01030002ff01fc0000ff00
00ff0301fe0200030101fffe0103ff010100
00ff010100ff030300fffdfffefffffe0000
02fd00feff0202fefb02fc00fe0101000000
fbfe0000020002020000fffd0001ff030200
fb04fefe0804fefe010401ff00fdfe040000
070101fb0301fb030001fc01fc03ff000000
030502fc020500ff00fd00ff01ff02fe0000
02ff00fb000202fe010001000102fdfe0100
ff000000ff00fdfefffefffdfff9fefdfd00
020200030300fefdfe00fd00fefdfefefd00
0203ffff00010101020000010002fdfe0200
fefdfffefeff02ff010201010101fefe0300
01fc03ffffff01fd030002010101fefe0000
05fefffc00000101000000000100ffff0300
020201ff0100ffff03fdfcfeff00fdff0100
0100fe00ff03fdffff010101010000ff0200
0000fd030100fdfffe01fe00ff04ff030100
01fd02fdfcfcfafdfe02020200fe0001fd00
ff00000101fe0204010002ff0202fdfffd00
01fc0105fe01ff01fa000200fcfe0101ff00
02fe0200fcfe03fe00fe0300fd0502fe0300
fc00ff00ff02ff00fefffc0004fefeff0000
01000200fe0103fe030205ff0102fafeff00
020104ffff00ff02fffc0000ff0400000000
01fe01fe0300ff0000fffd0004fffbff0100
fd00050100fcfd0100ff010302fd00fe0000
0001ff00ffff010401fd02fb030200fefe00
01fffe01010401fe030003fbfd000201fc00
00ff02fefc000002ff03040100020200fe00
02fb000100fbfc000001040300fa02fdfe00
0102fb010200020102020000fe040100fe00
020003010102fd030102fe00fdfe0001ff00
0201ff020001feff0300fe00fe020202fb00
00fe00020102fbfffdfe020001f902030100
02ff0201fe0000fe00fffffffe0201ff0400
fbfffe02000600fbff000101fe00fffe0100
0301feff03fcffff0000fefe0301fefbfe00
fefffd000000fc00fefffefe010601ff0100
fe0200ff01ff00ffffff03fefefc0000fe00
fffffffeff00fd01010005ffff0005030000
ff03fbfe02fc020000ff04fdfd05ff02fa00
fc01fe01fe04fffcfe00fefd010101000100
0001ff0101020000fe0002fe000102ffff00
ff00fef9fffe03feff0001010102fffd0500
fffffe010000fefefd00fe00ff0001ffff00
feff0002fd00ff020000fffeff00feff0200
02ffffff0201fb01020100ff01fd00020200
fffc03fe01fffb020305010103fe05010000
0303040201ff01fd01fffa01ff030001fe00
fefd00000003fe020104ff00fefd00010100
fb000403fc00fdfb0202ff0002ff01000000
0001000001ff040103fd0104010001fe0000
000201ff00ff020000feff0100fe01000300
fefefc01fe01020301000001000201ff0100
fc05fe05010001050500fd000101fd01fd00
ffff01ff0001020001ff00feff01fffefc00
fd030202000001030102fc00000100010300
ff00000002feff0100fefe03feffffff0300
ff030001fd02fe00fefd01feff000302fe00
00fffffeff01fefefeff0400fefffefffe00
fd03fe00fcfdfefd010000fe02fffe010100
0102030102fe01ff01ffff00ff0200fdfc00
00fbfffe0200030202ff01fe02010100ff00
fc060200fffefd03fcff0101fe02fb02ff00
ff06fc0403fe02fe01ff000001fe0102ff00
00fa02fa000400020601fffefc02fefe0000
fffe0204fd0103fffffeff02ffff03feff00
030200fefdfe0202fffe03fe010101fffe00
0002ff02fe00fffc00020400000200ff0300
010000fd00000601fefb00ff0101fe01fc00
fffefe0100ff0200fe010005fffffd000400
01fd01fd00000000ff00ffff0100fe020000
fe02feff0000000304000401000003000100
fe030201fffe0402fd02fffe02ffff030200
fbfefdfc03000303fefdfe02fffdfcfffe00
0101ffff01ff0001fefffe03020101ff0000
ffffff0100fffdfdfffeff0103fe00020600
fdfd02fc0100fffc0201fdfefffd00010200
00000202fefd0300020100fffc0801000000
fe01fe00020000010002fc01ff0101ff0200
fc02fb010102f6fbfefc06fd01fc00000100
02f80402fe01fe02fffefdffffffff010300
0102010401010202fffefe00fffefcff0200
0300fffd01ffff00020101ff00fe01000100
00ff01fe0200ff01fa00fdfe01fe03fe0200
00fefd03fe00010101fd01ff0001fffe0100
04fc010201fc0200fd0204fe02fbfefcfe00
ff0001030203ff01fd010403fe00fe010200
0103feff00ff000201ff01ff0201fd02fc00
03fe010503020001fc000300000201fe0200
00feff01ff0101000101ff01010301000100
010001fc010200fd0000fd0101fa0000fe00
fffefdfffdfffe01ff020401ffff03ff0300
ff02fefd00000103fd010003020100000100
fdfe0003fe00ff030302fdfd0402fafe0900
0000fc01ff0204fdfefcfe0000fa0400fe00
0201fe0101010201fb01fdfe00fe0102ff00
fdfd0001fefd0402fb03ff01fdf70100fe00
01fd00fe02000003fb00ffff00fc00010200
02ff0000ff00fffcfd00ff0301fdfefefd00
feff0002ff040001feffff00fe0101010000
02fc0002ff0101feff01feff000000040000
000000fc01ff0203010205ff00ff00030000
0100fffffffefa02fe03fefefd0000010000
00fcfd03ff00fffc030101fffc00fdff0200
fffdfefd0102fffe01010100000001fc0200
fe00fe01fe05f90500ff00fcfd0201040200
0003fe0201ff02fcfe0300fefffd02ff0200
0000fdfc01030301ffffff0000fefdfd0000
fd0105fefffd0203fc01fe0101feff010200
00ff00ff0500fe000102000400fdff00ff00
fc0202040300fd000000fe0000fb0003f900
fe030001fffcfe0001000100ff020303fe00
05ff00000102fdfefafc0101fffe01fdff00
0000fbff000101fe00ff0000fffefeff0100
ff0100feffff02fdfafefefe000200010200
fe03fdfffefefe0200030201000300ff0100
ff0200040001fefe010200020001fd010200
fe0300000401fe00fcff03010201fe030500
0300fffd0101fe0104010101ff020404fe00
040401010102fc000206fcfefe00fffc0300
02fffefcfdfdfffd0000000000ff00ff0100
fa06fd0102030600010001fe030204fcfe00
0103fdfe030102000000fdfe010401ff0000
f801fcfcff06ff0002fe00fd040602020300
030005ff00ff0403fe050000ff000101fe00
0002fd01fefdfdfd02fffc0102fcfefdfe00
03fe0200030102010202fe02ff0104010100
ff0400fd020203050203fafd00fd01ff0300
000301ff0504fffe02ff00fffeff02000100
0201fc04ff000302fdfe0400020201fd0100
0000fd01040200000100ffffff030100ff00
00ff01fd00fef80101fefb01fe010200fe00
fefc0101fd00feff03fffffefefffd01fe00
02fe02fdfd0001ff000204ff010002000300
feffff01ff030201fdff010300fc00fffe00
04fc02ff0000fd02fe03fefeff0001010100
fffc02fcff0100fffc03fe04010401ff0000
01fc01fe0203fe010101fffd000201ff0000
00fe00fffefefdfe0101020000fefd000000
01fd03ff00fe01040100fffffffc0102fd00
03ff0201fd0101fe0401ff03030101000100
0204ff0300ff000403fcff01fd00ff02fc00
01fe01fdff00fd00fdffff0107fc0200ff00
fe03ff020201ff04020001ff05020102fd00
03fb0200040400fdf8fe05020103ff000100
fe0300fefe000104fd01fa010201fffffc00
01ff00ff0303fd02fb00ff0200ff00fffe00
fdffffffff02050000ff03020003fffe0200
ff02ffff02fcfd03fe04ff00000002fffd00
02fd0201ffff060305fc02ff02fd0100fe00
fefe0402fe04fc000101fc00fe0201fc0300
fcf8fffefe00fe03fa01fe0204fc01000100
0203feff02fffcfeff03fd01000201fffe00
02010100fcff0201020201ff0100fbfeff00
0401000400ff04fcfdff020401000101ff00
01000200fe000100fe0000020004fefefe00
01ff030402fe01fe0000ff00fdff01fb0100
00fd0001feff02fffffeff00030000000500
fbffff01feff03050201fdfc02fd01fe0200
0202fe010304fd00ff00ff00ff01fe00ff00
03fa00ff00fbfefdff01040001f704010200
010203010200fe00ff000002020303fdfd00
00fb02ff00fdff000101fdff03ff0003fc00
fffe00fc02fdfa020201030104fa03ff0000
ff00ff00020200ff0002fdfffa0204fffc00
02fcfcfe00ff0003fd0200030001fdfefd00
fffeff00030205020000000001feff010100
fa0201000300ff040200fdff0101fffd0100
02fe010100fffcff010002ff00fd0100fa00
ffff02030101fffd04fdffff0001fd000000
000300fd020300fffdfe04fcfffe03050100
01ff01fe00fe03fbfeffff00fe0102ff0100
01fc0101fd02fa03feff0101fefeff010200
03fd01020102fd0003fefffdff050001fe00
fefeff000001fc00ff02000000fdfdfe0400
0405ff000003fe04ff0000ffff04ff01fd00
ff00fdfd0003fe0300000001fdfc02fefd00
fc0401030001fefbfc01fd01fe02fe02ff00
0401feff010105ff03fd0000020400fdfe00
ff00fffafeff020100fd0300fefd0301fd00
01fe00ffffff0301fb01ff02ff010101ff00
fdfb01000200ff02fa01ff00030004fefc00
020000020200010003ffff01ff02fefe0100
fefaff0000ff03fdfe020001fd0200000100
010301020100fffe00fdfd01fe0301fe0000
0201fe01fffefe0102fefd00fe05fd030100
00feffff0201030201fdfaff000701fdfd00
01fffefefe0101000500fe020201fa01ff00
01ff02fcfe0200fd02fffc0200030100ff00
fe03010103fe01fd06fffefeff040300fc00
fefc0505ff01fdfd00fefd0201fe0101fe00
fd010100fdfffd00ff01fe0101fc01fe0100
0301feff00ff0000fe00fefe0204fefe0400
00010103fdfdfeff0001fcfd000200fdfe00
03fffd000304f802ff00ff00fdf600000100
fcfdfe000001faff0000fe0000fd01ff0200
ffff000201fc01010001ff0001fefe02ff00
04ff01fffe00ff02030101ff02ff00fe0200
02010200ffff0201fd0100ff00fdfe010000
0104ff010300ff010002fffefffffcfbfe00
0402fffcfe0301fc000101fe0202fbff0100
fffe0000fffefafd01fe000200fd01fcff00
ff00ff02ff01ff01ff0002fefffc00feff00
fe0001ff0101ff030401fd01020002020400
01fc01fc05ff0003f900020103fd07000200
fd04ff000102000300020200fe0200fc0100
010200000101ff000200fefffe0102ff0100
010002ff000201fa010002fc02fe01fb0000
01fd010101fdfd0201ff0403fffe01000000
f82249251503e2f1eb33f91ff32920f5e500
23241d29232c282a291c2822302825232a00
01fefeff01000101020100ff01ffff000100
02fdfb0301020100fefdfd02feff00000000
fdfe0000020003050101fdfefd00ff01fd00
04fefefffd00fe00fffd02010101ff020200
06000200fefffd020203fe01feff00000000
02fe04ff0102fffb000402fdfdfe00050000
fe0200fffffefe0401000000000000010200
fe0001010102000000ffff01ff0000010100
0000fffd01ff01fffeff03ff03ff0203ff00
00fcf9ff010001fd04000002fefdfc010200
fffdf80000010001050103fd01fffd000100
000102ff01fe0200fcfefffd0002fffe0100
ff00fe00fffe0200fffd02fafd00fd000100
0201feff01ff010001010002020002010400
ffffff00fdff0102000402fbffff04fffc00
fe03fd02fefefefcfd0101ff00fffffc0100
fffefffc030401ff0104ff02020106ff0000
0000fffefffe0300ff03fefd000002ff0100
ff03fefe010102feff01ff02fffffffe0200
fffdfc0002ff04ff0201fbff04fc00fc0200
fd01ff0105030602000001feff0201030300
fe00fdff00020000fe010100010200ff0100
0001fd0100ff030001fb03ff000000020100
030204040104fe000004fd0301fd01fc0200
00fdfe02fe01fdff00fc010303fdfe000000
fe0404ffff00fa04fffe0200010202020200
00fdfffe0201030303010405030003010200
02fefd03ff00fe0000ff02010002fe00fe00
00fdfd01fd0300fefd0200fd00ff0001ff00
0300ff02feff0402fe00ffff01fc02fd0000
fd00fb02ff0101fefcfa00fefffcfffe0100
0100ff00000002fffffeffff020000020100
04fcfe000101ffff02fffefd00fc01020300
0000000002ffff0102fcfe0001ff00010100
02fefe0101fefffffcfe0100ff02fc040000
feff0102fffd00ff00fe00010000fffffe00
fe010100fffffffe00fdffff00020403fe00
fefd00010202fb01fcfd0102fffe0400fa00
ff0003000001010200ff03010000fd010100
03fcfe030102000101fd01fb0301fc03ff00
01020000fc02030102fd0100fc0100fffe00
010300fe0001010302fe000101fffcfdff00
ff01fdff000102000401ff04fe03fe01fd00
fffe0500ff00fe0003fd02fffffd0101ff00
ff000100fe01fffb0201fd00fd05fe010100
0301ff02fe01fffbfe0000fc01ff00ff0100
000002fe0101ff0002ff0100000101fefe00
00fd00fc030000ff040203fe00fd00fefe00
00020100fd00fe0103fe04fd0200fd07ff00
0303fbfe0102ffff010200fff9fdff010000
01030101000001fd020003fcfe0001fd0300
0000fdff0102fd0300ff03fffeff0207ff00
fe0200fefb01fb04fffeff00050000010400
00fffdfb00ff01fdffff01fefffefb040100
020100020402ff01fb01ffff0201fe000100
ff03f9fefe02000201ffff00fd030200ff00
01fe00fdfdff00010008fe0102fcfefcfd00
04ff00ff01fefe03fe0003ff0303ff01fe00
fefe01fc010102010205fffc03030002ff00
04fffeff06000004fe01000002020002fd00
0400000000010000fffe00ff02ff02fe0100
000102020201fe000001fe0300010000fd00
0202ffff010203fc0200fe0200fdfd02fd00
0105000303feff030301fe010001fefd0100
fd0102010101000101fd03fd03000100ff00
010201fb0002ff0200fcfb00fe03fe000200
03fd01ffff0202fcfeff0200fe0003fdff00
fe03ff00fffe020101fe0201060401fefe00
0100fdff00030301020101000002ff02ff00
01fe0301030301fffe00fdffff00fc030400
ff00fefdfffeff0201ff00fb02ff02fffe00
0202010101ff0103ffff03020201fe000100
0100fdfe0100ff0203fb020103fd0200fe00
fc000201fefc0202fcfd02fd010001010100
fd03fd0002fe0101fe0002fcfe00fcfffc00
fefcfb00ff00ff00fffe0000fd0202030200
fdfefdfefe00fd01fd03fd0001fe00000100
00ff0100030102fd0000fefdfefc00ff0100
03ffff0000fe0002fdff010100fdfe010000
0001fffc0000fcfe02ff01fd01fe01010000
01fe00ffff030104fe0100ff0002fd000200
0102ff020200feff01fe0201fffe04ff0000
00fefeff02fffefa02010001000202fe0100
0000fcfefe0002ff0001fe050001fffcfe00
0000feff0003fffd00fefefe0300ffff0000
ffff01020002010001fe00fbff00ffff0000
fffc0100fe000103ff010101040202000300
0400fbfc0107feff020001fefdfd01040100
fffffe030300feffff01fffd01fffe030200
04fffbfd04010001fdfdfffe0001fc000100
ff010202fe000302fe0500fa05040206fe00
00ff00fe0302fe010100ffff02fd00010200
fafffc03fdfc00fd02f902010103fffbfd00
02ff00fd00fe02010000020101ff01ff0000
01fdff04ff05fc0000fefefffefffb040400
fb0500fefe0101010100fffe000003010200
fefd020001fe00fe04fa0200ff04fdfd0100
ff0002fd010001ff040101fe0004fe000000
fe0100fe000005ff02ff01030100ff000100
0101fcff02ff02fe01fb0000ff01fdff0100
fd0100ff01fffd01fefefeffff02fe01fe00
0202fbfe01fe020304ff00ff00feff040100
0201fd00fb0103ff000001fe0101fd000000
0300030201fcfe03040202fc020200020100
fffdfbfe00fefefdfdfefffd010101fdff00
00fa010101000100010303ff0500fe02ff00
03ff00000102ff01fe01ff0202fc0200fe00
fefd04fe0101ff02000102fe050102fe0000
00fe00020000010103000000ffff01ff0000
fc010003fcff0102030000ffff0500fd0100
0101fcfcff030200000202fefefcfb000200
ff000302040102ff0101fd0202fe01fe0000
040003fffe03fd00020201ff01fffffffe00
fd00fa0302ffff0005fe00fdfffefcfbfe00
01fefd01ff0202fe0100000302000302ff00
02fffc0102feff0201020001fffffd000200
fdfefdfffd00000001000101ff010102fe00
fe04ff01ff04010001ff01fd01020100fc00
ff0000fdfd01ff0101feff02020300ff0100
0100fd0001fc00fefffd01ff000400fe0000
0003fdfc0202fe0300fe000500fc0100ff00
01fefc040202fd00fd0000fe020202020100
fffd00fffd03fdfdff02fe00fffffe01fd00
0202fe02fc00fe000001fffd0001fc010100
fe0302fbfa02fd03ff01fe0004ff02010200
fe0102fcfe0000fd01feff04000002feff00
0200ffff030102010000010001fd0100ff00
00fe040004fc040200030003ff0304fe0200
05000004ff000003030100050203fffeff00
fdfd0100ffff01fe01fe0504000000fd0200
ff020000fefcfffd00fefdfffd000002fe00
02ff01010000000005fd04ff04feff010000
fefefdfd05fe070002feff02000200040000
fefd02fcfb00ff0300fe02fd00fd03000000
0100fdff000000000100000102fdff000200
020200fefc00040100000003fdffff00fd00
010300fe04ff0401010200f9ff0002090000
fcfe04ff01ff0200040200fefffe01020300
fffe0003ff000000fe0100fc0000feff0200
02fffe0000fe000201ffff04ff00fffe0000
fffc0000fd0003fffdfe0302fd0101040100
fd02feffff02fd01fefe0102fffe02fd0100
03fdfffe000201ff00fb000000fffefefe00
00ffff00fe00030101ff000300ff02ff0000
fffd0001fe0002fffffdfd00fcff00fb0400
0103fe0200fffe01fd01010203fefffd0100
0001fd0100000000fdfc010103ff02ffff00
0000000100ff00fe0201000002ffffff0100
ff01fdfefc00040003fd02fe01fffe010100
fd00fd00010200fffffc0001010103010100
01fff9fffcff0103fdfffe03fffffe01fe00
fd02fefe00fe040401ff010200030101ff00
00fefc030102ff0100fc040100fbfdfffd00
0104fffe020200feff0200fc00fd04040000
fcfdff0105000202010200050202fffd0100
020200ffff000001fe00fffe0002fffdff00
fe0301ff00fefcfe0101ff01fe0001040200
0500010301fe00feff0901fefd0300010000
ff01fc01fd00fffdfe01000001fffffb0100
ff01ff00ff01ff0201fffd02ff01ff00ff00
ff00fdfdfe0203fc010000fffe03ff020100
fd01fd0100fe00020001ff03fdfefe040100
fffb0000fd00ff030300000100fdff00fd00
020003fffd03ff020000ff01000201fefe00
01010200fc0000ff0201fdfcffff01fdff00
09fdff01f3ff0700fbfe0201fd0100030400
010301fd00ffff000100fe00fefe00ff0000
ff0704fe03fffd00ff030201fffa0502fb00
fefe02ff0202fdfefd0205fe02fffe04fd00
0000fb0103ff02ff01000003fb01f9fc0000
01fb0101ffff0101ff0000fefffcfffeff00
fcfefafdfd00040102fd05fffffe0204ff00
fffe0002fd02fffcfe01000603fcfffe0100
00fd03fe00ff06fe01fe05fd020301fe0000
0204010101ff02fd01ff00fffffffd03fe00
00feff00fdff01fffd0202fd06ff02fe0000
0001000201ff01030002fe000000fd000400
02fefd0100ff0002020401010100fdfcff00
02010100ff0100ff0204ffffff010102fd00
0101fffd050100fcfffffbfd02fdfe060000
0202fcff02fc01fc02ff00fb050100020200
fdfcff00000300000201fefffe0001010100
02050101fbfbffffff00ff0300ff00fe0200
020306010002ff01fffe0100010404010400
fffffe00ff01fffe00fc01030001fd04fc00
02fe0001fd0000000001fffe01fffdff0100
fe000002fdffff00ff00ff00000202000000
00000400fd03030202ff00ff000001030300
fffe00fd00ff0102ffff020101000100ff00
01ff01ff01ff020101ff0000000400030100
00fd01010003fffefeff02ff01fe02ffff00
00fdfefffefefefbfcfefffcfffe02ff0100
010500010600fe00fff9fcff0002ff06ff00
fffe01fd0103ff01fc0201ffff0300010000
04ff03fefd02ffffff04fffffe0102ff0100
00fd0201ff0200fd000000fe01fc00030500
02fdfc000001fe00fe0001ff010200ffff00
fd0301fcfc01fe0201010102fd00fdfefe00
030103fd00020101fffdfe020002ff000100
02fcfd02fdfffffdfe01020101ffff02fe00
00fd000002fc00ff00fd010001fe03fd0000
fefe01ffff01030100fffd0001fdfe02fc00
fe02fd010000010300ff010401fe04feff00
030501060001fffefe000001fefe00000200
00ff0000fcfd030201fbfd04fffe00fcfd00
fd03fd0101030100fe00ffff000203000200
01ff00fffe000405fcfdfffc00fffe010200
fffffcff03fdfffffffffe01fe0001000000
fd00fa05fcfe0002fffd010300fcfe060300
02fefd0201010202fe00fe00fefc00030200
01ff0100fffffcfeffff00fdfdfbfd030100
fcff0203fefe0103ff0100fefdfc03000300
fdfffb00fd03ffff0101feff02fefffe0100
03fd0102fdfd01ff000101ffff0000020100
fe000400020102fd02020001fe0000ff0000
04fcfeff03fb0004ff030003fd02fefe0100
fc00fe020403fefdfffe020400fd00fe0100
0101010203fd000401fb00040002feff0100
feff010102fefdfffdfe0001fffe0002fe00
010300fdff000300fefd0000fffeff000100
ff00fe00fefe02fe0000000103ff01ff0100
01fdf9fb00ff03fb04f901fffffdff00fd00
0000fdfc0301000101fffefd020103fefe00
02ff00ff00010201fefe0201fdfe01fe0300
fffe01ff00fffd0203ff0100fffffe000300
0101000000fdfffd0101fffe00fffeff0000
fc0101fd0100000302ff03fd02fffefd0200
fe010001fe0102fffd01fefe000000fd0100
ff0002ff02010201020200fdff01fdffff00
fefe00fd02fc030301fe02fefe01fdfffe00
06fffffffcff010000fffcfbff00ff010000
feff00fffefffffffffe0101fffefc000000
ff01fefefdff000103fdfe00ff02fdfeff00
010201fefeffff0003fffefe00fefe01fc00
0500fffe03ff020306fe0005ff03fffb0300
0402fc0201ff01fdfe0301fd0401fe030100
feff0000fd0100010000fdfeffff02000000
feffff030100fb01fdfe00ff01fffc040200
00ff010100fdfefe0401fe000001ffff0300
fd000104fdfb00fd0102ff01010102fd0300
00020001feff02fdfffffe00000201000200
fcff00ffff01fe0101fe000001ff01fd0100
00ffff01030100020202000100fe00000100
fe00020202feff000202fdff000000fb0200
ffff0100ffff000100fffefe000000fefe00
0400ffff0303ff02fffe0100030001fffe00
01fdff00fffd03fe01fe0202fe0000000400
ff0103fdfffffe00ff01fffdfffd00fc0100
0304fffeff01ff0402ff010102ff0300ff00
fffffbfdfeff000002ff0202020002000000
02fffb01ffff000000fc03fcfefd00010200
fe050000fe0200ff0001030001ff00ff0500
08fdfe030202fd01fdfa02fd02fbfefe0200
ffff01fefdff0102fffefe01fefdff000300
ff00feff01000100fd0000feffffffffff00
fcff020001010000fffc0200fd0402000000
01ff01010100fe0200fffe020201ff02ff00
f03124150638db030910124804192203fc00
2a22261e261c202821251c24291e261d2700
01ffff010002fffe01fffefffeff00000100
0000fd0002ff02010102fc0102fffefeff00
00020304fc0203fdfcff02fd01ff01fffe00
fffffffcff01010101fbfd0201fffefefe00
03ff01010000fe0104ff03fe03ff01000100
02fd0405ff01fe01fd010306fffcfc030100
01fd000302fb0000fcfd0603feff02ff0000
fe020002fa0201fe01fe01f7fefdfffe0100
ff0201fd02fe00fe01020001fc0301050000
02fb0108fdfffb0001fdfb01020103fd0100
030101fdff00fe0001fffffffffffffeff00
ff0101ff00ff0002fffe0101000100000000
000000010000ff02ff0200fffe0004020000
ff00ff0401fb00fc04fe010000ffff010300
01010002ff0201fdfd0101020002ff010300
fe01fc02fdfd0200fefffdfcfe03fc020100
00fe030001fb010202020103ff00fe010000
00030200fe04fe01ff02fffdfe0100010100
0101fd030002ff0201ff0000000000000100
fe03feff0006fe010401fbfd02fc05fcfc00
01000202fe0003fe00ff00feff0002fefe00
020003fefffe000001ff0000020100020100
0102fdfd01f90101010402fffdfe00020100
ff02000101f7fe020100fdfb04fffc030000
ff06010301ff0501fefefefa00fdffff0100
fefdfefc01fffdfeff010105fefefe030000
02ff020201fd02000004fc0202ff01020100
020300010101fe02fbfe02fdfb0000050200
fe02ff02000003fd040202fa02fefbff0000
0201fefbff04ff01fffffdfb0003fd01ff00
fd03ffff01fe00ffffff00f903fefcfdfd00
02050001fffd02020000fe0200fdfefffc00
fe010001040103020402fcff04fdfd020100
00ff0101ff00ff000201ff01ff0000000200
01fc000100fffffeffff020103010000fe00
00020201000000010001fffd00fe0101ff00
ff01fd0101fd0000fd00fe010203fe00ff00
0100ff04fcff0102000004fe06fffcffff00
02f902fcffff04feff0101fffffe00000000
0101ff01ff01ff040706fffcff00fc01ff00
010100fdff010100fcfe0003fbfffc040100
00fdff0302fb01fd030100fa01fdfcfefc00
01fffffefd080000ff00fe00020001020100
ff03fdfcfd00fe01030103fffe04fe00ff00
0100fbfe010204020001faf8fdfcfd000500
0001fefefefcfe00fe00fe0102ff00fe0000
0104ff02fdfe0101ff0202fe050100ff0000
fdfbfafb01fc0001ff000000ff01fefffe00
01040301fe01030004fdff03fdfe0501ff00
05fa00010304fbfffffe010601ffff010200
01fe020202ff0100fffdfe0000010000ff00
06fe0102fe03fd0100fd000101fbff000400
04fe000202010001ff020102000401fbff00
03000004fd04fe01fdff0006000200000000
02ff02fc0101ff020001fe020002fdfffe00
0100fffffb0502fffd02030303fe02fb0000
03030100fefdfcfd00fd01fdfe0402ff0600
00ffff00ff010400fa010003000200020100
fffe0101fffd0201fd01fdfdfbff0101ff00
fffefff90200fd0001020201fe02ffff0500
0204fefe00fc030102000100fe02ff010300
ffffff02020403ff000102ff02fb01fffd00
01fe00ff01fffefe00fefefeff0201000000
fd020000fe0103ff0102fffdff02fb030300
03fc03fd06fd00fdfdff0100fdfd04030200
ffff02fe020204020100000900010302fe00
01fefffb0102020101ff01fdfefefffc0100
ff0401ffffff02fefe000302fefe0001fd00
0002ff01fe01ffffff01ffffff0302010300
fe01ff010104fd0301000004ff0200fe0100
ffffff0003fdfefefb0100fe01fc02ff0400
0300fffefefdfefffffe00fe01020201fd00
01fefb02fdfc020101ff020001ff03020000
05fd03fcfeff01020005ff07fbfe0200fe00
03fc050002ff0000ff0302fa04fc0303fc00
ff0002fc010302ff0003fffbff00fd01ff00
01fe0002fdfc030106fefd020000fc02ff00
fdff01fffdfe00020601ff03010201ff0200
feff01ffffff01fe0301fd0000020000fe00
fe02020001fd04ff00fe05fcfd0002000100
ff02ff0003000301fd01fffafb00fb010300
fffcfe02fd01fe000303000100fffe010000
0102fefefe0401ff00fffdfd030302fdfc00
ff010102feff01fe00ff0303ff0001ff0200
fc0102ff00000300fe0000fc02fe0000fc00
0100ff000302ffff00fefd0202fd00fefe00
ff00ff01010303fe0103fd03040000fffc00
040001ff0104fefe03fefb0002ff01fd0000
fd01fe0000fe02020002020001fd00000100
0300020000fcffff0003fefd03ff00ff0100
01ff040400ff01feff0204feffff0402fe00
fefefe0101fd0000fe0001010000feff0200
00fffbfb030000fefdfc0204fe04fdfcfe00
fc000100ff00fb0102ff00fe04fffc040300
ff02fafd030004fffe0101fefefd03fefc00
ff010100fffd04fc0100000001fefe000000
00ff01ff00ff020100fdfcfb0000fd010000
02fcfe02fd0102fffb000100040401ffff00
01ffffffff0003ff01fe00fe01fffe000000
fe00ffff0001feff020102fdfe00fe000000
02fcff020102020002fe04fafe01fefc0300
03fe04040001fdfb04fe06fd000101040200
01fd02ff04fe02ff01fffe010101ff000100
02fd00ff0004fe02020100fffe0201fdfe00
fdfffaff01fefc030103fe01fe04ff000400
0401fefefbff04fe00fefc03ff00fe02ff00
ffff00ff02fdff00fe00fffb00fd01000000
02ffff00fcfe0300fdfffe0602fafc01fa00
04fe010101fdfffcff0100ff01fe0200ff00
01ff0004fffe000500040004000301000200
030005fd0106ffff00fffefe01fc00fe0200
0101fd03fffe00ff02fcfafb020301ffff00
fb01ff01fefa02030001ff0104ff03fafd00
01fe01fe00ff02fefd000201ffff01fdfe00
fe0401fe04feffff01ff00fd010202010200
00feff01010401030001fa01fe000100fe00
02ff01fc01fe00feffff05fffffffdffff00
00fe00fe020103ff00fb020000fdfd020300
00fcfefeff0004fe01000202ff00ffff0100
0300fcff0701ff00fb01fcfdfdfd01010600
04fe01fc01fe00000203fd02050100fd0000
fd01fcfefffc0200fcfefe01fc0100fffe00
fffffd00feff040200fe0003fe02ffff0100
01fdff04fefcff00010302000402ff000200
00ff01ff0000050004ff02fcfeffff00fe00
00010005ffff020001fffe0203fd03feff00
fe0004020000fd01010002fe00fe01fffe00
02fafc00ff09f901fc0004040602fd01f900
fdfffdfe00fb0103ff00fcfe00fc01000200
fe00fcff00000000fdff00fe000302020000
0203000101ff0000fbff02fc020002fe0200
01fe000002fe020400fe00010100fffeff00
ff0301ff00ff01ff03010300fe03ffff0100
02fffe0303ff01ff0004fe0100ff02fefd00
fe0100fe010202ff0001faff000103ffff00
04fd0302fd04000004ff02fcfffffffe0500
fffd030302040200fe0001fefe030304fe00
03fd03000205fe00fffefc0002000302fd00
fcfefe010203ff03fdfffd030001fcfa0300
030200fcff010000fffefffb000101000000
01ff000103ff0001ff01fd0100fefeff0100
fefe00ffffff00fffefd03ff00fb00010400
fffdfdff000400ff070203fffeff01ff0300
01fefdfe010101010203010003ff01fe0200
01fffd0005fd06fe010300feff02fcfcfd00
ff01fefc00010001fc020100000000fffe00
00fdff010201000600ff02ffff0105ffff00
ff00010203fd0102030301fe0100fc020200
fefffdfd03fdfffdfefc0200fefe0001fe00
05fffdff0203feff02ff01ff06010400fe00
00fbfe00fefffc0100fffdfe00fe0100ff00
01fc00fefd0102fcfffd04fffefe03fefb00
fcfdfe00fd010302fffd08fcfefafcfd0100
00fd01fe00fcfcfe0203fe0201fdfdff0200
fd00fe010100ffff0403ff0302feff01fd00
06ff00feff0201fefe01fff9ff0001000300
04fd01fffffffc00fefcfaff02fb02ff0000
ff030701ff030103010100000103fffd0000
fd050201fefcfeff00ff01fdff01fefd0200
fefd0000fffc00fefffe00000101ff010000
fdfbfdff01fd05fe000000fefcff05ff0100
feffff0300fffc01fefbfffdfc00fe020000
030000fefeff01feff01ff02feff00fffd00
fdfe0002fe0201ff0000ff01fffefefffe00
0202fefefffffffe01fcfe010100ffffff00
05ff0307fe02fc0101ff02020000fd06ff00
fb00fdfcfefefd000000020201fefb010000
0700fefdfaf9fffffe0401ff01fd06fcfe00
000201fc02fd0400fe01000202030000ff00
0700020400f8fe0004fa0100ff07fffe0400
fe03fffffd00fd03fcfe0102000100ff0000
00ffff0300fb060001010703fefb0602fe00
02ff02fe0601ffff0005fefdfefbfefafe00
fffffe0102fe02fd000000fcfcff04010100
040102000005ff01fe00020100fd0100fc00
feff0201fffc06fefbfe030100fdfe00fe00
fffefe03fefe050102ffff0100fafe010200
0102fd08fe01fffd010001ff00f90004fe00
fe02fd0000fd02fefcff03ff000000030000
fb00fd04ff01fb04000001fe00ff0301ff00
01fffe01fcfffd04fe05fd02000601ffff00
04fffffefd000400fd0103fd0102fdfbff00
ff00fe010100fe01ffff0400010000fe0200
ff03fc0200ff01ff01fffd06fd00fe020200
fe0003fd00fe0401fd00ff01fefcfdfffe00
0302fe0204fc0202fd00ffff0200ff010300
010000ffff0100feffff02feff0204020100
fff901fdfffd01ff030101fd0000fffdff00
00ff01ff00fd0600010205fc00fefc01ff00
0202fefe02020100fefe000000fcfeff0100
03fe0101fffdfd03ff02fffd00ff03ff0200
0000fdff00f5ff00fe00fd040101fe00fc00
00000001fd00fb050104fffc0403fd010500
fdfd0002fe0103020201ff0400ff00fdfd00
fd0200fd02fd00ff01fc00fbfdff0201ff00
0201ff0200fd02020200010002000104fe00
fe020101fe01ff020200fd0300ff00000300
fefa020101fffafeff00fe00fdfdfcff0200
03fefeff020002fe00fff903fc00feff0200
0301010101ff02ff01fffdf9fdfdfefefe00
010001ff00f9ff0101fbff05fe0001ffff00
02fd01fd0300030102feff04fbfc0001fd00
02fe00fe03ff0101fe00ff03ff02ff000000
0003000103feff03000000ff0201fffbff00
00fc03f9fffc0303000404fe020400fd0000
fd0300fc01fefefdfffc02040001fe010100
00fffefdfefefcff01020004ff03fdfffc00
01fe00fefdff01ff000102fcfd03fdfcff00
fa05fdfe04010204ff03fcf9000101020100
03fe00fdff0201fefcff0001fd000001ff00
fe020003ff04fd0001030100030100ff0100
fffefe0104fefe010302fefd000001000000
00fd03fffd01fffffffffcfefefefcff0200
ff04fd0201fe030501fefbffff00ff000100
000203fe00ff04fa01fd01ff010000020100
fefeff02030100fc0003000104fcff010100
0003ff02fff900ffffff00fc00fffdfdfd00
03fefe010005fc010201fefd03fd0000fe00
0001fefe040200ff01fdfcfe03fd00030200
fefe04ff02ff01ff00fefe00040301fdff00
01fffdfdfeff01000000fd030102fe000100
fb00fcfb01fb03fdfffeff01fe0003fdff00
fefe0002ffff0102fffe01fd0200ff02fe00
01fe000301fb01fd00fefcfd030100040200
faffff00fdfd0202ff00fffd02fcffff0300
00fdfffd0008fefffdfc0101feff01ff0000
02fefeff00fd0200fffe01fc01fffe020200
0101fd0000030000fefffdfe04ff00000100
02ffffff03fcff01fd0001fcff0100fffe00
fc0103fd0104fe02fffa00fdfdfffefcfe00
03fefefe010401010101fc01fe02fe030100
fffe00f6feff02fdfb0001fcfe0000040100
01ff00030004ff00fffefe01010003030100
02fffdfefefefe04fefc0301feff03040300
fdff0202fe00ff01fdfbfe0102fe0203fe00
01fd040200fc01feff000601ff00fafd0000
fefffdfe000101fefc010201fffe04010100
00ff0003000205ff04fefe00ff01fe00fd00
fefefe01010104fefe00fdf9000101fe0300
0002fffdfefbfc02ff02fffd010000010000
fc000001fef90205ff02010102fefc020300
01fdfe04020501fb00fe0003020201fe0000
0101fe00fe0200ff00ff02fd000001fdfe00
02020002fffd02ff0103fbf5fd08ff05ff00
02fe01fd00fcfe00fc0000fd020303fdff00
000301fc02fd0000ff02fc0900ff01ff0100
0100010000fe01feff01fe00fdfefc020100
00ffff0001010500feff0200fefffefefd00
05fe0400fffe01ff0203fd03010203fffc00
ff0000fefffcfc0103030000fd0104010300
feff01ffff01ff00010000fc010201ffff00
fe04ff0101fb00000001fdff010000050100
fe0500ff01fffc020102fa00fe03fc040400
02fc0200ff000200040200fe01fdff010100
0101ffff0101fe02000301ff02fdfeff0100
ff020002fffd0000fe00fd01fd0102fffd00
fffeff02fffe000100ff0300030300000300
0814e6f9370a0014f12c172526280b062c00
2e252a2a1b2323272e253021242623262600
ffff010201000201fefffeff00fe00000000
fffdfeff01fdff0002ffff0100fe02000000
fffe0000000101fe02feff06ff010100ff00
0003ff02010001fa0100fefefe0001010300
00ff030100fd00fcfd01fe0200ffff00fe00
02060101fe04fffcfefd00f902fefffaff00
05030200fc020003000001fefffafd030100
ffff00feff00feff04000200fd0002fe0000
fefe02010001feff010002fcffff01010000
0102fefe01fd02000002ff040103fc00fe00
01fd00fe0100ff00fe00fdfc040300000400
01fffefffeff02ff020100ff0103ff01fd00
0004ff020104020300ffffff02fdfe030000
01fbfe0002fffefd0002fffffffe00fefd00
fe0002fe01ff010102fd00fefd0001ff0000
feff00ffff01fefeffff00fbfefd02ff0300
fdffff03fb0203ff02000300fc0104fdfe00
020200fbfe010000fdfffe000001ffff0100
fe02010004000100ff0504ffffff00fe0000
0001010101fd01000000fefd0503fdff0000
01fd0202fbfe02fe01fe01fc0004ff01fd00
0201ff010402fcff01fffd0200010100ff00
00fe020000fcff00fffe0100fefe03fefd00
fd0104fe0503fe00040004ff030102fefc00
0301fefe000301ff01fffe00fffe03030000
0200ff00fdfbfdff010200020302fffefc00
fd0101fffdfe03fdfd01fefe00fd05fefe00
fffeff02000300040103fe0300fe0200fa00
ff00fcff0202ffffffffff0001fdfdfd0100
000204fd020002ff0001ff0200fd0000fd00
010000030000fcfd00fefb06000002000000
ff010100fffdfdfd0101fe010001fdfffd00
00fdfe0205fffefffefcff01020102fafc00
fffefefdfe00000000020100fe01feff0200
010001fefeff01fe00ff00fd00fe00010300
0200feff00ffff01fffefe0001010202fc00
0101fe01ff01fffe00ff0102fd0102030000
02ff0204fd02fe0100fffffdfe00fb00fe00
ff0202fd02000305ffff00fdfd02f8fb0000
01020200fdff0000fefc0001fcfffd030000
fe0002fd010101020200fffffffdfffefb00
ff0004fdfe00fdfb000102fff8fd0503fe00
ff04fffd020103000402feff01ff0101fe00
02ffff02fe02feffffff02ff010005020000
0202fffdfefc01fb02fafefefffe0404fe00
00fffffe0001fe0302000100ff0001ffff00
000000fd0001040102fefd01fd030402fe00
fe00fd0301fe000200fefe0200020103fd00
01feff01000303020103fd03fd01fe01ff00
02feff02fd0300fffeff02fe00fd01fffe00
01ff00fdfefdfefdff0000010102fefe0200
00010202fd000402fd00feff00fefbfefd00
01040205010003fefefe0206ff01fe040300
0001fd02fd0200fbfefc0404050402fe0400
03010100fe010100fffdff0300ff01010500
02fe0302fffefefd03030105fafd0205fd00
0005ffff030001ff00fbff04ff000100fc00
01030201fd01040001ff00fe000000000400
fe01010100ff0000fe02ff00000300fffe00
000201020100ff02fd01ff0000ff03030000
01feff0101fd01ff00fefe00020103000100
00fe02fefefe00ff010101fdfffd0403fc00
02020301fcfefffd00fffcfe0102fffffe00
0200fefe0200ffff0100fffc00fdfcfefe00
02010003fe01fb0100010201fffdfb020000
fe01ff01000301ff02fe010201fefeff0100
02fe0301ff0300fc0102ffffff0002ff0200
fe03fffc000104fe010102fffdff02fe0400
fe030400fefefe02010201ff01ff04fe0400
fb0203ff00fe0302fe010301000002fe0100
fefe000303fe02fefdff00fd02fbfdfe0000
03030200ff010301ff0102fffcfefffeff00
030301fefefe010001ff0201fdfeffff0100
ff000103fd00fcfe03fe020001fd02020100
fefe00fc0005fbfe01ff0201fefeff060000
ffff0400fe000000040301fefe000200ff00
fdff04fcf805ff0100050101ff0100fe0200
fefe0000fcfe01fefe01fffd0203ffffff00
fefdfe0100fefeff00fffffefe00fffdff00
ffffff010004fd00ffff00fffd0202030100
0000ff00fcffff0301fffffffd0001ff0300
02fc0101fd04fffd000001ffff02fdffff00
00ff00040003fd00000404fe00fcfd02fe00
ff0101fb01fe01020103fd02ff01ff020100
0002000200ff01fe01fe02040002fe00fd00
feff0000fffefffefefefe02fffc01ff0200
04fdffff0002fd02ff02010002fffe01ff00
01010101fc0307fe01fb00000004fd03fc00
ff0106fe0004ff02020002ff01fd05ffff00
ff03feff03fe02ff0201fdff02ffff010000
0003fd0000040302ff020000ff02fe000200
fefdff0001fd00fe01ff0000fe0103fe0100
0000000100ff0001fe060202000501020000
fe00fefa01020102040201fd0000fdfe0600
02ff0403fafffefd04fd01fefa0200fdff00
fefe00fffcfdfe0203010001fcfffe020300
fefc000303000204ff0100ff0202fffefe00
00fd03fe01fd0000fefd0100fffefdff0000
fe00fffcfefdfe00030000fe0100fd010000
ff0102000100ff0001fdfe00fffffe000100
02000102ff04fe04000301feffff00000000
030102040201010001fefe01030200fe0600
0001fd000000fe0001ff00fefeff0201ff00
fc05fc0001fe0104fefe03000602ff00fe00
fefdff01fffcfd0001030202fffe0003fe00
fe0001fefe0004fbfefd0000feff01ff0400
fffe03fefffefe01fe0000fd00fe0000fe00
fe0000fdfc01feff00ff01fe00fe00010400
02fefe00ff040000ff0001fdfffffdff0200
fdfe0102fd0100ff040201fc01fd00fe0100
010200fd0203fefffeffff0405fffc030100
fe02fefd06fe04fe0000010103fcfc01ff00
0201ff00fe01fafcffffff03fefc0305ff00
03fcff00fdfe00fffffdff01fd03fe05fe00
01000001fcfe0000ff0201fdfe00fffefd00
fd02ff0103fe01040002fdfc0200feff0100
00fd02000001fffcfe01ff0401fc01fdfe00
ff00000002fc030101ff010000fa02fe0100
020201fffcffff0000fefefefffeff000500
fffc000200feff04ff0101fe0202fcfe0300
0301ff00fe00ff0302fffefb00fb03010000
010101ff0006fefc01fe0101feff00030100
fffeff03ff02fffe01fffe0002fffe000000
03fe0300fc02ffff02fd0000010201000000
00f90401fb020000fe0103fdff010204fd00
fd00fe000103ff010503ff010000fffffe00
0004000202020001ff010000fefcff030100
fd02fdfcfffd04fe0200020401f9f504fc00
fdfe01fe00fcfe0002fd01feffff02ffff00
fc0103ffff01fe02ff0002feff0000fffe00
00fc0000ff02feff01fe01fe0000ff010000
030403010002010101ff00ff01fc01fd0100
fffc0200ff0100fd01fd02ff010102fd0000
0201010000fffefd0101fffdfe01fcfe0200
02000000ffff00feff01fe000300fe020100
ff0104fe01030001fdff010000fffefc0000
0001fe02fffe0100fffd00fafb02ff020200
01ff040301ffff0201fe01010206fdfcfe00
01ff0103ff0001010001010103ff00010200
ff0101fdfefd0000fefc0102fdfc0106fe00
01fefbfefcfb0201010001fffdfffefd0100
fefc00fe01fc00fe0105ff00fdfc02000000
01fe02fd00010502ff0402fd0200fd050000
02feff020000fe010002fffc030301fefd00
fefc000203fcfeff010204fffe0505ff0200
01feff0202ffff0001030001ff0201020100
ff01ff01ffff05fe00fefe00fd0102010200
00fdfd00fd020200fd0302ffffff02010000
fffe0000ff02fffffefffefd01fe01ffff00
02000201feff0100ff00ff0001fffd010000
fffefd00fe00030100fd010300010301ff00
00fcfcfffe00fdfffc00fc0102ff01020100
01fe01fefefd0104fe00fe0102fc0406fd00
ff03fffffc0102ff01ff030202fe0000ff00
fd0300fefefcfffc00fd01fffdfdfdff0200
02fd01fe0202ff0101fdfe0404ff00fffe00
0100fd0207fffcff00fd0100fdfcffffff00
fffffefe0300fd0200fdfe01ff0002030000
02ff00fefd03fc0001fcfe0001020002ff00
01fbfefefeff00030200fd02fefe0002ff00
fe01010002ff02010100fefd00fd02020100
fefcfd02000200fcff02ff050201fb00fd00
fd02fffefefffe02fefc03fd0200fdfffe00
0004010103fe02fe02fffefffefffdff0100
ff0001fe0100010102020100ff0101fc0000
0106ff0007010601ff05ff000106fd000300
01fffe020300ff00fffe040101030100fe00
020204fff7fe03010200fe01feff0302fa00
0102ff040300fe00fd00fe01ff02ff020600
0301fdfbfd0200fd00fefffdfbfeff000100
ffff0100fffefefffeffffff05fffffffd00
04fefafff902fffb02fffdfd0100feff0500
01fd01fffd00ff01ff0204f902050904fd00
02fefd04fe03fcfc03ff00ff01fe04000200
0002ffff01010102fefffeffff010100ff00
ff02fefefe020201fefffe0100ff03fdfe00
01ff0004fffb00fffffffcfdff0002ff0200
00ff02fcfefd01fe01fefffc0003f8fbff00
fffcfc01fe01000000fd00fffcfdfdffff00
02030201fe020202feff0500020100fcfe00
ffffff04fe010703fe0000fb02fdfa00ff00
03fffefefcfb01feff01050101ff00fe0000
fe010502fcff010302ff02fc02fdfefd0300
0003fd00fdfdfffe01000003fe0001fd0000
00fefe04fe01ff01fefefe01feff01fd0300
ff0001fefffffdfffffefeff0201ffff0000
fffd0201ffffff0203fffdfe00fcffff0000
000102020103ff0000fd000300000101fc00
020000fd010001fdfefe0000fd0002000200
0201fffffb0001fe020101ff00fe02fe0200
fc02ff0001fc01040100fdfcfc00fefd0200
fffeff020002030000fdff000801fc000400
02000106ff0107fcfffd01f9fffbfa00f900
fe0001fe0100000101ff00fc030100ff0100
020201fffd0200ff0201fcffffffff010100
01feff0000feff000103fffffe00fe010100
ff00ff0102fd010103fdfffdff0201ff0100
0400fefefe00ff010100fd02fefd0404ff00
010002fe01fd0202fffcfe00ff0001fefd00
fffe0001fcfefe01fe03ff00fc0002fe0100
fe00fffe01000301ff00fffb03fffb01fe00
ff040201fdfdfe03fd020102fd010002ff00
00ff00fe00feffff01fbfcff01050000ff00
030101fdfe030302fefd0200fe010001fd00
010200020100ff01020101fe010301040200
ff0002ff00010102fd020000fa0101020200
fefdff05fefffe01ffff03020203fefdfe00
02fe0100ff02ffffff00fffe010204ff0100
01fbfe08fdfffd01fd0202fffcff04fef900
ff0201030102020201ff01fffd03fe030000
02fefb02ff000202000004fffcfefffefe00
fefe0103fd02fffe02ff00ff01fe0100fe00
fc04fefefb00fd01feff0003fe01fe01ff00
0304fc00fefffcfc02fe0002fffe02ffff00
0100fc01ff0100ff00ff00fcfd03ff00ff00
fffe0003040002030000fffefbfe01010000
fffc04fe01fbfeff01fe0001fc0003fdfd00
000101ff01ff02fe0000000001fffe03fd00
ff00ffffff0200fdfdfc010303fe00fffa00
fefffefe0001000200fefefffc0400fdfe00
02020001fcfd040000feff00010103fc0100
fdfd0106fefcfefd01ff0201030201fa0300
0001050201ff010101ff010402fcffffff00
fffe0203ff02ff01fe04fdfdfc0502feff00
feffff020001fe00fffe000002ff0105fe00
fefe010006fd0301ff0000000105fb01ff00
010200feffff0300fefe0202fd0300040100
0100fffe0000fe0201000100000000ff0000
00fdfefdff01fd02020003ff00fefe00fd00
03fe020605050106fc00000303fa00fafb00
0104fd0200fe0100ff01fd000202fd010000
fefd0502ff01fefffffc0102ffff01000300
ffff01000300000003fc010301000202fe00
fc020203fb02fefefefefc0201fdfffd0200
010103ff00fffdfd00020100feff0503ff00
feff02fdffff020300ffffff03fb0108ff00
0000020001fefdff04fe000001ffff02ff00
fffd00fefd03ff0003fdfffffe02fdffff00
fefefe01010301ffff090200ff010202fd00
ff00ff0100fefe0202fdff0304ff03fd0200
ff00fffd0203fe04fdfc0001fffe0201fc00
01fffffcfe00fdfe01fdfffefd0101fffe00
01fe010103fb01010102000303fd02fefd00
fdff01030400fffe000000fffe03fffffe00
00000000fefe01ff0004ff00fefe02fefe00
02fffe00fe00040101ff01040200fd030000
01ff03fe00ff01fe00010101fe020104ff00
02fffffefefe0204050400ff00fdfc000100
03040200ffff05fdfefe01fdff0001020100
fe0001fefffa0004010300000002fffe0000
fdff0003fbfe030302ffff00fd050000fd00
ff000800fb02fe0400020100010102ff0300
0304000403fe0300fe030002020104fb0100
00ffff03000000000003ff02fe02fe03ff00
ff0302feff0101fffefd00000300fbfe0100
00fcfd03ff02010001ff04fcfe0000040000
02030000ff0101ff01fffdfd00feff040000
0bfa121c0c22f6e3fa23111b29ebef201700
252525292221272e2e2726231f2f31212200
ff0202fe00ff00fefeffff020000fffe0000
0000fe01fd00ffff0102fe0100010101fe00
02fe000201feff030300fcfdfeff01f9fe00
00000001ff00fe0100ff0000ff0200ffff00
00fc03ff0100fd00000002fd010200fe0000
fc0202fbfbfefe03fffdfffefc0401fa0100
fffd0403fefdfe00ff02fe00030100fefe00
00fefefc00fe0403fd0102fdfefd01fbff00
0601fffe0200fe0205fe03ff0000fffd0100
03fe00030001ff0000ff000302fb0503ff00
fefcfdfcff0002fe00010300fe0101fefe00
03ff01000102fe0002fc0303030301ff0000
01fd0104ff0002fffe00ff01fe02ffff0300
ff01fe0101ffff0502fd0000030200000300
010002000201010200000200fb0200fe0000
fefefe03ff01000100fe01fdfd0101000000
ff0000ff0305fe01fffa00fb03fd02050500
ff01ff07fe0001fd00fdfffcfd00ff01fe00
00fefc00000201030101fefb03fe00000100
01fefb0302060501ff01fb00fffdff01ff00
fffdfffdfefd01000102feffff000203ff00
ff0101ff01fffe04fe0100ffffff0002ff00
000300fd01ffff03000000fc0300fefdff00
0101090303fc0004fd000200ffff02ffff00
02fd0106010102fe0300fcfe040101ffff00
00fe0402ff0102ff020301feff04fffcff00
ff0501ff01010002fdfd0301fcfe00000300
fffe020100ffffff0000ffff020003ff0300
ff01fa0003ffff000103fefeff03fc00ff00
0001fd01020002010100fdfd010204fc0200
03fefd0301fcfffefe04fbfffeff01fffc00
fffd0000fdff03ff010200fcfeff0103ff00
0500fdffff01010100fcfeff010200fffe00
ff01fdfd010201ff01ff01fefffefffb0100
0101fffefeff0201010301fffa0001020100
ffff0101ff01ff010001fefe00010101fd00
ff000300020200020102010201fffe01ff00
000201fd0101fefffbfd0201ff0000010400
fd01fffd03ffff0201fc01020302fe000300
0000fb0201fdff0201fefdfefefe0201ff00
000000020001040100fffefefeff00ff0000
fbff0101fffd010104fc02fefbfe00ffff00
0002fe0301040302ffff00ff000100fffe00
fe0000fe000004fd0001000001fdff030000
02ffff0101020001fefe030102fe00fffe00
0101020000f90103000000060202fffeff00
02fffdff00ff01fd01010000fe0101000300
fefcfffbff0100fd0101fe0000fe01fa0300
00fffe03fe00000102fd0304ff05fdfefe00
01fc04fd01fdff06fffefcfffefefffeff00
02fefffffffeff00fdff00fe020004ff0200
03000101fdfefffdfd06010100010101fd00
ff000101fd000102ff0001fe010002fefd00
fd04fffffdff0002fc0201fa00fe0303fd00
01fe02fefd00fd030100ff00fe01fffefd00
ff03fffd00fffe0000fffdfff80101fd0000
00fefdff01030103ffff0103fffd03000000
fd01030002fffffeff0001fb010100feff00
ff02000003050101ff0101010302fe000200
040202000200ff01fffffe02ff0102fd0100
01ff0200fd0102fe0002000002ff01000100
0101ff0202ff01feffffff00ff03fdff0200
00fe00fd00010201000100fffffffd04ff00
fe0001ff0204030102fd05050302fe010100
000103fefdfafd01fffdfd05010401fe0100
fefefefb00f80000ffff01ff000402050000
0000ffff02010102fefd03ff02ff02010000
0204feff01fefe01fffffffdfe0201fd0400
fffd000003ff02fb0101fd030001ff010000
0003020004fefefc00ff0202fd0003010200
fe01fd01fdfafffd02feff01feffffff0300
02fe01fefd00030002fc0000010100fdfd00
ffff01ffff0001ff000202feffff0201fe00
0002ff03fe01fd03010303fd00010103fe00
fcff01030001fe02010002ff01ff0000fd00
0003fd0100ff01ff04fefefdfe0200ff0100
0101ff010101fe0002fc0201000002050300
000100010602feff0100ff02fe000001fd00
fffffffffe00fdfd00fdfefefffffe02ff00
ff0201fe0400fd00010202fd010201fe0000
050103fefefffeff0000000101fd0002ff00
0001ff00ff020004ff010404000000020100
01fffe000000fb030202fd00fffefdfe0100
fefe01ff0100fdfdfcfffe00030302030000
ff0001fefffffc0002fe0100ff0000fdfd00
fe01fe010002ffff00fd0101fffe0203ff00
02ffff01ff0100fffd010004fefefe020400
01fdfffd00fffefdff0103fcfd0202ff0300
ff00000201ff020001ff0102fffdfdfe0400
02fe00ff02feff0200fffe01feff04fefb00
030000fefe0301010100fbfe0300fffc0200
00ff00ff000102ff02ffff00fdfeff00ff00
feff03feff01fdfe010204fe0201fffdfc00
00fefd01fe00020200fe01ff030002010500
0303020100fcff03010300fdfffefefe0100
00fffe02fd03fe00ff03feff0201ff04ff00
fc00fefd01fe03fc0004ff00fd0200fd0000
fffd01fd00fefeffff010001fc0301fdfd00
fe01000000000200030000ff0403ff01ff00
01ff000303ff0305fdfe0003020100fefd00
fdfd00fe01fffd00fe00000103fefe000000
0002fd000101fe0000fd0103ff02fffffe00
0200ff0200020101fdfc0003fefeffffff00
01000001fe03fd0003fffd00fcfffeff0100
fdfefe0003ff00fffd02fd00fd0000feff00
01ffffff03fe000102010002fffdfdfe0200
feff00fe010202fffe000001feffff030000
0002fffffa000102fffe00ff03fefefe0100
000102fffc000400fffffe00ff01fd00fe00
0102fd02ffffff01fd030001020001fd0100
