fd
04
01
02
01
ff
02
03
fe
ff
01
fd
ff
00
04
fe
02
fe
04
00
fe
fd
fd
01
03
00
00
02
ff
fe
01
02
02
fe
01
fe
01
01
01
ff
ff
01
01
01
02
00
01
00
03
01
01
fe
fe
04
01
02
ff
fe
03
01
ff
00
ff
ff
02
fc
02
00
00
fe
ff
05
01
03
04
03
00
01
00
05
04
ff
02
fe
00
01
00
01
03
04
01
00
ff
fe
03
03
01
ff
00
03
00
fd
00
00
02
fd
02
00
01
00
00
00
01
01
fe
00
01
02
fe
fc
04
00
01
fe
fe
01
00
ff
fe
fb
01
03
ff
03
01
05
01
03
fb
04
01
ff
ff
00
02
03
00
ff
03
02
ff
00
03
00
02
02
fe
fe
ff
ff
02
ff
00
ff
00
fd
05
fd
00
fc
03
02
02
02
02
ff
00
01
fe
fe
02
fe
fc
00
03
fe
ff
01
00
06
ff
fd
02
fe
00
00
00
00
fe
00
fe
01
00
ff
fd
fe
ff
00
00
02
01
01
fd
02
00
01
02
01
01
fe
01
ff
02
02
02
fe
00
fe
02
06
01
01
01
01
05
fe
03
00
03
00
ff
fe
02
00
02
01
fe
00
00
01
ff
02
01
fe
01
fe
00
01
ff
02
00
00
01
00
fd
00
ff
00
01
01
ff
ff
00
03
00
fd
fc
00
02
00
01
ff
03
00
ff
01
00
01
01
fe
ff
fc
01
00
00
fc
04
00
00
01
ff
02
00
02
ff
02
01
fe
fd
01
fc
fd
01
01
01
00
ff
ff
02
fd
03
05
fe
00
ff
03
fe
04
fe
fc
03
ff
01
01
ff
04
06
fd
00
fd
03
00
00
ff
02
01
00
01
00
01
ff
fc
05
02
01
00
ff
01
03
03
fd
00
01
00
04
00
01
fe
00
fe
ff
01
ff
02
01
ff
ff
01
fc
01
00
01
ff
02
03
ff
02
01
02
ff
01
02
00
01
03
04
03
01
02
02
fd
01
fe
01
fd
02
03
ff
45
1a
01
02
fe
fd
01
00
00
fe
ff
fe
00
fe
fe
00
00
01
ff
00
fd
00
00
fe
ff
fe
01
01
fa
fe
02
01
fe
ff
fe
ff
00
fd
ff
fe
fe
fc
00
fe
01
02
fe
03
00
fe
ff
01
02
00
fe
00
fc
fd
fd
00
fe
00
01
ff
fe
ff
ff
fc
ff
01
ff
fd
00
00
01
01
fd
fd
02
02
00
00
03
fd
02
ff
fe
02
fe
fd
02
fd
01
02
ff
fb
01
00
fe
02
00
fb
ff
ff
fd
ff
ff
fd
fe
ff
01
ff
01
ff
01
fe
00
01
00
ff
ff
fc
fd
02
fc
fc
fd
01
fe
ff
fe
00
02
ff
fe
ff
01
00
00
ff
03
ff
00
ff
00
ff
03
fe
01
02
00
04
03
fd
fd
ff
ff
00
01
fd
03
ff
fe
ff
04
fe
fe
fe
fd
00
00
04
00
02
fe
00
fc
ff
00
02
ff
fd
ff
01
02
ff
01
03
ff
fd
00
ff
00
00
00
00
fc
fe
fb
01
fe
ff
fb
00
fe
ff
fe
fe
01
ff
01
00
00
02
fe
fe
00
01
00
01
fc
fd
01
00
fc
00
03
ff
01
02
fe
ff
ff
fe
01
fd
fb
fd
ff
04
02
02
03
01
04
03
03
ff
03
fe
fd
00
00
fd
01
00
fe
fd
00
fc
fd
fb
00
fb
00
00
01
fd
01
fd
ff
01
01
01
ff
fd
01
02
00
ff
ff
00
01
01
00
01
03
02
00
02
01
01
fe
fb
01
02
ff
01
00
fe
02
fd
ff
00
01
00
01
fe
ff
fd
00
fe
05
fb
00
01
fe
03
ff
fb
fe
00
03
fc
01
00
00
fe
fa
03
04
fe
fe
ff
fe
ff
01
00
fc
00
00
fe
fe
01
fe
00
01
fd
00
00
ff
fa
02
01
00
00
01
fe
00
ff
03
03
02
01
ff
00
fc
fc
01
ff
00
ff
fe
02
fd
01
ff
01
01
02
ff
00
02
03
fb
01
01
00
fe
02
00
00
00
02
00
01
02
fd
fd
ff
04
01
00
01
fd
01
00
00
fd
fd
00
01
00
ff
02
fc
fe
01
00
01
00
fe
fe
00
01
00
00
ff
ff
fe
ff
01
00
02
ff
03
00
ff
00
fe
ff
fd
02
00
fe
00
ff
ff
fc
00
00
fe
fd
00
01
00
fe
fc
f8
00
01
04
fd
03
ff
03
01
01
02
02
02
ff
ff
fd
00
fe
02
00
00
03
fe
ff
fd
ff
ff
ff
ff
01
ff
ff
ff
04
00
02
ff
ff
fc
00
01
04
00
01
fe
fe
01
ff
00
ff
00
fe
00
00
ff
01
fc
22
29
00
02
fe
ff
00
02
02
00
fd
fe
ff
01
fe
fe
ff
00
00
01
fe
ff
fd
01
00
ff
03
02
00
ff
00
fe
fd
02
00
00
00
00
00
00
01
fe
02
02
01
ff
fd
03
ff
00
ff
ff
01
fd
00
fe
00
ff
02
00
03
01
01
01
00
fe
01
fe
02
01
00
fe
00
ff
00
01
ff
fe
00
ff
02
fe
00
ff
01
fd
02
00
fe
fe
ff
fd
ff
ff
01
ff
03
00
ff
01
fe
01
fd
00
ff
00
00
02
01
fe
fe
fe
00
02
01
01
fe
00
01
00
ff
ff
ff
00
02
ff
02
01
ff
00
00
00
01
ff
ff
fe
ff
fe
ff
ff
00
ff
02
fe
fe
00
01
fe
00
02
01
00
01
ff
00
ff
00
00
ff
ff
00
fe
01
00
00
fe
01
02
fe
00
01
01
ff
03
ff
01
02
02
ff
00
fd
05
00
00
02
00
00
fd
fe
fe
02
02
ff
00
03
ff
01
00
ff
00
00
fe
01
00
00
00
fe
01
fe
00
fe
ff
01
01
00
03
ff
fe
01
00
fd
02
02
fe
01
ff
ff
02
00
ff
01
02
00
00
00
00
fe
fd
fe
00
01
01
ff
00
fc
01
01
ff
00
fe
ff
00
ff
ff
01
01
01
01
02
01
01
00
02
02
00
ff
fd
ff
fd
ff
00
ff
fe
fe
01
03
fe
ff
00
02
00
00
ff
00
00
03
00
01
01
03
00
00
00
ff
fe
00
01
00
ff
03
ff
02
00
00
ff
00
01
00
03
fe
00
ff
00
02
00
ff
00
00
01
01
02
02
ff
00
02
00
00
02
01
01
ff
01
ff
01
fd
fd
ff
fe
01
ff
03
01
fe
02
00
ff
ff
01
01
01
01
fc
03
fe
00
01
00
00
00
00
01
ff
ff
ff
ff
00
fe
00
00
ff
01
00
04
01
fe
00
03
01
01
02
ff
00
ff
00
00
00
fe
02
02
fe
02
fd
01
00
fc
00
01
01
03
fe
00
00
fe
00
00
fe
fc
ff
00
00
00
fd
ff
01
01
ff
ff
05
01
01
02
00
00
fe
00
ff
00
ff
ff
03
ff
ff
ff
fe
00
fd
ff
00
03
01
fe
02
fe
ff
fe
00
00
01
ff
00
01
00
fd
00
fe
fe
00
fd
ff
00
00
ff
01
ff
fe
00
ff
02
fc
00
ff
00
00
ff
02
02
ff
02
01
fe
01
01
fc
02
fe
ff
fd
00
ff
ff
ff
ff
fe
fe
ff
ff
fe
01
fd
00
fe
00
ff
ff
01
fe
02
02
00
00
ff
ff
fe
ff
00
19
19
00
02
02
ff
00
00
fe
00
fe
fd
03
01
02
00
00
01
01
00
ff
01
00
03
00
fe
02
03
fb
02
00
00
02
ff
fe
01
01
01
00
01
00
01
ff
fd
00
fe
fd
01
01
02
ff
ff
00
00
01
00
00
fc
02
fc
00
ff
01
00
01
fe
ff
ff
fe
ff
00
fe
ff
ff
02
fe
00
fc
ff
02
01
ff
fd
00
02
ff
fd
00
ff
00
fe
ff
ff
01
ff
fc
02
00
00
00
fe
fe
00
01
ff
05
01
ff
ff
02
02
00
ff
01
00
01
00
fe
02
00
01
fc
ff
01
00
fd
01
fe
00
02
02
ff
ff
01
fc
00
fe
ff
00
fd
ff
02
01
fd
01
01
fe
fe
fe
00
00
03
02
fc
02
03
00
02
fd
fe
01
00
01
00
01
fe
fe
fe
03
ff
ff
fe
ff
05
ff
01
ff
01
ff
ff
fe
01
00
00
00
ff
ff
00
fd
ff
04
00
fe
01
ff
01
fd
04
00
ff
ff
00
01
01
00
01
fe
ff
00
00
01
fe
01
ff
01
01
00
01
02
02
00
fd
fd
00
ff
00
00
fd
ff
02
00
01
fe
fe
ff
fe
fe
ff
fe
03
fe
fd
01
ff
ff
01
fd
02
00
00
fe
ff
02
00
01
03
00
01
00
03
00
00
ff
ff
00
ff
fe
00
04
fe
fe
02
ff
fd
01
fe
fe
03
02
ff
02
00
03
02
00
00
fe
00
fe
00
02
00
01
fd
fe
ff
01
fd
fe
00
fe
fe
03
01
ff
ff
ff
fc
02
03
00
01
00
00
fe
00
02
fe
ff
fe
03
01
02
00
01
00
fa
03
00
01
01
ff
03
fc
ff
ff
02
fc
02
00
03
ff
00
ff
00
ff
01
03
ff
fe
ff
fc
03
ff
01
00
ff
01
00
00
fd
fe
fe
ff
00
fe
fe
fd
fe
01
01
02
01
ff
00
ff
ff
04
00
01
00
01
ff
02
fe
ff
ff
00
fe
03
ff
02
01
00
ff
fe
fe
fe
01
02
00
00
01
00
ff
fe
00
00
fd
00
ff
ff
ff
01
ff
00
00
01
00
00
02
01
00
ff
ff
fd
00
fd
03
02
ff
00
02
00
02
ff
01
00
04
fe
fe
03
fe
01
01
ff
02
00
03
00
ff
01
ff
02
03
ff
00
fc
01
fd
02
03
fd
02
01
01
ff
03
02
00
02
ff
01
ff
01
ff
00
00
fd
00
ff
fd
00
fe
01
fe
ff
00
ff
00
01
00
00
00
ff
00
05
ff
00
ff
00
00
ff
ff
00
01
01
fe
ff
ff
ff
01
fc
00
04
0c
0f
ff
f7
06
00
00
ff
00
03
01
05
ff
ff
ff
ff
01
02
00
00
fc
fc
04
03
04
fd
00
02
01
fb
00
01
ff
01
01
fd
00
fe
01
01
01
00
00
02
ff
fe
02
ff
00
ff
01
01
ff
04
ff
04
01
ff
fd
fb
02
04
fc
ff
fd
03
01
04
ff
00
02
02
00
01
fc
01
01
04
00
ff
00
01
04
ff
fd
fd
01
fc
01
ff
05
03
fe
00
02
fe
ff
02
fc
05
01
ff
fe
00
fd
ff
00
01
03
04
00
ff
ff
ff
02
ff
ff
fe
01
01
ff
00
ff
fa
00
01
ff
fe
fd
fc
01
02
03
00
05
ff
ff
02
ff
00
00
fd
fe
00
fe
01
fe
03
00
00
03
04
00
ff
ff
04
01
02
01
02
02
ff
00
04
00
02
ff
fe
02
00
01
fe
fe
06
ff
ff
03
fc
ff
ff
03
02
01
00
01
fe
03
00
ff
00
fd
01
01
02
fc
01
03
05
02
fc
fb
fe
04
00
03
02
ff
fd
00
03
01
00
fe
ff
fd
fe
ff
00
00
ff
fd
00
fb
01
fe
00
fc
ff
fe
04
00
02
ff
ff
ff
00
06
02
01
fe
ff
fe
00
fd
fe
01
ff
01
00
fc
00
03
01
fc
02
03
01
ff
fe
00
01
fc
04
01
fd
ff
00
02
02
fe
00
02
ff
ff
02
fd
fd
01
ff
02
05
03
fb
fd
ff
fc
fc
fe
ff
04
fc
01
fe
fe
01
fd
04
02
00
fe
ff
ff
fd
00
01
ff
fe
03
fe
01
ff
ff
fa
ff
fe
03
05
03
fc
fb
fd
01
fc
ff
fc
02
02
fe
02
01
02
02
00
ff
02
00
03
ff
fd
ff
ff
01
07
01
00
fe
00
fe
04
01
fe
fd
01
fd
04
fb
ff
fd
03
fe
fc
05
fc
02
01
fc
02
02
01
00
fe
ff
02
fd
01
fd
01
05
00
ff
05
02
fe
ff
fb
00
03
01
02
fe
ff
ff
ff
00
ff
fd
01
fe
f7
fd
ff
01
00
ff
05
00
01
fd
03
01
04
ff
ff
03
fd
02
06
fc
00
ff
00
fe
00
01
ff
02
01
02
fe
06
fe
02
fe
fe
02
00
01
00
00
00
01
01
02
00
01
fe
00
03
fb
00
fe
04
fb
01
00
00
fa
02
05
01
01
01
02
fc
ff
fc
03
fc
01
03
fd
fb
00
02
fc
ff
00
fe
fb
fe
02
fe
fd
fd
fd
fd
ff
01
01
ff
00
03
00
00
02
fe
06
00
fb
00
ff
ff
00
05
fc
00
ff
00
fe
00
00
02
fd
fe
fb
05
22
01
03
01
01
00
00
fd
00
ff
02
01
02
00
00
01
02
fe
00
00
ff
fc
01
01
00
00
02
ff
ff
01
02
01
01
00
02
01
01
ff
02
02
00
01
01
ff
01
04
01
ff
00
00
02
01
02
01
00
01
ff
ff
02
fe
00
ff
01
fd
ff
00
00
ff
00
02
00
01
ff
03
ff
fe
fd
01
01
00
02
02
ff
02
ff
01
00
01
ff
01
ff
00
00
00
00
01
fd
00
ff
ff
fe
ff
ff
00
02
00
01
ff
ff
ff
00
fe
ff
00
ff
01
01
ff
01
ff
00
fe
00
fd
fc
01
fe
02
fe
00
fd
00
01
00
ff
00
fe
01
00
02
00
fe
00
01
01
ff
01
fe
00
fd
01
02
fe
00
00
ff
01
fe
fd
fe
fd
fd
ff
01
00
01
03
02
03
01
01
fd
02
04
01
fe
02
ff
00
00
fe
01
00
ff
ff
ff
03
01
03
00
01
02
00
02
03
ff
fe
00
ff
00
03
00
ff
ff
00
fd
fc
ff
01
00
01
ff
01
fe
01
ff
01
01
ff
fe
ff
fe
ff
00
02
ff
00
fd
fe
ff
01
01
00
01
02
03
ff
fe
01
01
ff
01
00
fe
00
00
00
00
01
fd
fd
00
ff
01
02
fd
ff
00
01
fe
ff
03
fe
ff
ff
ff
01
00
fe
ff
01
00
00
00
02
02
fe
00
00
02
ff
01
ff
fe
00
ff
fe
00
02
00
fe
ff
00
00
01
03
02
00
00
01
fc
00
ff
ff
ff
01
fe
01
00
00
02
02
01
00
fe
fe
02
ff
00
01
00
ff
ff
ff
01
00
01
00
02
01
ff
02
00
01
02
00
fe
00
fe
01
01
02
02
00
fe
ff
03
02
fd
ff
ff
02
ff
ff
ff
ff
fe
01
ff
02
01
00
fd
ff
00
fe
ff
03
00
01
01
fe
02
ff
00
ff
01
00
ff
ff
fd
00
02
03
02
ff
01
00
fc
00
00
ff
02
00
00
00
fe
00
ff
01
01
fe
ff
01
ff
00
ff
01
01
ff
fe
01
fd
00
03
ff
04
01
fe
ff
fe
fd
00
00
01
00
01
fe
00
00
ff
01
fd
ff
00
fd
00
fe
00
ff
00
fe
04
01
ff
00
fd
fe
01
00
ff
ff
01
fd
02
00
ff
fe
ff
ff
ff
01
ff
ff
00
01
01
fe
02
00
02
00
00
02
00
00
fd
00
01
fe
ff
ff
00
02
ff
fd
ff
fe
fd
00
01
03
fd
02
02
ff
ff
01
ff
00
ff
ff
00
00
02
01
02
03
ff
ff
03
00
00
01
07
1b
00
00
01
fe
ff
fe
01
01
01
ff
01
00
01
02
fe
00
00
ff
01
04
03
02
00
ff
02
ff
01
02
ff
02
fe
ff
fe
02
ff
00
01
00
00
fe
00
01
ff
00
fe
00
00
01
01
03
00
02
ff
00
01
ff
01
01
fe
ff
01
03
00
00
00
fe
ff
ff
02
fd
ff
01
ff
00
01
03
01
01
00
00
00
00
ff
02
fe
fe
01
fb
00
00
03
01
fd
fe
01
fc
00
01
01
02
00
01
03
fd
fd
03
04
01
ff
ff
fe
fd
02
fe
01
00
01
03
01
fe
ff
ff
02
01
01
01
00
00
00
01
00
01
02
00
fd
03
01
01
ff
01
01
01
ff
fe
01
ff
02
fc
00
00
01
ff
02
00
fe
00
01
02
00
01
ff
00
ff
01
fd
02
02
00
00
fe
ff
00
ff
00
fe
00
00
01
00
01
02
fe
03
00
00
fe
fe
01
01
02
00
01
ff
fe
01
ff
02
00
fd
02
00
00
fe
00
00
01
01
00
01
00
fe
fe
00
02
00
01
00
fe
fc
00
fe
01
01
ff
fe
ff
ff
04
fe
fe
03
ff
ff
fd
fe
fd
00
ff
01
00
00
00
00
01
03
fe
02
01
fe
01
00
ff
03
01
01
02
01
ff
01
ff
ff
ff
00
ff
fe
01
ff
ff
00
ff
01
04
01
fc
00
01
02
00
01
00
ff
ff
ff
fc
00
ff
00
00
01
02
ff
00
00
01
01
04
00
00
fd
fd
fd
03
ff
01
00
00
01
00
02
02
00
01
00
00
00
00
ff
00
ff
ff
ff
00
fe
03
02
fe
fd
04
03
00
01
01
00
02
02
03
ff
00
ff
02
03
02
ff
01
02
fe
ff
02
ff
01
fe
ff
00
fe
ff
ff
00
02
fe
02
00
ff
00
02
01
00
fe
00
01
fe
01
01
fe
01
fe
01
ff
fd
ff
01
ff
00
ff
01
fe
00
00
fe
00
fe
ff
ff
00
03
00
00
fc
00
fe
03
01
ff
fe
01
fe
fe
03
00
fe
fe
01
02
ff
00
00
03
00
01
00
fe
ff
00
fe
01
fd
ff
00
01
fe
fe
02
01
00
ff
01
ff
ff
fe
01
ff
01
ff
fd
02
fd
02
00
00
fd
03
ff
ff
02
fc
00
fe
02
04
fe
00
fe
fe
00
00
04
ff
00
00
ff
04
02
00
fe
01
01
00
01
00
01
ff
01
ff
fb
fd
02
00
02
02
ff
02
ff
fd
01
00
07
fe
fd
01
01
ff
01
02
02
ff
01
02
fd
ff
01
01
ff
fe
00
07
1b
00
ff
ff
ff
ff
01
02
02
01
ff
01
00
01
01
01
02
00
00
fe
ff
01
00
fe
02
ff
03
05
01
04
ff
fb
02
fe
03
00
fe
fe
fe
00
ff
00
02
fe
01
00
02
01
00
fe
00
fe
01
03
03
ff
fe
01
fc
01
02
00
00
00
01
ff
fe
00
00
01
00
ff
fe
ff
fe
00
fe
fc
00
fc
fd
01
00
00
00
01
00
ff
01
ff
02
fe
00
00
ff
ff
00
04
01
00
fd
01
ff
fe
fc
ff
fd
02
00
02
01
00
03
02
ff
00
01
00
01
00
03
ff
02
ff
00
ff
fe
01
01
01
ff
01
ff
fe
01
04
ff
ff
02
fe
ff
00
02
02
00
00
01
fd
02
fd
03
fe
fe
00
fe
ff
02
00
01
ff
fd
00
fe
01
ff
00
fe
fa
fe
ff
00
04
02
03
ff
01
00
00
fe
03
f9
ff
01
fe
ff
01
02
fd
04
ff
00
ff
01
fe
02
ff
02
03
00
04
01
01
01
00
00
02
02
01
ff
01
00
01
01
00
00
02
02
01
ff
03
00
00
01
03
fe
00
00
03
00
00
02
00
00
02
00
00
fd
00
fd
01
00
ff
00
01
fd
00
00
00
01
fe
fe
00
01
01
ff
00
02
ff
00
fe
fe
01
01
00
fe
01
00
ff
00
fd
02
ff
ff
01
01
fa
ff
fe
00
05
00
fe
02
01
02
03
fd
fc
01
00
01
fe
01
03
01
01
00
ff
ff
00
ff
00
00
01
04
ff
00
02
00
00
01
00
00
01
01
01
01
02
fe
fe
03
00
fe
ff
00
02
ff
00
01
ff
01
00
01
fd
00
00
03
01
ff
fd
01
00
ff
ff
00
03
fe
00
01
fe
ff
fe
ff
00
05
00
ff
fc
00
ff
fd
01
00
02
00
ff
02
02
03
00
00
ff
01
02
01
fe
fd
ff
ff
02
01
00
00
fe
00
fe
02
00
01
02
00
fe
00
02
03
03
fe
00
ff
02
01
02
00
01
02
00
01
fd
02
01
fc
00
ff
01
ff
01
03
02
00
fd
ff
ff
00
01
01
01
01
00
01
01
01
00
00
01
fe
fe
ff
01
02
ff
ff
00
00
fd
ff
02
ff
fc
fe
fe
ff
02
01
00
02
02
fd
00
ff
01
ff
00
00
00
00
00
fe
ff
fe
fd
02
ff
01
ff
ff
ff
01
ff
00
fe
ff
ff
00
fd
01
fc
ff
fe
00
ff
fc
03
fe
fe
03
fc
fe
ff
00
00
02
fe
00
fe
00
03
ff
04
01
02
00
05
01
00
f7
2c
ff
01
00
01
fe
00
00
01
02
01
ff
ff
01
00
00
00
02
02
ff
01
ff
00
ff
00
02
ff
ff
00
00
00
ff
ff
00
00
00
01
01
fd
ff
00
fd
00
00
fe
03
ff
ff
00
ff
fe
02
ff
ff
00
00
fe
fe
fd
01
03
00
ff
00
fe
04
02
00
00
02
ff
00
02
ff
ff
01
03
fe
ff
00
02
00
