03
ff
00
ff
ff
00
02
01
00
01
ff
fe
00
ff
03
01
ff
ff
ff
00
ff
01
00
01
00
00
fd
00
01
03
00
00
00
02
00
01
ff
fe
04
01
fd
00
00
ff
01
03
ff
fe
01
00
00
fe
ff
01
02
00
fe
01
00
01
ff
ff
02
fe
ff
00
00
03
01
01
00
fd
02
00
ff
01
01
00
ff
01
02
00
02
01
00
ff
ff
fe
00
ff
02
01
00
ff
00
fe
00
fe
00
01
ff
01
01
01
ff
ff
01
ff
ff
ff
ff
ff
ff
01
00
01
00
00
fe
fe
ff
00
ff
ff
00
04
00
fc
03
fe
04
00
01
00
01
ff
ff
ff
02
03
00
01
00
02
00
00
01
fd
01
ff
01
ff
00
ff
01
02
00
02
02
fe
00
fd
fe
00
01
ff
00
01
ff
fe
ff
fe
00
fc
fd
00
ff
02
00
01
00
01
02
01
ff
00
ff
ff
01
00
00
00
00
02
fd
02
00
01
ff
ff
00
00
fe
00
ff
ff
00
02
ff
01
ff
ff
fe
00
00
00
01
ff
00
00
fd
ff
00
fe
fe
fe
00
01
00
0c
15
01
fe
0b
02
ff
fd
ff
00
fb
00
00
02
ff
01
01
fe
ff
ff
01
fc
02
00
01
ff
fe
00
00
fe
ff
01
ff
01
ff
fc
01
00
00
02
02
00
fe
ff
03
01
00
01
ff
ff
fb
00
01
00
02
01
fe
01
ff
fd
02
02
fd
00
fe
ff
ff
01
ff
02
00
fe
00
01
01
fd
fd
00
01
ff
fe
02
01
fc
00
01
fe
00
00
00
ff
fe
fd
fd
00
fd
00
00
ff
fd
fe
ff
fd
00
fd
03
02
00
ff
02
fe
fd
01
fe
01
fe
ff
01
03
01
ff
01
00
fd
fe
ff
ff
ff
05
00
02
00
00
00
01
00
01
00
01
fe
00
00
fe
00
fd
fe
fe
fe
04
01
00
01
02
02
ff
04
fe
00
00
fe
02
ff
00
01
fe
ff
fc
fa
02
00
00
01
fe
01
01
00
ff
02
02
fe
02
fb
03
ff
02
01
ff
09
00
03
fc
01
00
00
fe
00
ff
fe
05
fe
fe
fe
01
00
00
02
fb
fe
01
00
00
fd
fd
fe
00
00
02
02
00
00
ff
fe
fd
02
ff
03
fe
01
ff
00
01
00
ff
00
01
fe
03
fc
01
01
03
01
03
01
00
05
02
fd
00
03
fe
fd
fe
04
02
ff
ff
02
ff
00
fe
00
00
fc
ff
ff
fd
fb
01
00
fd
00
ff
fd
ff
02
03
02
ff
00
01
01
fe
00
01
fe
02
fd
fe
05
ff
01
00
00
00
fe
fd
ff
fd
fe
ff
ff
03
01
02
fe
02
03
00
ff
ff
01
01
ff
fe
ff
00
fc
ff
00
fc
00
00
01
fd
02
00
fe
04
03
04
fe
01
fd
ff
01
01
ff
fe
ff
00
00
00
00
01
01
ff
ff
01
01
00
ff
03
fc
ff
ff
ff
fe
01
03
00
00
ff
01
00
fe
fd
00
01
ff
ff
ff
ff
00
01
fd
ff
00
fe
00
06
03
fe
ff
fe
fe
ff
03
ff
ff
ff
00
00
01
fe
01
ff
fe
fd
ff
00
01
01
fd
01
03
01
01
00
00
01
04
01
ff
fe
01
00
ff
ff
ff
01
ff
04
03
fe
02
02
fc
fd
05
02
01
ff
03
ff
fd
01
01
00
ff
03
00
00
05
00
fc
fc
ff
02
fb
ff
01
fd
fe
fe
fd
fd
00
fe
ff
00
03
fd
ff
01
00
fd
01
ff
00
00
ff
01
03
01
00
02
ff
fd
00
fe
fe
ff
fd
ff
ff
fe
02
fe
01
01
03
06
fc
03
ff
02
00
00
ff
03
02
ff
fe
01
02
ff
00
fe
fb
ff
03
ff
fe
fe
40
17
fe
03
fd
ff
00
fe
01
00
00
00
fd
02
ff
00
01
ff
02
00
00
fb
ff
ff
00
01
01
fd
fd
fe
02
00
fe
01
00
ff
fe
ff
00
ff
fd
fd
00
00
ff
00
fe
04
00
fe
01
fb
01
fc
01
00
ff
00
04
fe
fd
03
00
00
03
00
ff
fd
00
fe
00
fe
00
01
03
00
00
ff
ff
fe
01
00
04
00
02
ff
01
01
ff
fe
ff
fe
fd
02
fe
ff
05
01
fe
04
01
fc
fb
01
fe
fd
03
03
fd
fe
02
00
fe
01
ff
fd
fc
ff
03
ff
01
00
ff
ff
fe
01
ff
03
01
fe
02
ff
02
ff
01
fe
00
00
02
01
02
ff
00
ff
01
ff
ff
fd
01
00
01
01
00
03
01
fe
fe
fe
01
03
01
01
00
02
02
02
ff
fe
01
00
ff
01
ff
fe
fe
02
00
00
fe
01
01
02
00
00
ff
01
fd
01
02
ff
fe
00
fe
02
fa
01
01
02
fc
fc
fd
fd
ff
00
ff
ff
00
00
00
00
fe
fe
fe
02
00
fe
02
ff
00
00
01
ff
00
ff
fe
03
fe
00
fd
ff
00
02
ff
ff
00
00
fe
ff
00
01
02
02
fb
03
fe
00
fd
01
fe
00
ff
ff
04
05
00
fe
ff
fc
fd
ff
fe
00
ff
01
fe
ff
fd
fb
fd
ff
03
00
ff
fe
00
05
fb
fe
fe
fe
fc
01
fb
01
fe
00
02
ff
ff
fe
00
ff
02
00
00
01
fb
fb
00
ff
02
fe
02
03
ff
00
fe
ff
ff
ff
ff
01
03
00
fe
03
01
01
fd
ff
01
00
ff
fe
03
fe
00
ff
fc
fd
04
01
fe
01
01
fe
01
fb
fe
ff
00
02
fa
02
02
fe
01
ff
01
01
00
fe
05
fd
00
00
fe
ff
00
fe
ff
fe
fd
02
ff
fe
ff
fc
fe
ff
ff
fe
00
fe
fd
fd
00
00
01
03
fd
fd
fe
ff
fc
fd
ff
00
fe
ff
01
03
01
00
fd
01
03
00
fe
01
01
ff
02
02
02
01
fc
ff
fc
ff
ff
03
fe
00
00
fc
ff
03
02
ff
ff
fe
03
fe
00
fe
fe
ff
ff
fa
01
00
fe
01
00
01
01
ff
00
fe
ff
01
ff
fe
00
00
01
ff
fb
01
00
00
fe
01
fc
fd
01
00
fc
fc
02
ff
ff
00
fd
ff
ff
00
fe
fe
ff
03
fe
ff
00
01
01
00
ff
00
00
00
fb
01
fe
00
ff
02
03
02
ff
fe
fd
00
ff
01
fc
00
02
ff
ff
01
fe
ff
fe
ff
01
ff
00
00
fd
03
ff
01
ff
f3
33
00
02
fd
ff
ff
00
00
ff
ff
02
00
fd
00
00
00
01
01
00
00
02
01
00
ff
ff
fe
fd
ff
01
00
00
ff
01
02
00
01
00
01
00
01
01
01
ff
00
00
ff
fe
00
01
01
ff
03
ff
fe
02
ff
02
01
00
01
ff
ff
00
00
00
fe
00
00
02
00
00
01
fe
00
fd
00
ff
ff
00
01
ff
01
ff
00
00
ff
00
03
00
ff
00
ff
01
00
00
01
01
01
02
00
00
00
00
ff
01
01
00
00
01
00
02
ff
fe
ff
01
01
01
00
01
ff
ff
00
01
01
03
ff
02
00
ff
ff
00
ff
ff
00
ff
01
ff
01
00
00
01
ff
01
00
ff
01
00
01
02
00
01
00
00
01
ff
ff
ff
00
ff
01
02
01
01
fe
ff
ff
ff
00
ff
01
ff
01
00
01
00
01
01
00
01
ff
00
05
02
02
00
02
01
01
01
ff
fd
01
02
fc
ff
00
ff
fe
ff
fb
ff
02
00
01
00
00
00
01
01
00
00
03
01
ff
01
00
00
00
01
01
00
00
ff
ff
fe
00
ff
00
01
00
00
fd
02
01
00
00
fe
00
02
01
01
02
02
fd
ff
ff
ff
00
00
00
00
00
00
00
ff
01
00
00
00
00
00
00
fe
ff
01
01
01
ff
ff
01
00
00
01
00
02
ff
01
00
ff
01
01
01
00
ff
ff
01
01
ff
00
01
ff
ff
01
fe
ff
00
fe
01
01
01
ff
00
01
ff
01
ff
03
ff
ff
01
00
ff
00
00
00
ff
02
02
00
00
ff
00
ff
01
01
02
00
01
01
01
00
ff
fd
01
00
01
ff
01
02
ff
02
00
ff
01
01
00
02
00
ff
ff
00
01
02
00
00
00
fe
00
01
00
fd
00
ff
01
00
01
00
01
00
ff
01
00
00
00
01
ff
01
ff
01
01
ff
fe
01
ff
ff
01
00
00
ff
00
00
00
00
fe
01
01
01
ff
ff
fe
ff
00
01
00
ff
ff
ff
02
ff
00
ff
02
02
00
fe
ff
00
00
01
01
ff
ff
00
ff
01
ff
ff
ff
ff
00
00
00
01
00
00
00
00
01
01
fe
ff
00
00
ff
ff
ff
02
00
fd
ff
01
01
02
00
ff
01
00
03
ff
03
01
01
01
00
fe
01
ff
00
00
ff
00
ff
03
02
ff
00
02
01
00
fe
00
00
00
00
02
01
01
02
00
03
01
ff
02
01
00
ff
00
ff
ff
fe
01
ff
00
00
01
01
ff
ff
00
00
fe
ff
02
ff
f1
23
01
03
02
00
ff
00
ff
00
ff
00
01
00
fe
00
01
ff
02
ff
00
fe
fe
ff
ff
00
ff
fe
ff
00
fe
ff
ff
ff
02
ff
01
00
00
01
02
ff
00
00
01
00
00
01
fe
00
02
00
02
ff
00
00
ff
00
00
fe
04
ff
ff
00
01
01
02
01
00
fc
ff
ff
00
01
fe
00
00
00
ff
01
ff
01
00
02
02
00
02
01
05
02
ff
00
02
fe
ff
ff
01
ff
fe
01
ff
fe
ff
00
00
01
01
00
fd
ff
fe
01
ff
01
01
01
02
02
01
fe
fe
ff
01
03
00
00
00
01
00
02
00
01
00
00
ff
01
00
ff
fe
ff
fe
02
03
00
01
00
00
00
ff
fe
02
01
00
ff
ff
00
ff
01
00
01
fe
02
ff
fe
01
01
01
ff
fe
00
01
ff
00
00
00
00
00
00
01
01
ff
01
01
02
fe
01
ff
ff
ff
ff
00
01
00
01
fc
01
ff
fe
02
fe
fd
01
00
ff
ff
01
05
02
01
ff
ff
00
02
01
01
fe
ff
00
01
00
00
03
01
00
00
02
ff
fe
00
03
02
02
00
ff
02
00
ff
02
ff
fe
ff
ff
fd
00
fe
ff
01
00
02
03
02
ff
01
00
ff
ff
02
01
02
01
ff
fd
ff
00
ff
fd
ff
00
01
02
ff
02
ff
00
03
02
ff
ff
01
fe
ff
ff
00
00
00
00
ff
01
00
03
02
ff
00
00
01
01
00
ff
ff
ff
03
fd
01
01
00
02
ff
00
ff
00
ff
01
00
02
00
ff
01
ff
01
ff
01
ff
01
00
01
00
01
ff
01
fe
ff
00
00
fe
00
00
00
ff
ff
ff
00
00
00
00
01
00
00
00
03
01
00
ff
01
00
ff
01
fe
01
01
01
00
00
ff
00
00
01
01
ff
fe
03
03
00
00
00
00
00
ff
00
fe
ff
ff
00
00
01
01
00
01
ff
00
00
01
01
01
fe
00
fe
00
ff
ff
00
02
02
02
ff
ff
01
fd
03
ff
00
fd
01
ff
00
00
02
01
03
00
fe
00
ff
00
03
00
ff
ff
00
00
01
ff
00
01
01
fe
ff
02
01
fe
00
00
03
00
00
01
00
00
01
01
fd
01
ff
00
01
ff
02
02
ff
ff
fe
02
ff
00
ff
01
03
01
00
01
ff
00
02
00
02
ff
01
ff
01
00
00
ff
00
02
00
ff
01
03
ff
01
02
ff
01
00
fe
02
ff
ff
ff
ff
ff
01
ff
02
03
02
ff
02
00
02
02
02
ff
01
ff
02
29
16
ff
ff
03
fc
ff
02
01
fe
fe
fe
02
fe
04
01
00
ff
fd
00
fb
fd
ff
ff
00
ff
fe
fc
01
00
02
00
02
fc
fd
00
00
02
00
02
01
00
01
02
01
00
fc
01
ff
ff
ff
fd
01
02
ff
00
ff
02
04
00
01
01
00
fe
fe
01
03
02
ff
ff
01
ff
fe
fd
01
01
02
02
fe
fe
00
00
fd
01
02
03
ff
fd
fd
fe
01
ff
00
00
02
fd
fe
fe
01
fc
01
ff
00
01
ff
00
00
00
01
02
fe
fe
fd
ff
00
fe
fc
fe
03
00
02
02
00
05
03
00
ff
01
ff
03
01
03
01
01
00
01
ff
ff
03
00
fe
02
05
ff
ff
00
00
01
02
00
fe
fe
01
01
00
03
00
00
fe
fd
00
ff
ff
fe
00
fe
ff
fe
fe
ff
00
01
01
fc
04
02
fe
fe
02
ff
00
05
03
00
01
ff
02
05
fe
02
fe
01
fe
00
ff
fe
00
01
00
ff
fc
ff
ff
fd
01
01
00
fe
fe
01
01
fe
03
fd
fe
02
02
00
00
ff
00
01
fc
ff
fe
01
fd
00
01
fd
00
02
00
fe
fd
fd
ff
ff
00
ff
fa
01
00
fe
03
fc
02
ff
00
fd
02
01
fd
ff
00
01
fd
02
01
01
00
02
01
fd
fe
03
fd
fe
01
fe
02
02
00
01
fc
02
ff
01
06
ff
01
ff
ff
ff
fd
fe
02
02
ff
00
02
fc
fd
00
01
fe
02
02
01
03
01
00
02
01
01
00
01
fa
ff
00
03
fd
fd
fb
fe
fd
01
fd
02
ff
01
01
fe
fe
ff
ff
00
01
ff
ff
fb
02
fe
ff
ff
ff
00
ff
03
02
00
ff
00
ff
00
ff
01
00
fd
01
01
fe
01
fb
01
00
02
fe
01
02
fd
ff
fe
fe
03
00
00
01
00
fd
fe
ff
02
fd
02
fb
fe
ff
fd
ff
00
03
fc
01
01
ff
00
02
01
01
ff
00
00
00
ff
00
fd
03
fe
02
fd
fe
fe
ff
01
ff
02
01
ff
fd
00
00
ff
01
fd
fe
ff
00
ff
01
fe
fd
00
01
fc
00
01
00
ff
fe
02
01
03
ff
fe
01
ff
01
ff
02
ff
fd
01
05
00
fd
05
00
00
fb
02
fe
ff
00
02
fe
fc
01
01
06
02
05
01
fd
00
fd
ff
ff
00
ff
02
ff
01
02
fd
02
fd
01
fd
ff
fe
03
fe
00
fe
ff
ff
ff
00
02
01
ff
ff
fd
00
01
04
01
00
ff
fe
05
00
03
fe
01
ff
02
ff
fd
fd
ff
00
ff
01
f4
32
01
fc
00
01
01
00
00
00
ff
01
ff
00
fe
ff
ff
01
01
02
00
ff
00
ff
00
01
fe
00
01
00
ff
00
ff
01
02
00
ff
ff
00
00
00
ff
00
ff
00
01
00
01
01
fe
01
02
03
ff
00
00
ff
00
ff
01
fe
00
01
fe
ff
00
03
02
00
01
00
00
ff
ff
00
00
00
ff
01
ff
00
fe
ff
00
ff
ff
00
ff
01
05
00
01
ff
00
01
ff
00
03
01
00
ff
00
01
00
00
02
01
00
02
01
01
02
00
01
02
01
ff
01
02
fe
00
ff
01
02
02
01
01
00
ff
fe
ff
fe
ff
01
fd
00
00
00
00
01
01
02
fd
01
00
ff
02
fe
00
00
00
02
ff
00
02
00
fe
00
fe
fd
01
00
00
fe
00
01
02
00
01
ff
00
00
01
01
ff
00
01
01
00
00
fe
00
00
00
01
00
00
00
02
00
ff
fe
01
00
03
fe
fe
01
01
fe
01
00
01
00
01
00
00
02
00
00
01
01
00
01
00
00
ff
ff
00
ff
ff
01
00
00
01
02
00
ff
fc
01
00
fd
00
00
01
01
00
00
ff
02
01
ff
00
00
ff
01
ff
00
ff
00
03
01
fe
00
00
00
01
00
01
03
fe
ff
00
01
01
fe
02
03
00
01
01
00
ff
fe
ff
01
ff
ff
ff
02
00
03
02
ff
01
fe
ff
fe
00
ff
ff
01
00
ff
ff
00
04
00
fe
ff
01
fe
01
01
01
ff
00
01
fe
00
01
00
ff
00
00
fd
01
01
ff
ff
00
01
01
00
00
ff
00
ff
00
ff
ff
01
01
00
fe
fe
01
02
ff
02
01
01
01
ff
00
03
fe
03
ff
ff
00
00
fe
01
ff
00
00
04
00
ff
00
01
01
fe
02
ff
01
01
ff
00
02
01
ff
00
ff
02
00
00
ff
ff
00
02
00
01
00
fe
03
ff
fe
01
ff
01
00
00
02
00
fe
00
00
00
ff
01
01
fd
00
02
00
ff
02
00
00
01
fe
fe
00
fd
ff
fc
01
ff
00
ff
01
00
00
00
02
ff
ff
02
ff
ff
00
ff
01
ff
01
01
00
00
00
01
fe
00
ff
01
00
ff
01
01
fe
01
ff
ff
fe
00
01
fe
02
ff
ff
ff
01
00
02
01
fe
ff
00
ff
01
ff
ff
02
00
01
fe
01
01
ff
00
00
02
01
01
ff
02
00
ff
00
01
03
00
01
fe
02
02
02
02
01
00
ff
ff
01
ff
02
00
00
ff
02
01
00
00
02
01
1c
1c
00
00
fb
02
01
01
ff
00
ff
02
00
ff
ff
ff
01
ff
fe
01
fd
f9
02
01
fe
ff
ff
fe
01
ff
fd
00
fe
ff
02
01
02
01
01
02
fd
02
01
fd
ff
00
05
01
01
ff
02
fd
01
01
01
03
04
fe
02
02
fd
03
ff
ff
01
ff
ff
00
ff
00
00
ff
01
01
fe
02
fe
00
01
00
ff
ff
fc
00
01
01
00
ff
fe
ff
ff
01
ff
01
00
fe
fe
02
00
02
00
00
00
ff
01
00
00
00
ff
00
ff
01
fe
01
03
00
ff
01
00
ff
00
00
00
01
00
01
01
00
02
ff
03
03
03
00
00
ff
fc
03
ff
02
01
ff
02
00
fe
ff
fe
02
02
00
01
fe
02
fe
ff
fd
01
01
01
01
00
fe
02
ff
00
01
fd
fd
00
02
00
00
00
02
00
00
ff
fb
fe
00
fe
fd
01
01
00
00
01
01
00
02
fc
02
00
ff
00
00
05
ff
03
fe
fc
ff
03
00
01
ff
01
ff
ff
00
fc
fd
fe
02
01
01
02
ff
fe
fe
fe
01
fd
00
ff
04
00
01
fc
02
fd
fe
01
00
00
fe
ff
fe
02
01
fe
01
02
ff
02
01
00
02
fe
fe
fd
02
01
01
fd
02
fd
ff
ff
fd
01
00
ff
f9
fd
ff
fb
00
02
00
01
ff
02
fe
fe
00
fc
01
01
01
ff
01
fd
00
ff
fe
ff
01
00
ff
fc
ff
ff
ff
02
02
00
03
ff
fc
fe
00
01
ff
02
fd
fe
00
01
01
fd
01
ff
ff
01
00
01
fe
00
ff
fe
00
ff
01
fd
01
01
ff
01
00
00
02
00
00
00
fe
02
02
01
ff
ff
01
01
01
01
ff
00
fe
00
fe
ff
fd
fc
ff
03
fc
02
ff
fe
02
00
ff
fe
ff
01
02
02
ff
01
fe
01
01
fe
ff
00
fb
02
02
01
ff
04
fd
00
01
ff
fe
01
02
ff
fe
ff
00
00
00
00
01
fe
fe
fa
fd
02
01
ff
ff
00
00
01
ff
01
01
01
fc
03
ff
fe
fe
ff
ff
fe
fe
00
00
04
00
fe
03
01
02
ff
fe
00
00
fe
01
ff
fe
00
01
01
01
02
01
02
03
00
00
ff
01
fb
fe
fd
00
05
03
00
ff
00
ff
fe
ff
00
00
ff
02
ff
02
00
00
ff
02
00
ff
00
ff
ff
00
01
02
00
01
00
ff
ff
01
02
01
ff
ff
00
02
03
ff
ff
00
03
00
fc
00
ff
02
ff
01
02
fd
fb
02
fe
01
00
fc
01
00
fe
ff
01
2b
22
ff
01
03
01
00
01
fd
fe
fe
ff
00
ff
fe
fc
ff
ff
01
fd
00
04
03
fd
ff
ff
00
00
01
ff
00
ff
01
fe
ff
ff
01
00
03
01
02
00
01
ff
01
00
ff
02
01
03
00
ff
00
02
fd
00
01
fe
00
00
fd
fd
ff
01
fe
fe
00
01
ff
01
00
fe
00
00
00
fd
00
fa
02
ff
01
01
02
fd
01
ff
ff
01
00
01
ff
05
01
00
ff
02
01
00
fd
fe
00
03
00
01
01
ff
ff
ff
02
05
fe
00
02
00
ff
01
fe
fe
ff
01
00
02
03
ff
00
00
02
fc
00
fd
ff
ff
00
fe
02
01
00
02
ff
02
03
00
00
00
01
ff
fe
01
01
01
ff
03
fc
fe
00
02
fe
ff
ff
fe
00
01
01
01
00
ff
01
00
ff
00
fe
fb
03
03
ff
fe
00
ff
01
00
fe
00
ff
00
fe
ff
02
02
01
01
02
01
fe
fe
03
02
00
03
fe
01
03
00
00
00
01
02
00
00
01
ff
00
00
01
00
ff
01
02
fe
00
fe
ff
fe
01
02
02
fe
fd
ff
01
01
ff
02
ff
00
fe
ff
fe
fc
01
06
00
00
00
fe
00
fe
00
01
ff
fd
ff
ff
ff
ff
ff
00
00
00
01
01
01
ff
