f8
21
08
02
0a
ff
f5
08
09
fa
0a
05
02
2d
04
01
04
ff
f5
fb
f8
08
fe
ff
0f
30
fb
01
fa
01
f8
04
fc
06
05
f4
13
2c
f9
fc
0c
00
f6
fd
f7
ff
f9
00
05
26
f5
f8
f6
fa
fc
fb
fc
04
ff
fd
ff
2e
03
f7
08
01
f7
0b
08
01
f8
fb
0e
2e
f6
fd
08
f5
fe
01
fa
fd
f7
f8
fc
2f
05
05
fc
02
08
fb
0a
fc
f3
05
02
35
01
fa
f7
06
05
fc
07
04
06
0a
f0
2a
08
f6
f3
f7
05
07
fa
fe
05
05
fe
29
08
fa
f9
00
fd
01
f7
07
f8
f6
0b
39
fe
07
01
09
00
04
f7
09
08
03
00
37
01
06
04
f8
fb
06
fe
f5
0a
fc
01
25
02
f6
ff
08
05
00
02
0a
0b
07
f8
31
08
06
00
07
f9
ff
0c
f5
fd
fe
fb
1f
ff
04
fa
f7
fb
f7
0a
fa
fb
fc
f5
33
08
f6
08
00
02
0b
04
03
fc
f8
fc
34
01
00
f7
07
00
fc
09
f8
fc
0d
f9
26
07
fc
01
ff
0e
09
04
02
f7
08
05
2f
fc
fd
fb
f8
09
f8
ff
04
fc
fb
0d
2c
f9
fc
ff
02
01
0b
f8
fb
06
09
09
35
fa
fe
02
fc
01
f4
f8
07
03
ff
09
23
02
f6
fd
fb
03
f9
fa
f4
fa
fd
07
26
02
04
03
09
fd
02
fa
f8
f5
fa
07
29
f8
0a
07
fb
fc
ff
0b
04
05
0a
f9
31
02
f4
f9
fa
08
01
01
04
f8
01
11
32
f8
f7
03
fa
0c
05
06
09
f9
07
0c
3e
fd
f3
f9
fd
0b
0a
03
f6
fe
01
05
25
02
fb
01
04
f7
f4
08
fb
0f
f8
11
3b
fa
06
01
07
fc
fe
03
fd
09
09
0c
2b
f8
08
01
fd
09
07
01
01
03
04
0d
2c
fa
04
09
ff
f8
06
f6
05
06
00
11
37
f7
01
01
05
f3
f6
06
04
fb
ff
14
35
f7
fa
f8
fa
f9
01
09
fc
01
07
10
3c
f8
f4
01
0b
04
fa
fe
ff
07
f9
0d
45
fd
02
06
f4
f7
06
fe
ff
01
fe
08
26
01
fc
02
00
fd
f1
ff
0a
02
fe
07
26
fe
fb
fd
f9
0a
0b
01
fd
08
03
02
32
01
01
fa
f6
09
fb
f7
02
fc
fb
0e
2a
fa
f8
f9
06
01
08
0b
01
fb
08
fc
23
00
f9
00
08
fd
f7
fe
f9
fa
fa
0d
3a
fc
05
09
ff
f6
02
06
f7
f9
00
fb
44
01
03
07
07
f7
f6
03
fd
f9
06
f3
3e
06
f9
03
04
f7
01
05
f7
03
07
0c
38
fb
f5
fc
0c
01
f9
03
fe
01
0e
06
34
fc
fa
f4
fe
f9
fd
f7
fd
f8
fc
02
31
06
fd
08
ff
ff
f6
02
00
0a
05
11
43
f8
01
fe
fb
04
05
0a
f9
f7
ff
00
32
fe
01
07
fa
01
09
08
0c
f7
01
0a
2d
f8
f9
fb
f9
01
0c
fc
05
fc
fa
0f
3d
f5
fa
f6
f6
06
07
fd
06
fe
09
02
2e
05
fe
fa
03
fc
0b
fd
0e
0b
ff
f4
1f
06
01
fa
f8
fd
f8
03
f6
fa
fa
13
34
f9
06
f4
07
f6
07
f8
07
01
03
05
2a
f9
09
00
01
09
02
02
07
03
fd
0f
25
f7
fb
f9
fb
fd
f6
f5
f9
04
fd
01
2c
fe
07
07
00
f7
0a
07
fc
f6
01
04
2b
03
fb
01
f9
f6
fc
f8
fb
fd
fb
12
3f
fa
01
0a
ff
f9
f2
06
03
0a
ff
11
37
f7
02
fb
00
00
0b
fc
fe
0b
09
0e
3c
fa
05
fb
f7
ff
07
0a
07
06
01
1d
57
f8
fa
f8
03
00
03
06
f8
07
fd
0d
29
fd
04
0a
05
09
0a
04
05
04
fa
05
3a
fe
ff
fc
f9
0a
ff
fc
f6
f5
01
0d
2e
fa
fe
f8
03
fd
f3
07
04
04
08
12
32
00
fd
fc
05
06
fb
f3
00
09
f5
f6
30
08
ff
03
03
03
02
03
05
ec
fa
1a
4d
f8
04
07
fd
f9
fc
f9
04
00
fd
0f
48
fb
00
09
00
0c
fc
f9
f9
02
f4
08
37
fc
fa
02
00
f2
00
fd
08
03
08
02
32
00
f2
fd
0a
04
fb
03
04
f9
01
07
38
fb
f9
03
01
00
fc
f3
0a
06
f8
04
1b
fd
f4
f3
05
01
fa
fb
fc
f8
fc
09
38
fc
05
02
02
0a
fa
04
04
09
fc
f9
35
03
f8
f3
fe
fd
06
03
f9
fa
06
17
29
f8
03
fc
01
0d
00
09
06
0a
00
fd
30
03
fd
fe
ff
fa
fc
f6
fd
fc
fa
e9
48
0a
01
fe
ff
f9
fa
0b
ff
ff
05
fd
27
0b
05
f5
fe
fc
fb
f8
0a
01
0c
ef
47
06
01
01
06
06
0a
f6
01
04
04
0e
3a
fa
00
04
08
f4
f9
04
fa
fa
08
f2
38
09
fe
f8
00
fa
f7
05
01
fd
f6
1c
4a
f9
fc
f9
fa
f8
ff
06
09
07
06
03
23
fe
09
fc
0d
f7
f9
fe
01
f6
06
fd
38
02
02
04
00
fc
f3
fc
fd
f9
f8
07
50
ff
f8
05
fb
fb
fb
0b
02
07
f4
f9
29
06
fd
0c
0b
07
fb
0d
02
0c
fe
02
31
04
08
0b
fd
04
09
f5
04
fd
fe
0b
24
f7
08
fb
03
03
06
0d
01
fd
0d
f8
2e
07
05
05
08
f9
02
07
fe
08
0a
fc
38
02
04
05
fb
fa
fb
02
f5
fe
03
07
2b
fb
fd
fa
f5
ff
ff
fb
04
ff
f7
0a
2e
fc
fc
0b
00
f6
00
08
07
0a
09
fb
2f
00
05
04
02
0e
0a
ff
fb
fd
02
f0
37
0a
fb
06
0b
08
01
fd
02
08
f9
f0
31
0a
05
06
00
01
05
0b
fc
0a
fc
04
28
fe
05
fd
f8
09
f7
05
f1
fb
f6
0f
37
f7
ff
f6
03
f9
09
fc
f8
0b
f9
13
37
f8
05
00
f6
f9
f8
fd
f9
f8
04
00
43
01
06
f7
fd
09
01
03
04
08
fc
12
2a
f7
08
fa
0c
0c
0a
05
fe
fe
01
02
30
02
02
0a
ff
fc
fb
f5
fb
08
06
0b
16
f8
f8
f6
fd
02
0c
09
01
03
f9
ed
34
0a
04
09
02
fe
fa
07
02
fb
f6
07
27
f6
03
0d
01
03
fe
08
0b
fe
fe
f8
3e
03
f2
05
07
05
f8
f9
06
09
fc
0d
2a
f9
07
04
f9
0f
fe
f7
00
f9
05
f7
30
05
fd
0b
09
01
05
07
f6
f7
f8
12
30
f8
f8
03
07
fc
ff
ff
f7
08
06
f6
2d
05
fa
04
f8
fe
fd
ff
03
0c
0b
04
27
02
05
00
07
09
05
01
03
05
0b
09
25
fa
08
f4
fd
02
0f
06
03
01
02
07
23
f7
fa
fe
05
f9
f6
07
f8
fb
f5
04
48
fe
04
0c
fb
02
fa
05
f6
fd
0c
0b
32
fb
00
fd
0c
fe
06
09
f9
f9
04
0b
2d
f7
0b
fd
fd
08
04
05
04
04
f9
ea
44
0a
fd
0c
fc
04
05
05
f6
fb
f9
08
2a
fe
0a
08
00
03
01
f4
f7
05
00
0f
2e
f7
05
ff
0b
0c
ff
09
f9
0b
ff
01
26
00
fa
06
00
06
0d
ff
fe
05
09
04
23
ff
07
04
00
0e
f3
ff
04
fb
05
0e
31
f6
fa
fc
0a
01
fe
0b
03
fe
03
f6
2b
09
f9
0c
01
fd
f6
0a
fe
02
07
15
20
f6
ff
fe
fd
01
0f
f5
fe
06
f9
15
2c
f6
f6
01
fa
fd
f5
ff
03
09
0a
09
43
fe
fe
f7
fc
fd
fc
07
08
0c
01
fd
23
fa
f9
01
fa
f6
00
fc
fd
fa
ff
f9
1f
03
03
00
06
09
08
01
07
06
05
09
3f
ff
07
01
06
fc
03
07
fd
fd
07
0a
31
fb
05
04
f5
07
01
fd
09
fc
f8
0d
27
f8
03
f8
fb
08
0e
f9
f5
06
ff
15
30
fb
02
fd
fe
00
0e
f4
03
02
02
03
3b
ff
f8
01
fe
02
f8
fb
0c
07
03
0a
30
fb
fd
02
00
fc
f8
fb
01
f9
f9
18
38
f5
04
0c
fe
0a
04
fe
fc
07
f6
09
27
fa
07
05
f7
03
fb
fa
f6
f5
f6
03
24
fe
09
fd
09
0c
02
06
04
ff
06
09
29
f9
04
fd
01
07
01
0a
04
06
04
f5
29
03
08
0a
01
00
fd
05
03
06
fe
0c
24
f5
f7
fe
06
f8
07
01
f6
f9
07
0f
30
f6
fd
fb
09
fc
fc
f9
03
0f
05
0b
37
fa
05
09
ff
fa
f3
0a
01
03
05
fe
2b
01
05
ff
f8
07
0b
ff
03
06
fb
fc
38
04
05
fe
06
03
01
0a
05
fc
08
f0
4b
04
ff
f6
f8
ff
08
05
f9
01
05
ea
39
08
f7
0b
06
f7
09
07
f8
10
01
f7
28
08
ff
fa
f8
ff
f5
f5
fe
06
fe
01
2b
04
fa
f9
04
ff
00
0b
07
fd
0a
f9
31
06
05
04
07
fe
f9
f6
fd
fb
0b
00
39
03
05
06
05
fd
fa
04
f5
fa
08
05
22
fe
03
ff
0a
f7
01
05
fe
08
0d
05
2f
02
02
0b
03
01
0c
02
00
fb
03
02
42
01
fa
04
fd
fb
f2
06
00
fe
03
fe
33
03
04
f8
fd
0b
f8
f8
09
01
ff
f6
2c
06
fc
09
02
fb
f4
fe
fa
f9
fd
fb
28
ff
08
06
fd
08
f9
fc
f6
fb
f5
06
25
fe
f7
01
07
f1
0a
0a
00
f6
09
05
2e
00
0b
07
09
ff
04
01
0c
fc
fc
15
46
f6
fa
02
05
f7
0a
f7
04
06
f8
09
26
fc
f3
f8
fa
f5
03
f9
fc
06
ff
f1
2e
09
fd
0a
02
07
01
06
03
06
fe
e3
5c
09
fa
fb
08
ff
f9
fe
03
0d
fc
00
38
05
05
07
09
fe
f7
07
fb
00
fb
f2
40
0a
05
f6
ff
02
07
03
04
fa
fc
01
21
07
12
01
01
ea
03
04
fd
01
03
fa
2a
05
03
0e
ff
fe
f8
fb
fc
05
fc
00
2a
fb
07
04
09
fc
fc
08
08
02
00
17
28
f6
f9
03
fe
f5
f4
02
f6
08
f8
0c
3a
fa
f7
fd
f3
02
04
fd
08
01
03
11
31
f9
fc
04
f9
0c
fc
fb
01
f4
f6
fa
1e
07
04
03
0b
04
08
0b
07
fb
ff
ff
1a
01
07
03
ff
0a
08
09
04
0b
fa
17
2a
f6
0a
fa
06
fc
0a
01
07
0a
09
f4
44
04
09
00
fb
ff
fa
03
f4
fd
07
0b
26
f7
08
ff
04
f2
f4
06
00
f7
fc
0e
28
f6
05
fa
03
03
f3
00
fb
f6
f8
04
25
03
ff
00
fc
f9
f9
f5
00
fa
f9
fe
2d
07
03
f6
07
f5
09
08
06
f9
07
f4
46
06
fb
fb
08
00
00
0d
f2
fe
ff
0e
2d
f6
09
09
02
01
09
fb
fa
fb
01
01
48
ff
04
07
f3
02
fe
fb
fd
fe
06
15
28
f7
03
0c
03
02
0b
f8
05
05
06
f6
29
08
fb
fb
f8
0c
0b
00
04
06
fa
06
23
f6
f8
0b
08
0a
05
06
02
fe
fd
02
37
02
fb
09
00
f9
03
00
08
03
02
00
2e
04
ff
09
fa
f8
03
05
fa
ff
09
05
34
fd
00
fb
fd
07
05
f8
06
0b
0b
11
2e
f9
fc
09
08
0b
f9
fc
08
06
07
04
30
01
fa
05
fc
f9
05
f6
01
04
0a
0f
39
f7
03
fe
05
04
fb
0b
05
fd
07
07
31
f6
f3
01
05
fc
02
00
fd
07
03
01
23
fc
05
0b
06
07
f7
ff
04
08
09
00
24
fd
fd
fb
04
08
0e
04
f9
09
06
11
25
fd
01
0b
fd
06
0a
f7
01
05
fd
f7
38
07
01
fb
fc
00
f4
fd
02
05
f4
fd
2a
03
07
f8
fe
05
f4
01
05
fb
f6
03
30
fc
02
0a
0a
fa
fa
04
06
fc
07
f4
40
06
0a
f9
03
0a
f7
ff
fd
09
03
09
2a
fa
02
0c
03
00
ff
f8
fd
fd
f6
f7
37
08
02
03
0c
05
f5
08
fc
fa
f7
00
31
ff
08
fc
fc
f6
00
f8
03
06
f6
fd
34
02
04
f4
fc
fb
f9
fd
03
0a
0b
ef
3e
07
07
fe
f5
04
fa
01
03
02
0c
0e
33
f8
f0
fd
0e
f9
00
fb
05
08
06
0f
5f
fc
fd
0b
fc
00
f4
08
ff
fa
04
f4
24
07
fc
f8
fa
f8
fa
01
fb
00
f8
0a
2e
fe
f5
f8
fe
f4
0b
fb
02
fc
09
0c
30
f9
fc
05
08
02
f9
f3
02
f5
fa
fc
3b
03
05
fc
06
08
f7
f2
0b
f6
fe
03
38
01
00
04
04
f8
03
fc
0a
05
09
06
27
fc
06
f5
02
f8
f6
04
fa
f7
00
0c
28
fa
09
f8
07
0a
04
fe
fd
f9
f7
0c
2a
fa
fe
fe
08
fe
f6
0a
01
fc
04
fb
26
0a
fb
f6
fd
ff
fa
fa
f6
fd
fd
02
23
fc
f8
09
f6
fb
02
f6
f6
f7
f9
0d
2f
f8
02
05
fb
01
f7
ff
f6
f7
fa
fb
2b
01
0a
02
02
f2
f5
ff
fe
f8
f9
00
33
03
06
fe
05
08
06
f3
0a
ff
f2
09
32
fe
f9
f9
00
03
0a
fd
fc
01
f9
0c
32
fa
0a
03
f7
05
f6
05
07
0b
fe
0e
37
f6
04
03
0b
04
01
f5
fc
00
f2
11
2c
f8
f7
fb
f8
f6
f6
03
0a
fe
f9
12
36
f6
06
f6
03
f5
fb
ff
f2
05
fc
05
3b
fc
fc
03
0e
fe
05
fd
02
08
fa
01
28
ff
f6
01
fa
f8
fc
fc
06
fa
f9
02
28
00
01
00
03
08
0a
0a
08
f8
fe
fe
37
04
fb
fe
01
07
00
07
f4
07
03
19
34
f6
0a
09
fa
06
f7
ff
06
01
05
00
1e
fa
01
fc
f8
fd
f5
fa
f6
fe
f8
00
45
ff
fe
f9
01
02
11
fe
02
04
05
0f
29
fd
03
0c
fe
08
f2
fa
ff
04
f6
0e
2b
fc
00
08
03
ff
07
03
09
09
05
02
31
01
fa
fe
fa
05
fd
fa
0a
06
06
f8
27
0a
0a
03
09
fd
09
05
08
01
05
f0
35
09
0b
00
06
fe
f2
02
f3
06
fb
05
39
fe
01
04
fe
01
07
f7
03
06
02
f3
2f
0a
07
fb
00
0f
fa
03
f9
fc
fe
0d
27
f7
fc
fb
08
fc
08
02
f5
f7
f7
0c
36
fa
09
08
05
07
fa
fd
08
f8
f8
04
26
02
f9
f2
fb
fb
00
fe
fb
01
06
f8
31
02
f5
fe
f4
01
03
03
ff
f6
02
11
3d
f9
ff
fa
f8
00
07
fc
ff
f8
f8
06
24
f9
07
04
05
0a
05
08
02
05
00
f8
3e
03
06
01
09
f9
fa
05
06
f5
f7
fb
1a
08
fd
f7
06
f9
f4
fc
fa
f8
ff
13
41
f8
fd
f8
00
fe
05
f5
00
ff
fd
fb
1e
01
f7
f7
fb
f7
f4
02
08
fd
fd
01
30
01
01
f6
09
f9
07
01
06
06
ff
02
28
03
04
00
f8
fd
f8
f2
f5
fb
03
08
4e
fd
0b
04
00
fa
fb
fa
0a
ff
02
0e
2a
00
07
02
03
0c
f2
fd
fe
00
ff
01
29
02
fe
00
f8
ff
f7
13
fd
f9
03
05
33
fb
f9
fb
0b
fd
f8
09
02
fc
05
08
47
fe
0e
f7
f7
03
f9
04
05
02
fd
06
3d
fe
09
f7
f5
06
08
f5
f9
09
04
0e
47
fd
03
fd
f8
05
fb
0a
02
f8
f6