02000101fe0004ff00fd00
00fe040105ff0202fe0000
f9fbfd00fd0100fe03ff00
fffe02fffe02fefd010000
020001ff00fe020300fe00
fe05fe00010202fafffe00
0002feff0100fffffc0100
00000700f704f805fdff00
fd00fffefb01ff02fc0000
0201fffe02fcfd02020200
01ff00000100ff01ff0200
020000ff0300020101ff00
fafe00030100fe00000100
fe00fb02ff00ff0100ff00
0102010300ff01fffdff00
00fefeff01fb020301fd00
fdfe01fb00fd0104ffff00
fe03ffff00000004fe0200
030100fd0200ff02fe0200
fc06000103040102ff0200
03020200fdfcfffb010000
ffff00fffc0201fdff0100
fe000103fe01000200ff00
0502fd0102030100fc0000
fe00080201ff03fdfe0000
02ff030000030000fb0100
fe020104fe02fcfa02fe00
fdfd0001feff00feff0000
0402fe04fefe040001fc00
020104ff01fdfcfe02fd00
feff01000003010202fc00
020201ff01ff02fdfeff00
fe02fa01fd0101fbfe0100
0102fd0000fd0206fffd00
fefdfe01fefeff01000000
ff02fe000100fd01010000
0001fefffffefefd000200
fe02050101fe000000ff00
fe00010001fe0203020100
ff01fe010200ff01000200
fdfd000000fc030203ff00
fefe00fe01fefcfe00ff00
01fefffffbff0201feff00
fffe04fdfb00fffcff0200
010004fd04fa0101010000
fe0003010201020802ff00
fe02fffe0300fd01ff0100
ff0005fe04fe01fdfd0300
ff01ff02fffc03fcff0300
ff01fffdfffbff05ff0100
fd030602ff00fff9fdfc00
ffff000301010100fefe00
fffefd0103fe020000ff00
feff0305fe0004fc020200
02fe03feff02ff0300fe00
0001fdfc0102fdff03fe00
fdfc040103fe0000ff0000
01ff02fdffffff01fe0200
0102ff00030303ff000100
fefffc0102000000010100
03fd02ff0002000101ff00
000200fffd01fffefffd00
ff040001feff0101fb0300
fefe04fe03030005010100
00010000fc03ff01fd0000
ff00ffffff00feff010000
040601ffff01fcf6fa0000
05fffe02fe0205fefcfb00
fcff01ff0002fd03fffe00
01fe0104fe030200010100
02fe01000000fc0103ff00
feff00ff01fffe01040200
