2814fffb27072c17070727
1d25282e1f292523262d23
02ffff000200ff010000ff
fefd02040003ffffffff01
fdfefd02fe00fefefe00ff
0303fd00fefe00fe0101ff
03ff000103030101fb0001
0006fd010500fdff01ff04
fe030103fdfd0000fe01fe
03ff0001ff05000000fc02
fffe00ff04ff0004000001
fc02fd02ff010200010102
02fdfdfd0001000300fffd
00ff03010001010300ff00
ff0403fffefefffffefeff
01fb0000fffe02fe030200
01000000fc02fdfeff0001
fdff01fefdfdff03fe01fe
fcff02fef70000ff0101ff
fc020201ff01ff02fffffe
0202010200ff05fffc00fe
fa010203fd0200fffcfffd
fffdff02fffefefe02ffff
ff010100ffffff0200fd03
fbfe01fefc01fe0101fffe
0301010301fa0003040303
0101fffbff02fffe0101fd
fbff0100ffff02fd020000
0501000002ff01000105ff
fefe0200000203ff0202ff
fe0002010300fffeff0100
0002fe01ff0301fd05ff00
05000202fe03feffff01fe
fd01030102020101ff01fb
00fdff02fb01fcfe02fe01
fdfe01fe00fe0203ff0103
0200ff020005ff00000202
ff000401fd01fe000100fe
fd01000002ffff01fd00ff
feff02000200ffff0600fc
fe02fd0105fffffcfffc00
fa02ff010006fc01010000
ff00fdff02010002ff0200
f70001fe0903010101fbff
0004fefefefe01ff01fe03
01ff02000205fffe0104ff
fe020200fb01fa01010201
fdff00ff0000000b07fefe
01000102fdfdfe040000ff
010003fe00fdfe0000ff00
04feff03030103ff00ff00
fdfeff010202ff00ff0102
01fffe0002fd0000fdff01
fd01fffffe0000fd00fe00
fd04fd00fbfbfe01fcff02
000102fd0002fc010102fd
0101ff000200fdfefdfdff
f8fefffefd03030101fefd
fc050100fe02fbfcfffe02
fc03ffff0101ffff00fdfd
0201ff0202000207fffe01
0402030201ff0102fffefd
fdfeffff0101fe0200ff00
02fe0600ff010100fcfdff
03020002fd03ffff000000
fd0001fdfd00000503fffe
ff010100faff0103fe00fe
ff0100fe0202fe0501fdfe
02fefe00ff020201fd0101
ff030201030201fffc02fd
fe030003ff01020000fe00
ff02000003ff010102fafa
fffe00fffffcffffff00fc
fd0301feff00010000fbfd
0203fdfffd00fffd020001
fd00fffe01fdfefffd0000
01feffff01feff00fe0200
fefffe00000103fdfe02fe
02ff0305fcff05fdfc0202
fdfeff01020101fd030102
fdfdfe00fd00ff000100ff
04ff0302fe00fffbfe0202
040001fffbfbffff020201
04fcff0200000000fb0101
01ff000100ff040302ffff
02010100ff0303fefdfe01
0102fffffc01fefffd01fe
fdff00ff0003fe01030002
03fdfffffd0202ff0105ff
000101fd0201fbfc01ff01
fb01fffdff0300fe0201fa
fe03ff00000001fe010200
0103ff01030102feffffff
00fd01fffe02ff01fd0103
ff000206ff0206fdfffefd
fc000100fbff02ff0200fe
fcff0801fbfbfd03050500
fbfe01ff010001020200fe
01fcfffdfeff0102ff00fe
00fdfe00fd02fdfffc0100
0101010204ff0001010100
0101fe0102fffd01fc01fc
ff00000002010302020101
0502fefc0103fefdfefdff
fd01fe0202ffff0101ff03
030501030102fe02030001
03fdfe01fffd03ff02fffd
000004fffe03fd04000301
02fe01fffefa0002fffe08
fc00fefdfefcff01fefefe
fbfe01fe010100fcfe00fe
fdfeff0103fb02020301fe
0102fd01fdfaff01fefbfc
ff02fb00020100fe050100
050105010001ff0501fefc
00fc01fc0300fdfffe03ff
fe00ffff020202fefe0100
ff020101fffe02fd000004
00fd01010600010002fe00
020000ff0200ff0000fd03
fe02ff000000fe0001fefe
00fc00fe00fd01ff000300
fd01fffe0400fffd01ffff
000103030301fe0003fc00
fefe00000003ffff0102ff
fdfeff01fdfefd020000ff
01f9fcfefffd01ff0300ff
0000fefc030003ffff0103
ff040102000301ff0201fd
fb0200fbf6070003010003
fffe0204fefffd02fdfffe
fe01fefe02fb00fffffd01
01fc0101fffefe00010100
020401ffff01ffffff03ff
fefcfe0201fdfd0202fffe
010103ff02ff01fd01fe01
ff00fc01ff0201fffefeff
ff01fe0200fcfffefcfd01
0501ffff0000fdff0002fe
fcfffe010101fe02020103
fdfffd0000fd0100ff00fe
01010003fefefc02040301
fefefe03010300fd000000
01fcfe00ff0005fe01fafe
03fe00fe04020403000400
fffefe0502000200fe01fd
00fc020004000200fe01fd
fcfe02fe00fe03fffe0002
01010000ff00fefbfefe03
05fd0101000203fbfc0101
fefe02010101ff00fe0001
fe00feff02010000010000
fcfe0202fa00fdffff00fe
fcfcfbffff0000fafffdff
02fe01faff0200fb0201ff
0203fefff9fffffc0101fe
fe0304fc02fffdfcff02fe
fffdfd0603fdfd0003fdfd
fe0000fe0201fdfe03ffff
01ff00fffe00fd0104fffe
05ff0002fdfefcfc0000fd
00fbfe00fefd00fffe0300
fc01fe00fdfb00fcfe0103
01fcfc00010002fb01fe01
030201000202fcfffe00fe
0404ff01fe0200ff020001
ff00fffffe020200fefd01
0006fffffe0005fffffefe
feff00fffefcfefe010400
fc020301fc0200fefdfffd
ff0200ffff030000fc00ff
ff01fbfe0602fe01fc04fe
fdfffefe02fdff03010101
03feff01fffffffe0102ff
03fd000104ff0201fb0102
02feff02fd03ff0802fefb
0002000102ffffff000400
fe0201000301ff01020102
01ff0000ff00ffff0402ff
ffff03fb0301fe00000103
fdfcff0300fefdfffe0102
0103fc00f801ff02fe0202
fdff01fffeff0002fffd00
01ff020201ff0101fe0200
ff01fe0202fcfffe010004
fd0302fefd0200000001fe
fffe020001fffe03ff01ff
fd000400fe00fe00010102
fffd0101fd00fffefffdfe
ff01020101fffd03fb01ff
0000000001fffe02fe01fe
fc010401000201fe02ff03
fc02fe01fd030001010201
01feff00ff04fd03ff0102
fb0003020001fd0100ffff
fc00fefe01fffffe04ffff
0202ff00fd010100fb0005
00fe01fe050303ffffffff
fd000201fd01fdfffd0201
fe00fdff060300fbff0101
000004fdfcfffc00ff01ff
01fe0102fe0003fd0001ff
06000001fc000001010101
fe04000102fe0200fefbff
feff03010400fbffff01ff
000103010100fdfc03fefd
000200ff01fe01000001fe
000001ff020002010000fe
fdfd020003ffff000101fe
08feff01fdff0000fefe01
04fb04fffe0002ff020403
00020401feffff010103ff
fdfe0001ffff00fdfd0000
fefe0101fafeff01fd0300
0004fdfe0000fffe0004ff
fe0401ff0004fe0302fdfe
fe00ff000505ffff04ff01
fefe0101fffe000000ff02
fffcfefefc00feff030100
fe0101ffff040003fffdfe
fe00fd0300fdfc030103fe
fcff00000300feff0002fe
fd0200fdfafffefefeff02
06fd02fdfdfafff9000004
0201fd01fc00fffd01fd03
00fe0001fe000401ffff02
00fffefffefdfefffd0200
fefe00fdfe00000100fe03
0102000205fefe01ff0001
0301fe0202fd0001020301
fffd000103fe00000201fd
fefefffdfffb00020004fc
ff0401ff010001fd00fefe
fdfdfbfd03fbfc02ff0000
fefffd01ff03fc01000101
000201fbfe01ff00fffd00
020100ff03000201030103
03ffff0201fefffffefafe
fb0000ff00fefeffff0101
01fd04000103fd04fe03fd
fffe01fffdff0900fd0102
ff00fefefd00fdfd020100
060006fc0003fc0004fe01
00ff00fffe00fdfd000002
00fefe03f80002ff050000
03ff0304fa0000feff0100
0200fcfe0101050200feff
feff0200ff00ff010300fc
03ffffff0202010001fefe
ffff0603ff0304fc04fdfe
fe0404ff0102fefe00fb01
fc0002fffafc03fffe01ff
01ff0301ffffff00fd0002
0300ff00fffe02010302fc
0104010100020300ff07fd
fefffffe00fe0301ff0003
fc030004fffefdfefe02fe
fdfcfeff0100fffdfd0103
01040105fd00ff030201ff
25fa03cee20e232ff42025
1b262c29281c272022251f
0002fe000100ff0001ffff
fd00040101ff0200010002
fffe01fd03fd0001fdff00
ff0001fffe00ffff01ffff
01fc0402fd0100fe0100fd
f902fd03ff01fdfefd0001
01fd00fffe0002feff0000
02fefffe000301fe020003
030100fd0002fefc0102fb
00feff000100ff0102fc00
01fcfefe0002010003fdff
fbff00020200fcffffff01
01fdff0002ff0000fdfd00
030100ff0100fd00ff02fd
ff000301010000fffd04ff
01fefd03fefdfefe01ff03
fb00ff0001fffafd0206fc
ff01ff0003fffd03fe02ff
00fefe0202ff010104ff00
f9fe05fe04ff01fefe0006
00fd000206ff02000101fb
ff01ffff000001ff010000
0403ff0103020006fe00fa
fc010102fe000005ff01fe
00fdff01fd01000000fe00
04fe00fffaff0303fc0200
fb0500030306fd03fc03fd
01fefc01fe01000100fe02
0301fffc00030300fe0002
0401020104fd00ff0302fe
fffefe0101ff04fffeff00
fffdff0102fc02010000fd
05000000fffdfcffff0102
ff01fe01ff01fffd0300ff
01010200fffe03ff01fc02
ff00000100040100feff00
ff000103ff000200000400
010202fffb04fd00ff0401
fd0102ff0106fcfffbfd00
0200000000fefe03fdfcff
fd0000000301ff00000000
03ff01050102fcff00fc01
020202010201fffefefe01
00000201fe0301040301fc
03ffff02fffcfe0001fefd
fa01fb00ff0000fb0400fe
ffffff03ff0101fd0501fe
fffcfd0300010102fe0000
01ffff00fe04fd0102fd01
fbfc0200ff00fefe00ff00
00fe00000101ffff020102
f900ff00fd0306ff0201fe
ff00fffefb030002fe0003
f704000001fa02ff02fbfe
02fe02fefffc000102fefd
0303ff010004fffdff0203
02feff0000fcfffd00fe01
ff01fefffefc00feffff00
fe02000002fb01010300ff
0102010300feff020000fc
00ffff0100000200ff0203
fd0102fffe00fffdff0001
02fe000203040101fdfd00
0200fe02ff03fdff01fe00
fa01050000fdfd04fe01fe
fefefe00ffffff0004fe01
0000ffff0204fd010003fe
020401ff02fffffbfd01ff
fffd01ff0301010002ff01
fd0301ff01fbfffdfffcfd
0101ffffff03fe02020201
fffefefe01fdfc0403feff
fdff0003ff030203fe0200
f802ff0102ff03ff0301ff
01fffe020103000202fcff
00030401ff01fe01fb0202
0201fd01fd04fcf90100ff
fc01000202fe0001000002
02ffffff0001fdfe02fe00
ff0200fffc0302fc0001fd
fe01000101fb00ff00fdfe
000101fefe050101010404
02fffffffefd02f9010202
04fe01010201fffefbff00
020001ffff00fe03fdff01
0301010201fefdfe02ffff
fdffff0001fc01fe000201
f8fd0401fe0301010801fd
ff0000fffefaffff03fe02
03fefeff00fcff02fdfc01
ff00000203040002fd02fe
01ff0100fe00fffffe0002
fbfffe0301ff02ffffffff
01fe01000207fefbfd0103
fb03fdfefc01030103fb00
04fffffc01fe03fc020300
fa0000030001040003fdff
fafdfe010100010301fe00
f901ffff050000ffffff02
ffff00ff0200fefd02fd01
fefdff02fd02000302fe01
fc02fd020201fdff05ff01
fa00020003fffc0001fd00
040001fefe04ff01fa0002
03feff02fefe02030101fd
fdff00fe0104010103fe02
00ffff00ff040002ff02fe
ff02fffefff6fe01ff02ff
020100fe0101fffc020101
fd02000001ff03000000fe
0102fdfd0203fe0000fb03
fdfc020102ff02020401ff
fd000105fd01fdfb03ff01
0302fe00fffb01ff00fcfd
fe01040002fbfdfdfe03fe
0000fdfffffcff04fffd00
01fdfdfc00ffffff030103
fe0501fc010101fffd01fe
fe01fe00fffdfffe0000fc
fe0201ff000000040100fc
ff020102fe0600faff0101
03ffff00fdfbfdfdff0202
010100fffdfc00fe00fe01
0401fffffe0000fcfefcfc
00fbff02fdff01000102ff
ff00ff01000500fc0002fc
0101fcfe02000001fe01ff
04fdffff0405fffdfe04ff
01ffff030000030102ff00
0200fefe010400ffff0002
fffe0101fffbff00fe0000
fe0501fe000300ffffff00
0101fe0307fffeff000001
050200fdfffe00ffff0301
02ff000300feffffffff01
fffffdff04040001f9ff01
0901000104f8f9fd0002fc
fdfd05fe0200fc00050103
01fefefe00fffd03fbfefe
ff03010600fe02fcffff00
fefc0400030103fe0001ff
0402fcfefdfe05fffc0201
ff040002010001fffcfeff
fe04000003010101000200
f902050202f9ffff0700fd
fd01ff00fe00ffff00fffe
ff02fefe00feff0dfe02fe
fc0103010000fc0302fffe
04ff00ff040300fdfefe02
02fdfeff0002ff01fe03fe
0004fd0401fe000200feff
040101ff04000507000101
fe06ff01ffff00fefffdff
fe03fefe00f900030004fc
fe04fd050202010900ff04
f9fe000200fd030102fffd
06000105fcfc02fffb01fb
04feff0000fdff02ff0000
f8040503fff9020002ff00
fe00fe02fffdff00fcfffd
ff02fd0403fe000000ff00
03fefe0000fffd0102fe00
fe01ffffff000002ffff03
030001fdff01fffc020102
00feffff00010300ff01fe
06ffffff0701feff040001
010102feff030100060003
fa00fe00fd03fefe0405fe
0000ff00fd01fe04fffe00
030504fd02fd03fdf9f900
02ffff010100fb0200ff03
0400feff040403ff020205
07ffff00ff06030003ffff
fb0100ff060000000101fe
fe00ffff0200fe0202fd00
ff02fc040102fffcfc02ff
fc04020401fe01fc02fdfe
fefc000001ff010104fdff
fe0000ff0001fffbfe01fd
0103fe0000fdfefd00fefd
000003040103ff000300fd
fd0500ff00fefffeff01fe
faff0105ff05ff020500fc
fe01ff03ff0104fd0104fd
fb02ffffff0000fe01fd00
fffdff0200fcfffb01fdff
00feff00ff01fe00ff0201
fe02000003fefe02ff01fc
fe04ff0001010002fe01ff
ff040202020001feff0001
fd04fe01ff0002fffd0204
fa02fc01fe030202050203
0303ff05fefff7feffff01
fefffdfeff00fe00ff00fe
01fe00ffff0201ff0102fe
ff0200ff0001ff01fc00fe
fb060101fe0400010200ff
fd050000fe0300fdfefdfe
01feff000102000400ffff
01000301fffafc0000fffc
ff02ffffff0200010103ff
f9fd02fe03fdfffd01fe00
fffe00ff01fd00000604fe
01fb02ffff000401ff00ff
000103010301fefdff0003
030402fd0101fdff000300
fc00ffff0403fb0302fefe
ff01fffdffff00f9030101
0400040200fd01fe08fefc
0401050102f7fcfdff0003
00020603fc04fd04fefdfe
05060702010104fefd03ff
fefefd03fffe0005fefffe
fefd000201fb02ff000000
fdff00030200ff03010001
f70502fc000000fc00fe00
01fd00fffeff00010300ff
07ffff000002020000fe01
0402fe01fd04fffd020007
0002010103010000ffff00
fe02fcff02fd01fc000101
000006fd03feff00fdfffd
03ffff000004fefdff0305
00ff02000201ffff030104
fe010102fdff030602feff
f5fd00ffff01030200fefd
f80001fe00fd0200fefe02
00fefe0002fefe00000001
fc0000010200000102fdfe
0200fd0203020306f8fdf9
fbfb000001fe010300ff02
0102fffeff0200ff04fc01
fafd0002000400ff04fdff
01fffeffff0003ff00fe01
fd02010402fffffeffff01
0003fd0201fdfefff7fefb
fd01020200feff01fe02fd
fd000200fbfdfffc01fcff
00fd0301fefd01ff02ff01
fefd010100fe0303000201
04fd01030201ff06020103
fe040002fe0001fdfc01fe
fffdfe0200fcfffc040005
0002ff03fffefefeff0001
02ff000300fefffb000001
fc010400ff0000fd000101
0101020303fd00000100fe
fe01fffefefe02fdfe00fd
00fe0000ffff01fdfe03ff
06ff01010001fefeff0200
05ff000000fc0100ff00fe
05fe010100fd01000400fe
03010000fd00000101fefd
000001010104ff00fefffd
00fdffff01ff0400ffff00
01fe01fd00fefefffe0202
00fdff04fe04fffb02ff00
0e171525dbf2ed112b2201
2b27262220283319202626
01020002ff01ff01010001
02fe0100020100fcfffeff
fd02fefe03ff01fefe0100
020301020100fc00fefefe
ff0302fefe0300fffd01ff
ff010001fe0103fc01fc06
fe0801fe000000fcff02ff
00fd01fd010300fe04ff02
ffff020300010001ff0103
fefffb01fbff0201fe0303
00fd02fdfefd01f9ffffff
ff0200fe00fdfffa010004
fdfd0101ff0203feff0401
00fc01fd000201fe00ffff
02ffff0101ff01fa00ff01
0101fefe0200000200fc00
0202fffd0104040804fefe
ff0100fdfefd00fd000001
03fb0000ff010802ff0000
0200fe04fe00ff03ff0502
fefb000203010204fe0203
fe0100fe0004ff03ff0001
04ff00fe010301010000fd
01fc0000feffff00fffc02
0001010205fdfffafffffc
01fd02fefdfe03f800fe00
fe02fd030200ff000001fb
fffcfffdfffffefefe0000
0203fa0103fdfe00fffb00
0101ff01fffe00fdfffdfe
0200030000ffff04fcfc02
00fd010102fbfd03fcfefb
04fafcfe03ff0101fcfd01
010102fcff02fe010000ff
030002feff0002ff000000
ffff0002000300feff0102
01fffcff0003fefe03fe03
01fffe020100fdff02fcff
fe01fcff040200fd0000ff
06fe01ffff05fffcfffc05
fdfffc0001fc03fc00fc03
fe0004020103fffdfefcf8
0503020300fdffff000100
ffff0002fe04000201feff
fdfc04fc04000001fbfd02
0001fe02fefd0003ff00ff
fffd01ff01010104ff0004
00030201000000fffdfe01
fffbfb0503fd00fd000501
fdfefefffb0000fdffff03
fd01040301fe01fe0000ff
0201fd05fd01020502ff04
fb04fe00000100010201fe
fb0101fffe020204fe0001
fffd00feff02010301fd02
fc0201fe0200fdff0002ff
fffdfffbfcff03010002fe
ff01ffff0403fe00020002
f902ff0002fc00040001fd
00ff0201fd01ff0301fffe
0000ffff03fdfe01ffff01
ff02fcff030102fbfe0100
0200fffefe0000020001ff
fefefdfe0303000704fb00
fe0100fd00010003040403
fe00fe01040000fe010300
fe0502fe0201000402ff03
fb050104020302fc060000
02020002ff0001feff02fd
01fe0001fdfe03000100ff
fffd0000fefbfefd0402fe
00010101fe010102ff02ff
fe03fefc02fd0100ff0300
000202fd01fd0001ff02fc
feff01ff0000fe000003fe
ffffff000200fff9fefd00
fd0202fc030302fb01fc00
fe00fd0100000006020100
03fc000101fe0401ff0000
ff040100040301000202fe
04fe00fc03fe0203fefb00
ff010100fe000301fdfeff
05fe00030101ff01fb02ff
050001020102fefcff01fe
fefffdfe03ff02fdff0001
ff010302ff02ff05ff0101
020102010303fffdff00fe
010105fdfefe0003fb0100
ffff0201020102fcfe0000
ffff0003ff000202010001
00fffefd010005fafc0402
01ff000100feff05fdfefc
000203ff00ff02fafffdfe
fbfdff01fb040201fefcff
0301fdfc04010201fe03fc
fe04feff04030004fcfe00
05ff01020202020102fdff
0001fe010203fe02fe0100
ff00010003fc01fffffe00
fdfefffefe00ffff01fe00
0200fdff02fefefffffe01
0300f902fd0c0101010100
feff00ff02fefd0100fffe
02020602fe0001fefe0100
01fcfd02fc01000002ff01
010103ff040003fa00fefe
ffff02fcfffd03fe010100
fbff03fe0303fdfe00fc01
fffcfe00ff01ff00000200
020100ff00ffff04020101
fffe00ffff01fdfe020000
00fd0000000201060301fe
01fc01020300fe010203fd
030102fc02ff00fe0101ff
00000200ff03fffffe0202
01ff01fb01feff00040100
fe0001ff00fefffdfffd02
0001fe0003fe01fb04fd00
ff040100040200ff02fffd
fffd01feff06fefa000103
010102020004fe00010000
020101fd02fdfb01030001
01fe00fe04fd01fffeff01
010005fbfffe00fefeff01
fa0101010500fefe02ff00
fefdff0102ff0003000301
fe01ff02feff00fe030103
04fe0406f906020800fd02
02fdfefb01ff04fdff0101
01ff01fd000200fc030201
01fdfe0200fffffc010200
000601000203000000ffff
ff01020301ff010202ff01
04ff030001feffff0102fe
fe0001fd020000feff03ff
02fffdff00ff03fd01ff02
fbff03020201fe05020300
fdfc00fdfe020000fe03ff
fcfdfe00ffff000300fcfd
fd01000200fdfffefe01fe
fd02fefd0003fffefefe01
00fefc00000001000000fe
ff01020100fe01fe0001fe
0100ffff010204000001ff
fe0000fe06fdff0004fcfb
01000002000001fefd00fd
0300ff0401ff02fb010502
000001fd010200fefdfc01
fffefd00fffefffe0300ff
0101ff00fe020105ff0402
02fffffbfc04ffff0001ff
00ff00fb02fffdfdfb03fd
010101fe0305fefb02fcfd
fe010100fc04fe04fffd01
fe04fe02ff01ff0400fffb
01fb000201fe00fcff01fc
00fdfd00fc0402080102ff
01ff000101000003fdff01
07ff0201fefc0003fefe00
00fe00fd00fd00feffff00
fffeff00050200fb0105ff
01fc03fefc00fffffdfeff
ff01fe02010200feff0002
0202fe030103fefe02fe05
02010200ff04010401ff00
0004fafefcfbfefe01fd02
030103fdfdffff05fcfbfc
02ff02fe00ff05fdff0601
ff06fefe04000100fc00fd
00ff04fbfe00ffff01ff00
03fe0200fd000002ff0001
fd06fefc06fafffa0306ff
ff0400fbfffffd01fdfe06
0305fffe02fefefefe0403
fe000100fffffffdfd0100
fc00ff00060201fdfafe01
00fbfd0505fe020500fefe
01020200ff0302050200fe
fefdfd0402fe0004020003
ff010200fb000001010303
fe04fd04fd0004fa020101
01fefffe04ff0100fefd02
fe00ff00fe01ffff0100ff
00fefe010101fffbfdfffe
fefd00fe04fbfffafefd02
01fefe0302fdfefefcffff
00fc01fd00fffe00fd04ff
0101ffff0102000100ff01
020402fd0701fffbfffc01
0103fefd0100000002feff
030501fefd0101fefd0302
0002fdfeffff0303fbfe01
01fcff00fb01020100fd06
0002fe01030101020000ff
000302ff00fd0101ff02fc
fd010001020002fe0101ff
00fd0002ffff00fe010000
04ff02fefa0002fb01fc03
fdfa02ff0202fffdfefe00
0201fb0202fe00fcfcfeff
010203feff03ff01ff0102
000202ff03ffff05fe0000
0400fe0201030100ffff00
fefdfdfefffb02fffdff00
00ffff0403010202fd0000
0202fefdfeff00fd00fefe
02ff00fffc010200fcfd01
0001fffd010100fefffdff
fdfcff0402010000fd0101
02fffc0201fc0003000000
fdfe0202fd020302000000
0100fefefe030104fd0102
0000fffffffb01fefafcff
0202fefe030001fefefefe
000301ff040102050000fa
04fc020100feff0a04ff02
04ffff0100020100fafdff
00fd0302fcfffffffb0002
00fd02fd00ffff02fb0001
fefffefe0102fe06010101
ff01000001ff03fffcff03
0101fc000300fd02ff03fd
fdfffd0001fe00fa02ff00
01fc01040102fffe020100
00ffff0102ff01fefefffd
00feff03fefe00ff030101
fe0000fc02fffe0003feff
fe02fe0100fdfffdfc0003
02fe01fdffff0203fe0000
02fa01fefe02050300fefe
fffefdfd0100ffff01feff
0200fd0602feff01fd00ff
fefd0101ff02fe04030301
fe01fe01fefdff04fd0301
fd010102ffff01f80002fc
ff03000201fdfd0502faff
fdfc02ff01ff0201ff04fd
03fc00fd05000002fdfe00
000000fe0400fe070101fe
01fc0301fc040004fe0000
00ff01010202ffff00fc04
010202fc01fe01fc0001ff
fefcfd0200010004fc0102
00ff00fc0203000402ff00
fdff00fdfe00ff01ff0300
0000ff00000202fd000100
0301000001fc0100fcfc02
040001fd05fe03fafffefe
00020401010300ff020300
ff01ff01fc050201010404
01000001fffe00ffff0100
fffa000200fd02000000ff
00fdfd02fc02000101fc03
fefeff00020100fe01ff00
03010201fefd02fffefe01
02fe04fd00fe0002010200
0104000100ff00fd0100ff
331e171e000b34101c0b03
21242022232c1e2b1f2327
ff01010002ff00ff010001
00020100fffe05000002ff
feffff02010001ffff01fe
0202feff010102ff000101
02fc040100020000ffff00
01fcfbfeff02fe01fefffd
02fffd040000fcfdfafdfe
fefafefcfe0100000202fd
030401fcfe02fdff030100
0102fffb0200ff03fdfc04
02fc00fdff010002ff0000
0101000002fefc0101ff00
fd00fcff0200fa0003feff
fcfffe01feff01fe0100ff
0102fd010101fffe000101
fe00fffefe00fe00000203
00000000030301fa010406
fd00ffff00fefbfd01ff00
ff010100010301ff0100ff
000001050102ffff00fd01
fcff020202ffff0202fffe
0100fc01fcff0100010101
00fd03ffff02fd00fb0300
04fefdfefe040400010202
00ff020101fdfdfef60301
0003fcfffd03ff0000fffd
feff00010300ffff000501
fefe00fa00000403fe0200
fe0003fcff01020200fd02
fefeff0102fffcfc030000
02fd01fefc01faffff02fe
fd000101fd03fffffffdfd
fefeff02fe000402000201
0203fdfc0001ff01fffe01
ff02ff010101ff01020005
fe0100ffff010100fe0201
0000fd00fffe00fffe0202
00fdfe03fefffaff00fbfd
03fc02fe03fcfd02fef803
fefefd0000fefefffefdfe
02fe03010102ff01fdfffd
000102fffd0301fbfe0402
fdfe010103fd0100010100
00fffd02fe00fe01ff05fd
03fb00f901020103fc0402
04fffbfffeff0200000104
03060001040201ff0104fe
ff0201fd0001fdfefa01fd
fdfe010103fefefffffe00
ff02fe010001fe00fa01ff
03fe00fcfeff00fdfffeff
fefdfefe04fe02ff02fa01
fbfafb020301fe01fdfe00
fcfdfc060001fefffc02ff
0102fbfd01fdfe000301ff
ffff0000fefefefd000201
ff010303010200010101fe
fd00ff0104000001fd00fc
0101fe000004fd01ff00ff
ff01ff03ff01fc010503ff
ff01fc0001020100fe0300
ffffff02000301fefb0400
00ff0002ffff0101ffffff
ff020301ffff000003fc00
01fcfdfbfbfdff0201fbfd
02fd01ff01fc01ff03feff
060005fb00ff0100010203
ff0000fb04fffb00fc0203
01020003fefe00000304fe
fe00000003fc00ff030300
0300fffe02fb000103fd03
fffcfe0103ffff0004fffe
fc0001fb0101ff0300ff00
fc000008fc00fdfb010201
fd030201fb01fffbfdfffb
0101fefe00ff0001fe02fd
01ff0105ff00fe03fd0100
0103010101030200fffffe
ffff01fdfe01010002fffc
020002fffdfe0200020201
06ff0203ff020200fc01fd
01020101ff0400ff00fd02
00020205fd020001fffd05
0002ff0001ff01fefeff04
00040000010201fe02feff
0001fffeff00fffe020105
fefffe00fdfffdff00fe00
fc00fe0307ff01fdfdfdfd
00ff0101ff0000fd010501
ff0201fe020104fe00fffd
fcfff90103fdfe01fefeff
00ff01ff00010000030300
fdfd020200fefcfefe01ff
fefefffb01fe04fffffd01
03fffe04fe00ff01ff00ff
fcff02fcfefdfb0103fe00
010400f80200ffff02fffd
03ff03fc0004fc00fdfd01
ffff00fbfefcff0400fd00
01fffffeffff010100fefc
01010101fefffd01ff0003
fefe050001ff0100020002
fefefffefe01fefefd0201
fffd02010101fe0001ff04
000200fdfd030002010001
03ff01ff040000fe030101
0300fefcfe000100ff00fe
ffff0000fefefbfefe0001
0000010100000000fcfd02
fc00fe0100fdfefefe0002
fdf80006fefe020100fc00
020204fd0400000006fcfd
01fefafefaff02fefe0300
fcfe04fe0001ff02fefe00
ff00fe010001fffeffff00
ff03020001ff0400fefe00
fefefd01ff0000ff000100
01fa01ff03fffd050102ff
0500fdfcff01fdfffeff02
fe04ff00ff00000100fc03
fdff0107ff0301fefb0301
06fefc01fe040002fe0004
fdfdfffffffc000302fefd
02fd0100fffe0101fb01fc
01fffcfb0001f9fe0102ff
05ff02ffffff02ff01ff00
fffc000200020101fefffc
f704010204fff9fd01f503
06010200fe0102ff0002fe
000004fefefefd00fc0002
0103fd00fefdffff01ffff
00fefe0201fd00fe0101fe
ffff0301000302fffc0200
fcff02fefefe01fe00fcfe
01fd03ff0001050303fe00
03fefffd000201ff01fe02
fe0605ff0100fc0004ff04
02fd0101fffe0301fcfd01
0002fc000102ff01fc0003
fefdff0000feff01010103
fd00fdff02fefe0301fe02
ff0103040001fdfd0202ff
030102ff0501000001fdff
ff000100fe0000fe0201ff
fb040106fe02fe01040502
fefefefdff01fffffc0101
ff000003050502030002ff
fcfd02fc02020200fd0204
000602fdff01ffffff0102
fe00fc0201fe02ff03fd00
fcfeff02030200fefe0300
fcfc0302fdfcfeff0001ff
fffdfd0101fd0000fc0402
fffc01fb0200fdfcff00fe
fe010202fffefffe02fd01
00fefcfdfe010000fb0001
ff03fe03fcff000100fffd
0202fffcfdfe0504ff0201
01000401fc010000010001
01ff01010001fd00ff00fd
fe0000fe02ff0101fc0201
01fffff900ffff0002fb01
0000fe02fe0102fe04fd03
ff01fffe02030201fffdff
ff0204fe01ff0002030104
020000f906fe070108fd01
fc04fd03ff0101010101ff
010601fc03ff03fef903ff
0002fc03fefffb0000fffc
fe0001020002fffe02fffe
fefcfe04fe05fffe04ff00
fcfdfcfdfffefefdfffe04
0400ff03ff00ff00000902
fc0501fefc01fc01000401
000000fc0102ff02030100
fffffdff020100fdff03ff
fd00ff0300fd02ffff0202
fe0204fd0104ff0002f8fc
0000010001fcfcff02fd02
fffefd040201ff01ff00ff
fafb01ff0701fefe00faff
fefdfdfe01fffeff010000
fe03010101fff60303fe01
fffffffffffd01fefe02ff
fdfafcfbfffffe040101ff
fc00fefafdff00fd00ff01
ff01ff03ff010100feff00
02feff00fffd04ff000100
000201000100fe03ff02ff
040103fc01ff0301ff02fb
fefdfd010101020101fefe
020202fd0301ffff00fcfe
fef9000207fffd02fffaff
0004fe0200fd01010100fd
0000ff060002020201ff00
fd00ff05ff00010202fe00
feffff0201030000fe0100
fc000105fffffcff0004fe
ff0002fb02040200ff0100
0200fe02fe00ff02000201
ff05fffb0301fe01fefb06
fd0200fffe0003ffff00fe
ffff0401ff0502040100fe
ffff000303fe0102ff0000
00fc0402fffc0000ff0101
fc0101ff0104fd00000104
02fe01fbfe03fdfc04fefd
06fc01fcfffb0000fd0402
02fdff01fdff0100fe0400
fe00010002fe030203feff
ff02ff03020000ff01ff01
fdfefcfefffff901fe0100
ff0000fffd0000fffefeff
0400fe03fcfe0503fe02ff
000400040000ff0001ff00
01ff010302fdffff0501fc
01fd01fefe00fffffc03fe
00ff03fc02feffff06fe01
fdfefdff000302fc010002
fffefefb00fd00000000fd
01ff010004010101fd0300
ff000204fefefdfd020203
010100fc0100000001ff02
03000002ff0002ff0102fe
0103fd01feff0301fc01fb
000203fe0301fe01fffb00
0000ff040300ff00000004
fc01fa03fe0100000000ff
0101ff03fd01fb02fefe01
02fe00fa01fe0100fe0000
000502fe0101020100fdff
fd0000fefefdfc01fb0103
fd010201000000010002ff
020101fdfefdfe0001fffd
fffcff01fd0101ffff05fe
fe00fefa02fb0002ff0104
fdfcfcfffd00ff02fcfffe
00ff0100ff0100fe02fd01
fd0105fe01030002fe0201
00ff00fffe03fe01000305
0102fffffe00fdfeff02ff
fc0003fefdfd00fd0201fe
04fc00ff01020000030200
fffd00fcffff000000fffc
ff04020101ff0100fe02fe
