f901fd030403fef600
fd01fffdfc00fefc00
01fe02fe050000fe00
ff0004fb00fb040100
00fefd04fefffc0300
ff02fe0301fcfcfe00
fefffcfe0204fb0000
ffff03fffffe00fc00
0400fefd0003050200
0302030103fd000200
00fd00000103000200
fd00fefefe07fefa00
ff00fe01fb00fe0000
fdfe02030000040500
00fffefafcf7010500
0101fffdff03ff0100
272a081d0316061a00
1e231f20211d1c2400
fbfdfc01fbfafcfe00
0601fff70bfffffb00
fe01fcfd010402ff00
fef9f7ff02ff00fc00
0004fe030402050100
05ff010706fd000600
fbfefffffffe03fd00
00020405fbfefd0a00
fb00010203fefeff00
fafe02040204fbfe00
0300fcffff09ffff00
f8ff0101fffbfefd00
00fefefc0000fcfc00
fffe0101fd04fdfe00
05fc00ff00fd000100
03000200010102fc00
0104fffe06fffbfd00
fd06fbfb08fb020300
fd01fbfffbff020200
fefd02fe000102fc00
fc0103fe05fbfbfe00
00f902050001fefc00
00fcfeff06fefffc00
fefd000000fc01fc00
fc0002fbfbfffcfd00
000405fdfdfcfbfd00
0100fefdfffffdfd00
03fffefefbfffeff00
fafe04010503fd0200
05ff05fdfc01ff0200
0300fdfefeff00fe00
0101fd010401fdfe00
fa01fafdfaf6fc0100
fb0100ffff00000400
0501fbfd03fe03fe00
fc020003fd04000000
fc0500030001fc0200
ff0002040000010800
feff0101fffd02ff00
fdfffd01fbfd030100
0005ff01fdf9fb0300
01f706040003020200
070404fd040104fd00
fffe0306fefefbfb00
fb01030300fc020200
fa0202fd0e0207fd00
fefefa00fd01ff0300
020000ff00fa01fe00
ff03fc0002fe010500
03fefdfdfc03ff0300
fd00fa05ffff020000
fefc03fffcfcfd0100
fffe03060007010100
fdfefefcfffe04fb00
fdff01fe0002ffff00
fdfd0a02020200fe00
ff02fdfafe00fafe00
0101f8fdfff7fbfd00
fbfa0605fbfffeff00
fdfdfdfc04fefff900
ff0001fdf1fffb0100
fb02fefe0101040400
f8fbff0101f908fb00
fe00f7fff701fe0000
fa03ffff05ff050100
040203080602fe0900
fcfdff0104fffe0200
fcfdfd0006fe01fd00
fbfb00fe00fc00fd00
0506070404030b0b00
0201fe01fffffdff00
0904fdf701fc00f800
fd00fffe04fffffe00
fe01feff0000020100
fefef70601ff030400
fcff00ffff01fc0000
040006fb04fefc0100
00fefffafbfffd0000
fe0106fefefbfd0300
0cfb02010101ff0000
f807fefefffd060100
0205fefcfe0103fe00
feff0103000000fd00
ff0102fdff00fe0100
02fc030106fcfdfd00
fc0001ff0002fc0100
05fff9fb01ff000000
fffffe00ff09010000
faff0200fe0005fd00
fffe06fffc00fd0000
01fe01fffeff0b0000
0000fffe0000fe0600
fe02fdfe0202fcfe00
fefcfd01fd02ff0100
fb00fdfe0000010100
01fefffd020401fa00
fef8fe01f803030200
ff0104fdfd04f9fe00
020000fd00fd02ff00
01fafdff0403fc0300
0003fdfbfefdf70300
00ff02f603fd03ff00
ff0101fd02fc03fb00
00fc01fbf8fffcfc00
fe04fe00fefefe0300
02f903000303010300
ffff05fe050002fa00
fefdfd06f901fc0200
02fb000003feffff00
fffb02fc08ff06fe00
fefc01fffb00010200
00f9fb010604fffd00
feff00fefffd03ff00
ff01fffef800ff0400
fd05f901fefd060400
fc0204fefeff01fe00
01fd01000300fe0000
fa01fb02fe04fd0100
fefeff00ff03fdfb00
fd0105fb01fc010000
0001fe05fdfefc0400
06fa0001fe0306ff00
000002fffffcfb0200
f905ff01fffefc0000
03000002f90304f800
0400fe00f806040000
010100f9fef900fd00
ff080401f802010000
0d1c0be71e211bf700
281a2728221c282c00
fe01fe03f903ff0100
fffa00000002fe0400
020202fefffe010300
f9fe020000ff04fd00
0200030001fe000200
fffc03010101030000
ffff000500ff030200
03fbfe04ff03040100
02fdfbfdfe01fe0400
0307fefe0103050100
010004ff0101fd0100
fcfcff00fc02000200
fd05ff0002fffc0500
fcfe00030400fefc00
03fc02fc02f9fffa00
02ff0009fbff09fe00
fdfcff03fbfffe0100
01fefd00fc00010200
fd0203fdf904ff0300
0002fffe04fefd0200
00fcfcfc07fdfafd00
fd05fffffdfeffff00
0401030101ff020400
01040103fdff04ff00
fbff000202fefa0400
02fbfeff00fd000600
04fcff06000400fc00
020100000004ff0100
0100fffc01ff04ff00
ff02fdfdf90600ff00
06fafdff00ffff0300
fa02ff0204fcfa0000
01fc0504f700fefd00
fe00feff0300feff00
010008010305fb0000
0204fd0000fcfd0300
05ff01fc06ff030100
0400fa04fc02010400
fefeff00fe03ff0200
ff040203fdfb03ff00
fc0302ff01ff000000
ff03fdfdff00fa0200
fcfcff00fefffd0200
00020200fbfb00ff00
000201ffff0002ff00
00fc01fa02fc010100
fffeff05fffe04f900
030000ff02fc030100
f7fefbfffffe05ff00
fe0201fd04fa030000
0102fcfffbfcff0600
0003fa010301fe0100
000105fe0201040100
0101fdfe010000fd00
050201fb0502fcfb00
faff00ff05fefd0000
03fcfb00f8fe02ff00
fff50305fefd00fc00
fb00fd03fffbfa0000
fdfc0101fcff040300
fefd0405ff07ff0500
fefd0302fefdff0000
fc000200fdffff0100
fdfc0401fbfbfdfc00
02fdfb07fb00ff0200
fef800060a00fd0600
ff03fc0201fc040200
010201fe00fcffff00
0003fe0102fefd0100
fff8ff070409020300
02f9ff00fffe000200
02fcfc02fffefe0200
fdfffe00fdfafe0100
00fefffbfd08ff0100
fd04fbfdfcfefe0200
ffff00fdfffcfaff00
010403fdfe04000500
fdfe00010201fefb00
01fa040002fcfd0200
ff060003fd00fc0200
fdfe0102ff0204ff00
04060303fe0200fd00
00010400fe00fcff00
fe000200010401fe00
ff050103010101ff00
fefe0703fff901fd00
06fb0303fcfd020100
04fefefb030400fe00
020003000202f9fc00
02fbfdfe0103040300
05fd05040108fffb00
0502ff06fe0402fe00
0400000002fbffff00
0200ff00000505fd00
00fc0001fffa00fe00
01fffffe01fbfffe00
fdfdfffffbfe040400
03fd000000fdfe0200
02000702ff0100fe00
020000fffa02010000
04060204fffc01ff00
fd05f903fc06fa0200
000602fe02fffe0300
fefe0101fdff01fc00
01fc03ff0000fc0100
fb07fdfe07fffffd00
ff02020100fdfd0000
fcfb030305fdfbfa00
fe010001fc02fe0300
02fd03030104fe0000
fe05fa04040101fc00
0501fffc00fbfbfe00
fffb010204fb01ff00
fe050102fbff01fc00
00fefffdff01fc0300
0201fc0207fcff0800
fdfafc02fffefeff00
03fffdffff0000ff00
fe00feff00ff000200
02fcfffffefc00fa00
fd02fd03fbfe010500
fdfdff04fffd00fb00
010202fc000002fe00
010105fdfefe030300
0000fefffc09f80100
03fefd020304030000
02fd03ff01fafffe00
0004fdff0301fc0200
151703fc2ffe0c1d00
2e231c262026221600
04faf9ff0806fcfd00
0002fe050600fdfd00
01fe050202fe00fd00
0d00ffff00ff01fd00
fefdfb050304010300
fd01fe01fe000a0200
fd06f5fafc00fe0200
ff0001010002010400
02fcff01fefe02ff00
fffb0101ff02000500
0200fefffe03fef600
04fffbfffb0000fa00
ff01ffff02fef8fe00
fe00fc00fb03ff0000
01f8fcfefd0003ff00
0000090302f8ff0200
fffb0100fefd030000
02f9050105fd000100
fafdfc02fc00fcf600
fffe01fefbff00ff00
03fdfe0102fefbf700
00fe090100fdfafb00
fd0503fdf7fdfcff00
0002030400ffff0700
ff03fa05fb00fc0000
05ff000200fc010100
fb0700050106fe0500
01fffffeff00ff0000
0706fffc0101fefc00
0500fcffff04020300
fd02fb000201ff0100
03fd00000000050100
01faf80003ff02f700
01ff00fffffe01fd00
fdfd040205fffefd00
0001ff04fffefefe00
fcff0102fffe030200
05fffbfbfb0105fa00
fe0404ff0102ff0400
ff0201fffe0101fd00
01020301fffdfefe00
010107feff0004fb00
02fe01fc000402fd00
ff03fc03fcfffbfa00
01ff02020000000200
01020603fd02f8fe00
0104fc02fefc08fc00
fbfefb02fa02fefa00
ffff0400fd00020000
0005010102fefcff00
ff00ff00fefffd0100
fdfd05f7fd0000fe00
03fbfffffeff03fe00
0001fffdfefe02fe00
0004fe05fd01ff0200
03fa0202ff0204ff00
0100fe06fe01fe0200
fa05fffd00fdffff00
fdff06fffb000aff00
040403fb0202f7ff00
fdfbf7fffd03f9fc00
01fefefd0203010100
fe0000ff0304030300
fefdff00feff000000
fafef900ff01010000
06fe010005ff05ff00
01fffe07fdfe04fa00
fdfdf9fdfb0105fc00
00fe0405fdffffff00
fe040703fffe040600
fa03f5fefe00fe0000
000900080301000900
fd03fcfafbfe01ff00
ff03fe020303ff0300
0101fa04fffd05fb00
fdf9fd02fd01fef900
0003010202fd010000
02fe04ff00fb01fe00
03ff00fc02fdffff00
fff80300040000fd00
01f9fc0002fe000000
fe000300fcfd01fc00
ff0403010201050a00
06ff03fe0301fc0000
fd00fefcfd03010000
04fefc00fdfefefc00
f905ff01f800f60100
02ff0102fe0504f800
0001fe02fd03ff0100
04000102fffe010000
0104fffbff04fd0100
ff0002fc0001020800
fbfdfefd0102f90000
ff03fe00ff00ff0000
fbfbfefdfefdfffe00
01fdfdfefb00fbfe00
fcfd04fbf80201ff00
fbff0200fffffeff00
00fb04020701050200
0007fdfffe01ff0200
f7fc0504fdfefc0200
0802ff01fbfeff0900
fd000400ff01010100
0200fc08fe01020200
ff000702fd0101fc00
fefefd08f90007fa00
040004fefd04fff500
02ff050200ff070000
fe06ff0301fd000200
0501fc03fc03030200
0001fffffdfe020400
fd01f901000202fc00
0103fd00fefefffd00
050400000401fdfe00
fe040401f9fe01fc00
fefd050000fdfefd00
02fffefd0604fefe00
fffefffbfe0b01fe00
00fcfd04010004ff00
fd00fcf903fd00fe00
00fdfefd00fa00fe00
f5fc04010004000600
05fa0504fe03fe0500
ff0304ff00fefb0100
00fff900010203fd00
fdfe02fc0301060000
02fffb0203fffffa00
04fc00fdfe03fe0200
fe39301b291a023700
2d21222e20252f1800
01fa0304fd05fdfb00
ffff01010209030000
000101fbfe0403fe00
040203fb020304f600
00fbfa010003000100
0501ff0000fe03fe00
00fdfe0500fb04fe00
0300010004fdfdfd00
fdfdfcfd00fe010100
01fafcfe0001fc0000
fffffd0106ff010300
03fd00fff8fb03fa00
03fc01010000030100
fefdfefc01fe02fc00
fd04fd0101fdfefa00
01fefcfcff07000200
0104fe01fe01fdfc00
03fefc00010303fe00
0000f70202fc000700
0001040102fe03ff00
01fefffffd0601fe00
0202ffff00ff01fb00
00fdfdff00ff030000
07fefefafa0002fd00
ff04ff03020002fc00
02fe00fffd0300fb00
fffa01fc0707000600
0301fd00fefbffff00
ff0000fd01fdff0400
02fc0107fcfe06ff00
ff0300fe02ff010100
fe0206fffd05000100
fffe07fcfefc00ff00
00feff02fd0101fc00
ff0002fc0405fe0200
00fffefffefe00fe00
03ff0000fc00fffe00
03f700ff02fffffc00
0401fdfcfcfd040300
02fc0102fd03fe0000
fd00fefefbfefeff00
fcfcfa00ffff00fd00
ff00fb06fffeff0100
02ff03fcfcfdfbf800
01fefdfaff02faf500
fe050501080600fd00
feff0005fcfffe0100
fdfd0401fbff01fe00
01fdfc010302010600
010106f9fbfdfbfd00
fffffdfdfe00fcf900
fbfafc03fa0601fd00
0100fd02fdfd020000
fcfd030802fffd0200
01feff03010101ff00
fe01fdfb04fe01ff00
02fffc03fff9fefc00
00000703fafe01fd00
0500f800f4f9000100
fefafbfe03fcfffe00
010203ff0000f80100
0101fd020000fdfd00
fffd0100fb04fd0400
fd05faff02ff06fc00
fd00fe02fd04040600
0101030405fffefd00
fe0404fc010202ff00
00fe030201fd03fc00
fd000005fbfc02fc00
03fe04f90404fd0600
0506090202fe07f800
ff010202ff05000a00
00fefcfffcff020000
ffffff02fe00fd0500
05f8f8fcfe03fbff00
fefe01020000fcfd00
02010502fe0103fd00
feff00fc02ff040000
fb01010001fe010000
0301fb04fefe040a00
0204fd04fd0000ff00
fbfd03fdfd0001ff00
0706ff03000302fb00
0101fe000201fffe00
fefefdfefffffffe00
03fcfbfefbfc02f700
fcfef9fffcfd050100
02fcffff0700000100
01fd00ff05ff010100
0503fdfdfffffefc00
feff0205fd01040300
0401fcfe01fd04fa00
fbfffffcff02fe0100
fdfdfe00ff0000fd00
ff03fefdfbfe010100
000103fe04ff000100
03f7f5fffff601fe00
fbfafdfd050101fe00
fffe02020506000200
fefe03010100fffc00
0101fc01fffc060600
01f8fc050203000000
fefbfa01fbfcfcf800
01fefa02fcfcfe0300
ff01fdfff9fdfeff00
01fdfbf9fffb00fe00
fcfdf901ff01fdfe00
03fefefcfd02ff0000
fcfe00020301fc0a00
0301000002fd01fa00
01fdfdfffefd020000
fb05fdff0200fcfe00
01ff06fefd0003f900
000b05fef90000fc00
ff00fb00fcfe04f700
00fffe03f7020a0100
030000fd01ff010500
fe00fdfe04fdfd0200
feff000101fefffe00
00fc0302ff00000000
fcfcfaff03fa00fd00
fc0701fe06fbfcfd00
ffff04fcfd03feff00
fefdfcfffeff00fe00
fe090204fcfdfe0400
00fd010101fefdf900
fefe0502fafdf7ff00
020002f80102fdff00
252412291031150c00
1d141f1e2422242a00
fcfb05fdfb04fe0000
fe05010002fefe0200
00000102000305ff00
00ff0401060103ff00
0101010307fc020500
02fef9fe0002fafc00
04fdfd05fdfe02fd00
02fff8fe0202030000
ffff010400fffcff00
fb0001fcfdfd03fc00
0303fc0204fbfe0100
01f401f80203fcfc00
fe0007040204fcfd00
ffffff0201f9040100
fafdfffd02fc00fb00
fb020307fc09fc0000
fffbfefefd0500fe00
ffff0000f901f80300
fd0603fe04fb040200
00fcfffeff0101fe00
02f5fefd00fb020200
fbfcfffffd01fffd00
fdfe04fbfbfffe0000
fffafdfcfffd02ff00
0100fe020003fd0000
fbfb0401ff06000100
0509fe000003040c00
0101fe0301fc010000
020100fc00ff010200
03030201fdfd030600
fefeffff0404fe0600
fa05fbfe020402fb00
01fb07ff0206fe0000
fe00fd0001fffefe00
fdfffffc0402020100
fbfb00fcfafe03fe00
00fc08fffbfe04ff00
000300030000feff00
0301fcff02fb050000
fffbfefa05fcfc0000
fe0100fefbfd000100
fb01030200fbff0000
0300040306fb040200
00fb00fcfe00fc0300
fbfe0202fcff05fe00
04fb010301f5fd0900
fdfffcfdfdfcfd0000
fcff01fe0305fbfd00
ff000603ff05fe0200
fef70300fb00feff00
01ff0305fc00010000
01fb02ff0002fc0300
00fff9fa0000050300
040003fe0100fffe00
01030201fcfc000100
fc02fefe01f7fbff00
ff00040600fefdff00
fbfffb00ff04ffff00
fffd0103fef9040200
fc01fef9fbf9fe0500
03fe03f8000502fb00
fc020001fffd01ff00
03fe01ff0003fefe00
01fe03fc06feff0200
ff030602fe05ffff00
fdfe00fc0103feff00
fbfffffefdfe01fe00
fefffafe0401ffff00
fffc0501fffdfdfc00
0303fe01fa020dff00
05f606010004fcfc00
0101fdff0103030000
06fbfffe03fb02fe00
0101fc01fffd000200
fdfc05fefc0101fe00
fe020402f903fa0000
fbfdfe01fd0102ff00
00fc01fe02fe000100
fcfc00000103000100
010b05fd0303ff0300
02fefe010104fb0100
01fffffb01fcfdfc00
02faf90300fdfc0000
00010005fc0202ff00
020001ff0304ffff00
03f8fcfb0002000300
f9fe03fefffcfcff00
fc0f00000001fcff00
01fffdff0201ff0000
fafdf800fefe040200
06fffa050001050100
02ffffff010204fd00
fdfc05010004fc0000
0000fd04fffffd0100
0300fbfcfffcfcfe00
fdfffdfd04fc020100
fb00fefcfffdfd0300
fc0003010500ff0000
fefffffd0301000100
fffefcfb03fe01ff00
ff03fdff0200010000
01fb0401000408fe00
fc00fdf901fbfdff00
ff01fffefe01000400
020000fe0201000200
fc010500fdfb01fe00
fe02ffff00fdfeff00
fd00fefd05fcfefd00
05040002fefd00fe00
0401fdfb07f9030200
00fcfdfcfefffefe00
03fe02fc02f9fb0500
fff9fffefdf9000300
fafe05fd0001fcff00
fff90501fd02ff0200
01fd0600fe00fdfc00
0104fd02fbfdfc0000
ff01fe06fc00010500
000203fd00fffffe00
ff02fc000403fb0000
02fe00fffdfbff0200
00feffff04fdfafd00
fffc01fd01fafeff00
fefcfefcf90afffd00
fe0301060200fffb00
050602fdfffb040100
fbfbfdfffdfd010100
fd0400ff01fb02fe00
0e251a0c172b1a0300
28182b2f2b1d1d3100
0100040200fff70700
fe0205fdfd03030300
0203fd07ff00020300
05fffc01f901fe0000
07fdfe0107fcff0200
ffff00fefd00020300
0301fcfcfdfefe0700
07000002fa02020000
00fffeff01fd04ff00
0004010101fdfc0000
fefefdfefdfdfffc00
ff06fcfdfe02000200
01fd0003fc03feff00
fbfcfefdfdfd05fd00
0100fe00fffd010200
080301020100000000
02fc0003ff07fe0100
02ff040200fafffd00
ff01fc0200fafd0000
00fc0205fe0204ff00
00f8fefd02fd06fd00
fd0102fe00fefdfe00
fd0102fefd03000000
0104fe0001fefd0100
03fd02fe00ff00fe00
02fd0500ff07020000
0204030302fc01fd00
fffffdfe05fc01fe00
02f805ff0307fe0000
010104010004060000
03ff00fd0200010200
fe01fbfffe06f7fc00
ff02fc0200fd030400
fdfbffff00ff00ff00
0006010205fc060000
fbfe0300fdffffff00
fffcfe03fefffd0100
feff03fdfc0003fb00
fefcfdfd000400ff00
fe02ff03fefc00fd00
0103fffdfefffc0000
fd0602fffbf900ff00
ff02070204fffd0300
0201fb03fffb050300
000200fd00fffb0300
fbfc07fc05f8050000
fe00fc00000101ff00
fe03fe0002ff010300
0304fdfffffefd0100
fbffff03fe0b020100
00ff010200fd02fe00
04fd010c02fdfbf800
f9fcfefeff02ff0600
fcfbfd01fffa00ff00
ff0300fd00fd000000
faf9ffff00fefafb00
f9fdfc080afcfffd00
060a0002f9fffd0200
02fefcfffcfefdff00
03fc0000fbf8ffff00
fc0403fafafffd0400
fefffb01fe0203ff00
fc04fcfe0105f9fe00
fdfcfe0500fc00ff00
fdfa05ff0500000400
fefb020004faff0200
00000002020003fe00
04fefbfefffffc0000
ff0001fbfff6ff0500
07fafefb000106fc00
fc01fcfe05fcfefb00
00fe03fd0004010200
03fffbfe00fdff0000
02fafd0100fe03fd00
0504fd01fdfffc0500
ff05fefefa02030100
fafd00fe0307ff0300
fb00ff00fdfa01fe00
07fbfbfe00fdfb0200
fefcf901fc05fffe00
01f8fc05fe0205fd00
00fffc01fefeff0100
030202fd0001ffff00
01faff0701ff020100
fbfe0000ff07fa0100
03fffffffd04f80300
fdfc050000fdfd0500
02fe000300fc010300
fdfe05ff0100000200
fefc01ff0306010300
ffff03fd02fb060000
08fdfd010503fe0100
02fb01ff0304060100
feff010501fdfffe00
fffa08fefffe00fd00
00fc00fdfbfc00fe00
0002ff02faf3fc0500
fc0100fe06fc020100
000201fdfeff02ff00
02fd0208fd00030600
00fbfd01fd06f80400
ff020100fffe04fe00
fc0300fc0002f8fd00
fefe02fffffd00fb00
fe00ff00fffffd0100
ff050202fdfc06fe00
fd050502040101fe00
fc04ff01fffffffd00
000303010400020100
06fefe01040bff0000
02fcfc020202fd0000
05fc02fefafcfd0100
fffa010501fcfdff00
030000fbff01f90200
ff03fffc00fbfd0000
fd01020106f7fefe00
fffafdfffc0601ff00
00fdfdfdfb01020100
000401fffffeff0000
fdfd0000fefdfdff00
00fcfbfd04fafb0300
faf9fdfafefb03ff00
00fc0000010503fe00
0100000000feffff00
03fafefcfc00fdfd00
00fffdfffc03fd0000
fc0201020004fdff00
00fffffefffcfcfe00
04f80e180f160b2e00
2729242b2426271200
f9ffff01fcfdfaef00
020804ff0301fbfe00
0102fffdfe0004ff00
01fdffff01fffa0100
020204030302fe0100
02feff04fd07020100
fe0300fffc02f8ff00
fc0104fa0104fd0000
010007ff03fffffc00
0501fb02fd08fcfe00
0004ff0404fefefb00
feff02fcfffc00fc00
ff0202fb0100000100
07fefffb00ff02ff00
fefd01fdfd03fb0000
0901ff00fffc010700
fdfe0004000205ff00
fa00fbf8fdfe040400
fd010202020100f800
fe01ff01fffa00f600
fefef902f9fbfefa00
ff000003fdfd01fd00
fe01fc0203000a0300
02fdfbfe03fd060100
fffffdfef7fefffe00
0002fe01fd05fefd00
fd02fa02ff01020400
01feff02fe0102ff00
010300fefffefffd00
f7fdfbff07fb00fd00
ff00fdff000002fc00
fa0102020204fff400
feffff00fc0700f600
fffb05fe0602fe0100
0101ff00fe0303fe00
fe0100fefe00faff00
fffcfc03000affff00
00fff9fc04fdfdfc00
020404000303fbfc00
ff0304fe0202ff0700
fdfe0301010100f800
fdfcff0101fe02fd00
0101000202ff040300
03010002fffc060800
fffe05fe0200fffb00
04000104fbf9060300
feffff0200fc08fb00
07fefe010003fc0100
0101fffe0202010500
fa010202020202fb00
03fefffefdfb030200
04fd000102fd05fd00
fffeff05ff0100f900
fd04090304fcfe0100
03fe02fd02fcfe0100
fb0305f904fd050100
030101ff0404040300
ff0002fdfcf6010200
04ff05fd03fb00f800
fe02fcfd02f702f400
fc0800010802fcf800
0000fcff01ff030000
0204fefe0102fbff00
040102fe040004fa00
fc05f604fdfe030000
02feff000105060100
03fe0300fffe040300
fffefcfe05fb010300
fafd0bfbfefc08fd00
0602ff03fdfb010100
f903fafd0204ff0000
06020202fd03fdff00
01fffc00000003fa00
0401fefcff03000900
ff04fdfcfffffdfd00
fefefdffff02fe0000
fe03ff02f901020200
04ff00fefcfd04ff00
fc03020200fff9fd00
0005ffff0100fe0200
01020200030005f700
feff04fbfcfc06f500
010400fc0201fdf900
fe00fffffefdfa0100
0003ff0d0302fafd00
0301fd00020302fe00
ff000302fdff000700
0101ff020000fffd00
03fdf403ff0602fb00
00fdfefefd0600fc00
0202fb0001fefb0100
fffefe020100fefb00
01fdfd01ff0100fb00
fffc01ff00fe010600
01020304010104fa00
00fb01fcfe02fdff00
000201fefd04faff00
ff01000301ff03ff00
fe0001010003020700
fffffa0201fffcf800
01fffffe0100000500
07fd02fb03f9fcfe00
02ff040001fdfcf600
04fe0301fdfdfd0500
ff0102ff010301f900
03fc02fe00fd00fd00
00fefa0003fcff0400
01fefffffe0701fe00
fdfffffffe03fbfe00
030307050402fafe00
fe0202fffe03fdf700
040000fb0700fffd00
fd05feff0203020200
04fdff05fcfd020400
fefe0600fe00ff0200
04fb00060004fcf800
00feff080004fbfa00
020501fd0303ff0300
020204ff00fffefe00
03020100fbfc03fe00
ff0202010000fff700
040101fdf9ff040100
fe0202fdfcfd030000
ff00fd0409fcfffe00
fe00fcfe0504fffd00
00ff04faff0200fc00
f70200fbfcfcfbfc00
00fefcfefcfdfbfb00
f439231a17220f1f00
2022201820251f2500
05f5fcfe00fdfafe00
ff0201fd00fe060000
03fe0000fffefa0400
0601fcf4fc0002fb00
fd0001fffefd010500
0104fe0405ff03fe00
fbfd04fd00fd010000
02fa03fd0a05060200
01fffffd010005fe00
02fdfe09fefbf9ff00
02fffefefffe02ff00
01f8fbff05fefffa00
00fe04fe05ffff0200
02fcffff0000000100
f6fdff00fbfd020100
000107fc0201060700
01fdfefafdfefe0600
0000fefafd06fe0600
0602fd02fafffcfa00
0100fffc00ff00ff00
fdfefcf802fdfdf900
fdfd00000004fe0000
02fe0204000208fc00
fe00fcfffdfe01fd00
0300fe0000fffafe00
fdfdfcfe0504fd0300
fa0101fe04ff04ff00
03fe01fdff03020000
fb01fcfbfdfffd0600
fb0200fe020601fc00
00fcfdfafc01fb0100
01fbff000701fa0500
fc0003f701fa02fb00
ff00fc05fcfefeff00
fefd03fd0101030000
fcff01ff0101fdfe00
01fffc04fdfff9fb00
fffbfe030102ff0000
0002f9fd04fdfcfc00
020201080401000600
fefefe02fcff000100
04fc01fafdfc010000
0401fffaf802030100
01fbfafffdfffaff00
fffdfeff04fff80000
fefd02f9f507010300
03ff0109ff0003fe00
fffefc02fe03fbfc00
04fffe0203fa00ff00
ff02020102fc02fd00
00ff01fefdfe020500
00fcfffcfe02fffe00
050004fffe01fefe00
0205fdfefffefdfd00
fd000403fb00020100
ffffff00fbfa010300
fefc00090302f70700
00fef8fa04fffefc00
01ff0002fbfe00fc00
fefffaf0fcfbfff900
030103ff0501030300
fe0200fe000005ff00
0803fafa00ff05f700
04fcfb02fd02fd0200
05fe0102020204ff00
ff030700fcfefffc00
f8fbfd05fefeff0000
03fffefbff02fffb00
06fffffdfcfc02fb00
fe07020201f90d0000
06fbfe080105faff00
020502fe050302fe00
ff0301fefcfefeff00
fc03fd0102ff020000
04fafd0afbfd000300
03fe0204fe02ffff00
fd0104fe01ff04fa00
01010102fefffdfe00
fd01fd02ff04000300
00010203ff06050100
0bfe00fffd01fdf900
01fc0504fc02010800
ff0202fd04fffe0700
fc0200ff00f903ff00
fd02ff040002fdff00
00fa000000fdfcfd00
08fb0107060004f800
fdfdff000203ffff00
fdfff80102fe050000
fdffff000800fafe00
03fd04fe0706010400
000305000103ff0400
fb0001fcff01030000
03ff010201fcfffe00
fdfd01f6ffff020300
fcfeff03ff02030100
