02
02
00
00
ff
01
02
ff
fd
00
00
02
ff
fe
ff
fe
fe
ff
01
ff
01
01
00
00
00
ff
01
ff
01
fe
03
fd
02
fd
fe
01
01
0a
23
00
fe
03
fe
ff
01
ff
04
02
ff
00
00
00
03
00
ff
00
fe
fe
01
ff
fe
02
00
00
ff
00
00
00
ff
ff
00
ff
ff
ff
ff
00
ff
ff
01
03
ff
00
01
fe
ff
ff
fe
00
fe
03
00
fe
01
ff
01
ff
01
fe
02
01
01
00
00
fd
00
ff
01
00
fe
01
00
00
fe
ff
ff
01
00
02
ff
ff
ff
ff
ff
00
ff
ff
02
ff
02
01
ff
00
fe
01
ff
00
01
ff
ff
02
ff
fe
ff
ff
01
02
03
01
01
01
ff
02
01
01
00
01
ff
02
ff
ff
01
03
ff
ff
ff
02
fe
00
fc
00
02
00
ff
00
00
fe
01
fe
03
ff
03
ff
fd
02
02
01
00
ff
ff
00
ff
02
02
fe
00
00
fe
02
04
02
01
00
01
02
00
02
01
00
fe
fe
00
01
fe
fd
02
ff
02
ff
00
fe
02
fe
ff
03
00
fe
ff
00
01
02
fe
ff
ff
ff
ff
02
fd
fd
fd
fd
fe
01
00
ff
00
00
ff
01
fe
fe
00
00
00
01
00
ff
00
01
02
fe
ff
ff
03
00
01
fe
02
fd
ff
01
01
00
01
01
ff
00
ff
02
01
ff
00
01
00
ff
ff
ff
01
01
ff
01
00
fe
ff
00
ff
01
01
fe
00
00
02
fe
02
00
01
00
ff
00
00
00
fe
01
ff
00
00
ff
05
00
ff
ff
fe
02
00
ff
00
ff
ff
ff
01
ff
00
00
03
00
ff
fe
fd
00
02
fd
ff
00
ff
fd
04
00
ff
03
00
00
fe
ff
00
ff
03
00
01
00
00
fd
ff
fd
00
03
02
00
01
03
00
02
00
fe
02
ff
01
ff
04
01
00
02
01
fe
00
02
ff
00
fe
00
fe
fe
fd
01
ff
03
fe
fe
02
01
ff
00
01
fe
ff
03
01
01
01
02
00
00
02
03
00
ff
02
00
02
02
00
ff
ff
fe
00
00
00
00
fd
00
ff
ff
ff
fc
00
01
ff
ff
fd
01
01
01
01
fe
fe
03
ff
fe
00
03
02
00
01
02
ff
00
00
fe
01
03
ff
ff
01
02
02
fe
01
01
01
00
01
00
ff
00
01
ff
ff
fe
00
00
00
03
02
fe
02
fe
fc
fe
ff
00
ff
ff
02
00
00
fd
fc
04
00
00
01
04
00
01
ff
01
fe
01
00
00
fe
01
ff
00
00
02
01
fd
fe
fe
00
00
00
01
ff
02
fe
02
fe
01
00
01
02
01
02
01
ff
00
00
ff
ff
03
fe
ff
00
ff
01
ff
01
ff
01
ff
03
01
05
18
01
01
00
00
02
ff
fe
fe
00
ff
00
00
ff
00
ff
02
01
ff
02
ff
fd
02
ff
fd
05
00
00
00
ff
00
fe
fe
ff
01
00
01
00
03
fd
01
ff
01
00
ff
00
03
00
01
00
02
00
02
01
00
fe
02
02
fa
ff
02
00
ff
fe
00
fe
00
fd
01
02
00
fe
01
01
00
00
00
00
02
00
02
01
00
02
fe
01
00
00
fd
01
ff
00
03
fe
00
02
00
ff
02
ff
fd
fe
ff
fd
04
ff
fe
00
02
ff
01
01
01
00
fe
fe
01
ff
00
00
fe
fe
00
ff
ff
fe
fd
fe
ff
fd
01
00
00
04
ff
ff
02
fe
ff
02
01
fc
00
01
00
00
01
02
00
01
04
01
fe
00
ff
00
00
ff
00
00
fe
fe
02
01
00
01
fd
ff
fd
00
ff
ff
07
ff
00
01
00
00
00
00
01
02
ff
02
00
ff
00
00
00
03
01
01
ff
fc
03
01
ff
ff
01
fe
02
02
01
fe
03
02
fe
00
00
00
ff
01
01
00
03
ff
ff
01
fe
fe
fd
00
ff
ff
fd
fe
01
fe
01
03
ff
fe
00
fe
ff
02
01
01
03
01
02
00
ff
fd
fd
01
00
00
02
02
ff
02
ff
01
03
01
fe
01
02
00
00
00
fe
02
01
fd
fe
01
02
fd
01
00
00
00
01
02
01
00
ff
00
01
00
02
fd
00
ff
01
00
01
00
02
01
fc
ff
fc
05
fe
fc
02
ff
01
00
04
00
00
fe
00
fe
03
01
fd
fe
fe
ff
00
ff
02
ff
ff
00
00
00
02
fe
00
03
02
01
02
01
00
00
ff
00
00
01
00
fe
03
02
00
00
00
ff
ff
ff
00
01
01
ff
ff
04
fe
02
ff
00
03
ff
02
01
02
00
01
fe
00
fe
fe
00
01
01
00
00
00
fe
ff
00
01
00
ff
04
fe
fd
03
fd
01
00
ff
00
00
01
fe
01
fe
fe
fe
fe
00
fe
ff
fd
02
fe
00
ff
01
00
ff
fd
fd
fd
fb
00
03
ff
03
01
ff
01
ff
00
ff
ff
01
fe
fe
01
01
00
07
00
00
00
fd
fe
00
01
00
00
ff
00
ff
00
00
fd
ff
ff
00
00
01
ff
02
00
04
fe
01
01
02
01
02
05
00
01
fe
fd
00
02
01
00
01
fe
00
ff
02
00
ff
03
01
fe
00
01
ff
00
00
fe
00
fe
ff
02
00
01
01
ff
06
ff
02
05
02
fc
01
ff
04
01
ff
00
00
ff
ff
fd
ff
ff
02
ff
ff
00
e2
26
ff
ff
fb
fe
ff
ff
01
01
ff
ff
00
01
01
00
01
ff
00
00
ff
00
ff
01
01
ff
ff
01
fe
01
00
01
ff
02
03
fe
ff
00
00
03
01
02
01
00
00
fe
01
fe
ff
00
00
ff
01
fd
03
ff
ff
01
00
ff
02
00
ff
03
01
00
ff
01
01
ff
ff
fd
01
00
00
02
00
00
02
00
01
01
00
00
01
00
ff
ff
01
fc
ff
fe
01
00
02
00
fe
00
fe
fe
00
03
ff
01
00
01
01
00
ff
02
01
fe
fe
01
01
ff
00
00
01
ff
ff
01
ff
02
01
02
01
ff
01
00
01
01
01
01
02
01
02
01
fd
00
ff
01
01
00
ff
00
02
01
00
ff
02
fe
ff
00
ff
00
03
00
ff
00
00
01
02
02
00
fe
ff
01
ff
00
02
01
05
ff
fe
00
fe
00
00
02
01
03
fe
01
01
ff
02
00
00
00
02
01
01
01
02
01
fe
00
00
00
02
00
02
00
02
ff
fd
fe
01
01
ff
fe
ff
01
00
fe
ff
ff
01
fe
02
01
00
01
00
fe
00
00
ff
01
00
ff
00
01
01
fe
02
00
ff
01
00
02
00
01
ff
ff
00
fe
ff
01
00
ff
fe
02
ff
01
00
ff
01
02
02
fe
02
ff
01
ff
ff
02
01
01
02
02
00
ff
00
03
fe
ff
03
00
02
00
00
ff
03
00
ff
01
ff
01
00
01
02
00
03
fe
04
ff
00
ff
00
02
01
ff
00
ff
00
ff
fd
00
02
ff
02
ff
00
00
ff
fe
02
00
02
00
fe
ff
00
01
00
fd
05
01
ff
00
ff
fe
01
02
ff
00
00
ff
01
00
fd
01
ff
fd
00
01
00
01
ff
ff
02
ff
00
fd
01
03
02
ff
01
fe
00
fe
ff
ff
ff
00
ff
02
01
00
00
00
01
01
ff
00
ff
ff
fe
03
ff
00
fe
00
03
00
00
01
00
00
00
fd
ff
02
01
00
00
ff
01
01
fd
ff
ff
01
ff
ff
00
fe
00
00
02
00
00
00
ff
00
01
03
02
00
01
ff
00
fe
00
00
ff
fe
00
01
02
01
fe
00
02
00
01
00
ff
00
01
01
ff
03
01
00
00
00
02
ff
ff
00
ff
01
00
03
fe
01
ff
ff
ff
01
02
02
00
00
ff
03
02
ff
01
fe
01
01
01
01
fe
ff
00
01
01
ff
00
ff
00
ff
02
01
01
fe
fe
01
01
01
02
01
ff
02
ff
03
00
03
02
00
02
00
01
fe
ff
ff
01
ff
03
f6
18
ff
06
00
00
03
03
fd
00
ff
02
ff
fe
ff
fd
fe
02
01
01
00
fb
03
05
ff
02
fd
fe
03
01
fe
00
03
00
ff
05
fe
00
ff
00
01
01
00
ff
00
05
ff
02
fe
ff
01
01
fd
02
fd
04
02
ff
04
03
03
01
ff
fd
ff
00
04
01
02
03
fe
03
fe
01
fd
fd
02
01
fe
00
01
fd
02
03
01
04
05
ff
01
fc
02
fd
ff
02
00
fc
ff
00
03
03
fe
03
ff
ff
fd
02
00
03
00
00
02
fd
fd
02
03
fd
ff
ff
ff
01
00
03
00
ff
fd
01
fd
07
01
01
fd
02
01
00
02
02
02
02
04
ff
ff
01
02
02
ff
fe
02
01
02
00
02
05
05
03
01
00
00
01
03
01
03
fd
01
00
fd
01
02
03
01
ff
01
01
fd
01
fe
fe
03
00
04
fd
04
00
01
04
00
01
03
fe
04
02
00
fe
01
ff
ff
ff
03
02
00
01
02
fc
fe
01
02
00
01
ff
00
fe
01
ff
00
fe
fd
00
00
00
ff
ff
03
00
fc
00
fd
00
fe
02
fe
ff
f9
01
00
fe
00
fe
fd
fb
02
01
fe
ff
fe
01
00
ff
fe
ff
02
fc
ff
00
ff
02
01
fd
02
ff
ff
ff
02
ff
fe
ff
ff
00
fe
03
01
00
00
fd
fe
04
03
00
00
01
fd
fe
05
00
ff
fd
ff
00
04
fe
03
fb
fb
02
02
02
02
02
ff
00
01
00
03
01
01
01
00
02
00
03
ff
00
ff
02
01
03
00
03
ff
00
ff
fb
02
01
fe
00
01
ff
fd
02
ff
02
fe
01
00
04
02
02
fc
00
00
00
ff
ff
ff
00
03
01
03
06
ff
ff
02
00
ff
02
00
02
01
fe
04
fd
00
02
ff
03
ff
ff
ff
02
ff
01
00
ff
02
fd
00
ff
ff
ff
01
fe
fe
fd
00
fe
01
01
fe
00
00
ff
02
fe
01
00
01
ff
00
03
fd
01
01
fe
03
02
02
ff
ff
fa
fe
fe
01
fe
01
04
ff
fb
01
ff
00
fa
fe
00
ff
fe
01
00
01
ff
ff
00
00
01
00
fc
02
00
00
00
00
ff
fe
fe
01
fd
03
fe
00
05
01
ff
03
01
fd
00
fe
02
ff
fd
fc
ff
04
00
03
ff
ff
00
01
02
01
02
00
fd
00
05
00
01
02
00
05
01
00
ff
00
00
02
ff
00
02
ff
fd
ff
fe
01
00
fe
ff
fd
00
02
fd
01
02
ff
03
02
02
ff
02
fe
01
ff
02
fe
01
fb
f6
21
00
fd
00
01
00
01
01
01
00
01
ff
fe
01
00
01
00
ff
fe
02
03
00
02
00
fe
ff
01
00
00
00
ff
01
00
fd
01
01
02
01
01
ff
00
00
02
00
ff
01
00
ff
ff
00
02
02
01
03
01
02
00
fe
fd
00
ff
ff
fe
01
02
04
00
00
ff
01
ff
ff
01
fe
01
fe
03
01
ff
00
01
01
00
00
ff
02
01
ff
02
01
02
02
01
01
00
fe
02
fe
fd
ff
02
01
ff
ff
ff
ff
01
03
00
00
00
01
fe
00
00
01
00
00
01
01
ff
01
ff
00
01
01
fe
00
ff
00
fe
01
ff
02
00
ff
02
00
00
02
00
ff
00
fe
01
01
ff
00
01
ff
00
ff
ff
00
fd
ff
ff
ff
00
02
ff
ff
00
ff
01
01
00
fe
00
ff
01
01
01
fe
01
02
ff
00
02
01
fe
ff
01
01
01
00
ff
00
ff
01
ff
ff
ff
ff
01
00
01
02
ff
00
05
01
01
01
02
00
01
02
ff
00
01
ff
00
fe
01
01
ff
fe
02
01
fe
fe
00
ff
fe
00
00
01
02
00
01
ff
01
fe
02
01
01
01
01
fe
00
02
fe
02
00
02
fe
00
00
01
00
00
ff
ff
02
fd
00
01
00
00
03
00
ff
01
03
fe
ff
01
01
01
fe
00
ff
fe
01
02
01
ff
00
03
01
01
fe
02
01
fe
01
01
ff
01
00
02
00
ff
fe
01
00
00
fe
00
00
ff
fe
01
00
fe
03
01
02
00
01
ff
01
ff
00
01
02
00
ff
ff
00
00
ff
ff
01
00
fe
00
01
fe
fe
ff
00
00
00
ff
00
02
00
ff
00
03
ff
ff
03
00
fe
ff
00
ff
02
01
ff
ff
fd
02
06
01
ff
00
ff
00
fe
fe
ff
01
01
01
fe
00
00
01
00
fe
00
ff
00
01
01
02
00
ff
ff
03
fe
02
fe
ff
ff
00
03
00
00
ff
fe
ff
00
fd
00
02
ff
00
ff
02
ff
fe
00
00
02
03
ff
00
01
fe
00
01
02
00
00
fe
ff
ff
01
01
01
02
01
01
03
ff
ff
fe
ff
02
ff
00
ff
00
ff
01
00
00
ff
00
fe
ff
01
04
02
00
ff
00
00
03
ff
00
01
01
02
03
03
01
ff
00
00
ff
ff
02
01
ff
fe
01
01
01
01
02
ff
fe
00
02
ff
01
ff
00
00
00
00
01
01
00
00
ff
00
01
01
ff
01
02
00
01
ff
01
ff
01
fe
00
ff
ff
02
02
00
02
fe
02
28
18
ff
fd
04
ff
03
00
fd
01
fb
fe
fc
04
ff
fd
01
fe
fe
01
01
02
01
04
01
04
00
fd
01
ff
fe
00
01
01
fb
00
ff
01
ff
00
03
ff
ff
ff
00
ff
fe
ff
ff
00
ff
fd
fd
01
fc
01
01
00
00
ff
fa
00
ff
ff
02
fe
ff
00
03
01
fe
fe
ff
fe
00
02
fe
02
00
01
00
ff
02
01
00
01
00
01
01
fd
fe
fe
ff
ff
02
ff
fe
fd
00
fe
fd
fc
00
ff
02
01
00
03
01
ff
03
01
00
00
ff
01
01
fe
01
00
ff
01
fe
02
01
fe
01
00
01
fd
01
02
00
01
fd
fe
ff
02
03
00
00
01
03
03
fe
02
fe
00
02
02
01
02
00
fd
fd
05
ff
00
ff
00
02
fe
01
01
fc
fd
00
ff
01
02
01
05
00
fe
02
00
f9
02
02
02
02
fe
00
fe
00
fe
00
01
fe
fe
04
01
02
02
01
ff
ff
03
01
02
00
fe
04
01
ff
00
ff
00
fd
02
00
00
fd
ff
fe
02
fe
00
fd
01
01
fa
fe
ff
fd
fe
fc
00
fe
fd
02
00
00
ff
02
01
03
00
00
00
ff
ff
fe
02
01
04
02
fd
ff
02
00
01
ff
00
00
03
ff
02
01
ff
00
00
02
01
fb
01
00
fe
fd
fd
ff
ff
ff
01
01
01
ff
00
ff
03
ff
fc
00
fd
fc
fa
ff
ff
ff
fe
ff
00
01
ff
ff
ff
fc
fd
04
00
00
f9
00
fe
fe
02
00
ff
01
00
fe
00
02
00
00
fd
02
00
ff
ff
fe
ff
00
fc
03
03
fe
ff
07
ff
01
ff
02
01
fd
01
02
00
00
fe
01
ff
01
02
00
01
00
ff
00
00
ff
ff
ff
03
00
fc
01
00
03
ff
fd
02
fe
fd
fe
fe
03
00
02
00
fc
fe
01
00
02
ff
fe
fe
ff
00
04
ff
02
00
fd
fe
02
fd
00
fe
01
05
ff
01
fd
fe
00
fc
01
01
fc
fd
fe
01
ff
fe
00
04
ff
03
ff
03
00
00
fd
ff
fa
03
fe
01
00
fe
00
01
fe
ff
00
ff
01
fb
01
fc
ff
ff
04
01
ff
01
02
fb
01
01
ff
02
fe
ff
fe
ff
ff
fc
01
00
fe
fc
02
00
fa
01
01
01
fd
fb
02
01
fe
fd
00
fb
fe
fd
02
02
01
00
01
ff
00
fc
03
02
01
fd
fe
fe
00
02
01
03
01
01
fd
ff
03
ff
fe
00
08
fb
00
ff
00
ff
00
02
00
00
ff
01
fd
ff
fe
ff
00
fe
01
eb
1d
00
fe
03
02
04
02
fe
03
fe
ff
01
00
ff
fe
00
02
00
00
ff
ff
05
00
00
fe
00
03
00
00
00
02
00
02
03
00
01
00
ff
ff
03
ff
01
fd
ff
00
01
ff
00
01
ff
ff
ff
03
02
01
01
03
01
03
00
ff
00
fe
01
fd
03
fe
00
01
00
ff
01
02
03
01
00
01
02
ff
fe
ff
ff
04
ff
00
ff
04
ff
fe
02
fe
ff
ff
02
00
fe
fe
01
01
00
fc
fd
ff
01
02
00
01
02
01
01
ff
fe
02
01
ff
ff
ff
00
02
02
02
fe
00
01
02
00
01
03
03
04
fd
01
ff
00
ff
02
02
03
02
fe
fe
ff
ff
00
ff
03
00
01
00
fc
02
ff
01
01
00
ff
00
00
02
00
01
00
ff
fe
fe
04
01
ff
ff
03
00
fe
01
02
fd
00
01
00
ff
01
fe
fe
01
00
fd
00
00
00
00
03
01
ff
02
05
00
ff
ff
02
01
06
ff
ff
04
fd
ff
fd
00
01
ff
fe
ff
01
ff
fd
00
ff
01
fd
00
01
00
01
01
fe
02
00
ff
ff
02
01
ff
01
00
01
00
01
ff
01
01
02
00
ff
00
03
fe
02
ff
00
01
fc
ff
04
01
ff
01
00
fe
fd
00
00
fe
01
ff
ff
00
01
01
00
ff
02
00
03
01
ff
04
01
00
01
02
ff
00
fe
00
fc
02
01
00
00
01
01
00
01
02
01
02
ff
ff
00
ff
01
00
00
ff
02
00
01
00
ff
01
01
01
00
02
ff
00
fb
02
03
ff
fd
02
fd
00
03
00
01
01
02
01
01
02
00
02
ff
00
00
02
01
00
fe
ff
01
02
fe
00
00
fe
01
02
ff
00
fa
03
00
ff
01
fc
01
02
03
fe
03
04
02
00
02
02
ff
01
00
ff
fd
ff
03
ff
fe
fe
01
01
00
fe
ff
ff
04
ff
01
fe
00
04
01
fe
00
01
ff
fe
03
01
fd
ff
01
02
01
00
03
00
ff
ff
02
ff
02
03
ff
01
04
fd
fe
01
fe
00
fd
ff
01
00
05
02
00
00
fe
00
02
00
00
02
00
00
ff
00
03
02
ff
00
01
02
03
fc
ff
ff
00
04
ff
ff
fe
02
01
00
ff
ff
00
fc
00
01
00
01
02
ff
ff
01
ff
01
00
00
ff
00
fd
00
04
fd
02
03
02
02
fe
01
01
00
01
03
01
01
fe
ff
fd
01
03
fe
00
00
fe
fb
fe
00
ff
00
ff
00
00
ff
04
fd
00
00
ff
03
01
2e
17
00
fe
00
ff
fd
ff
03
fd
02
fe
01
01
00
ff
02
00
00
fe
fe
fd
02
fe
03
01
00
00
fe
fe
00
00
fc
02
fe
01
ff
00
01
ff
03
01
01
02
ff
00
fe
fe
02
01
00
ff
ff
01
fc
fd
fe
ff
fc
02
03
ff
ff
fe
00
ff
fc
04
01
02
fe
00
00
ff
01
00
03
fd
ff
04
00
ff
01
fe
00
fc
fe
ff
03
ff
01
fe
01
fe
fe
00
fe
fd
fe
fc
00
01
02
01
fd
fe
03
00
01
fd
ff
ff
01
03
fe
01
01
ff
00
04
fd
fe
ff
01
02
fd
00
fd
03
ff
03
fb
fe
00
00
00
ff
00
01
ff
ff
fe
02
02
ff
00
01
02
03
00
00
01
fd
02
fc
03
fe
00
00
00
ff
05
02
02
04
00
ff
fe
00
02
fe
00
00
02
ff
01
fe
00
01
ff
00
fc
ff
ff
ff
01
fd
00
ff
ff
01
00
01
ff
00
02
ff
fe
fe
00
f8
01
03
00
01
03
fd
fd
00
ff
ff
02
f9
01
fc
01
02
ff
02
00
fe
00
fe
ff
02
01
fc
02
fd
fe
fc
00
02
01
fe
ff
fc
01
00
ff
ff
fc
01
03
03
fe
00
fc
00
03
fe
02
fd
01
01
fe
00
01
ff
01
fb
fd
fe
fe
00
fd
00
fe
00
ff
ff
fc
01
fb
02
00
02
00
00
fb
fc
01
01
01
fe
fe
ff
fc
01
fd
01
fe
02
00
fe
fe
01
ff
00
ff
ff
fb
fe
03
00
ff
ff
ff
02
01
fc
fd
01
01
ff
02
00
01
03
00
00
02
fe
03
00
ff
00
fd
ff
01
04
01
01
01
01
fd
01
02
ff
00
01
ff
fe
00
fc
ff
00
ff
fc
ff
fc
ff
fd
02
ff
fd
01
01
00
fd
fe
02
ff
01
00
02
02
00
02
fd
fe
04
02
ff
00
02
ff
02
fe
01
03
fd
fd
ff
fe
03
01
01
fe
ff
ff
02
03
ff
fd
00
00
02
f9
03
fc
05
00
01
fd
fe
fd
fe
02
01
01
01
ff
fd
00
00
ff
ff
ff
00
ff
fc
03
01
01
01
fd
00
02
02
00
01
00
01
01
04
00
00
01
ff
01
fc
ff
07
00
01
fe
00
ff
00
03
ff
ff
00
