0001000001020103
00fd0000ff00ff01
0002010000000002
fe030201fdfe00ff
00fc01010000fefe
00ff0100fe020000
feff010000000000
ff010101ff0000fe
fefcff02fc020101
ff01ff01000000ff
fffe0100000000fe
00ff0002ffff0000
0001010100000201
ff0101020a030001
0000fffe0102ff01
ff04fc0100ffff02
01ffff0200000001
0000ff000101ff02
01fffe0100020103
0103ff0103030200
00fb00fd01fc0000
00ff0100ffff00ff
00fefdff01ff0001
01fc00030200fffb
fffefe02040401fe
ffff00ff02fffffd
fe000101ffff0000
fffe0100fefeff05
0100fe01fe020003
0000fe00fc010100
0102ff01ff0001ff
01fffe0100ff0000
fc04fdfd04ff04ff
01fdfd02060001fe
fd01000000fc00ff
fd0002feff000100
0101fe000201ff00
00010201020000ff
010201fffd010102
fe03ff00fd02ffff
0001fe03fefffe02
0101020001ffff00
fefdff00ff010100
fd00000101ff01ff
01fd010202010102
ff0100fffe00fe00
000001fd010002ff
0100000100ff0100
01fdff010100ffff
020200fefbfdffff
fe01ff000100ff00
0003feff0104fe01
0001000000fdff02
00f9000103020200
01fefe00fe030001
00feff000002ff00
ff000100ff0200ff
0000fefefffe01ff
00ff000001010001
0001ff010001ff02
01ff00000300ff01
01010000040103ff
0100ff01000302ff
0001ff01ff010000
0102ff01ff010102
ff020000fcfe0203
fd01fffffdff00ff
01fc0000fefd01ff
01fb00ff0001ff00
ff00fb00fe030003
0000010003fefd00
fd02fcff060002fc
00ffff0103000000
00fefe0002fefeff
0003fd00fffb0202
0000fefe01fe00ff
00fe010000000001
ff01010200ff0002
fefe00010000fffd
01fe0000ffff01fb
000201ff0200ff02
ff010000ff0001fe
fefe010000ff0101
ff01ffff00040000
ffff010003fdfdfc
0001ff00ff000201
0001010202000000
00fe00feffff00fe
fffeffff0203ffff
0001feff00010001
ed35471c432e1e2b
242517102d172922
ffff0001000001ff
02fefdfffefefb01
ff0003050100fe03
fffffd03feff0101
ff01ff03fefdff00
ffff010100ff0001
fe0000fe010301fd
0100010000fdfffe
ff0000fffe02fefe
ffffff0100feffff
000100ff0001ff00
01000100000100ff
01ffff00ff00fefe
00fffefdffff01fc
01ffffff000200ff
ff01ff000300feff
00fefcfeff000201
fe0100fbfffe00fd
00fefe00fffe0100
03fffb0600fd0104
ff010004fe020003
fd00000001fe00fd
010001010103feff
00ff0105fe0102ff
ff00fefe0000ff00
00fe0101fe000000
01fe0203fefe0101
fdfefdfa00fefeff
fe03fd0200000100
0001feff0000ffff
0000fdfd01fc0001
0002fffe0202fffe
01fefcfcfffeffff
00ffff01ff01feff
fffffffcffffff01
fffeff010000fd00
01000103fe010003
0001fffefefffd01
fefffa04ff030002
ff01fffd00010100
01fe00fdff01fe01
ff000002000201ff
fffefffdfeff0201
0000ff0000000000
0102fe0000fe01ff
0000000001fe0102
ffff0101fe020001
000000fe02010003
00ff01fd0000fe00
0100000000ffffff
ff0100ff02ffff00
0001010200010002
fefe000301fcfffd
00fefe00fffd0100
01fe01ff01fe0001
0102010001fffffe
fe000001fefcfe00
0200fa01fe020000
0102fc00030300fd
0002000100ff01fd
01fffeffffff01ff
fe0101fd00fefd01
fffe02fdff0000fe
00fe000300ff00fe
00fffe0301fcff00
ffff00fe00040001
00fffd04ff0100ff
0100010001020001
fffffffffffeff00
ff0003000100fefe
00000301ff000100
0201fe0001ffff00
fd0003fdff010000
fffffe000100fdfd
01ff01010103ff00
ff02fcfd01fd01fa
01fdfc03ffff0002
ffff02ff000400ff
ff0101010000ff01
020103ffffff0201
ff020503fe010002
00fefd00fffe01fd
fffe02fc0000ff01
ff00000000fc00ff
fefefd03fffe00ff
01feff0200ff0201
0201feff01030100
0200030100ff0101
ff01ff02010100ff
01ff0201fffeff05
0001ff01fe010001
01fefe00fffeff00
00fe000100fe01ff
00fe00ffff000102
000001ff00fe0101
0200fef800fdff00
0101ff01fffefefd
00fd02fefffcfffe
ffffffff0100ff00
fffffeffff010103
000100fd00020200
0101fffcff01fe01
03feff06fffd0001
01ffffff01fe00ff
ff0001ff0103ffff
00feff01ff0002ff
fffe0103fe01ff02
02fefd02fffd0105
020000fdffff00fe
02fffe0101fffe00
ff00fe0201010202
ff00fefe0003ff00
0001fefd00feffff
ff0001fe01010001
000200fcfe0100fe
ff01ff0000ff01fe
ffff00fe000001ff
ff01ff0200040201
feff00fffffd0000
0100feff01fefe02
fe000201feffff03
02fffffe000100ff
000100fc01020100
01fffe00fffd0000
00020001ff00fe02
00fe00fffffd00fc
ff000100ff03ff00
fefe0304ffff00fd
00fffe020003ffff
00fe01fd01fb00ff
02fffefdfffe0000
00ff0000010002fe
fd0001fcff00fd02
0100ff0101000001
fdff00fefeff0200
00ffff000100ff02
ff010501010100ff
ffff00feffffff02
01000302feff0103
00ff010100feff00
00fefe0000020100
fe0000030002fe00
0001fc02feff0201
02fefffdfe0002ff
040202000101fffe
02ff000200020101
020000010003ff01
010102000100fe01
01000002020002ff
ff00fdfd01010103
0000fd0100fd00fc
02fdfcfeff02fefe
01fe0100fffc0100
0304010201030102
000000fe00fefffe
00fffe01ff00ffff
00000002ff0000ff
fffffe03010000fe
00000301feff0000
ff01fefe0005ff01
ff0101ff01020101
00000000ff020201
fffffe0400040000
ff00fdfd000000ff
03fff9fffeff0001
0001ff0201fe0400
00fefefd0000fdff
0201feff00020100
0000020000fe00fe
00fefffdff0004fb
01ffff00fe00fe03
01fefc010002ff03
fe00fdfefffffeff
00fffefffe0102fe
fefff8ff01fe0100
ffff02fe0000ffff
00ff00fe01010201
02fffefcffff0100
0300fe03010000fe
00fd0103fdfcff00
fffefefe00ff00ff
fe0001fe00ff0100
01fe0100ffff01fe
feff00fe0101ffff
0000fefcfffdff02
020100fbff00fe02
fe00000002ff0101
ff00feffffff0101
fffe01fffe010102
0100000201000001
0100fffd000101fe
fffffffdffff03fe
06fefe05ff000103
ffff0105fe020102
010100fffefffd00
fffefe0301fe0103
03fe020101fe00fe
ff01fe020100ff01
02fffe05fff80103
000103fffe010000
000001fd00030200
0002ff04ff00ff00
01fffffe0101ff01
000002fffe030002
fffdffff01fd0000
00ffff0300fd0000
00fffd00fe000001
00010000ffff02ff
ffff0200feffff00
02ff02ffff020100
fdff01fefef90101
01ff03ff01010200
02ffff0001fc02ff
0002fbff0101ff01
fe000300ff020102
ff01fd02fffffffe
02fffffeff020100
ff0000fe010000fe
020101fe00fe02ff
fe00fffb0000fefe
fffc03fd00feff01
00000100fdff0002
ff0000ffff020302
00fefcff0001fffe
02fffaff00fcfefd
fe00ff00fe0202ff
fc000102fffdfd01
feffff02fefefe01
0000020201fc00ff
fe000301ff000102
0001feff000202ff
010102fdff010100
040003fffffefffe
01fdfd0300fffeff
020300fcfefc04fe
000103fbfe01fffc
ff00fffefe000001
0002fe00fffffd06
000105fefffffe00
00000304fdfc0100
00fdfb040101ff00
ff00ff01ff0300fe
0201ff03ff030000
0100010102fe01fe
02ff0100ff000000
00feff0000fcfe01
01010001020000ff
02feffff0103fefd
fffffefd01fefeff
000001fd000201ff
ffffff01fffd02ff
ff00fefe000100ff
0100fe02010100ff
00ff01fdfefeff00
0000010001000000
ff01fefe00010100
010000ff01ffff01
010001fdfe010101
02fffefe00fbfe01
fd00fe00fefd00ff
0101050201fe0000
00ff010001fe0100
fe00fffd00000100
0101ffff00fd0002
02feff04020002fd
0100fffefffefe01
ff0000ffff00fcff
01feff04ffff00fd
ff02fe0101ff0102
0200010000fc00ff
01feff02ff0101ff
01fdfc0100fb0201
01fef804ff020100
feff0401010000ff
0200fc00ff020200
0000ff000200ffff
000203fc000000fd
0601fe0801fb01fc
01fffc02fefcfe02
01feff01ff01ff01
ff01fe03010102ff
ffffff020001ff02
fe0103fdfffeff00
02fffffffffeff00
ff00fa0301fffe00
00ff00fffefcfe02
ff02fbfe00010101
ff0303f900fdfefd
ff000100ff01feff
fffffffcfffefd00
feffffffff0201fd
00fe0002fe00ff00
00fefcfffffe0002
0202fd0001feffff
fffffd0401010200
01ff00ffffffff01
01fefe000000fe00
0000ff0203ff00fe
0100030000ffff00
ffff0500fefb01fe
000102fc01feffff
00000304fe03fe01
fe000003ff000202
01fffdfc01ff0101
0001010100ff0000
02fe01ff01fffffe
fffffd000102fffd
ff00ff030101ff00
00ffff00fefc00fe
ff00fffefffd0000
ff00fd000201ff01
fe000200ff0100ff
01ff01fd00ff00fe
0401000300020101
03fefffdfe0002fd
fdfeff01000102fd
ff01fc0200030001
010101020000fdff
01fe0000ff00fdff
00ff0002000200ff
ff01ffff01fe0100
02fefd01010300ff
00ff01030100fffe
02fefffeffff0000
fffffe02ff0001fe
01010200fffd0100
04fffc0101ff0003
ff01fdfffe010000
0101fefe020402fe
ff01ffff01010001
010001fe02010001
ff00fe040001fffe
00010100ff01fefd
01fffe02fffdfefe
00ff00fd010101ff
010001fdfe020003
fe02fe00feff0100
01000000ff00fffe
000003ff01010200
ff02fe0200ff0001
0501fc04fdfefe02
0202fffb01000001
0002ff02fffcfd00
0000000100ff00ff
fffe04ff01000002
01feff0101fffffd
03ffff0500fc0001
00fffd0300ffff00
02010000fffc0000
0101020400ffff03
000302fd00fd01ff
030101ff00020000
010100ffffff00ff
0001ff0302fdffff
01fefe00000100ff
00ff0001ff010100
0000fefd00000000
00ffff0200fdfe00
ffff04fefffe0102
fe0300fe0102fefe
02ff000300ff00ff
fe01fc03fe0100fe
020100ff000001ff
000102ff0002fd00
0100fdff010200fd
00fefbfeff0000ff
0002fc04000201fe
fe01fd0100fdff00
000000ff01feffff
fe02fffd00040101
0000fe0200020001
fe00ffff00ffff00
02fe0004ff00fe00
03fefb0301020001
ff0000fbffff00fe
ff0100fffe02fe02
02feff04fffe02ff
000101fe010101fe
0201fd01ff03ff02
ffffffff00fdff01
01fd0100fffdffff
0000fd0000ff01ff
ff00ff01fffeff01
00fefefd010301fc
fffeff000001fe02
030000fe00010002
fe0000fefffefefd
ff00ff01feff00fd
0000010001ff02fe
fffffc00010200ff
0000fe01ff03ff00
0200000002ffff01
0002fffbfffd01ff
feffff01ff00ffff
01ff03fe000000fd
01000102ff020000
0202030800f900fe
010100fefe03fefe
ff00fbfbfffc00fe
00fefc07ff05ff01
ff010100ff00fe00
000201fc0001fffe
0001fffdfffd00fd
000001fefffe0002
05ff000101fd01ff
00ff01fffefe01fe
010100010002ff03
000003fffe010000
0100ffff0001ff02
0101ff0402010100
000100ff01ffffff
ff0101fcfffd0000
00010302ff000100
ff0203fb00000000
01ff030000fffe01
00000005fffffffe
fe03ffffffffff02
ff0001fe00000000
0000000103fffefd
ff0102fd00fcfd01
fefefffb0003ff00
00ff00020101ffff
0100ff03ff01fdfe
ffff00fefe0100ff
01fffe0001fd0102
ffff00fe01000201
ff01fdfc01020200
02fcfb020102fefe
0000ff04020001ff
fe0005ff00010000
0000fd000100fefd
fffd02010101ff00
fefefdfeff010201
0000fe0100040001
fe01fe00ff00feff
ff02fffe00000100
0300ff080101fe00
02feffff00ff01fe
03ff0100fd01ffff
00fefdfe00fcff02
0100fefd00ffff01
01ff01fcfe07ff03
030100feff00ffff
01000000ff01ff01
fefe01fefefe0102
fe0000000000fe05
00fe0000feffffff
fffdf903fe00fe03
fe020302ff03fffe
020200fd01fffe00
ff01fffeffff02fe
010200ff0000fe02
fe01ffffff020003
00fffffefdffff01
fc0000fd01fefefd
02fefe02fb01fe05
01fffe0300fe0104
fd0100fbff04ff01
03fef702fffcff00
0001010000010200
0100ff04ff0301ff
ff0002fd01fdff00
02fe00fffe000000
fd01fcfc02fc01ff
ff0001fc00ffff01
ff0000ff01feff01
03fffe03fd010201
02fe02fdffffff00
0300ff0200fe00ff
fd02fc03010101ff
01fe000301000000
00ff0205ff01ff01
ff03fefc0002ff00
01fffe0000fe00fd
0201feffff010102
0003fefe01fefffd
00010002fefefdfd
0200fe000100ffff
03fefd06fe000000
02fffdfdff00fe01
fdfe04fe01ff01fe
ffff000300ff0001
06fefcfd00ff0002
fffffffe0100fffd
fffd0102ff01fefe
00fd010101ffff00
ff0100ff01ff0400
fe01ffff000101fd
000303fc00010202
00020003fe020002
ff02fefd00010201
fe00fefffe00ffff
0100020101fdffff
fffd02ff000001ff
0001fcfffeff0200
01000304fefbffff
ff0000ff01030201
01fefffe000002fe
fffe01fe0002feff
fe010100fe000000
ff0100ff0001feff
02fefd0400feff02
0300ffff01010002
ff00ff0000ff0001
01ff0100000200fd
00fefe0001ff00ff
00ff000201fc01fe
ffffff020001fffd
00fe0003fefe0101
02fefefdff0201fd
01fe00fcfffefffc
04fffa0100ff0102
00feff0102000102
44013e1a072d2be1
192124181c161b2f
ff0100ff01000101
fd01000305fd0102
fcfd00050203fc00
01fe01fffffe0200
00ff0000fe05ff00
0001ff0001faffff
000000fe0101fe01
fefdfe02ffff0102
ff0001fe00fefffe
ff00fffd02ffff00
fefefe0000fb0102
0100ffff00fefd00
fd0100000300feff
ff00010202fe0000
ffff010101000101
feffff02ff0003ff
000000ff04ffff00
010101fefffb03fe
01fe0001010001fe
0004fefd0103fffe
ff04fffe00fffdff
0102fdffffff0300
ff00fe0300fcfe00
ffff00ff00fcfe01
000203fdfefe03ff
fcfffd000002fd01
ff0100030300fd01
0001fdff01fc0100
00ff01ffff01feff
fefeffffff010002
fe0003fe00ff00fe
fffe0102fc03fd00
0003feff02fb01fe
fffe0101fffe0100
0100fefe030001ff
00fffffffd0102fe
ff00feffff000000
fd0101fefefffffd
fefe0102feff0101
ff0001fefeff0000
0000ff0101050100
feff01fc0200fe01
0000fe010100fffe
0100ffff00fd01ff
01ff02040101fdff
03ff010102fe0100
ffffffff00000001
0101feff0001fffe
fe0100ff01ffff00
fefffffefe0202ff
fffe00fe020000ff
ffff010000fdfe01
fffd0000fcff0100
01fe000000fe0100
00fffeff01fe0000
00ff0202fd01fd00
fefefffefffc0002
fe000101fbfdfc03
02fffe0000fffeff
ffff00020200ff00
01fe01fefefb00ff
fffe02000000ff01
010001fdfffd0200
feff0101fe0104ff
00ffff030200fe00
0200fffd030101ff
00000001fc0201ff
0001000100020001
01ff010001ff02ff
00fe02ff00feffff
000001feffff02fe
ff00ff01fefeff00
020301fefd01fe01
01ff02000201feff
0101fe0201fefc00
0000fffffffe02ff
fa01fcfe02000101
0200010100fe0003
000302020002fc00
fb010001fe0000fe
fe0001ff0001ff00
fe01010201ff00fc
fdfe0100fefe0000
00fd000201fe0001
00fe000003050003
01fffd030101ff01
000000fe02fffe00
ffff00fdfe01fc02
ff01fe04ff0100ff
fd010001ff000201
fe0001fe0000fe00
020001fe030201ff
ff03fe06fdfe01ff
ffffff0001000200
01fe01ff01fdff00
fdfffe0102fdfe00
0000000201fdff01
04fffdfe01010103
0301010000ff02ff
fffefe00feffff00
00ff01fefffeff00
ff0101ff0002fe00
000100fdfffcfe01
0001020000ffffff
00ff00fe0200fe00
0200ffff0100ff00
0000ff010201fe00
fffdfe01fd05ff04
feff0000fffc0100
fb00000101010102
fffdfefffe020100
ff0000ff01fc0000
0002feff00ff01ff
feffff010200fe00
00ffffffff0000fe
fe01ffff020200fe
03000000fe000100
0100fe0103040101
01010102010400fe
00fffe0202010002
feff01000501ff02
fd01ffff02fd0001
000400fe000100fd
00fe010002fe00ff
fcff01030101ffff
02fe000100ff01ff
00ff000200fffe01
fbfeff01fdfeff00
000001020302ff02
02ff000002ff0000
01000104fffffefe
0001fffefdff0100
ff00ff0302020100
000000ffff04ff01
fefe00fd0300fe00
fe00fe0101fffe02
fdfe03ffff030001
fe000101ff010101
000302feff00ffff
00ff010000fe00ff
fefd0002fbfbfd01
fe01fe01fffe0201
0003fffffe02ff00
000000fffcfb0100
0102fdff0303fc00
fe000301fefffe01
fefcfdff00fffe01
0001ff00ffffff01
fffe00fffd000100
01fe00fd00ff0602
01fffd0000ffff01
00fe01fe01fcfe01
00fb00010000ff02
ff00fffe04060100
ff01fdfe01fefefe
feff000202ff0000
0001ffff0301ff01
00000101010000ff
ff0100fe05ff0001
ff01feff040201fd
ff00000000010200
02fd0100fffdffff
fd00010004fe0104
ff0001fdfffc01ff
fffffefe00fefd00
fc01fe000001fe02
00000300fc0500fe
fe00fe0201020200
ff01000100ffff02
0000ff01fcff03ff
00ffff000103ff02
fdfefe01010100ff
fffffffe0100ffff
ffff02fc00000201
fe01ff0500fc0200
03000100fe0102ff
000001ff00fe00ff
0200ff00fd01ff01
00feff0102feff02
03020002000201ff
ff01000002fefffe
feff020200ff0001
fe01fe0203fc0000
ff00ff0001010200
000001ff0400ff00
00ff0000fefe01ff
ff00fdfd01feff01
02010101fe01ff01
fc01020001010001
0001ff03000201ff
fffe0001000200ff
0003fffd00ff0301
0300fd0100010102
02fefefefffd0000
01fcfe0002fd0101
fd0100ff000502ff
ff02fe06ff03fc02
0000fffefcff0202
01fffe00fefeff04
ff0401fcff0201ff
fe01fe00000302ff
000200fefd02fe02
fffd0002fb000001
01020201ffff00fe
03ff010103ff0101
01000100fe01ffff
fdff0001010200ff
feff00fffd0001ff
000100020001fdff
01ffff02fe050102
f9ff0201ffff0102
00000200fcfe0200
0100000000fb0201
0101fffdff00fdfe
0101feffffff0201
02000000ff0300fe
fd01fffe00fe0100
ff00ff0000000200
01fffe0303fefb02
0100000002fdff00
030000fc04fefe00
01030001000000ff
020200fffffe0202
0001fe000200fdff
ff01fb0101fc0000
00ff01ff0200feff
000101fffffefe01
0000020001000100
02000101fe02ff00
000001ff00fefdff
ffff00fffcfe0003
01fd020201ff0000
ff01fffcfffefd00
02fffffbfe02fefe
fc02fffdfdfe01fe
fc000300000202fe
0100ff000200feff
01010105010200ff
fe00000000fe0101
01fffefffffefe01
0002ff0102030000
fe0100fefcfe0100
0101fe0001ffff01
08fffc000203fe00
0103fefd00000101
00000100ff000100
fd02020100ff00ff
fd00fe0401fefe01
ff01fffffffe04fd
fd0000ffff020100
00000001fe010101
01feff0202000000
ffff010101fe0001
01020100000002fd
040101ff00fd00ff
01ffff0001ff0300
fffdfffe01010000
01ff0101fe0401ff
fe01fffffe000000
fc0100fffffd0000
fd020002fe010301
fe01fe010100fe00
fd010402fcfe00ff
fefffff90102fd01
01ffff0100fafc01
00fe0300fb01fe01
feffff0201fefdfe
0100fefd00fcfeff
fe030101ffffff01
fe03000000ffff00
0001fffe0103ff00
fffffe04fd0201fe
000100ff0201fe02
fefe02fc0000fe01
fefefffd000103ff
fc000001ff040000
fe0000fd00fd00ff
fd00fe00ff01fdff
00fe00060102ff00
ff0000ff0101fffe
ff00fffe01010000
ffff03ff00000001
ff0100010101ffff
0201ff02fe07fdfe
00fd01010101ff00
0101fefd01ff00ff
0300010100000002
02fcffff01fefcfe
fe01020103fd0003
fffefe0200feff01
00ff00fefefc00fe
00ffff0101020101
fffffdfd0003fdfd
fdfefe0001fe0001
040100fffe0201ff
ff0100ff030300fe
0001feff00fb0101
000101fdff0003fc
fdfefe01feff03ff
010100fffffcfd01
ff020302ff02ffff
ff0200010101fc00
0000fffefe00ffff
000002fe020101fe
ff010001ff00fe00
0000ff01ff020100
ffffffff020002ff
010101feff02fd02
0102010404000100
ff0000ff02fe00fd
010001fe02fdff01
fefdfffe0001ffff
0101fe01fffe01ff
0300ff01ff00ff02
fd0000fefffcff00
0100fefe03000301
0200fefe01020001
ff02fe000001fe00
fe0001fefefbff03
ffff01ffffff0001
ff010000020100fe
020001feff030300
fffffffeff00fe02
fdff00fdfe05ff01
fdfcff02fcfdff00
fefe00ff01ff0101
07fbfefe02ff02ff
fc0000000300fd01
ff00fe03ff020200
01000100fd010001
0301020201ff0000
02ffff00fefeff00
fd01fe0002fc0001
fd00ffff0001fe00
0202020300fd02fd
fe00fcfefd00ffff
000000ff00ff0200
feff00ff0201fefe
fefffeff00ff0001
ff00000200ff0000
020001fe00030000
fe0100ffffff0102
ff0101fdfd010300
fe0000ff0302fe00
fd00fffdfefc0001
fffe02fd03ffff00
010101fdfe02fe02
ff0101fbfeff0200
0100ff0101fdfe01
010302030102ff01
0400fffe0100ff00
fefffd0001fd0303
01ff00010202ffff
fd04ff0600fffe02
0000fffe00ff0000
0001000000030001
000000fdfe02ffff
fdfeff00ff010101
040102ff02fefeff
feff00ff01020400
fd02fffefffd0101
02010004fdff0201
ff02ff00ff020000
0200fe00020500ff
0000fffffefb0201
02ff010000ff00fd
fd00ffffff01fc00
fd02ff0101fcff01
00030000ff01fcfe
ff0001ff0101feff
01fdfe01fd00ff01
01010102ff00feff
fefffe030302ff02
0203fffd0003fe02
fd02feff0100ff01
02ff0000fcfffe00
fd02fe01fffeff02
ff01000101fefffe
0002fd010001fe00
fb00fffdfdff00fe
0003ff0200000002
0301ff02fe00ff01
010001fe00fffc02
fd02fcff00f80100
ff0000020203ff01
00ff010302fe01ff
00ffff020100ffff
fe010100ff01ff01
000100020100ff01
fffd010100000401
02ff010003010001
fe01ff00fdff02fe
fe0000fdfefefdfe
0202fffe01ff0301
ff00010101fe0101
ff00fefe0301fe01
fe00fffd00fffa03
000001fe00ff0202
fffe000100fe0302
00010002fd000202
fe00ff020201fe00
00020103ff0203ff
fbff02fd01fefc01
ff0100ff03fefd00
03fe0001fefa0000
ff02fd0200010003
0202fefdff03fdfe
fd02fefe02ff0001
fe00ff010304ffff
0001ff030301fe00
01010001000101ff
ff02ff010201fe01
0400ff00fefeff02
0000fffafd0100fe
fe00ffff0201fdfe
fefefd0102fefc04
fefffe0200fe00ff
