0000ff0201fefeff02fe050101010103
010100fe01fe01ff0000010102feff01
ff01ff020002ff00fdfe02ffff0001ff
0100ffffff0200ff00ffffff03010100
fdff00000200fefffe00ffff00010000
01fe01ffff0202fefeff00ff00fffe00
fe0002ff0100fd01ff01fcff030101fe
00ff0001000000ff01feff0000ff02ff
02ffff0203020002fe01fd010101fefc
03fffffe00fd02ff00000202ff01ff03
fbff01ffff0100fc01ff01ff0400fffe
01ff01fe04ffff00fe0001ff01ff0000
07f70e11ee3d0d311b052908e1200e1d
23301214211a27121a28291a2b111e17
ff0100ffff01ffffffff0000ff0000ff
ff01070006ff050100000300040301ff
07ff040003ff00010100fdfe04ff0202
00ff0000050101fdfe00000001020000
01ff0100000100fd030102fd01070300
ff00ff0100fd00010100fffe02fbffff
ff00fdfe01000100ff000200fffc01fe
010100fd010003fd00ff000002030300
0100fc0301ff01fefefffcfc00040103
020002fffffe01fc01ff01010001ff01
04ff01fffffe0101ff0102ff00ff0001
00ff0001ff0200fe01000002000203fb
fe00ff0001fd01fffd000101fefdfffd
01ff00ff01fffffe05000003fffd0202
ff00020000010005fe02fe01ffff0103
01feff02000101fefd01020000000001
ff0002000302feffff01fdfe0203ff04
00feff010200ff000001fe02fffd0100
ff01020202ffff0302ffff020002fefe
fd0001fe00ff01fdfd01fd00fe0102fe
000100ff01ff0203fcfefe0101010100
fefd01030200fffffe0101fefefd0001
010103000001000101ff01fd02020201
fe00fefc010100fe01fdfe0100000002
fffdfe0301fe00fd0300fffe00fd01fe
0001040003fe04ff02fdfffe020401ff
010103ff00ff000200ff01ff00ff01ff
fe0100ffff000000000000fd000001ff
fe03fe0002fffeff01feffff02fefffd
01fe02fffe0101ff010000010204ff02
02ff00fdfd00fe01fe01ffff00fefffd
00fe0403000200fffc04020301fffffe
0100010301ffff00fe02feff01fefefc
fe01030401fe010101feffff010301ff
00ff01000000ff020202ff0001fefe01
02fffdfefd01fffdff02fefe01fe0202
ffff030002010100ff00fe0102030002
01fe01fffefffefefc0201fe0000fa00
01ff040001fe0200000401000202fe01
00ff0000feff00fe00fffeff000100fe
0000ff0000fe010000ff02fe03020102
0100fefefefdfe01fd02000101fffe01
0201feff01010001ff00ffffff0001fe
00ff02fe00fd010000ff00fe00ff01ff
ff00020001fffefefdfdff0002fe01ff
00010300fe01fe040201010002ff03fd
02fffd000201fffeff00ff00000300fd
02ff00ff00fdffff0200ff0400ff02fe
020104fe02fffe0201fe03fcfefdfeff
fe01ff000100fefeffff02ff01fffffe
00ffff000201ffffff0101ff02fd0100
ff00fdff0100feff01010101fd010200
0101ff000005ff0000fe02ff01010200
0001ffff03ff01ffff02ff03020100ff
fe0200010100010602000101fefa0201
030001ff00fd010001fe0001fe000001
010000000002020302fe0000ff00fe00
ff01ff01000001020000ff01040100fe
0000ffff01ff03030002feff0100fd03
000003ff01010102ff02fefe02030003
ff000202000100030201ff0101fbfe00
ff0100fefffefffd010101030000fdfc
01feffff02010001ff02ff00fffbfdfd
fe010200feffff00ffffff0200fe00ff
0001010100fd0404fdfe00fd0103feff
fffeffff000001010001fffd01000204
00ff02ffffff01ff02fffeff01010000
010000fffe000001fe0000000100ff01
0000fefe02ff02fd02ffff00fffeffff
0000fffe020100ff00ffff00fcfffdff
000100fd01fdff0202ff02010200fffe
0200ffff00fd01feffff00fe00fe0100
0100fe050100fdfd0201000201fbfefd
00ff0102ff0102fe0001010001fb0200
fffffffffdff010201fe0001fffc0000
0004ff01feff010201fffe0001fe0402
fd00fefb010103ff0102fd000204fefe
01fffffdfcffff02ffff00fcffff0300
fbff03fe00ffff0000fffe04feff01ff
01fdfd00fefe02fb01fe0000fefefc02
0001fdfe01fd0103fffffffd00030401
fefe0302000000fe00000002ff0901ff
00fe000200ffffff000201fe02fd0000
ffff000101ff00fe0100010100fefffe
01020600030003fc0000fffdff0900fe
ff000100020001fdff01ff01010402fe
040001fb0300fe00fe00000000f80101
0204fbfc0002fdfffe01fd02fdfefe01
03ff030200010100fffffefe01fffdff
fffc02ff01fe01fdfe01fd0303feff00
01000100010100000200ffff01fdfe04
ff02030000fcff0200ffffff00ffffff
fe0100ff01fefffc04ffff01ff040000
fdfffc0201ff02020001ff01020001fe
01000101000102fefe0201000102ff01
0401feff01fffffeff0002fe0000fe01
01fefdfefffeffff0001fe0002fe0102
fe01fc0002fdfd0100fdfe0201ff00fd
fd02ff010402fe0002fffffffefefeff
fffe01fd00fc01fd01ffff00fefdfd00
00fd00fd00fd01fefc03ff00fe00ff03
ff01fe0000fffe000002010000fd0002
fffefa0003fe02fc01ffff04fffeffff
02ff020101fefd01fe02000100ff01ff
0000fe0101000300fe00010101fe01ff
fe01000000020100fe020300ffffff00
030204ff00fefffd01fefd02fe02fefd
02fffffd03ffff00fe0200ff030602fe
02fffffeff01fefeffff0000ff0101ff
0001ff010300010002fefe0000fefcfc
ff020305fc0201ff01fefffe02ff0200
00fe0002fdfd000002020002000103fe
00ff020002ff01ff0402ffff00ff01fe
00ff0200fe00fefeff00ff0000fe01ff
0100ff0302000103fc0000ff00ffff00
0301fdff02fe0001fe00fdff00fe0101
01ffff0003fe00feffff00000000fe00
0100ffffffffff01030200020101fe00
01fefe010002020000ff01ff000600fe
0000010200fe0103fefe00000103feff
0102fffd03010000fe000100ff000000
0200fe03fffefffe010300ff000400fe
00fffe020303fffe00fe020202fcfdfe
0101010101fd02010300fdff01ff02ff
0000fffe00ff01ffffff01030101fdfe
010200fd0100fe00ff00000002fe0305
0201fffe01fd00010000000001fe0000
00fe0301000001fc000301ff00000103
010001fd00fd00fffe00fe000103fe01
02fffe0302ffff040100fffffefd01ff
0102ff0000ff00ff00ff010001fdfd00
feff02fe00ffff0100ff0002ffff0001
04fd0001030003fcfeff0000050100fe
fdff00ffffffff01fe00ff01ff02ff00
0102ffff01fd01ff0001ff00ff02feff
fd010101ff03ff0501ff01fffffcfefe
01000002020100fd0203ff0001010002
01fffeff00ffffffff0100030101ffff
fe00ffff020200fb000100ff0001fcfd
0001fffe010001fd0202000201ff0000
fefefefdfffe000000000103fffd00fe
fe00ff000101000102ff01010202fffc
fe01ff00ff020001ff00fffffefe0203
ff01fd0100ff0201ff01fefefdff03fe
00ff010501fdfe00070003010002fd00
fffe0000000100000100fe0101000200
01ff020000ffff0002ff0102ff03fdfe
ff01ff0200000202010001000100ff02
01fffe00ffff02feff02010000ff0000
01fd040202ff00ff0200ff01000200fc
ff000604000001030203fefefe01ff01
ff00fcfe01feff00fdfffe00ff03fffe
00fefb0001ff0100030100fdfe00ff01
fc0103010300fefe02fefe000306fc02
010100fd01ff00fa04fefd0100fd02fd
01ff02fffdfefffd0300020001fefefe
0101ff02fffdfe00ff01010200020100
ff02fefefe01010101fffe01ff000001
00ff02fffe020103feffffff000200fd
00ff010202fd02fefdfe010300fb00fe
010000010001ffffff010002ff01fc02
010101fffdff0100fe00fe020100feff
fe0001ff010102fdfc02ff01fefefcfe
010202fd00010100fdfefdfc01fe0201
ff010200fdfc00010001ffff0101fefd
010100ff01010000030001ff010202ff
020001feff01ff00010000030003fd01
020000fe000100fd01ff0202ff00fdff
000101fffeffffff0100000102fd01fd
fbfd0105fb00010100fe0102fe06fcfe
ff01fb01010201fefdfdfc0101040101
00ff0401010203050100fe0002fbfc02
02ff0102ff00fffe02ff0201000200fe
0001fbfc00000000fd01fffefefd01fe
fe010100fffb0101fb0001010001fcff
fffffffd00000000fffffe00ffff01ff
ff000403000000ff01ff010200000103
00fe000000010000ff00ffff01ff0002
010302fffefefe0202ffffff010101ff
fe00010401050002ffff020103010102
010101ff05ff01010000fefd01fe0104
010001fe03fe00ff01ffffff01fe01ff
0001fe0104fe01fe02010000fffbff03
0101fe0000000001ff0202fd00fb0203
fe01feff01ff0002000000fe02ff00ff
ff01ff0600fffdff0000030200fa01fc
ff02fb0001ffff00000202fd02010201
020104fe0000ff02ffff00feff04ff01
00fefeff01ffff02fe00fd03feffff03
0001fdff0102000101000100fffbff02
020201fd01fefefdfd0101fe0001ff00
01ffff01feff03feffff01ffffff0000
0000040000ff01020000fe0101040201
fe02ff030000ff000000fe0200fdfefe
00ff02fd00fdff02fe01fe0001000000
0100fefe00000001fd0100fe0103ff00
fe0001ff010001020100fefefe01feff
fffeff01fffffffc01ff01ff01fe0100
fefe0200fcff02f6ff000202000900fa
00ff0000fffe000001010003fffcff01
0000ff030100fffb0000010300fb0205
00ff010100ff02fe02fdff01000502fe
0000000001fe0101fe000001fffffe00
01ffff000201feff0101fffe00010100
fe02fffc0003ff0000fd00ffff030100
fefefeff010100fe00ff0200fe000100
00ff01fffe0000fe02000100ff00ff00
0200030101ff00fe010200000003fefe
000100fe03ff010100fdfe02fe000000
ff00ffff010000fbff0002ff00020000
00ff00fc030201fdfcfe0002000400fd
feffff0200010000fd01010202ffff02
ff020000ff0001000401010200fb00ff
00fdfd020202fefeffff01fefffdfcff
00fffdfefe01ffff0101feff0101fd00
fe00ffff0000000000ffff00ff0103ff
ff010001ff000000fd0101010001ff03
fffeffff0000fefb0202fefffffd01fd
ff00fdfdfd00ffff00ffff01fe010101
010000fe000300ff0001000301fdff02
000300fffffefe0300ffff0301ff0201
0001fffe00ff02030001ff01ff0000fe
01fdfeff000101fcff0001010100ff02
0101010101fd00fc0100ff01000203ff
01ff0000ff0100000100010101ff0201
0100ff00fefffe01000301ff00fe01fe
ff02fbfffffe00feff01fef9fff800ff
fefe010003ff01fefe010000fffd00fe
000100fe01ff0103000000ffffff01ff
0001fefe01fe00fc010101fdff03ff01
00000100000202ff00ff00090101feff
00ffff000101ff02000002ff0201fe00
01fe010000feff00ff01ffff00030104
02010100010100fe0200ff0200020102
0101ff05fffefdffff030001fffeff00
fe020203fd00fffeffff00fffdfd0400
01030101fefe0103fe020002000000fe
020001000000fefafdfe00ff0000fd00
fe00ff0200ff01ffff000000ffff02ff
ff00fefe00ff00fffdfe000001010001
fd02fefd02ff000100fffe00feff0001
0301fc01fe00fefcfe020000fffcff02
fd010400fa020102ff00ffff000502fc
fd00fd020100fdfdfafffd010007fefd
fe000201fe00fe00ff02ff000003ff01
01ff0102010201030000fe02fe0001fe
0100010102000000ff00ff0101ff0205
0304ff0001fffeff01ff010003feffff
000101fefffd02fe00fd010101ff0000
fd00fffc0001ffff00ff00ffff010300
ff00010001ff0102fe010000ff010000
fe010001fefe01010000fe0100020004
000000020002feff0001010100000001
0001fbfe00fffffcff00fe02ff02ff00
0000fdff0001000204ffffff02fe01fd
fe0002ff0100fe0000000200fd00ff01
0000ff0004000101ff02030000000000
00feffff00ff00000002fdff01fe00ff
010203fe00ffff02feff0100000002fe
fd00fb0100fefffdfe0102fe00ff0101
010001010000fffdfffe00fd00010002
01020003fd00020301ffff01000300ff
ff00fffc020100ffff01ff02fefffcfe
ff0001ff01fefcfefeffff00feff0300
0201ff0001fffefc01fe010100fdff04
fe00fe0202020100fefffe0002fdfdff
00ff00ff04fffe00000100fefe0200ff
0001010002feff010100000101010301
01020000fffe00fc0100ff02fd0100fe
00000102fe0100000202030101fd0000
02ff00fefe00fffd00000200fe00ff00
fffd0600020200ff000101020005fe00
fe010000010200fe0100fefdff040102
0200f9fd00fe01fc000203010203ffff
020106fe01fdfc0503fffffeffff0102
0100020100feff0102000001ff03ff02
fe00fd0002fbfe02fb020000fffefefd
feff0301fdfe0002ff00ff010201ff00
ff0006fc02ffff000201ffff01020103
ff01fd0100fefffe000103fd00020001
0102fc0000ff0002fe02fe00fffd0203
ff00fffe020100fffe00ffff0002fe05
0001fe0302ff000002fdff0001fd0200
ffff010000ff01ff0002000000060000
fd0103fe0100010002fe010101ff0000
ff01fefe00fdfffefc000100fffe01fc
ff01fbff01fc00fd00010101020400fd
02ff010202ffff02ff0200fd01fafe01
0101fcfefefefeffffff0002ff01ff01
02ff01020100fe01fffe000002fcfefe
0101fdff0100fe01fffd00fffe000201
020002fd00ff0202ff0201ff01ff0600
fefffc00fefe02ff02fe0102ff02feff
fffe04000200ff05fcfffffc030006fe
fdff04020100fefcff020001ff0202fe
fd01fe01ff0000010000fe0000020000
00000100fffffe02fe00ff0000f80001
01ff00fdfeff00fdff020002ff0002ff
0000fe0000fffffc030001fe01fdfe01
0003fdfffe000100fc02ff00fffe0201
010000010000fe00fb0100ff0205fe00
0200fd0203ff01ff00fffeff030202ff
01ff01ff010100fefffeff020103fffe
000003fcfe01fe01fffe010100010201
01ff000000ff01fffd030003ff01fe00
000004fdff0003fc05fffeff02fe0103
00020101ff00ffffffff01000200fd03
0000020103fe00feff02010201ff00ff
00ff00ff02fe02f9000000ff0205fefe
03fe02ff0200fe00ff0001030201fd02
00ff01040002fdfefeffff0102fcfc01
0101ff03ff0002020301ff01ff0000fd
0001fe00fefdfeffff0000fefffe0201
02000100fe00ff0002fefe01fe0001ff
fc0201fc00000100fb000100fdfffe03
01000001fe0000fe00feff0100ffffff
0102fffefd01fffffe01ffff000002ff
fe01fc01fc00fefd00ff0002ff0002fe
ffff0200ffff00ff0002030004ffffff
fffe01ffffff00fe00ff00010100fffd
02fe00ffff000102fe02fffffffc0100
0001fd01010002fe000002fefffe05ff
01000101fe0001ff050201fd000301fe
000101fe01ffff03000202ff01faffff
000104fb0402040006fefc0003fd0000
fefffefe00ff000001010200000000fe
0100fffefefdfe040101020001ff0000
00ff0005010001fc01fffe010204fdfe
00fe0002ff0100fefc02010001fffffe
0100010101feff00030100fdff0001fe
fffd00000001000001000200fd01fe01
01fe0102fe0000ffff01ff01ff0201fd
fd0102020100010101fffffe000000fc
000001ff0002fd030102000000fdfe02
fe010102ff00ff00fe0001020100ff00
0000fdfd000201feffff00ff03fc02fc
0101ff00fffeff0102ff0100fe01fe01
0101010002fd01feff0501ff00ff0300
ff00ff01ff0000fefe02ff0001ff0002
000000fe000000010002010001fa0201
ff0301fe02ffffff03fffe020002fd00
00ff0401000300ff00fffe0103fd01fe
fe01fcfe0200ff02fffffe010000ff01
01ff00fe03ff00fffffffe00fe0202ff
0101020202010201fe0000fe0204fffe
fd00010105fd00040000fffb01fdfd02
01000102fffdff0001ff00010103fdff
02fefffdfd000000ff02feff0002fdfe
0001feffff00ff02030101fefffdff03
fd0100000001000100fffcfefe05ff00
fe010100fd0202fdfd0101010100feff
01ff01fcfefffe02000001ff00f80200
01ffff0000000102ff00010100000002
00ff020100ff02ff00ff00ff01010201
0000ff01fe0100000001ff00000100ff
0005fe01fffe00fefefffefdff0202fe
03ff01010002fe01ff0100020103fe03
00fffd0001ff0101020000fe02fffe03
030400ff00fe010000fe02ffff0304fe
02000304ffff0300fd0100000002fd00
fefe00fefe0102fb00feff010201fffd
fd010202fe02000000ff010100030201
ffff00000101020200000100fd0202ff
ff020000fe0101fdffff0001fffdfffd
03ff00fffcffff0102fffe01fefc02fd
03000102ffff0001fe01000001fc0401
0000fffefc0201fdff000001ff0400fd
ff000303fffffffd03010102000303ff
fffe01ff000000ff0300feff0003ffff
000104fd00ffff0002ff000101000100
050100fd020100000002feff02020000
0301fd0001fdffffff0101ff02fbff00
0100fc00fffffdfefffe01fe00010001
feffffff00fffefe0200020302feff00
fe00feff01fefd0501fe02fb01fcfd04
0101010201ffffffff0100ffffff0000
fdff0002ff0000fefe0101ff00000000
00ff000000fffefdfd010003fe0404fd
00020200ff0001010200020203020003
ff0000fc0000fe000000ff02fe0202fe
0000ff01feff02ff00ff00fcfe010001
01fe02000200fffffffd02ff02ff00fe
0400fcfffffdfe03000003fefffe0000
0000fefefe01ffff01fcfffe01ff01ff
00ff02ffff0102fe03feff010104ff01
fefeff01fd0200ffff00020302fe01fc
ff0001ff0100ff03ff0200fe0002ff02
0301000401fffe00fc00feff00fb02fe
ff00fe0200ffff01fd01ff01fffe0200
0401ffff010201fdfefffffdfdfe00ff
ff00000000020101ff000101ff0200fe
fffe01020102ff0001ff00fe0101ff01
02000000fcfffe0000fffefffe000002
0301fffe010100fe00fd01ff0200ffff
ff0102fdffff0000000000010001ff01
0000fdff000002ff000101fd00fe0103
ff01fffdfdff02fc01fcff0200fc0001
000100ff02fefffefd0100fc00fb0103
0201fa0300fdff0202ff00fe01fb01fe
01000102040004000001fbff00070100
0001ff010200ffff02ff000101ff0301
fffe0202fd00ffff00ff010000fb01fe
010101fd010103feff00fe0101ff01fb
feff00ff02ff000200000003ff010102
04ff0201fdfd01ff02fd0002feff00fa
0102fffdfefe01ffff0001ffff00fd01
000300fd00fe0003fffd010000fefefe
fdfefffd0001fe04ff00fe0000000200
fe0101fd00ff02020500fe030102fe02
ff01fe0101feff0004fefe000301fe01
000100fffffeff00fe000000ffff0000
010002ff00020001feff010200010004
0001fe00fe000000ffff0100000401ff
0201000202fe000200ff00feff02ff03
000101ffff0101000000020200feff03
02fffaff00fd00fefffe02ff01fa00fd
fd0100fefffd0001ff00010100fd02fe
fe00fe0202fffffcff0100ff0100fd01
ff0101010002feff0100020001020206
fe00fdfe02fffffefefefffdffff0005
ff02ff030400000201fdfe0002ffffff
ffffffff00fdff00fe020000ff010001
00fe0105fe0102feffffff0101010101
ff000101000101010100010000fbffff
000000fefdfeff0003000203fffc00fe
fb010102ff00fd000000ff0201ff00fe
ff000104fe01000000000000fe00fffc
fffd05fd0301030301fffe0103fefd00
fe000002fefd0000020100010101feff
ff00fcfffdff0200feff010002fe0101
0001010000ff01020002fffe00020200
0101fd00fe000001feffff00fe01ff01
fffd0100ffff01fffe01000201020200
00000003ff0101fe000100fe00ff02fe
03ff010101ff01fffffe02fffe010100
0101fdffff010202020000fe00030001
ffff02fefbff00fe020001fd0204ff01
01fffeffff0101010000010100000304
ff030301fe01000003fcff0200fdfc01
000103ff00010000fe00ffff00ff01fc
fb01ff00ff0001000102fffd00040101
ff01fd0900ff00fb02ff020000fc00fe
ff01fffd00ff00010000020102fdff02
020004ff02feffff0200fe01000000fe
03ff0300ff00ff0300fefffd01010200
0301ff0002000002fe00000101fbff02
ff000601020200fdfe02000100fdff03
ff020000010003fefffffeff000206fc
fe0200fe02ff0201010200fe02080201
010001fffeff0002010301fe01f900ff
010003fffe03010001fffe0002fdfeff
fe03fe0001ff00fd020100fe00fefbfe
0200fffe000100fefdffff01ff02fdfc
0101ffff00fefe03ff000003fffe0001
ff02fdfe03fcfffdfffeff03fdfe03ff
fe020001ff00000001fffe00fc06fbfa
030105fe040203010401ff00000404fe
0000000001010002fe00ffff01fa0002
0102fdfe01fefe03fd010201020302ff
ffff04fe02ff0103000100010101fe03
02fffe01ff00fffd000100fd0000ffff
ff0000040001ff00fd0000feff00fd00
01fefffffe0100fd0001ffffff00fffd
fd0000000200010002fe0003ff02fcfe
0001010001ff0101ffff000100fd0203
fefd010402fe0001ff01fefe0200ff02
fffe03fffe010004fb0000ff0001fefc
010003020002ff000101fefe02faff01
000001fffeff02fe0102000000fffefd
ff02fb03020201fbfe00ffff00fcff03
010000ff02fffffd01fffe01ff05ff01
ff0102fd00030104fe00feff04020003
ff000001fe01000002ff0001fffffe01
03ff0101fffe00010202fe0000fdff02
ff0001ffff010101020100fc000001ff
0101ffff010000fefdfe010201fdff04
010002000000fe020300fefe050001fd
00000001ff02010002ff0001fefe0200
ff01ff00000201fe020001ff0301fe03
ff0001ff020000ff00ffffff00fa0000
02ff0001fefe00fffc020001fffc0000
ff010201030004fdff0001ffff010101
fffe0000fefefe010002000301ff00fd
0100ffff010100010000fd0100020102
fd01fe000301ff0200ff0000fe000203
fefe01fffefe000202fffffe00ff00ff
010001fd04ff01020200fc01010001fe
fdffffff01fd0001fffeffff000300ff
020001fbff01fffeff00010200fd0001
020002fffe0100fd02fe00fd010001ff
02fefd07010200fb0103020102fd01ff
0101020002ffff00fffd00fe01fe01fe
02fffefffffd00010100ff00fefffb00
ff00020001ffffff0102000200000104
00020401010202ffff00ffffff000003
ff00ffff00000000fd01000101000001
ff01fd00000000ff00feff0100fcfefe
ff0001fefffffeff0100ff010000ffff
01000100020100fd01fe01ff02fd0000
ff01fe0000ffff02fefeffff010004fe
0201fe0000ff01ffff0202ff0203feff
0000030400fe0002fe00fe02010001fd
0200ff000100ffff0002000000ff0101
00ff00ff010200010000fe00ff01feff
0001fefe030101ffff01fffe01000101
0100010102feff0400ff000200fcfffe
00000601fe0002fd010100ff0107fe03
0101fdfc0300000201000100000001fe
ff00fffe01fe00fd0103fe00ff01fffe
fffe0002010000ff01fe00ff02010001
0100ff03fffe0101ffff000200fafeff
fe000200fd0000ff00ff000002fffeff
0100fe0103fd0200fdff000000fefdfd
eb39bb02172c3d14f3f9f2f4d612e529
2e1828121718181f2d312540261a2619
0200010101ff0000000000ffffff01ff
020302fdfe04ff030102ff01fefeff00
fefeff01ff0301010301020001010201
000101fefd03fd010000fe00000100ff
0101fe0003ff06ffff010300010000ff
01fffe00fcffff0001ff000101fe00ff
010202ff0101fcfd0000ff0101ff0002
010000fe01fe01feff010200ff020000
01010000030201fffffffeffffff00ff
0002fdfe01ff00fefefeff0200f800ff
00ff000002fe020100ff03fffffe0003
fe00fefe02fd01fe00ffff0001ff0000
0001ff03fd04fd01fc00ff0100fe00ff
ff020103ffff01fe0201000201fdfeff
fffeff01ff0001010000fe0001000200
ff00ff0401fc0001ff0101000001fe01
ffff00000202feff00020000030200ff
00020100fffeff020100ff00fffd0302
fffe000200000001010302ff000201fd
01fe01fa00f700fe0300010101020103
01ff0105000303fc0202ff0202fe01fd
02ffffff02fd00ffff00020102010402
01fe0000ffff01ff01000000ff000102
03000100ff0300000100ff00feff0002
fffd01fe01fdfefe00000000ff0303fc
0103030200ff00010100030001fefefe
0102ffff0102020200010102000100ff
0000ffff0202010000ffff0001fffefd
01fd0202fc01fb01020100ff0202ff00
feff000102020200000102ff01000002
000001ff01ff0100ffff010100fd0100
01fd02030000030201ffff00fffeff01
01fd0003fd00fc01fefe02ff0000fffe
01ff000404fdff0300010000fffdfffd
000001ff00fc00fd02fffe000000fefe
000000fdfd00fcffff00fe00ff000000
010000fe020003fefffe01ff00010002
01fe01000003ff0100fdff000000ff00
00ff010105010305fe01030001ff0200
fffc02000001ffff00000200ff000202
000001ff0000ff0000ff00ffff02ff02
01000003ff00fd01fffffe00010101ff
0101000000ffff00ff0201000101ffff
02fd000002010000fe0001fe010000ff
fffcfdff01feff00ff0000000001ff03
fdfe01fe00ff000202fefe0001fd0202
0100ff0100fffffc00010001000100fe
ffffff04fffe0000ffffff0000ffff01
020001fffefeff02ff0101ff0100feff
ff0002fdff00fcff010202ffff040001
020203fc0005fe0100fe00ff01ff0002
02ff0102000103020100010000010002
02fe0001fffe0102ff02fdffffff0100
ffffff02fdfefd0000ff01ff0002ff01
01000000fefefefd0200fd0400fb00ff
00fefd0400ff00ff0002ff000002ffff
ffffff010002fe03fffffffffe00ff01
00fe0000fe040001ff02010002fffdff
ff000003fdfeff00ff00fe0101ffffff
0003030104fdff010202ff0000fffd00
01000100fa010201ffff0100ff0001fe
000001fefdfd030200ff000200ffffff
fdfe00fdfd02020000feff01fefb0100
ff0000fefeff00fd00010102ff00fffe
01feff01fe02ff0300ff000102fd00fe
01000001040001ff0000030201010000
0203ffff03fe00000100fd01fe020002
fffeff02010002030001ff0001030201
01ff00030104feff0100fffffe01fe02
01fe0104ff03ffffff010001ffffff00
ff0001ff00010302ff02fe0002ffffff
0002ff02ff00fe01ff010000000000fe
fffd000001ff030000ffff00fe0002ff
fffdfffd02020202ffffff010102ffff
0000000100fd0100feff00fffe0203ff
00fffe02fefffffe0100feffffff0200
02000001fffdfcfd02fe06fe0403fefb
ff0100fffefeff00000001ff00000004
0102fe0000ff000200000000000302ff
000301fefcfffc0000ffff0000ff0001
01010102fb0001020002ff000102ffff
000001ff000003ff01ff010102010001
00ff01020201030201ff00ff00fe0202
00fffefdff000002ffff01fffffeffff
02fe000301fefd00ff010201020203fe
0101020100ff0000010002ff0002ff00
ff00fe01fe0101ffff0001ff00fd03fb
00000100fe0001fa0002010200fd01ff
0102ff01ffff0200010201ff0001ff03
fffe00000200fd0000ff00fe0000fffe
02ff010100fffd03000000ff00fffc00
000000fd0102fefe00ff010000fdfdff
000000ff040002fe0301ff000002ff01
0000020001fa0001ff00030002020200
00ff01ff0202000500ff01fe0100feff
01fefefdfe03fdfffe00fffe0101ff00
0001ffff0200fe00fe000301fffe0100
01010005ff00fb00020102ff010400fc
00ff0200ff00ff0100fefd01ff00fffe
01ff00fdfffb00020101000001020100
00fb02fd0004ffff01ff00ff03fe0000
ff0102020001fd010000000000ff0000
0104ffff05fe0800000002ff01020301
00fb03fe0002fe01feff01fe00fffd01
0000000000000102ffff00ffff02ff01
00fe000301ff010000010401fe020005
00010103ff00010002010000ff040000
030100000401ff020001010001fe0000
ff00ffff0200fefe01ff0000000001ff
01fe010000fe020101000002ff010003
00000002fd0002fe02000001000301fd
ff00ff00fffdff0000feff0001fefffe
ffff01fe02000002020001ff0202ffff
00fd0102fefffffdff0102ff01fffe01
0000fffbfb01fffe0000fdff00fe01ff
01ffff01fd01fefeff000000fe01ff01
00ff0100ff000001ffff01000100ffff
ffff000301fd00fe00ffff0000ff0203
ff00ff0105000401ff0004ff0001fe01
010000010002ff0501ff0000030101ff
00010203ff01fd010101ffff01000103
030201fdfffe00010100ff01ffff02fd
feff01020302fffdff0001fe02ff0006
fffc000301ff0000ff01ff0001fffdfe
020001fe0101fe00000100ffffff00ff
02fb01fbff000001ffff0000020401fc
ff01fe0101fe020002010001fffffeff
0104fffefffd000100ff0102000000ff
01fe01fdfffd0000ff0101010201ff03
01000102fcffff0401feff000101fffe
0002000200fffe0200ff00ff0101ff00
ff01000103fdfe01ff010000000203ff
00fefffd0500fcfc010001fd0004fe02
000002000001fc000100fe0102000000
02fe02fefd03feffff00ff0101000100
010001fefc01fe000201ff0002ffffff
fe010001ff0003fdffff0101fffffeff
00fffffe02ff020000000000fe00ff02
00030304ff04fc0002ff03fe00040101
ffff0200fe000100feff0100ff020000
01fffd01fefefcfd0000000101fefe03
010000ffff01ff000000020102030102
010000fe0000ff010000ff0001000100
00ff0000fdfbfbfc000100ff0200fffd
010201fa020102fe00ff0100fffc01ff
00ff010001fe01ff01fffe0100ff0201
01ff010403ff02010000000000fffe01
00010100ff01ff01ffffff0200000101
ffff0100feff0001ffff0100ff030300
010002ff0300fb05000104fe010300fe
010000fd0001fd0000ff00ffff0100fd
020001faff010100000000000101fdff
ff0000ff01fe0103feffff00fe00fdfd
fffb020602feff00ff01030101000101
ff02fffffffcff0000fffe01010400fe
01000001fdfefe030200010000010000
020001000000ff05010000000001fe01
ff000104ff02ffff0201ff0101ff0100
01010001010501000001000202fe0000
0002fffc00fd03ffffffff01010000ff
00ffff040002fe01000100ffff02ffff
01fe010401020000fffe0001ff00feff
00fe01fffe02fffd0002020100000001
00feff0000fffd01ff0000ff0202ff02
00ff01fc00fdff0100ff02fffe01fffe
00fefef6feffffffff0001fe010101fe
00ff010200fe020100000200010000fd
000000ff0000ff0100ffff0201010201
010001fffc00fc000100020100fe00ff
000100000002020101fe0001fefe0103
ffff0101fffdff00020301ff01020100
00fdff0604fdfe020102fd0102ff0103
ff01fefcfe00fffe02ff000000ff0000
010100fefd0100fefffeff00000101fd
02f90303fcfcfb070202fe0103fffbfa
01fffeff00fffefdff000200ff0102fa
00ff0000fe02030501000000fffe0101
00ffff00fffe000201ff010001030104
0100ff01fefe0400fe01ff01fffc00fe
ff0101fb02ff00ff01010201ff010201
0200ff01fc03fe0001010001020101fd
020201010100ff0401020000fffd0001
ff02ffff0203010102fffdfe000001ff
02ffffffff00feff010100ff03ff0100
000001ffff00fdfffe00fe000104fefe
00fe0201fe01000400fffe0000ff0200
000400fdfe00fffefefe0001fe0403fd
01010003ff000200010001ff01020000
fefc010300fffffd0001000103fe01fc
0000fffffdfe02ffff01ff02ffff0303
ff0000010200fefd02ff00ffff000002
01fe02ffffff00ffffff010000ff03ff
02ff040004ff020001000102ff000301
01ff01fffc00feff010100fffefffffe
03ff020203000302ff00010102fdfdfe
fffb000503fcfd03000203ff02040002
01000200fefdff02010301000004ff02
0101fffc02ff0300ffff00fffffe0201
02000200fc00000003000400030201fb
02fe00fd02ffff00ff0000fefcfffe03
fd01ff00fffe0102fffffe000000ff05
00fd02fe000001ff0100010201fe01ff
02fe0103fefdff0101ff02ff01ff0101
01fe0103fffdfcfeff01feffff02fffe
01fefefffe00000000fefe0002fe00ff
01ff0002fd01ff020103020104010001
010100030103fffeff00ff00ff01fefe
010100010200fe010202ff00fffe0000
0302fffefffcff040002ffff010100fc
02fe00fe0303ff02fffffe010202fffd
02fe02fefe04fd02ff0001ff0000fffe
000100fefffe0301010202fefefffefc
02fd02fe00ffff02000100ff0101fffc
fffd00fc0102fdfefffffefffffd0202
000301fe02fc02ff010200ff0001ff04
00ffff00fffd030000fffe02000001ff
0000fffffd0501ffff00fe02020201fe
fffe00fefe00ff0001fffe0101fefe00
000200fffe04fffffe00010000000101
fffe0102fc05ff01fe0001fe01fdfefd
fe0003fffffe00ffff01fe00000102fe
01fe00ffffff01ffff0000ff01fe0000
ff01fffe00fd00ff0100ffff030101ff
0200ffffffff00fffe0001ff02020004
01fd01fbfe03fefeff02ff0001ff0000
00ff00010201fdfd01ffff02fefe02ff
02ff01fffcfff8ff01fd01020003fefe
000001fe00fefd000200020100000001
fffe0001fefbfffdfffffeff010101fe
02000101ff0402fd0102fefe010002ff
0101fdff01fe03fefefefc00ff02fe01
00fe01ff0100000100010101fe02ff01
00fe00ffff02010001ff000201fe00ff
ff00000600fa020000010101010102ff
fefc00fcfe00fdffff01ff0000ff0400
0000fe0302ff00fefd0100fefe0000fe
010000030000ffffff01ff0101fdfeff
0000000103fdfdfd02ff03ff01ff0101
fe0100010103ffffff0101feffff00ff
01000202fdfdfffd000001000000ffff
01020103000100fe0001000001000000
feff0000fe0101ff01fffe00fffd0102
010002fd04ff01000100030202030100
0202020600010100010002fe020203fb
0001010200fefefd00fffffe02020005
00fe0102ff0003ff02ff010200ffffff
00ff02fd000102020101fe0002fffd02
00ff00fdfefc01fd020203fe03ff0001
02fe01ffff0200feff02000000fd0100
0003fefc02ffffffff00feff02fe01fd
0100010400fe00feff01feffff0200fe
fffffffd000100000000ff01010201ff
fffffffd02ff0200000000ff01feffff
0100ff02fffcfefffe00020102fe0001
0001ff01fffefc01ff00ff000100ff01
01fd0201000000ff01fe0000ffff00ff
fefd01fe02fefe0201010101ff030000
01ff010503fefe03fefe010000000002
0101000201fe0002fe0100ff01010001
03fe0300fefe00fe000000fffd0002fc
00ff0000ff0201ff010100fd0100ff00
01020206fefdfc04ffff0200030201fe
00ff01fd00fe0101ff00ff00ff010101
00fd02fffefefefbff02000001000400
02ff02fffa0000ff02000503feff03f9
01fe00000205fffe020000000201fffe
fe02ffff01fd000001fe00ff02fe0102
020002fd000202fffeffff0100ff01ff
00feff04fe00fefc00ff01fffe0200ff
00000203fffcff02ffffff00fffe0000
01ff0000fefd00ff020003ff0104ff01
030000fb050602ff020000ff03fcffff
02ff030102feff0400010100010300fe
ff000000fcfafcfffe00030304000202
00fb00020102fe000101ff00fe01fe03
0202ff040501ffffffff000001000100
00fb0000ff000002000002ff01010100
fe0000ff00fe01ff02010202ff000100
01fe030502feff020301000103010001
00fe000000ffff01000000fffdfefffe
fffd02ff000001feff000201ff000101
000001ff0001ffff0000000000fbfffd
ff0001fe0000000100fffeff02000000
fffd0101ff01ff02000002ffff0102fe
fefd0101ff04ff0300000000fffc0202
000202fffdfcfefe010101fefe020001
0002ff030000010201000400030300ff
0100ff050003fdff01ff0000fffd04fe
02ff01fffefe0000ff02fe02fefefffe
0000ff020400fd01feff00000002fe04
fe00fffbfe0203fffe01fe01fe0100fe
01ffff0203fd00feffff02ffff00fffe
ff0100fc050007ffff0001ff0002ff01
01fdfefefeff010402010100ffff0000
00ffff0101feff020303fd01020401ff
000201feffffffff0000010103fd01ff
00fffe00fe01fdffff00fe0002fffefd
000000fdff020201fe0001fd00010301
01fe02fb02020100020001fefe020100
ff0501fefefc01ff00fe00000002ff00
fffdfefe03030102fffe02ff00feff00
00030103010101010101020101050000
0002ff01fefe01fc0101020001030001
01fefffbfd0200010201010001000000
ffff01fffe00ff01ff000100010000fe
0002000203fc0002ff00010000010101
0001ff0101fd02ff0201ff01fffd02ff
00fe0203fffd01fe00020200ff010201
03fe000200ffff00020001fffe00ff02
0001fe00fd01fffdff000101fd0100fd
01ff0201ff02feff01ff000000fbff02
02ff01000003ff010000020100ffff01
00fd01010100fd00ff00fe00fe0100fe
010000fdfcff020200ffff01ff02fefe
00fd0203fdfefd0001ff030101ff0104
00ff0100010301ffff000101ff00feff
fd000105fd00fa0102fe010002010000
02fe0003fffe0101ffff000001ffffff
fffb00fd02ffff01ff0001feff010000
ff0001ff030102ff00000101fffd0000
fe020200feff030001fffe0000fc01ff
01000101ff0000fafeff0200fffc01ff
0100ff00ffff02000000fe00feffffff
01fe0200fcfdff0200fffe0100fe0301
02fffe03ff02ff000201ff00fd06ff01
00ff01fdff0100fcfe01000000fefefe
00fd0208fcfffc000100ff0302ff0301
000001fd0102ff050100000101ff0400
ff010301010103fffffe01ffff010000
000201fe0302fe0200ff010100ff00ff
ff01ff00000000ff00fe0101020300fd
0000000100030403fdff010000fd02fd
02000203fefefd00fefefc0205ff0000
01fffeff00ff000201ff0201010102fb
0101ff05ff01ffff00ff0000ff010101
00fe02fc05fefefd020000fe0000ff03
010100fe000100ff0101ff0101ff0001
01fffffd00ffff0200000001ff000200
fffeff01010001fe010000fe00fe0002
000101000004faff01000000ffff0101
fffa000502fefdffff01010102040005
ff00fefbfffaff02fffe01fffe03ff01
010301fcfd04fffe0100ff01fd010000
0001ff01010201ff0001010100fdfd02
000001fe02000002fe00000001020100
00000001ff01fa0401ffff01fffcfdff
0103030101fe020402ff0001fefe0302
000001fd010701fe0001010101fd0000
ff00ff00feffff0000feff00010100ff
00010200fffb00fe0200010200020101
00fe01fa0002fe01fefc04fdfffd0101
01fdfffefb00fa01ff00ff01000003ff
00fd0203ff01fefd0001ff01000001ff
01ff01fdfe04ff0101020002fffe0000
ff0100fe02fe02fefe00000000ff0003
02020001fffaffff02010101010003fe
0002ff0000ff01fffffeff0200ff03fe
ffff01010203ff00ff01fdfffffefffe
000000fcffffffff000101ff020401fe
fffeff00010102ff0000ff0102fdff02
0002010302fd00feff020201030100fe
01feff0400010005fe020100fe020001
000101fd00fdfdfe00000002000101ff
01ff01fe03fefefe00ff0000ff000103
fe0200ff0000fd02fffefd00fffffffe
ff00fffffffdfefffe0000fe0103fffd
ff00010101ff01ff02ff020000ff0000
00010001000101000000000201fe00fd
fffeff01040001fe02ff00ff000100ff
01fc02030100fdfd010000000100ff02
ff0100fd04fc01ff0001fd00fe02fffe
00fefefffdffff000201ffff000100fe
000202fd030403000100ff0100fd0102
01020101010003fe0100000002010001
01ff03fffc01fd0001fffb0103ff0300
0001000500fbfffd01020100ff000101
000102020002fd000301010101000001
02fe0001030000fe0001010103fffefe
0302fe050201fdff0000010004000003
00fe0203fa01fdfb010100ff020102ff
0000000000ff01feff000100fe00ff03
0002000201fd01ffff000001ff0000ff
0001000001fb00010000020102000101
00fdffff00fe04fe0101fdff02fd00ff
02fe0001ff020201010102fe0001ff00
010301ff02ff00fe0000010001ff00ff
00fffffffffe010202010001ff01ffff
010101fefefe02ff00000101fffc01fc
0000ff0100ff02000100ff0001ffff01
01fffffe01ff030002ff0200fefffefd
02fd00ff0101fefe02ffffff01ff0002
000300ff0303010001fffd01fe000000
02fffe00fd03fefeff0000fe010000fe
00ff00fc01fd020102ff01ff00fe02fe
010000030300fffe010002fffffffffc
000002030004fffc0001ff0200000204
01fe04fdfafefcff01000104020100fa
02000000ff03fcff000102ff00fd0002
0201fefffdfdfd01fe01fefffd00fdfd
00000001fd01fefd0102000002010001
ffffff0001fe0004fffe0101010202ff
ff0001fd02ff000302fffe00fdfe0000
01fe01fefd01fffe0101ff02ff0201fc
000000fffe010001ff00ff00ff000102
fefe02fffefeffff03000601000302f8
01010206fffc00fbff01fd02fefc0202
feff02010101fffe00ff010200000101
00ff0101ff02fcfcffff01000100ff00
ff0200fd0201ff00ff00feff01fe0000
fc03ff00fffdfc00fd01fffd010101fd
fe00fe02fe02fd00000000ff010000ff
00000001030101fd0101000101000001
0002020100fc0001ff010100010400fe
02feff0100fd00fbfe02fe0000ff04fd
ffff0201fefd0001ffff020000fe00fd
fefe0203fd01f80000ffff0101fdfffd
01fe04010100ff02feff00fe02010000
ff01fffdfe0200feffffff0001020001
fd010000ff01010101fffe0001fe01ff
02000102fd02fe00ff0001ffff0102ff
ffffff020000fe01ffff01fe0100ff01
0101000202fe00fd0300000003020201
feff020000ff02fe010201ffffff01ff
0100ffff00fe00ff0100ff00000000ff
ff01ff00ffff00fdff01fe00ff0300ff
0000000100ff010202ffff00fffffd00
000102fffffd010000fefffffffeff01
02fbff0eff03ff0002020200040002fe
0000fefeff01ff01010102020001ff03
ff0400fefdfd03ffff00010000000102
00fe000001ff03010000ff02fffeff01
ffff01fcfd0001ff02ff000100000200
000001feff010104ffff00ff0100ff00
ff01fe0105fefe010002000000ff0100
01000001000102fdfe01ff0101fc0001
00fffffdff02fdfe01000001ffff0101
0101010001fffe010000030100ff0404
0000fefe01fd010001fffe0100020100
020101ff00ff01ff0200040101ff0000
01010102fffefffe010003ff02050003
0000010003010101fe00fe0101000001
0000000000000101fffffd01fffdff01
020002feffffff01fe000101ff0002fd
010000ff01ff00fffeff0000feff00ff
010003fefe000000ffffff00fffffefd
0200020004fffbfd0002fe01010004fd
fffe010001020204ff01000000fefefe
02ff0002ff0000fc030200000401fffc
04000101030000fe0002ff01ff0201fe
fefefe0000fefefeff0000ffff0300ff
fffd02fc04010000ff02000000fc0002
02000002fffe01ff010201ffff02feff
0101010303fbff000000020100000200
00000002000200fffe00ff0102f9ffff
03000000fc03fbff0000fd00040100fd
02ff000101fa00fe00020200ff040300
04fd00fd02fefe0100000100000100ff
00ff0001060202ff0100ff0001030102
00fa010c01fdfc02020003ff01fe0001
00fd00010001fd020001fefffe010000
010100ffff00fffeffffffff000003fc
02fe02000300fd0101000000000203ff
fe020105fd02fe030201010101020000
0103ff0500010104010000000000fffe
010101feff00ff01ff00ff0001ff0201
01ff03ff00fefd05000002ff02ffff03
fffa0102fd0200fdff0201ff0001ff00
000001000000fd03fe00ff000001fe04
ff00030301030100ff0000000000ffff
ff0201fe00fffdfe01fe000102020001
00ff0000030103000000010001ff00ff
00030000020001fd00010200fdfe0102
0101ff0001feff0100ff0000000001fd
01ff02fefe00fd01ffff0001010000fc
01010003ff00fd000100fefffffe01fd
fffd0006fd01fc04020102ff0100ff00
ff0101fcff030001fd000101fdfe00fe
0101ff00feff01fd00fffffe00ff0001
0101fd00020300ff04ffff0100fd0202
fffd0001fffefdff010101ff00fe01ff
01010100fefffb0100ff0100010300ff
00fc0302010100fe00ff0201ffff0001
00fc02fff6fcf7fe010000ff00fffefb
00ff00fefd00ff00ff00ff02ff010200
02030201020402fe00010001ff0403ff
01030200fe00fc0301ff0003ff0105ff
ff00ff00000001fe000000fe01fe00fd
0000fffe02fe0300ff00000002010300
00fd0100010000ff01ffff0100fe0203
0000fe0501faffff01ff02ff0004ffff
fefc00ffff04fe00ff00010000fc02ff
00feff010101feff0001feff010102ff
ff010303fefd01feff0001ff00060101
000203fc0302ff040000000002faff00
fefcff0005010201ff020202fffe0005
