03
fd
f7
0a
ef
fe
f7
03
07
fd
ff
fa
02
fa
01
0a
f8
fa
f9
02
fc
f6
03
fb
05
fa
12
fd
fb
f5
f8
fa
03
fd
fd
f5
02
ff
fd
fd
f0
fc
fc
fc
fe
00
02
fd
02
fe
fe
f8
09
09
00
00
02
00
fb
fa
fb
fd
fe
fb
fd
03
f5
fc
fe
fb
fa
ff
fc
01
f6
f9
fa
fe
fc
fe
f3
fa
f8
fb
01
fa
ff
fc
fc
f5
02
fe
fb
fc
fa
02
fc
fc
fb
fe
05
f9
ff
fb
f9
04
f4
fd
fc
02
f9
fb
fd
02
f7
ff
f4
04
fa
ff
07
04
fa
fe
ff
fa
02
1e
fa
f9
03
fa
05
04
fc
fc
0a
04
ff
fe
fe
fb
ff
0a
f6
fd
f8
02
f9
fb
f8
f6
03
ff
fc
00
f5
f6
fe
f6
00
17
f9
00
00
fc
fe
eb
fc
fc
fe
fd
ff
04
f6
fa
f2
fe
f8
f2
f1
fd
f8
00
fd
00
fe
fd
fc
fc
fe
02
01
f7
f6
03
14
f4
ff
fc
fe
01
02
f7
fa
fc
fa
07
fc
04
ff
fd
eb
02
ff
01
fd
f0
02
fb
f7
f9
f6
f7
fb
02
fe
fc
09
fd
fe
fe
ff
fd
f9
fb
fd
fe
fd
fc
fc
f8
fe
f7
02
fc
ff
fb
03
07
f9
fa
08
fd
07
fc
f2
02
fd
f7
0a
ef
fe
f7
03
09
fd
fe
f9
02
fa
01
0a
f8
fa
f9
02
fc
f6
03
fa
05
fa
12
fc
fc
f4
f8
fb
03
fd
fe
f5
04
ff
fd
fd
f0
fc
fc
fc
fe
01
02
fd
03
fd
fe
f8
09
0a
00
00
02
00
fb
fb
fb
fd
fe
fa
fd
03
f5
fc
fe
fb
fa
fe
fd
01
f6
f9
fa
ff
fd
fe
f3
fa
f7
fb
01
fa
ff
fb
fc
f5
02
fe
fb
fa
fa
02
fc
fb
fa
fe
05
f9
ff
fb
f9
04
f4
fd
fc
02
f9
fb
fd
03
f7
ff
f4
04
f9
ff
07
04
f9
fd
ff
fa
01
1e
fa
f9
03
fa
06
04
fc
fc
0b
04
ff
ff
fe
fb
fe
0a
f6
fd
f9
02
f9
fb
f9
f6
03
00
fd
00
f5
f6
ff
f7
00
16
f9
00
01
fc
fe
eb
fc
fc
00
fd
ff
04
f6
fa
f2
fe
f8
f2
f1
fd
f8
00
fc
00
fe
fd
fd
fc
fe
02
00
f7
f6
03
14
f4
ff
fc
fe
00
02
f7
fa
fc
fa
07
fc
04
ff
fd
eb
02
fe
01
fc
f0
02
fa
f7
f8
f6
f7
fb
02
fe
fc
09
fd
fe
fe
ff
fd
f9
fb
fd
fe
fd
fb
fc
f8
fe
f8
02
fc
ff
fb
03
07
f9
fb
08
fd
07
fc
f2
03
fd
f7
0a
f0
fe
f7
03
08
fd
fe
f9
02
f9
00
0a
f7
fa
f9
02
fc
f6
03
fb
05
fa
12
fd
fd
f5
f8
fb
03
fd
fe
f5
04
fe
fc
fc
f0
fc
fc
fb
fe
01
03
fe
03
fe
fd
f8
0a
0b
00
00
02
00
fa
fa
fb
fe
fe
fa
fd
03
f5
fc
fe
fb
fa
ff
fc
01
f7
f9
fa
fe
fc
fe
f3
fa
f8
fc
01
fa
ff
fc
fc
f6
02
fe
fb
fb
fa
02
fc
fc
fa
fe
05
f9
ff
fc
f9
04
f3
fd
fc
02
f9
fc
fd
02
f7
00
f5
05
f9
ff
06
04
f9
fe
ff
fa
02
1d
fa
fa
03
fb
06
03
fc
fc
0a
04
00
fd
fe
fb
ff
0a
f6
fd
f9
02
f9
fb
f9
f5
03
ff
fd
00
f5
f5
ff
f6
00
16
f9
00
01
fc
fe
eb
fc
fc
00
fd
00
03
f6
fa
f2
fd
f8
f2
f1
fe
f7
00
fd
00
fe
fd
fd
fc
ff
02
00
f7
f6
03
14
f5
fe
fc
fe
00
02
f7
fa
fc
fa
07
fc
02
ff
fc
eb
02
ff
00
fd
f0
02
fb
f7
f9
f6
f7
fb
02
fe
fb
09
fd
fe
fe
ff
fc
fa
fb
fd
fe
fd
fc
fc
f9
fe
f7
02
fb
ff
fb
03
07
f9
fb
08
fd
07
fc
f2
01
03
fe
01
ff
fc
01
00
ff
00
03
ff
01
fe
02
01
fb
ff
00
01
00
00
00
fa
03
fd
02
04
fc
ff
00
05
00
00
fd
00
ff
02
02
fd
01
ff
ff
ff
00
03
01
02
ff
ff
01
fd
01
06
00
01
00
fb
ff
ff
05
00
00
03
01
00
01
fa
fe
05
f8
00
00
01
ff
ff
03
00
00
ff
03
05
04
00
ff
01
00
fc
05
00
ff
07
00
fe
00
00
00
00
ff
fc
fa
fd
f9
ff
05
00
00
03
fd
00
00
fc
00
01
05
fe
00
05
ff
ff
ff
01
00
fe
f3
fe
ff
f7
00
03
01
00
ff
01
01
00
ff
00
fb
00
00
03
04
ff
00
00
fd
0c
01
fe
01
ff
0b
fe
00
ff
03
00
ff
00
04
01
00
01
00
05
03
00
05
ff
00
01
fb
01
ff
00
fe
04
00
00
01
fa
01
00
05
01
00
ff
fe
05
fd
fd
f8
00
00
ff
02
03
fe
ff
02
01
00
f8
ff
00
fe
01
01
00
00
02
00
f3
ff
01
06
02
ff
00
00
01
fd
ff
04
0b
03
03
04
00
04
fd
fd
fe
ff
fc
ff
01
00
04
fc
00
01
ff
01
04
fa
05
00
02
fe
01
00
00
00
fc
fe
00
03
fe
01
ff
fc
01
00
00
00
03
ff
01
fe
02
00
fb
ff
00
01
00
00
00
fa
03
fd
02
04
fc
ff
ff
05
00
ff
fd
00
ff
02
02
fd
01
00
ff
ff
00
03
01
02
ff
ff
01
fd
01
06
00
01
00
fb
ff
ff
05
00
00
03
00
00
01
fa
ff
05
f8
00
00
01
ff
ff
03
00
00
ff
03
05
04
ff
ff
00
00
fc
05
00
ff
07
00
fe
00
00
00
00
00
fc
fa
fd
f9
ff
05
00
00
03
fd
00
00
fc
00
01
05
fe
00
05
ff
ff
ff
01
00
fe
f3
fe
ff
f7
00
03
01
00
ff
01
01
00
00
00
fb
00
00
03
04
ff
00
00
fd
0c
01
fe
01
ff
0b
fe
ff
00
03
01
ff
00
04
02
00
01
00
05
03
00
05
ff
01
01
fb
01
00
00
fe
04
00
00
01
fa
01
ff
05
01
00
ff
fe
05
fd
fd
f8
00
00
ff
02
03
fe
ff
02
01
00
f8
ff
00
fe
01
01
00
00
02
00
f3
ff
01
06
02
ff
00
00
01
fd
ff
04
0b
03
03
04
00
04
fd
fd
fe
fe
fc
ff
01
00
04
fc
01
01
ff
00
04
fa
05
00
02
fe
01
00
00
00
fc
fe
01
03
fe
01
ff
fc
01
00
ff
00
03
ff
01
fe
02
01
fb
ff
00
01
00
00
ff
fa
03
fd
02
03
fc
ff
00
05
00
ff
fe
00
ff
02
02
fd
01
ff
ff
ff
00
03
01
02
ff
ff
01
fd
01
06
00
01
00
fb
ff
ff
05
00
00
03
01
00
01
fa
ff
05
f8
00
01
01
ff
ff
03
00
00
ff
03
05
04
00
ff
00
00
fc
05
00
00
07
00
fe
00
00
00
01
00
fc
fa
fd
f9
ff
05
00
00
03
fd
00
01
fc
00
00
05
fe
ff
05
ff
ff
ff
00
00
fe
f3
fe
ff
f7
00
03
01
00
ff
01
01
00
00
00
fb
00
00
03
04
ff
00
00
fd
0c
01
fe
01
ff
0b
fe
ff
00
03
01
ff
00
04
02
00
01
00
05
03
00
05
ff
00
01
fb
01
ff
00
fe
04
00
00
01
fa
01
ff
05
01
00
00
fe
05
fd
fd
f8
00
00
00
02
03
fe
ff
02
01
00
f8
ff
00
fe
01
01
00
00
02
00
f3
ff
00
06
02
ff
00
00
01
fd
ff
04
0b
03
03
04
00
04
fd
fd
fe
fe
fc
ff
01
00
04
fc
01
01
ff
00
04
fa
05
00
02
fe
01
00
00
00
fc
fe
01
fd
02
02
02
00
01
01
02
07
ff
03
fe
01
03
01
00
03
02
00
04
fc
00
00
ff
fe
00
00
fe
fe
03
ff
01
00
00
01
fd
ff
fe
01
ff
fb
00
01
f7
00
02
ff
ff
01
05
02
ff
fe
00
f4
fc
00
fc
fb
01
03
09
ff
04
fe
ff
01
fd
00
00
00
fc
fe
00
05
fe
03
06
ff
01
00
ff
fe
00
03
09
00
00
05
05
00
ff
00
fc
00
03
00
f4
01
ff
01
00
01
02
02
01
00
00
ff
f8
ff
00
01
ff
01
03
06
08
fb
fa
02
07
fe
00
02
fe
02
fb
ff
00
00
0b
fb
fd
fb
00
04
01
f9
01
fe
01
fa
03
03
ff
00
00
fd
fc
04
00
fd
fb
00
00
fd
01
02
fc
00
fc
01
01
02
03
01
00
03
fb
fa
01
00
ff
fa
ff
02
02
fd
01
ff
01
06
01
fc
04
09
00
00
04
fe
00
f9
09
01
01
00
fd
02
00
01
ff
00
05
f8
01
00
fd
06
ff
00
00
ff
f8
00
00
00
03
00
fb
fb
00
ff
fd
00
04
00
ff
08
00
fd
00
00
03
00
fa
01
07
01
01
05
03
01
03
02
ff
fe
fe
01
00
03
00
03
00
fe
01
00
fd
02
02
02
00
01
01
03
07
ff
03
fe
01
03
01
00
03
02
00
04
fc
00
00
ff
fe
00
00
fe
fe
03
ff
01
00
00
01
fd
ff
fe
01
ff
fb
00
01
f7
00
02
ff
ff
01
05
02
ff
fe
01
f4
fc
ff
fc
fb
00
03
09
ff
04
fe
ff
01
fd
00
01
00
fc
fe
00
05
fe
03
05
ff
00
00
00
ff
00
03
09
ff
00
05
05
00
ff
00
fc
00
03
00
f4
01
ff
01
00
01
02
02
01
00
00
ff
f8
ff
00
01
ff
01
03
06
08
fb
fa
01
07
fe
00
02
fe
02
fb
ff
00
00
0b
fb
fd
fb
00
04
01
f9
01
fe
01
fa
03
03
ff
ff
00
fd
fc
04
00
fd
fb
00
00
fd
00
02
fc
01
fc
01
01
02
03
01
00
03
fc
fa
00
00
ff
fa
ff
02
02
fd
01
ff
01
06
01
fc
04
09
00
00
03
fe
01
f9
09
01
01
00
fd
02
00
01
ff
00
05
f8
01
00
fd
06
ff
00
00
ff
f8
00
00
00
03
00
fb
fb
00
ff
fd
00
04
ff
ff
08
00
fd
00
01
03
00
fa
01
07
01
01
05
03
01
03
02
00
fe
fe
01
00
03
00
03
00
fe
00
00
fd
02
02
02
00
01
00
03
07
ff
03
fe
01
03
01
00
03
02
00
04
fc
00
00
ff
ff
00
00
fe
fe
03
ff
00
00
00
01
fd
ff
fe
01
ff
fb
00
01
f7
00
02
ff
ff
01
05
02
ff
fe
01
f4
fc
00
fc
fb
01
03
09
ff
04
fe
ff
01
fd
01
01
00
fc
fe
00
05
fe
03
05
ff
01
00
ff
ff
00
03
09
00
00
05
05
00
ff
00
fc
00
03
00
f4
02
ff
01
00
01
02
02
01
00
00
ff
f8
ff
00
01
ff
01
03
06
08
fb
fa
01
07
fe
00
02
fe
02
fb
ff
00
00
0b
fb
fd
fb
ff
04
01
f9
01
fe
01
fa
03
03
ff
ff
00
fd
fc
04
00
fd
fb
00
00
fd
00
02
fc
01
fc
01
00
02
03
01
00
03
fb
fa
00
00
ff
fa
00
02
02
fd
01
ff
01
06
01
fc
04
09
00
00
03
fe
00
f9
09
01
01
00
fd
02
00
01
ff
00
05
f8
01
00
fd
06
ff
00
00
ff
f8
00
00
00
03
00
fb
fb
00
ff
fd
00
04
00
ff
08
ff
fd
00
00
03
00
fa
01
07
01
01
05
03
01
03
02
00
fe
fe
01
ff
03
00
03
00
fe
01
ff
05
04
02
ff
ff
fa
00
12
00
07
00
08
06
02
0e
ff
00
01
00
05
ff
01
ff
fd
fe
03
04
01
00
02
04
09
04
06
02
06
08
fe
fe
01
03
04
02
fc
01
ef
05
ff
f6
fe
03
07
08
06
00
ff
00
00
ff
00
ff
00
01
fe
0b
f5
ff
fc
00
fd
06
00
08
03
03
01
fa
03
04
00
ff
ff
05
fc
02
01
02
fd
00
04
ff
02
01
ff
08
05
02
ff
01
04
03
fe
04
00
f7
01
fd
ff
04
ff
01
02
14
00
05
fe
fc
ff
fd
08
fd
fe
01
01
fe
fd
03
03
00
fc
05
ff
ff
00
03
09
ff
01
02
0d
01
05
03
01
01
00
fc
fb
02
01
ff
00
04
fd
10
ff
fc
03
02
fe
f8
fe
04
0f
fe
ff
00
00
ff
fb
ff
ff
11
02
01
01
00
02
ff
00
fd
00
02
01
04
00
fe
03
ff
fd
f2
03
01
00
08
f1
00
01
02
04
01
f8
01
01
00
00
09
02
fe
fb
02
01
fc
fe
00
02
00
fd
03
00
00
00
02
01
02
00
fc
01
01
00
ff
02
08
02
00
01
04
01
01
00
03
00
04
03
fd
ff
00
12
06
00
01
f1
00
fc
00
01
46
03
03
01
00
ff
fa
00
0c
00
05
00
05
05
01
09
ff
ff
01
ff
03
ff
01
ff
fe
ff
02
04
00
00
01
02
06
02
04
02
03
05
ff
ff
00
02
03
01
fe
00
f3
03
00
fa
ff
02
0b
05
04
00
00
ff
01
00
ff
ff
01
01
ff
0a
f7
ff
fd
00
ff
04
00
05
02
02
01
fc
01
05
00
ff
00
03
fd
01
00
01
ff
00
02
ff
01
01
ff
05
03
01
ff
00
03
02
ff
03
00
fa
01
fe
ff
03
00
01
01
0d
00
03
ff
fd
ff
fe
05
fe
fe
01
01
ff
fe
02
02
00
fd
03
ff
ff
00
02
09
ff
00
01
08
01
03
02
01
01
00
fe
fc
02
01
00
00
03
fe
0b
00
fd
02
01
fe
1f
ff
02
0a
fe
ff
00
00
00
fd
ff
ff
0b
02
01
01
00
01
ff
00
fe
00
01
01
03
00
fe
02
ff
fe
f7
02
01
00
05
f6
00
01
01
03
ff
fb
01
01
00
00
06
01
fe
fd
01
00
fd
fe
fa
01
00
fe
02
01
00
00
01
01
01
00
fe
01
00
00
ff
01
05
00
00
01
03
01
00
00
03
00
05
02
fe
ff
00
0a
04
00
01
f6
01
fe
00
00
0a
04
04
02
ff
ff
fa
00
11
00
06
00
07
06
01
0d
ff
ff
01
00
05
ff
01
ff
fe
ff
03
04
01
00
02
03
08
03
05
02
06
07
fe
fe
01
03
03
01
fd
01
f0
04
ff
f8
fe
02
0c
08
05
01
00
00
00
ff
ff
00
00
01
fe
0b
f5
ff
fc
00
fe
06
00
07
03
03
01
fc
02
05
00
ff
00
05
fd
02
01
02
fe
00
03
ff
02
02
ff
07
04
01
00
01
04
03
fe
04
00
f8
01
fd
ff
04
00
01
02
12
00
04
ff
fd
ff
fe
07
fd
fe
01
01
fe
fe
03
03
01
fd
04
00
ff
00
02
0a
ff
00
02
0c
01
05
03
01
01
00
fd
fb
02
01
ff
ff
03
fd
0f
00
fc
03
02
fe
0c
fe
03
0e
fe
ff
00
ff
ff
fc
ff
ff
0f
02
01
01
01
02
ff
00
fe
00
01
01
04
00
fe
03
ff
fd
f4
03
01
ff
07
f3
00
01
02
03
02
f9
01
01
00
01
08
02
fe
fc
02
00
fc
fe
02
02
00
fd
03
00
00
00
02
01
02
00
fd
01
00
00
ff
02
07
01
00
01
04
01
01
00
03
00
05
03
fd
ff
ff
10
06
00
01
f3
00
fd
00
01
ed
03
fd
02
fe
ff
04
05
10
ff
02
ff
05
01
02
11
00
fe
03
1a
ff
00
07
ff
fe
01
fc
fe
00
02
01
00
06
08
03
00
04
09
02
fe
00
02
04
05
fa
01
02
03
fb
01
01
02
0c
09
16
00
f8
ff
00
00
01
02
02
02
fe
0a
01
00
fa
00
ff
06
ff
fe
01
03
01
05
03
05
00
ff
ff
06
01
02
01
01
ff
00
05
01
05
01
ff
05
01
06
fe
00
03
02
01
01
ff
08
03
fc
03
04
fe
00
03
fc
01
04
01
fc
fd
00
0e
f5
ff
02
01
00
fb
05
06
03
fc
05
fd
01
03
06
10
f9
02
03
13
fd
04
01
02
03
00
ff
f9
03
02
02
00
02
ff
0a
02
f9
f2
01
fd
f0
fa
08
07
ff
00
00
fe
00
fe
fe
00
0c
05
02
ff
01
02
fe
ff
fe
00
01
01
06
fe
fe
06
ff
fd
00
02
01
ff
f1
09
01
00
02
08
08
02
01
01
00
00
09
01
ff
ff
02
00
fd
fd
fc
01
01
02
04
00
03
00
03
01
01
ff
fe
01
02
00
00
fd
03
02
ff
00
04
02
01
00
fb
00
03
02
fe
ff
00
0c
07
01
ff
f3
00
f4
ff
01
2b
02
fe
01
ff
ff
05
03
0d
00
02
00
04
01
02
0c
00
ff
02
13
ff
00
05
ff
ff
00
fe
fe
00
01
01
00
04
05
02
00
05
06
01
ff
00
02
03
03
fc
00
02
02
fd
01
01
02
11
08
0f
00
fb
ff
00
00
00
02
01
02
ff
08
00
00
fc
00
ff
04
00
fe
01
02
00
05
02
04
00
00
00
05
01
02
00
01
ff
00
03
00
03
01
00
03
00
04
fe
00
02
01
01
01
00
06
02
fe
02
03
ff
00
03
fd
01
03
02
fd
fe
01
0a
f8
ff
01
00
00
fd
03
05
02
fd
04
fe
00
02
04
0e
fb
01
02
0d
fe
02
01
02
02
00
ff
fb
02
01
02
00
01
ff
08
01
fb
f7
01
fe
1a
fc
06
06
ff
00
00
ff
ff
ff
fe
00
08
04
02
00
01
02
ff
00
ff
00
00
01
04
fe
ff
04
ff
fe
00
01
01
00
f6
07
01
00
01
05
07
02
00
00
00
00
06
01
ff
ff
01
00
fe
fe
fd
01
00
01
03
00
02
00
02
01
01
00
ff
01
02
00
ff
fe
01
01
00
00
03
02
01
00
fc
00
02
01
fe
ff
00
08
05
00
00
f7
00
f8
00
00
50
02
fe
01
ff
ff
05
02
09
00
01
00
03
00
02
0a
00
ff
02
0f
ff
00
04
00
ff
00
fe
fd
00
02
01
00
03
05
02
00
03
05
01
ff
00
01
02
03
fd
00
01
02
fd
01
01
01
0e
06
0d
00
fb
ff
00
00
01
01
01
01
ff
06
01
00
fc
00
ff
03
00
ff
00
02
00
03
01
04
00
00
ff
04
01
01
01
01
ff
00
02
00
03
00
00
03
01
04
fe
00
02
01
01
01
00
05
02
fe
02
02
ff
00
01
fe
01
03
02
fe
fe
00
08
f9
ff
01
00
00
fe
03
04
01
fe
03
ff
00
02
04
11
fc
01
02
0b
ff
02
01
01
02
00
00
fc
02
01
01
00
01
00
06
00
fb
f8
01
fe
24
fd
05
05
ff
00
00
ff
00
ff
ff
00
07
03
02
ff
01
02
ff
ff
ff
00
00
00
03
ff
ff
04
00
fe
00
01
01
00
f8
05
00
00
01
04
07
02
00
00
00
00
05
00
ff
ff
01
00
fe
fe
f5
00
00
01
02
00
01
00
02
01
00
00
ff
01
02
00
ff
fe
01
01
00
00
02
01
01
00
fd
00
03
01
ff
ff
00
06
04
01
00
f8
00
f9
00
00
00
00
00
00
00
00
00
00
00
00
00
00
00
00
00
00
00
00
00
00
00
00
00
00
00
00
00
00
00
00
00
00
00
00
00
00
00
00
00
00
00
00
00
00
00
00
00
00
00
00
00
00
00
00
00
00
00
00
00
00
00
00
00
00
00
00
00
00
00
00
00
00
00
00
00
00
00
00
00
00
00
00
00
00
00
00
00
00
00
00
00
00
00
00
00
00
00
00
00
00
00
00
00
00
00
00
00
00
00
00
00
00
00
00
00
00
00
00
00
00
00
00
00
00
00
00
00
00
00
00
00
00
00
00
00
00
00
00
00
00
00
00
00
00
00
00
00
00
00
00
00
00
00
00
00
00
00
00
00
00
00
00
00
00
00
00
00
00
00
00
00
00
00
00
00
00
00
00
00
00
00
00
00
00
00
00
00
00
00
00
00
00
00
00
00
00
00
00
00
00
00
00
00
00
00
00
00
00
00
00
00
00
00
00
00
00
00
00
00
00
00
00
00
00
00
00
00
00
00
00
00
00
00
00
00
00
00
00
00
00
00
