030101ffed
fd03fd0403
f7fe0204fd
0a02020202
efff01fffe
fefc00ffff
f70101fa04
0300010004
07ff021210
fdff0700ff
ff03ff0702
faff0301ff
0201fe0805
fafe000601
0101030102
0a01010e11
f8fc00ff00
faff03fffe
f900010102
0201000019
fc000405ff
f600fcffff
0300000107
fbfa00ffff
0504fffdfe
fafdfeff00
12010003fc
fd040004fe
fbfcfe0100
f5fffe0002
f8ff020201
fa05ff0300
0300000a07
fd00000408
fdfe010503
f5ff010301
02fffd0604
ff01000809
fd02fefe01
fdfd01fefe
f000ff0000
fc00fb0302
fcffff0404
fcff010205
fe00f7fcfa
0003000101
020102ef02
fd02ff0503
02fffffffb
feff00f701
fe0005fe01
f8fd010202
0901ff070c
0906ff0809
0000010516
0000f40000
02fffcfff8
00fbffffff
fbfffc0000
fafffbffff
fb05010001
fd0003ff02
fe00090001
fb03ff0102
fd0104fefe
0300fe0b0a
f501fff501
fcfa01ff00
fefffdfcfa
fb05010000
faf801feff
ff00000706
fc01fc00ff
0101fe08fe
f6ffff0301
f9ff050304
fa03fe0101
fe0003fa05
fcff060303
feffff0405
f30301ffff
fa0500ffff
f80400ffff
fb00ff0506
01ff00fc02
fa00030203
ff00090101
fcfc000201
fc0500fdff
f50005ff00
0200050305
fe0700ff02
fb00ff0205
fcfe000201
fa00fcffff
0200000805
fc00030501
fc01000206
fb00f4fffe
fefc010100
05fa000404
f9fd010302
fff900fe02
fbff010401
f9050100ff
040002f708
f400010103
fd0200fdfc
fcfd00fe03
0200ff0304
f900f8fffe
fbfcff0100
fd00000203
02000114fc
f705ff0101
fffe010504
f40003fe01
040506fcfc
fa0008fffd
fffffbfd00
07fffa080e
040002fdf5
fa0007feff
fefefe0102
fff3000100
fafe02fe00
02fffefdfb
1ef7020304
fa00fb0306
f903ff0103
030100fcfc
faff000405
05ff0bfffe
0401fbff01
fc01fd0003
fc00fb0306
0aff000910
040004fff9
fffb010102
fefff90203
fe00010c13
fb03fd01fd
ff04010503
0afffa0301
f6ff030002
fd00030103
f8fd000100
020cfffdff
f90100fbf9
fbfffd0203
f801fc0102
f6ff04ff02
030b00ff00
fffefd0401
fc00fbfdff
00ff00100a
f503000002
f600fdfcf9
feff0103f2
f600020202
0004fcfefd
170100f7f0
f900fcfefa
0001000307
0000010e07
fc0502feff
fe0303ff00
eb00010001
fc0500fffe
fcff03ff00
fe00fbfbfe
fd00fbfffe
fffb01ffff
040000110c
f6ffff0205
fa00fa0203
f2fe0001ff
fe04020001
f800020202
f200fdfffe
f1010100ff
fdfafffdfe
f801010100
0000060201
fd05010100
0001fc0406
feff0400fe
fd0009fefe
fcfe000306
fc0500ffff
fefe03fdfc
02fefef200
01f8010301
f700f90001
f60009ffff
03ff0107f1
140200f109
f403000001
fffefd0100
fcff020202
fe02000308
0101010108
020000f802
f7f8000001
faff050101
fc00f80000
fafe010000
0701000908
fc01fd0201
040006ffff
ff00fffcff
fd02000202
ebff000000
02f3fffcfd
ff00f8fefd
01010000fc
fd06000201
f002000001
02ff03fd01
fb00000304
f700fb00ff
f900fb0003
f6fd000000
f7ffff0302
fb04fe0101
020b000101
fe030300ff
fc03fffcfe
0904ff0101
fd01080102
fe04ff0000
fefdfdffff
fffd0101fd
fdfe010802
f9fe030102
fbfc0000ff
fdfffa0100
fe01020404
fd00070102
fc04010101
fcfc0100ff
f8000503fb
fe010300ff
f7ff010403
0201030302
fc0402fdfd
fffaffffff
fc05feff00
0300fe110b
0702010606
f9feff0000
fa010301ff
080000f1f3
fd00030100
070000fdf3
fcfcfe00ff
f2fe000101
020000462b
fd03fd0302
f7fe0203fe
0a02020201
efff01ffff
fefc0000ff
f70101fa05
0300000002
0900020c0d
fd0007ffff
fe02000502
f9ff0300ff
0201fe0504
fafe010501
0101020101
0a0101090c
f8fc00ff00
faff0300ff
f900010102
020100ff13
fc000403ff
f600fc00ff
0300000005
fafa000000
050400feff
fafdfeff00
1201ff02fd
fc040004fe
fcfcfe0100
f4fffe0002
f8ff030101
fb05ff0200
0300000605
fd00000305
fefe010402
f5ff010201
04fffd0405
ff01ff0506
fd02fefe01
fdfd01fffe
f000ff0000
fc00fb0201
fcffff0203
fcff010103
fe00f7fdfc
0103000101
020102f301
fd02ff0302
03fffffffd
fdff00fa01
fe0005ff01
f8fd020202
0901ff0b11
0a06ff0508
000001040f
0000f40000
02fffc00fa
00fbff0000
fb00fc0100
fbfffb00ff
fb05010000
fd0003ff01
fe00090001
fa03ff0102
fd0004ffff
0300fe0a08
f501fff700
fcfa000000
fefffdfefc
fb05010000
faf801feff
fe00000404
fd01fc00ff
0102fe06ff
f6ffff0201
f9ff050203
fa03fe0000
ff0003fc04
fdff050202
feffff0504
f303010000
fa05000000
f8040000ff
fbffff0405
010000fe01
fa01030102
ff00090101
fbfcff0201
fc0500ff00
f500050000
0200050203
fe07000001
fb01ff0104
fafe000101
fa00fcffff
0200000503
fc00030300
fb00000104
fa00f400ff
fefc010100
05fa000302
f9fd000202
fff900ff01
fbff010201
f9050200ff
040002fa05
f400010003
fd0200fefe
fcfd00ff02
0200ff0303
f900f800fe
fbfcff0100
fd00000102
0300010dfd
f705ff0001
fffe000303
f400030002
040506fdfd
f90008fffe
fffffbfe00
07fffa0509
040102fef8
f90007feff
fdfefe0001
fff3000100
fafe02ff00
0100fefefc
1ef7010203
fa00fb0204
f903ff0102
030100fdfd
faff000303
06ff0bfffe
0401fbff01
fc01fd0002
fc00fb0104
0b0000090e
040004fffb
fffb010101
ff00f90102
fe0001080d
fb03fd00fe
fe04010302
0afffa0201
f6ff030001
fd00030102
f9fdff0001
020c00feff
f90100fcfb
fbfffd0202
f901fc0101
f6ff04ff02
030b010000
00fefd0301
fd00fbfeff
00ff000a08
f503000001
f600fdfdfa
ffff0102f7
f700020201
0004fcfefe
1602011f19
f900fcfffc
0001000205
0100010a05
fc0502feff
fe0303ff00
eb00010000
fc0500ffff
fcff03ffff
0001fbfdff
fd00fbffff
fffb010000
0400000b08
f600ff0104
fa00fa0102
f2fe000100
fe04020000
f800020101
f200fdffff
f1010100ff
fdfafffeff
f801010100
0000060101
fc05010000
0001fc0304
fe000400ff
fd0009fffe
fdfe000204
fc0500ffff
fefe03fefe
02fdfef700
00f8000201
f700f90001
f60109ffff
03ff0105f6
140200f606
f403000001
fffefd0100
fcff020101
fe02000205
000101ff07
020000fb02
f7f8000001
faff050101
fc00f80000
fafe010000
0701000606
fc01fd0100
040006ffff
ff00fffd00
fd02000101
ebff000000
02f3fffdfe
fe00f8fefe
010100fafd
fc06010101
f002000001
020003fe01
fa00000202
f700fb00ff
f800fb0002
f6fd000000
f7ffff0202
fb04fe0100
020b000101
fe03030000
fc03fffefe
0904ff0101
fd01080001
fe04ff0000
fefdfd0000
fffd0101fe
fdfe000501
f9fe030101
fbfc0000ff
fdfffa0000
fe01020303
fd00070101
fb04010101
fcfc010000
f8000503fc
fe01030000
f8ff010502
0201030201
fc0402fefe
fffaffffff
fb05fe0000
0300fe0a08
0702010404
f9fe000000
fb010300ff
080000f6f7
fd00030100
070000fef8
fcfcfe00ff
f2fe000001
0301000a50
fd03fd0402
f7fe0204fe
0a02020201
f0ff01ffff
fefc00ffff
f70101fa05
0300000002
08ff031109
fd000700ff
fe03ff0601
f9ff0300ff
0201fe0703
f9fe000601
0001030101
0a01010c0a
f8fc000000
faff03ffff
f900020101
020100000f
fc000405ff
f600fcff00
0300000104
fbfa00ff00
050400feff
fafdffff00
12020002fd
fd030004fd
fdfcfe0100
f5fffe0002
f8ff030201
fb05ff0300
0300000904
fd00000404
fefe010501
f5ff010200
04fffd0603
fe01ff0705
fc02fefe01
fcfd01fefe
f000000000
fcfffb0301
fcffff0302
fbff010203
fe01f7fcfd
0103000100
030102f001
fe02ff0402
03fffefffd
feff00f801
fd0105fe01
f8fd010201
0a01ff0c0e
0b06fe0806
000000050d
0000f40000
02fffc00fb
00fbff0000
fa00fc0000
fafffbffff
fb0501ff00
fe0003ff01
fe00090000
fa03ff0101
fd0004feff
0300fe0b06
f501fff501
fcfa01ff00
fefffdfdfd
fb05000000
faf801fe00
ff00000604
fc01fc0000
0102fe07ff
f7ffff0300
f900050302
fa03fe0100
fe0003fc03
fcff050201
feffff0504
f3030100ff
fa0500ff00
f80400ff00
fc00ff0504
01ff00fd01
fa00030201
ff00090100
fcfcff0200
fc0500fe00
f600050000
0200050303
fe0700ff01
fb01ff0203
fbfe000100
fa00fcff00
0200000703
fc00030400
fc00000103
fa00f4ffff
fefc010100
05fa000402
f9fd000301
fff900fe01
fcff010301
f905010000
040002f805
f300010102
fd0300fdfe
fcfd00fe02
0200ff0302
f900f8ffff
fcfcff0100
fd00000201
02000112fd
f705ff0101
00fe000402
f50003ff02
050506fdfd
f90008fffe
fffffbfe00
0600fa0708
040102fdf9
f9ff07feff
fefefe0101
fff3000100
fafe02fe00
02fffefdfd
1df7010202
fa00fb0303
fa03ff0101
030100fcfd
fbff000403
06ff0bffff
0301fbff00
fc01fd0001
fc00fb0204
0a00ff0a11
040004fefc
00fb010101
fd00f90202
fe00010b0b
fb03fd01fe
ff04010402
0afffa0200
f6ff030101
fd00020101
f9fdff0100
020c00fdff
f90100fbfc
fbfffd0202
f901fc0001
f5ff04ff01
030b00ff00
fffffd0301
fd00fbfdff
0000000e06
f503000000
f500fdfcfb
ff000003f8
f600020201
0004fcfefe
1602010c24
f900fcfefd
0001000304
0100010d04
fc0502fe00
fe0303ff00
eb00010100
fc050000fe
fcff03ffff
0000fbfcff
fd00fbffff
00fb010000
0300000f07
f600ff0203
fa00fa0201
f2fe000100
fd03020001
f800020201
f200fdffff
f1010100ff
fefafffdff
f701010100
00ff060100
fd05010000
0001fc0303
ffff0400ff
fd0009feff
fdfe000304
fc0500ffff
fffe03fdfe
02fdfef400
00f7000301
f700f90001
f60009ffff
03ff0107f7
140200f305
f503000101
fefefd0100
fcff020101
fe02000305
0001010207
020000f901
f7f8000100
faff050101
fc00f80000
fafe010000
0701000805
fc01fd0101
02ff06ffff
ff00fffc00
fc02000201
eb00000000
02f3fffcfe
ff00f8fefe
00000002f5
fd06010201
f002000001
020003fd01
fb00000302
f700fb0000
f900fb0001
f6fd000000
f7ffff0201
fb04fd0001
020b000101
fe03030100
fb03fffdff
0904ff0101
fd01080001
fe04ff0000
fefdfdff00
fffd0101ff
fcfe000601
fafe030101
fbfc0000ff
fdfffa0000
fe01020403
fd00070101
fc04010100
fcfc0100ff
f9000503fd
fe010300ff
f7ff010503
0200030301
fb0402fdff
fffa00ffff
fb05fe0000
0300fe1006
0702010503
f9feff0001
fb01030100
080000f3f8
fd00030000
070000fdf9
fcfcfe0000
f2fe000101
