ff0001ff02
0100030202
0001ff0000
ffffffff01
ff0300fd02
02ff020001
00ff00fdfe
00ff010102
fcfe020101
00fffc0200
fcfffd0200
ff0001ff00
04ff00fd00
0000fffe00
00040002f6
02fe00fc01
fefe010301
02fe0100ff
0001000002
fe00ff03fe
fefe01ff00
ff00010100
ff0002fffd
0101ff0301
00ff0200fc
ff01000102
0000010100
0202fffe04
000003fb00
000503ff03
03fe02ff00
fbfe000201
01ff000000
0305ff01ff
0002060002
fefffcfeff
01010201ff
0203fdfe01
fcfdfffe00
ff0100fafe
030202fd00
01ff02fe01
fbff0500ff
fdfc05fb03
01fdff03ff
fffcff0104
00000001ff
ff02feff02
0000fe0001
02fe03ff01
030200fefd
ff01000000
ff06010002
02ff02fefe
fe0302fd00
01feff03fe
fe00fd0705
fffe000101
01ff03fb05
f9fffefb04
01fc03ff02
000100fdfe
ff0203fd01
ff0000fa02
0201fdf9fb
ff00fc0000
0102feff02
fe070006fc
fd01000200
ff01fc00ff
01fffd0000
00fffefc00
00fd0000fe
feff0002ff
fbff000002
fe0103fefc
000100fc00
050100ff02
0203ff0101
0007000301
0000ffff01
010000ff02
ffff040001
000100ff01
feff00fd01
0002010000
02fe02fd01
fe03010001
fefe01fc01
03ffff0203
0103fe0104
06fffd0401
0201ff0100
fffe010302
00ffff0301
02fd010103
0002020000
ff02020105
02ff0200fe
fdfdfdfe03
02fcff0002
01000000fd
ff0205fc01
02fe04ff01
0202fffdff
020001fdfe
fd000003ff
02040302ff
01fe040002
0201010000
00ff000102
01fefefc00
fd0300ff00
fe0301fffd
fefe02ff01
fefd0001fc
0001fffffd
0001fe0201
02fe020000
0000ff00fc
01fefcfffe
01fd00fe00
0302fe0000
fffd02fe01
fefffe0100
ff01fe0103
fefeff0000
01fefffe03
fcfdff0201
ff01ff00ff
02ff0008fd
ff010003ff
fd04ffff00
020104fe01
0402fffffe
fe050202fd
0000ff01fe
0003fe02fe
06fe010004
ff03010305
ff0001fdfe
fe0102fd00
fe010201ff
ff01fd03ff
fff61a2800
2827212600
ff0000fe00
02ff02fe00
fdfffc0100
fdfefe0000
00fd00ff00
fdfefdfe00
01fe03fa00
0004010000
00fe00ff00
fdff000300
fd02fd0300
03fefe0300
030200fd00
00ff00fe00
0001000000
0100fdfd00
02fefd0100
0201000100
010103ff00
0205030300
ff01050400
01fe000100
01fffdfe00
0100010100
ff0204fe00
0102fe0200
000002fd00
02fffbfe00
02ff00fd00
fe02fefd00
02ff030000
0303fe0100
ff01030100
0101000100
ff02fefe00
04ff010100
0000030100
02fefe0000
fdfffe0200
ffff02ff00
fd04fefd00
0101fffd00
fe03feff00
0204000000
0200fffe00
0001050000
0101000300
0300000200
ff00ff0100
ffff03fd00
feff020200
ffff01fe00
fd01010100
0200fd0400
fffdfeff00
fffe06fd00
0101ff0000
ffffff0000
ff01020300
03ffffff00
ff02fe0100
0601fffd00
0002010200
0103fdfd00
01fdfffd00
0000fcfe00
fe01fe0000
02fe00ff00
000201ff00
00fe020000
00fffffb00
0103fefe00
fd0100fe00
fffdf9fd00
fffefffe00
fe01000000
03fe060100
fffefc0300
fefd050000
03fd000200
01feff0000
ff00000200
00fb04fc00
01fdfb0100
fffcfc0200
00ff03fc00
ff00fdff00
01fefe0400
ff0202fd00
fffffcff00
ff01010200
0102fb0100
02fdfd0500
0102fe0000
08ffff0200
01fe04ff00
ff03020200
fefefefe00
0102ff0000
fe03ffff00
00fd00ff00
fefe040200
fe0101ff00
01fdfc0200
fe00fdfe00
040001ff00
0102fefe00
fe0100fe00
0104ffff00
fffffdfd00
fdfefcff00
fb0103fc00
050104fc00
0102fe0300
fffeff0000
0102030000
01fefefc00
00ff01fa00
ff00fefe00
00ff000200
ff02fdfb00
0301ffff00
00fc01ff00
fffffe0200
fcfdfe0100
feff030000
0100fcfc00
00080bf900
020601ff00
feff040000
01fd010000
01fe00fc00
feff000100
0303010100
fc01010000
fe0104ff00
ff04050200
fe01fd0600
fdff01ff00
00fefffc00
fe0502ff00
fe04fcfc00
0001fd0000
fe02030300
0203fa0500
0201010200
0000fe0100
01fefcff00
0201fffe00
fefdfcff00
0204040100
fb0004ff00
010304fc00
fe00fafe00
04fe02fd00
fd00fcff00
000406fc00
0005fd0000
0001000200
feff00fe00
fefcfffd00
fc01030100
0100000000
ff0202ff00
fffefd0100
ff01040600
0003fd0300
03fcfdff00
0001ff0200
fbfe01fe00
fe04fcff00
fffffe0000
0000030500
fffe00fe00
00ffff0100
010103ff00
0003060000
0301ff0300
fefffffd00
fcfeff0100
010200fd00
0202feff00
feff00fd00
02ff040000
02fd02ff00
0400000100
01fffcfc00
02ff030000
0001fc0000
0402fffe00
fe00ff0000
fffdfe0100
03ff02fb00
feffff0100
ff01fbff00
0101000000
02ff030200
fdfdfafd00
0401020000
0101010000
0001fdff00
0000fb0100
0301fd0500
03fefa0100
0006030300
01feff0100
0201fc0300
ffff010200
0404feff00
04ff000300
0002fdfe00
01fe01fe00
fdfe010100
0101fdfe00
ff03000300
0100fefe00
fe00fe0000
01fc01ff00
fd0107fe00
0001020400
00fe000100
02fe010200
fd0002fc00
00fffe0500
fe0102ff00
0000f90500
00fefd0300
fe04fe0000
00fe00fe00
ff03fffa00
0101ff0200
fb0301ff00
fdfffe0000
01fbfdfd00
000100ff00
fffe01fb00
0000ffff00
0400ff0200
0100fe0100
fe0000ff00
06fe03fe00
00fffe0100
fe0402fd00
0302000300
fcfe00fe00
02fffe0000
ff03fd0200
06fefffd00
0401fd0000
0201030200
0300ff0500
ff02020100
0102fc0100
ff03010200
00ff050000
fefdff0000
010001fe00
030718eb00
2c2b352f00
fe02020000
04fc020100
010000ff00
0102ff0200
04faff0200
fdf8fe0400
00feff0100
ffff00fd00
00ff030000
ff00fdfb00
fe00ff0100
0000fb0300
fffe010200
00fe030200
0301000200
fdff030100
ff0300fd00
ff01fe0000
fefe00fe00
05fb00fd00
0001010000
ffff02ff00
ff04fe0000
0103ffff00
ff00010100
00ff000400
000202fe00
fc01fe0000
ff02fd0300
0200fe0200
fe0102ff00
ff0100ff00
0001020200
feff01fe00
0201000000
0001ff0100
01fe00ff00
0201010000
0202fd0200
0004fefe00
000001ff00
01fe02fe00
0200ff0100
02fd01fd00
ff0402fe00
fbff010200
fffdfc0100
fd01fffe00
fffe000500
02fffdfe00
00fd010000
ffff010100
ff01fe0000
00fc02fe00
03fe020100
fffd020100
ff00fefd00
fe05000100
0000fc0200
01fe000100
ff0200ff00
0201ff0300
00ff00ff00
fe01ff0200
0503050400
fffe000400
fffc01ff00
0101fe0200
01ff030100
0101fd0000
ff00fdff00
feffff0100
000101ff00
ff03010100
fe0202ff00
0405020200
fd00fe0000
0000000000
ff0501ff00
0000fd0200
00ff01fd00
01ff000000
ff0102fe00
0102030300
0101010000
01fefffe00
ff0202fe00
04fe010200
0001fffd00
fe00ffff00
0002ff0000
010100fe00
fe03000100
0101fd0000
fdfe05fe00
ff02030100
0003010200
fefdff0300
ff02fd0300
00fd000100
ff0301fe00
fd01010200
02ff00fe00
0101feff00
fffeff0000
00fc02fd00
ffff02ff00
ff00fdfe00
0000fe0100
00ffff0000
fdff010100
02fefefd00
02ff010200
fe01fefe00
04ff01ff00
fd03fefe00
fdfeff0000
0103000100
fefeff0000
01ff00ff00
0102010100
ffff000100
00fbfffe00
fffe030300
fffe020200
fffd000300
fcff000200
fffbfd0000
ff01010300
fefd000200
01ff000200
0101010100
feffff0100
0001000300
0000ff0100
fdfc030200
00feff0400
05f9fefc00
fe02fffd00
01ff00ff00
04fdff0100
fcfffe0400
00fffe0300
00fe000200
050300fe00
ffff000200
fe0003fc00
03ffff0300
000100ff00
fe0201ff00
fd03000300
010004fc00
ff0102fe00
feff000000
fd0300ff00
0005020300
01fffd0400
ffffff0000
0503010000
fefc02fe00
fd0201ff00
fe00010100
ff01000100
0100fe0200
ff00020000
fffefefd00
0200fe0200
fe00fd0200
fffffe0200
0400000100
fffb000100
fdff020000
ff0500fd00
0004000300
fffc01fe00
fcfdfe0100
0201000100
00fbfcfe00
0001020100
feffff0100
0302000200
0000fefe00
0100000000
ff01030100
0002fe0000
ffff01fe00
ff0200ff00
0000feff00
ff02030200
02fbfffe00
feff01ff00
fcfd010100
fffc010200
fdff020200
00fbff0000
0001feff00
0100020100
0002010000
ff01feff00
0301030100
ff02010200
0201fffe00
00ff02ff00
0200fffe00
0300fd0000
0202000000
ff0002fd00
ffffff0000
04ffff0200
05ff000000
060200fd00
0702000200
fd0002fd00
00fe01fe00
000103ff00
0300faff00
000403ff00
ff02feff00
fefd01fe00
01fefefe00
fc03000100
0602fc0200
ff03fe0100
0203fffe00
010101ff00
00fdfd0100
010300fc00
fe01000200
0002fefc00
fd02fd0100
00ff00fe00
fffe02ff00
00fdfd0300
fefe000300
0102fc0300
fd01ffff00
0202010500
0201000000
03fffffe00
010200fe00
0102000100
0000010000
fefcff0000
ff0400ff00
00fefeff00
04fefe0200
02fe00ff00
ff04ff0000
00ff01fe00
010300fd00
00ff000100
0103030000
0002000100
010202ff00
fffdff0100
010101fe00
ff00fffe00
1511150000
261a252d00
0000010200
0100ff0100
fe01000000
01fd00fd00
0200fe0200
00fe030000
0102010300
0101010100
0200000300
fbfe00fd00
02fffd0200
0004fe0200
01fe00fe00
01ff010200
ff0402ff00
fefffcff00
ff03ff0000
00fe01fe00
0003fffd00
fe0201fd00
00fd01ff00
0001000100
00feffff00
0000010200
0100ff0000
02ff000200
fd0300ff00
ffff01fc00
fa0000fc00
fffc05fd00
03fefe0100
0100fdfe00
fcffff0100
0200000200
0204fffd00
000000ff00
fc03fd0000
fe00fd0200
fcfd00fd00
01fefe0300
fc01fd0000
04fd02fe00
020100ff00
000301ff00
04ffff0200
fefeff0300
01f9fffe00
02fe00fe00
fb02feff00
fefd02fe00
04ff000000
fd03fffe00
fe03010100
01fcfe0000
00fe020200
01fbfc0200
ff0401fe00
ffff020000
ff0302ff00
02fe00fe00
ff00010200
fcfffd0100
fffeff0300
fd0201fd00
0000fdff00
fe01fe0300
02ff02fe00
01fe07ff00
0001010100
000304fd00
00fe030000
01ff00ff00
feffff0300
0201010300
0103fd0000
fffcfa0000
02fffefe00
fd0300ff00
00fffd0200
0101000100
0000ffff00
0102ff0100
00fefffa00
01fd02fd00
fdff00ff00
03fd00fe00
020000fe00
05fd02fd00
02fb010000
00fdff0000
fefd000000
0001fe0100
03fd01ff00
ff00000300
fdfe010100
fe01ff0100
01fd00fc00
fe01feff00
01ff010100
fffeffff00
fd00ff0200
f90402ff00
0002fd0100
06ffffff00
fd0200ff00
0305020000
0203fffc00
030102fe00
fe00010000
00fe000100
00fa020000
0003040100
0103fc0100
02fefefc00
020002fe00
0104000500
0100fd0200
fe01fffe00
010105fe00
01fe010000
02ff000400
01fd000000
00fdff0300
0501fefe00
0101fd0300
fffdfdfe00
ff04000000
040000fd00
feff000000
0104ff0200
fefe010100
01fffeff00
02fefd0300
03ffff0200
01fd000100
fd0100ff00
03feff0000
000505ff00
fefc02fd00
fffc00fc00
fe01fd0000
fc01fe0000
02fbfffb00
ff00010100
00ff01fe00
00fcfd0000
ffffff0000
010004ff00
fdff01fd00
ffff02ff00
ff03010100
0000fd0200
0100ff0000
0103fe0200
fe0302fe00
0001050200
fdfcfbff00
0005010300
02f8fd0100
0002fffd00
ff00000500
0300030200
fe03fdff00
fe0002fd00
02fefd0000
fafe05ff00
03ff030100
02ff01fc00
fe00fc0200
0402ff0000
0205020000
fe04fe0600
00fcfcfe00
fffefb0100
0100ff0300
ffff00fe00
fdfffc0000
0201fffe00
fdfe000200
0201fdfe00
fdfdfc0000
fffe000200
ffff010100
fe00ff0300
0000fc0100
feff000200
0101ffff00
ffff030000
0200000200
feff020000
01fdff0000
fd00fe0300
ff06ffff00
fe00ff0300
02fefeff00
00fffc0000
00fffffc00
0202ff0200
0202feff00
fb04fcff00
0302010200
0200fdfe00
fe00fc0100
fdff00ff00
fffbff0000
fe02030300
0001fcfd00
ffff010100
ffff000200
fcfd000000
0201000000
fe00ff0000
fffe02fd00
fefdfffe00
0107010600
02fd01fc00
ff00ff0000
03fe000600
0200fd0100
fe01020100
00fdff0000
fcf9ff0000
fd06ffff00
010300fd00
ff00fffe00
fffe020200
0001ff0000
fefd000100
01ff020000
01fd05fe00
fd0103ff00
fd02ff0100
0100020300
fe01fc0200
0104010300
0005ffff00
02fe010300
0000020100
000102fc00
0303020200
01fe00ff00
0200fffd00
fd03010400
000405fe00
00ff01ff00
fffffffc00
00ff010200
010303fd00
04fe010300
ffff000300
00fe01ff00
0002000100
fdfe04fd00
ff00000300
02fe000300
0400fd0000
00ff01fd00
170cf72100
20272b2c00
0100fe0100
0102fe0300
ff01000000
fefffe0000
040100fe00
fbff00ff00
fd00000300
fefdfcfc00
01fffffe00
ff0001fc00
0000fe0000
00fd020200
fc01010100
fe00030200
fdfdff0200
ff00010100
0000000000
fffffe0100
01fffe0100
0100000200
0200feff00
fb00010000
0301fc0200
fd01fd0300
0203fe0100
fcfefc0000
00feffff00
0000ff0100
03fe03fe00
fffe03fe00
01fffe0200
0100000100
ff00030100
fd01fe0200
fffffe0100
00fe010200
fdfefdfe00
fe0105ff00
02ff05ff00
fd00fdfe00
0303000100
02fdff0100
010501fe00
fd01ff0000
0002fe0000
fbff01fc00
00ff020200
010302ff00
0102020000
fe01010000
000001fe00
fe01fcfd00
fb01030100
fcff00ff00
fbff000000
0004010000
03fc010100
ff0200fb00
feff010000
ff01fe0000
fc01feff00
ff02010200
0001000000
03ff01ff00
fdff020100
0100fffe00
0500fd0000
000001fd00
000202ff00
00feff0100
fffa00ff00
fefffefe00
0101000100
00fdff0300
01ff040000
fe01fe0300
01fcff0000
01fd01fe00
0102ff0300
020001ff00
020105ff00
010201ff00
02fa000000
fffc01fe00
0000010100
ffff020200
fe01fefe00
fe01040000
01ff000000
010101fd00
f9ff01fd00
0101000100
0201000500
fffefe0000
fefefe0400
020100fd00
000001fc00
030001fe00
00fe00fe00
fffefffd00
010003fe00
