fe010104ff00000000ff000100ff0200
00fc0201ffff01fdfffe02000301ff01
fc0000020001ffff0001000101ff01fd
feff0000ff000000fdfffeff00ff01fe
000000fefffe0000feff00fffdfe0300
fd0100fe01ff0103ff01000100010001
00fe01fefe00ff020300fe01000103ff
fd02ff0100ff000404fe02ff000401ff
0000fe01fe0001fffe02ffff02ff00ff
fd00010100ff00ff01ff010101fc0000
00ffff00000000ff00ff00fc00ff0000
fe05fe02fffdfefd0200fe01fe000203
020101fffffefe010002ff0100010100
fd01ffff03ff0102010000010000ff05
0103010100fefdfeff0300ffff000101
00fdff03fcff00fe0201fefcff000300
0001010001000001ff0101ffffff0101
fbfd000000fd00ffff00fffcff000103
00010101ff0103000101fffd0002ff02
02fcfefffffefffffe03fe0101fefd00
03feff010102ff02fffeff0100fdfe01
fffeff01000200ff00fffd0000ff0000
ff00ffff0100fefeff010000ff010000
00fc00ff000100fe03020000fe000000
02feff000000fffe0002ff0401fc00ff
01010001ff02ff0000fefeff01040201
fffdfefffe00ffffff00000101fd0001
0100010200000201ff000201fe0102ff
01fe00ffff0300010304feff01fffe02
02f9ffff00ff01ff0102000401030100
0002ff01010202ff000101fffffdff02
0300ff00ffffff0000010000fe010200
fd00fe03fd0000fe01fe01feff0001ff
02feff02fefe0000ffff00ff0001fe00
fe0000000002ff01ffffff0100fefe00
0001000101feff0002fefffe000001ff
00fbfe0101fdff03020201fe0002ffff
0100020000fe00ff00ff01ffffff0101
fffcffff01ff00ff01fdff0000010101
0001fe010000feffff0000fdff00ff01
fdff00ff0000fe000000fdff00000100
fe00000000fe0002ff0000fd01ff0000
fffdffff0002ff000301ff0301ff0001
ff0001020100000100fd0004feff0202
02020101ff0101020100fe0300040000
000001010100fffe000201fc00ff02fe
fffcff0000fffeffff01fdfd00fe0201
00fffffe000100ff00fdfe0100ff0000
