ef13fefdeadded0d00
2427252322252d2300
fb0302010404020500
03ff01fffa02fffe00
f904fffcfe03ff0800
fafffffdfbfffe0000
000503000501020400
fef700fc050309fc00
fd0000f90a0704fa00
fef4f6fe04010a0400
03ffff060000fcfa00
fafdfffb00fe010200
ff00ff00050100f900
f8f9fffa0d050a0700
06010701fefffffc00
06fc010407fe030400
feff0404f703fc0100
fbfd01f50b03fdff00
0100fffb080404fd00
010404f70106fe0100
fb030203fcfbfdfc00
0706fe040403fe0400
0701ff000500020200
0aff09030205000000
fd070101fc0604ff00
01fc0600030505fe00
fef8fbfb01fdf9f800
fa02f8fef604fc0300
020101fffc06020400
fdffff04f507020900
ff07fe00fc0305fd00
00fafc010107020600
000300fffe02040000
04040308fc00fffc00
0600030203ff00ff00
fc0702fef204f80900
0702ff0104fefdff00
01fffcfeff01ff0800
0102fe01f908ff0500
01010002090108fb00
fd030300fc0204f900
04feff050afc060100
0108ff0b0100ff0100
fcfe01feff05fe0200
050706fbff0502fd00
fffa01030802f80400
fffe03f90c04fd0000
05ff020809000a0a00
02feff0404fb05f800
ff000000fe02fd0000
08fcf3010dfafdfc00
fdf9fcf504fef6ff00
0203fdfe04ff02f800
0a0202fc04fd000300
080508080903fcfa00
06ff0502fdfd000000
07000504fc03ff0000
00ffff05fafd02f900
04000100fffdfffb00
fbfef5fdf7fd000400
04fdff00f802010400
fbf8fffd00ff04f700
fcff0608fe04040200
090101040405f9fe00
fb03040200ffff0300
09030712fc0002f000
1e15d20511f0f1fa00
1a1b2f14251d241f00
020302fe020102fb00
fc02000004ffff0300
000501010804010200
fcfdfb03ff02050500
06000601ff08fdff00
f7fdfb03f806f8ff00
02070200fdfefdfe00
f1fc04f9fe0406f700
ff01fdfb04f9010000
0003fe01fefb00fa00
fb01fe0103fafffc00
fefd060602fcff0200
f9fb02fafd0afe0200
00000c0504f902f900
f4f90a09ff0cfa0400
fe01fcfeff0cfa0300
fffe06fe01fffe0100
05fefe000308f9fc00
0a070000fe05f8f800
0207fefb06fe03ff00
faff01ff000cfcfc00
06fe0a05f70d020800
ff02f802fdfb050800
fffb0300fffdfc0600
fbf6fffff501030000
f8f9fc00fdfe070400
0808fff9fb05fdfb00
fc04030109fcfe0100
fbfcfbfe02fffc0100
fcfc05fcfefd060100
020002fe01ff020100
0006feff0402020100
06ff04fb03fffffc00
fc010a0104080cfa00
010309fffcfefff900
fc00000101faf90700
fa020a08fcfe050600
fc0008ff0602fffe00
fe01fffefffefa0300
0006fdfbff07fdff00
0305f6ff05fb070400
fb000afffc03fffc00
faf901ff03f9fb0400
01fafefdfd0207ff00
fffcfffb0101fc0200
0108fd020105fefb00
0401fff7fffd04f700
01fe06020204ff0400
fbfb020500f8070100
fef9fcfffa03000200
080103fd080afb0000
06fdfcf906fc050100
030004fefe06fdfd00
040603f502f9ff0000
04fd0207ff02030700
fefe020409f8050c00
fbfc0700fc03070300
fcfdfd01fdfc030100
020c00f800fa00f600
fbf9fb0bf9fd02ff00
0004fcff0402fbfe00
ff00030202fefe0a00
020001fffe0500fa00
00f6f9fb0105110100
ff0905264005cb0400
2f2722152328202800
ff010604fd09060000
02fb0000fe00fe0000
020c07fe020a07fe00
000000fbfe01000b00
06fcfefc0202fdff00
02fc01fcf70100fd00
0501fef9fb0301fc00
ff0afefcf7f70afd00
01ff000300fb01ff00
f800fbfa0001ff0300
02010101fa00f90500
f50604f8fd0308ff00
06fdf4f8fe00fd0200
00f6000cfef705f800
fa02fdf0f8050afd00
fe05f8040004f70c00
00020403fb0204fe00
f9fb0205080101f900
01050101030803ff00
04fefc06fa0b02ff00
fa03fd030006fe0000
02fb00feffff040300
0a070302fafc07fa00
f9ff04f4fa0008fa00
fff900f001f3000c00
01060802030102ff00
fffbfff402fd00fd00
ff0108fefd0208fb00
010a0e0106010d0100
fdff0602080002fd00
ff070201040101ff00
04fcfb07fb0500fe00
050003ff0001050500
02ff040cf9f6faf900
fcfafcfbf802fd0900
f7f500f7fefff90300
06040201f40307fc00
000202030506fefd00
07fc0203fc00fd0400
00fffafcfffdfc0400
01fd010bf60101f900
05fd04fdfefb0bfd00
06ff01fff8fb030200
00fafff803fffffd00
0506fafffe01fa0900
000403fe0508050000
f901fa02fefd07fa00
04ff070106fdff0c00
fef4fafffc0002fe00
fdfb05f9fa02040600
0304fe04fd0804fe00
f8fe01040005030700
0200fd00ff04010500
01fbfefe0202fd0100
00ff02fdfff903fd00
0603fb0bfcfbf80300
02fffcf4ff00f80800
000000fdfb0104fb00
03fefef3fafe01fe00
0100f6fc04fefd0000
04050a0105ff0cfc00
fe0101fe0801061000
000a05fe01fd060200
0101ff08fe0307fc00
f7e50917f6050ae700
1f2c372c2a21262200
0105fe0101fef90300
0301ff03fffd01ff00
ff080002fffefc0100
040100fb01f604fe00
03ff020200ff030000
fe01fefb0102fd0500
000003fe0001000200
fdfb04f70afbfdfd00
050902fbfafaf90500
fb0506fe05020a0400
010702fe0103010000
fafff902fd00fffb00
0406020301f7000900
060f01ff0711020300
0901faffff00020e00
fb02fd0002fffa0a00
0204f806fefffcff00
00fff9fffcfdfaff00
fdfc02fe07fb020500
fd04fd010000ffff00
09fafa020502fb0800
0a02010300f9030600
fe0304fd0603fafb00
05fd0000fbfbf8ff00
fc0501fffe0008fd00
01fffff6000300fa00
01fff800fdfe030500
04fe000b0004f80200
fc0009fe050103ff00
01fc0300fb0002fe00
0002ff0202fdfdff00
ff0801fe0402fbff00
0002fdffff00030300
08fafc0103fcfafe00
fd02fc01010a02fd00
fdfc00f7f9fdfa0300
03fdfe0001fefe0600
ff1001010403fdfe00
02fd02fb0602f90000
ff00040301fd040300
00f5fa09ff0003fa00
050001060206000000
01fc08fa0700050000
00ff040004fb060100
fffc01fc03fcfdfe00
000700020403ff0500
010007fd03fa14f900
03010201fc0402fe00
f9fbf6fdfe02f9fb00
02090000fefd01fe00
fafefa0303ffff0300
0004fefafcfe01fb00
04010100f902f70900
000103fdfafdfd0500
010605fcfffc030000
fe02fffd050800fc00
fe060101fd00040000
ffff00ff030bfe0500
fd06fe03f901f60a00
fe07080003fd0b0200
01fd04fd0506ff0100
000201fffefefa0700
05fcfefffbfbfbff00
08000206000bfdfd00
2e10ec211bf5201100
271b1b2523262a2200
02fa00fe0006fe0d00
03fe03fefe03ff0100
05fd0100fa06fe0900
fe00fef9fe05060700
02fc06fcfefcfe0100
0005fe03fdfbff0300
fe01020300fffbf800
0304f9fc03fafef900
ffff0601fc08f90000
fbfe01fc00fd00fe00
fffe000001fefaf700
f102fdf1fafe0c0200
02ff010afe00fc0200
faff040007fffe0100
f70d0402f1fffaf500
fe0008fb05fefc0400
fffc000100fc00fd00
010002f9f60307fb00
05fd03fd090304fd00
00f6ff0101fafc0800
fc0008000000fcf700
09fefffb00fa060200
ff01ff0afd01fc0300
fafefd00f4fd0bfc00
f9070200f7fbfdfe00
fcfffefbfb0603fd00
fcff0202fcfffcfd00
04fe04fcfb00fd0300
0dfd0602fd0ffcfe00
f6fe05010004060000
0203fffcfc03fe0400
02fd00fdff04000f00
04fc03fd02ffff0000
fefbfe080504fbff00
fbfd070402fcfef900
fefffcfa0200030a00
fb06f8fcf70401fa00
02fe01ff02fffefe00
0201fb070207f70200
03fb01fe0dfdf90b00
06fffc010502040100
fd0704fbfcfb030600
fdf9fe09fdfd000000
f5feff0701fd030300
01fffbfe02fdf8fd00
09ffffff0500fefd00
fbfe10000905fffa00
010200fdff01060200
fbff03ff00fd03ff00
f503fefbfbfffa0200
06f506fb010502f700
01fc04fffd0a010000
02f9050a00fe00fa00
fcfd05fb07fffef900
04fefe00f602030200
0106fdfe06fbf9fd00
fffd00fefd02feff00
fd0801fbff0500fd00
fd0105fefe05fefc00
fd0202fa01fdff0100
0c00fe010300fe0200
01fb02fbfa0bfbfd00
03fd03fdfe03000c00
03fa00010a03fb0500
2c0febfaf3273dff00
1c1d202621191b2300
04ff0001fffd03fd00
01fc03ff0304010300
06fd000203fb000000
fd0002fcfe02fd0500
00ff05000201fdfc00
01fd0404fdf8fc0700
fdff0003fffffffd00
f8fdfa0901f5effb00
fdff010103fefa0400
ff0502fb0700fe0200
0101ff00040a02fd00
01fb050206eef10500
fafe05fdfdfdfffe00
ff02fd05010002fc00
000300000701fa0300
fbfefd00030cfafa00
00fefd02fd00fefb00
f5fe05f600fc00f700
fefffefdff05fdfb00
00ffff01fe0202fc00
f7ff09fb04fb010100
02f809010604f20000
f6f8000205fc070100
f0fe03fbfef4f90400
f903fbf8fefdf9ff00
f8fa0003f9fa010000
fa0a03fb0dfcfcfb00
02f90dff09fafaff00
fdfafefcff02020200
fefd07fdfdfbfb0200
00fe040002fafffb00
01fe010703fa03fe00
000201ff02ff03fe00
ff01fd05f20b05fe00
0f0505ff0902010600
f201fef6fefdfcfb00
ff0000fc03ff060000
02ff0206fffd01fd00
fdfc0208ff050c0500
fc0003fc0afefd0400
0602ff09fc020b0600
010a05f900fbf80700
fbfdfc04fa0306fc00
01fd0202fcfaf30800
f9fdff02fc08fdfd00
0502fd090afb04fe00
ff04fe0402fbfffd00
0600030000fcff0400
00f7fdfbfbfefe0200
fe02fffcfdfaf30400
fe00fe030108fbff00
fafe0008fd0308fd00
fcff07f9020303fa00
f9f8fafd03f8ff0200
f9fd0203ff05030100
020aff07fe0efeff00
0404fd010304030400
01fa0402fef6f90a00
fb1100fc09f8f6f400
ff02fef9fb01f4f900
08fc020000fd020500
03fe02ff01ff060100
03fd0302fff9fcfe00
09fe07050503060200
fdeedce5e92100f800
202a21212522391f00
020204fd0204020100
02fe0003000102ff00
05fffa000605020100
ff05fc020003030400
03fe010002fe000000
0002f70100fafd0500
0601fb020000070600
0d000afe010dfa0500
fc05fafffefc020200
fd0002fefcfc02fe00
ff030104fffffe0200
050109ff0200f90600
fa0303fdfc0100fb00
fd02fafdfefafc0a00
02ff1102fbff01fb00
fefd08010005000000
f6ff020801fe060200
030003000505f7ff00
ffff06fd0704ff0700
00fcff00ff07040000
fbfaff00fef8fcfc00
0503fb01ff0502fe00
04fdfc03fcfd08fc00
0202020408f7f90300
f906fc05f6f6faf500
fefdfcff05ff020000
fd03fc0000fc02fd00
03f9faff0800070c00
0afefa010dfe020300
fc0500fe00fef80200
0201fbfe0205fd0300
fe020305fe07020000
01feff0000fb030200
04fafdff0608020000
0102fcff0101020300
020705fc0005020100
fd0105ff01fcffff00
fd0000ff0609fc0300
fe02f801fefd03fe00
fb03fd06fe0400fd00
fffe0401020607ff00
ff05fdfffdfbfc0000
0dfcfc0002f4020000
02f5fefa06f802fb00
060b08fe0500fffb00
020406ff00020a0500
03ff0e00fefcfefe00
fdfe020006fc050500
010a0d07fcfbffff00
f505fe01fffaf9ff00
05f705fa0604040b00
fc00fcfe0204030100
02f9fe0802f701fe00
fa00fffe00fffe0200
fcfefc0505fc05f900
000d060001fdfffa00
f9020b00fdfe06fd00
f4f8f90201ff00fe00
f805f806fffb060800
fefd0309fefaf8fd00
0606fd010400020800
fcfe040000fc02fc00
04fe04fcfe05fb0200
fefb11110400fdff00
55fd5ef031ef01fe00
231d29272c241d2d00
030301fd07fafd0400
ff020005020000fe00
ff01010004fd010300
fcfffaff03fa00fa00
050505ff01fcf90000
f001f402fd0301ff00
01000303fc03ff0200
eff4ee05f7f6fe0400
0207fc0204fffe0300
f8fafbfdfd0200fa00
fffb05000103ffff00
fa0af202f6fa060600
fd0101010301fe0300
020a00f6fe07010000
f400f4f90103fa0600
fefdfd040101020d00
ff01ffff0101000200
04080204fa03fa0100
0cfa0905f900fdf900
09fd0afc08fb000200
fc05fc020302fd0400
fdfcf907f302fdfa00
08060805030307fc00
f60cf7f9f7fd040500
f4fdf8f5f80805fd00
fe06ff0207fa00fc00
00fd0107fc00fbf900
f7fdfb00f806f8ff00
fc05f9030003fe0500
ff01fdfdfe00010600
00fc01fd09fdfe0300
040506fefefc000200
01030001000100ff00
ff090207ff0701ff00
fbfbfcfffefdfaff00
fef2fc06f500030700
fcfd01000100ff0400
ff0201010501fa0900
01fc06080003fdf900
02f600fdfe02fc0300
0f0a0e05080104fe00
fcff00fcf903fd0500
fff309fdfffefd0100
f4fef502f8fffa0600
fefefffdfd00010000
ff0400fe0400fc0700
0306010102fffefb00
fd05fc03fe05ff0300
fe0af604fa0505fc00
f9f5f6fdfe030c0400
00f4050200fefff800
050103fd02f9040000
06fd03020104fc0000
0305fd0303fdfefd00
01fe000300ff04fb00
fa05f60cfe0307fd00
fbf7fe0207fbfe0100
fb07fafa04ff06fa00
f4fefb08f801f70600
f5faf4f7ff100bfa00
0104fffc0604020300
00040200fffaf90100
030200fd01fffd0600
01f500fc05fefbfc00
