fd07fcffff
010600ff04
0006060607
faf9fb0104
00fefbfc05
f90206ffff
fc05020503
fc01060201
0601f805fb
fb01020702
fcfa080304
07fb04f9fb
fbf90400fe
08fff903fd
f9ff000201
070106f800
feff010207
fb02fefc03
fcfb06fd06
fe010506ff
fc06fcfb04
fb08fd06fa
01f9fffafb
f8fd0807fd
fffb0303fa
03fb070605
06fe04fbf8
fa00f9fe00
fbfafc0006
03fcfa0007
ff0308fcfc
0004fc0207
0607000302
fdf8fb06fb
02f9f90006
0107050308
0007f903fa
04fa05fc04
fc03fb0008
fffafafa04
f80006f9ff
fafafdfbfa
04fff90403
00fcfdfa07
07fdfa0200
0307fa00fb
050300fbfb
fd020405fa
f908fc03fc
fefe00f9fb
f8fd0705fc
f80306fbff
0707fc0701
0301ff00f8
0105fb0504
05fe02f808
f905080108
0105f905fb
fd0508fb04
f9010204ff
02f90600fe
f90407f807
03fb0506fb
f8050400f8
fb05ff0600
00fd080604
ff0400fdfe
020702faf8
08fefe0208
fd0400fa06
fbfa0003fe
fcfa0404f9
05fffbfd00
03fafdfb04
fc0707fefe
07050104fe
f907fafa04
fa0303fe07
fffbfe00fd
fefaff0405
f9050404ff
fbfaff03fa
f804010704
060105fd06
05fcfef8fc
fefdfd07fd
f9fcff0603
ff04f8fcff
01fa020306
f805010702
f9fc0104fb
0308fc03fa
07f9040105
fcfb04f900
f8fa06fdf9
fe02010301
01fa07fe06
0707fa00fa
0505fbfb04
fbf9f8f800
06fafcfcfe
fdff0206fc
07feff0808
fc080003fb
03fe03fcf8
0402fefbfe
02fbfe0201
02fefa0307
fffc030102
fffcfcfb06
040500f9fc
01050300ff
06fdfb0500
fbf9fb0107
fe05fff901
0708070801
07fff9fa02
0107040401
fc0100fbf9
fbff0307fe
02000000fe
06f9fdfc02
fefaf9fbfb
f8f8f9f808
fafff90204
05070300fd
fe08fefc02
05f805f9fb
fbf8fef905
f905fb0200
07fe0105fa
05fcfb0107
f900060207
0605fbfe03
00f9fff8fa
080301fdfb
f90302fcff
06f9ff01ff
fa0206fdfb
ff0500fff9
fcfb0003f9
0200020601
fafc0307f8
ff03fb0202
000108fd01
0408fefb00
0306f903f8
070105faf9
fcfd0703fd
01fbf906fd
fefc020105
fa0102fbfa
fcfcfdf9f9
f8fcfa0606
07fc06fafc
01f8fefb00
0605f9f802
0705ffff06
fcf9fa06fe
fe07fd0700
00ff06fd01
05fcfdfdfe
0607fafdfe
f905fffaf9
02f9f9fa00
06fb030705
f9080207f9
01fcfd0103
fb02ff05fd
ff050205fd
07f8fb00ff
fff90506fa
fb000507ff
00fa06fe01
f904020303
fefbfbfa08
fb04faf8fd
fa05fa0007
02f900fdff
f9fdfa0203
fa04fdfbfd
03fcf8f9fb
f804fffe02
07f9fa05fb
06fdfefbfe
feff01f9ff
010707fb06
fafe0105ff
040104fdfc
ff01070203
0106fbfd00
fcfbfb04fb
05fd00fffa
ff05fbfcfb
fc00fb0107
0100fdfe00
0002f90708
0606fcfc01
07f906fffa
fd000401ff
0108040306
07f900fa04
f9fffd04fe
fdfb0007fa
0102f90407
00f8fdfffe
02fff807fa
fff8fe01fc
fe080805fb
f9fff904fb
02fe000407
fa07fb0501
fa05fefc00
0707fe07fd
070101fe04
ff05fb0002
f9000107fa
fefafd0000
fbff02ff08
0005fdfd07
05fe00fe04
0601fd0501
ff03fb0702
0704fe0601
00fcfafffb
fdfdfef9f9
fa03feff00
ff0507fffb
fa04070002
fa0103fc00
f905ff0407
fb010105fb
0600050507
0402fff906
00f904fb08
03fd0606f9
07070406fa
0302fefc08
0005ff01fa
01ff0200f9
08000605fc
faf8fefdfe
fb03020602
ffff08fb07
fafd05fd00
fffa06fa06
07fc000808
030101f9fe
0604fc0802
fb05fb00fc
0107fcfe01
0002060500
0706fc0602
060707f801
03f80801fc
f804f9fcfa
03fafaf901
fffaff0608
fcf9060401
0403050606
fafafa0107
fcff05f9f9
fffc04ff02
02fdfc0402
f8fd030603
fd02fa08fd
fef803fefb
02fd0703ff
0504f90307
ff06fcfbfe
fd0202fbfe
010506fd04
04f8fa0601
0400060005
0007fdfa02
fdff03ff07
fafafafef9
040100fc04
03fafa01fa
fb00f9f804
0101fef9fb
07faffff02
000305fa03
f8fbfdfc02
0000fe0604
010507f806
fefbfa01fa
f9fe0602fe
f9fbfb0303
01ff0501ff
0103070101
fd0303fc04
fafb060001
fe00070405
00fb06f9fe
fd0103faf9
020707fdf9
0607fefcf9
fb030206fc
ff07fa0603
01000607ff
fc08020003
ff0203fd05
0803f9fefd
0604060504
08fefa06ff
f9fd00fc00
f90407f801
fcfaf80805
070703fbfe
ff06fa04fa
ff00010603
04fb0101fc
fa0002fe03
0501fcfc05
fdf9040801
fa0501fe06
fc03fd0404
fb04f902fe
0202030201
0301fd01fd
0602f9f807
0604fbff06
f903f90601
0505020204
f902f9feff
0703f80405
020605fdfe
08ffff0402
f807fbfefd
fb0103fcff
0403f9fc03
08fdfbfb08
fefb050700
fbf9030707
fbfd020304
f9fbfd0003
0307fa0205
faff04fcff
020403fbf8
02f8f9fe05
fcfafa0701
0307fffd08
01fd040501
05fffdfcfc
fdfb080407
05f8fb01fa
fcfdf9fffa
fcfc070304
0205f8fffc
fbfdfdf900
fcfe01fbfc
040600f800
fbfaffff03
fcf905f9fd
0104fef805
06ff0006fb
0507f8f9ff
feff07fefb
fef8fa00fd
fa01f90503
040504f905
040003fe00
0006fa07f9
0304ff06fc
00fefcfa06
f804fc08fe
06fdfafeff
0407fc0700
fc07070604
04fafa0505
fbfff907f9
0108fa03f9
fafafaf804
f803fb02f9
ff03faf808
f8fe0106f9
030501fdfc
00fd04fa01
050800fc00
fafc080203
fdfe03f908
fcfcfe08fd
0301010200
0707f8f9ff
04fb06f803
030800f901
04fefdfcfa
060005fafb
f8050103f9
01f9fdf804
fcfbfdfafc
fa000607fa
0500030704
fe03ff0404
fb02010204
fb01f9fdfc
0507f9fafc
faf903f907
ff03020007
fafb010001
0605fa0403
0206000201
03fcf90605
06fc05faf9
fd0207fffd
fa020103fc
00fd08fc02
05fb03f9fe
000603f802
050008f906
01030002f9
fb0201faf8
0204f907fc
f905fc0200
fd0501fc03
05030308ff
fdfe0204fc
0206f8f904
fdfefefef8
04f9010506
fe020401fe
0403fe08fa
0104fd0802
0606010306
ff06040001
00fe010405
00fe01fa06
0403f80405
05fd0805fe
07fdfd02fc
0000fc0503
05fd02ff05
fa07fafc04
fb01fffafc
ff0301fbfe
fe06fe0205
00fbfbfc05
fb0603fd05
0305fbfefd
0405010606
fefa07fcfc
02f9fe01fb
05fafe04fa
05fd020701
06fc05fc01
fbfdfd07fb
05fd080304
fc01f900ff
fefb08fd08
fdfbfdfefd
010601ff02
06fbfefbfd
0201020202
0807030501
0703000504
08080204f8
f8030305f9
fcf8fdf801
f9fc0606fe
fcfe070001
fb0503fcf8
0104f801fd
0406fafc03
fb04fbfa02
0001f9fc06
fe02fe0000
fbfbfb08fc
fbfa05f906
fb0500f907
fa01fa0602
04f9fbff02
fefa020704
06fa07fcfd
fafc08fafe
fd0402f8fd
06fdfd08f9
0500fa01ff
fc060007fb
00080700ff
f90402fdfd
fcfafbfcfc
01fffd0106
fe08030307
fb00f8f903
04fb04fefa
040507ff01
fc0506f9fe
fb0506ff04
010807fefe
0604fb01fe
fefd0106fd
fd01fd00ff
fc0205fdfe
fb06fe06ff
06fffb0502
fa0601fb06
0402f906fc
010706f801
fefcfd0104
06020707fe
02ff01fe02
fcfafcff07
fb01fd0201
fffd04ff02
0705060105
05fa05fb07
02f9060405
fef8f9faff
0002fe00f9
01feff0508
02fc00fffe
fe0105f9f9
fdff01f903
fcfbfafa00
f8f80705fc
f903fb01fc
01fc020001
0605070602
fb06fb00fd
01040207fe
05f905fe04
0004fefa04
f9fc000201
fffefdfbf8
fdfd00fafe
faf8fb0607
f9fb02ff00
04fc030206
f9080407f8
f906fd0602
fd00fbfa04
0400000505
01fc0308fd
05060602fa
00f806fd08
fafafbfcff
fe06040701
01f80701fa
0407fcf9fc
fe00fe07f9
fafcfe0203
fe08f9ffff
fdfcf9fafa
04f8fc02fa
03fcfcffff
fcfb04f902
0004fd07f9
01fbfffe02
fa08f9fe07
0205fbfc01
f90302f9f8
0507fcfb00
fefafa07f9
fdfe0105fc
fdfb02fffd
00f905f803
faf9f8fb04
0704fdfe02
fd03050101
fa06f9fffc
06fb030004
070506fb04
0104000101
03fafbfa02
0508f90705
f903fdf906
02fdfd0107
fafc0506fd
fcf806fa05
030106ff02
06fff80007
fb0708fefc
03fefd07ff
f8000201fa
0502020105
0603010705
00fbf902fa
f80504fbfd
fe010105fa
0505060305
0005030407
fd0504fefc
fe06050208
0408fbfbf9
03fc04f906
07f8fe06fd
02fffd0607
fa05040603
08f80201f9
fd0003f9fb
fa04ff06f8
0002030704
05fd0607fc
fbfc0007fa
0105080606
06f9fc0600
fcfb020105
0606fafafd
f9fbfe0804
fb04050304
06fdfafbfe
0600040503
06f9fc0107
03fffbf900
fa0008faf9
07fa0007f9
fbfdf8fffa
07f804fb05
01fa0207fd
fafdfd0302
fffc0607fa
f807f90508
f8fe080201
08fafcfefb
fb06f9fffb
00fa07fb00
f8fd00fd02
f908f9ff02
0808faf8fd
03fc06fb02
fffe0103fe
0100000400
faff020706
fdf80501ff
05fffd0503
ff0004ff06
0100ff03fa
fdfd06fc05
0305fa04fb
03f9fcfc02
0100fb0805
08f906fa03
fc03070306
08f9faf9fd
fffef90607
f8fcff0003
050608fafe
07ff02fbfb
f8f9060004
05fafb00fd
fe08fbfbfd
fb01fd02fa
02fa0706fb
08fcfff803
fe0307ff08
07fd06fefe
0202f9fbf9
0003fff8ff
0502faff05
040201fa01
fb0005fb05
fefb04fbff
03f906fffa
02fa0003fd
0805f9fc06
0001fb06fe
f9f90400fa
fa06fb00ff
05ff0507ff
fd07f9fdfa
fcfafa0401
fdfe0001fc
08f80004fc
02f8fefe02
020400fe00
f902060307
f8f8fd05fa
06fdfd02fa
0305fc0601
f904f90006
fff908ff01
f9fbfafe08
05ff050107
05ffff02fa
feff030102
fe03050506
fd05ff05fc
070208fdfc
fbfd06fafb
fa0406fafc
06070506fd
ff0605f803
ff0603fffc
04040004fc
05fefcf8fc
01010304fe
ff00fd0404
02000204fb
05f9fdfcfe
ff07fefffe
03faff0201
fdff02fb03
ff07fdff02
0808fc0601
fc04fffd04
f9fb070601
fc03060702
00f9fdfafd
fc03060108
fdf8feff04
06fd030305
07ff0503f8
fbf8060001
fa0105f8fb
0303fcf9f9
f9fcfe02fd
fa08ff0602
f9fcfcf9f9
fbff05fd08
07040203f9
03fbfc0204
01080500fe
06fd04f8f9
0202fa05ff
fb02f9fefc
fefaf901fc
020003fe08
fc0208f906
fa01f906fe
f9030205ff
ff010503fd
f8f9fafb06
fff9020804
030006fcf8
fc050705ff
faf9fc0202
0208fe08fc
0407fb07fb
0606010701
0305fd04f8
fcff070202
02ff05ff04
f803080500
fb04fcfdfa
fffe0407f8
fa0600fcfe
0100fbfd05
03fbfdfa07
0408fff902
05fd0807f8
01fffb0307
000501fe04
05050201fd
fcfefb0506
fa00f806fb
f800fbfb06
ff05f803fd
04fb070303
05fdfefa06
f806fbf904
0506f905fd
0604070306
fb0505fe05
fe05feffff
fdfdfe0604
fbfc0601fc
02fdf9feff
05fc05fffa
04fafb00fc
0304fdfafa
0307fdfe06
0101010300
02f8fef808
fe02fb03fa
fff8fcfe05
05faf8fcfa
f8fd000303
02fd010505
00fd04f901
ff07fbfe02
