ffff02fd03fe0403fc00
000302ff0001fffefe00
fefd0000fffffffeff00
fdfeffffff01fe010200
00ff01fe01ff02feff00
0102fe0100fb01ff0000
000000fffeff00ffff00
000300000003ff01fd00
ff05fcff00feff010000
fd0000fd00000000ff00
ff02ff010100fcfd0200
fa04010102fe00fb0100
fd01010000ff01020000
010101ffff000001fc00
fe0002fe010101ffff00
02fefe0102ff02000000
0302ff0101fdfffefe00
01000200ff01ff020100
fffe010000ff01000300
fa01fe01ff00fffe0000
0000ff01fe0201000400
00020002ff010002ff00
02fc01ff01fe01fe0100
ff0000ff00ffff01ff00
030001fc00ff00010200
0100000200fffd01fd00
ff00fe00fffe0000fc00
0100fcfe010104fffd00
fdfffdff0200fd020000
010400fffd020200fe00
010301ff000103020100
01020100040002fd0200
fd000301010002ffff00
0101000000fefe01ff00
fc020201000101000100
fc00020001000101fb00
ff01ff00ff0100fe0000
03000101000001feff00
03010200010104ffff00
0000ffff000201fffd00
00ffff01ffff01ff0000
fdfd000201fffeff0300
000403020101ff00ff00
fc01fd00ff01fd00ff00
feff01ff00ff01ffff00
010102ffffff03ff0100
020300ff0003fe000000
fcfe00fcfffc00010500
fe00ffff010000fe0000
ff0000ff0001fefefc00
0000fe00fffffb010100
020102ff0100fe040000
fe000101010100feff00
fffffefffe02ff01ff00
fefefefe03ff00000000
0001ff00ff02fffe0300
fefeff02fe0200ff0100
01fe00fe000000fefe00
0002ff0100ffff000200
ff00020001ff04ff0000
fffefefe0001fd000200
fe00fd01fe0000ff0100
0000fd00000100ff0000
00ff00fffefefffffe00
ff02030001ff0301ff00
ff0301fe010001010000
26f5d3de1c282ef01100
1d242523171917272700
0001000000ff00000000
ff03ff00fbfcfefd0300
fa000602fffe00030100
00fe00000001fe01ff00
0100000101fdfd00fe00
fffffffffefeff000100
0203000000000301ff00
fd0100ffff01fd000000
01fe000100fe0201fe00
fe0003000000fe03fe00
0100ff02020001fffe00
ff01ff01fe0001fe0000
0101020004fc0001ff00
010000fe0200ff010100
01fe0003fd010200ff00
fe000102feff00ff0000
fdfeff0102fc0000fd00
03ff01ff0001fe01ff00
fdff0400fffffe02ff00
fe02fe010102fd02fe00
fe010101fdfe0200ff00
0102ffffff01fe00ff00
ff00ff01feff03ff0300
010301ff00ff0100fe00
02fdfe02fdfc0001ff00
fc0500ff040100fe0100
feff0101ff02fe000200
01ff0302ff00feff0200
0101ff01fe0000ff0000
ffff01ff00fc00000300
ffff01010001fc010100
04030102fe0202000000
02fd0001fffffe000100
ffff00fe02fd01000300
ff0103000302ff000000
feff02ff01fe0000ff00
ff01010200ff01020000
ffff000303fdff000000
ff00fffe01ff03000200
fe020201010001010000
02fe0000020301000000
ff00000100fd0202ff00
ffff00000001ff020000
ff010201ff0000020000
fffeff00fd00fe000000
fd0000000300fe00ff00
fe01000001000201ff00
fe0000ff03ff01000100
02000200010000fffe00
ffff0301fe00ffff0100
fe000401ffffff00ff00
ff00010202ff01010000
fcff01010000fc01ff00
feff0000fe00fd020000
ffff01fffe02fe020000
000100010300ff00fe00
fe0101fe02fefcfeff00
ff000400fffd02fe0300
03ff0000fe0003030100
ff0504ff00fcff010200
030001010100ff02ff00
020103000001fe000200
fd02ff01fe0200ffff00
00000001ff01ff010000
000104fd0200fc000000
ffff0100020104ffff00
0102010100fe01ff0000
0100ff0101ff02ff0100
010001000101fe010000
ffff000104fe0003ff00
ff000000fe0200feff00
01ffff00ff00ff00ff00
020101ff01fe01ff0400
0002fffffeff00000000
fffeff01fdff03000000
fefe00ff0000fd000200
0105020401ffff00ff00
ff010101feff04000000
ff00fdfefeff0000ff00
fd000002fd00ff010200
ffff01ffffff01fe0000
00feffffff01feff0000
0001fdffff0200ff0000
01ff01ff01fffcffff00
ff00fd01fefafefeff00
fe020002ff00fffdff00
fd01030201030300ff00
fe00010003feff020200
010300ff030101ff0100
000301000201fe01ff00
03ff0100010201ff0000
feffff00fefcfe01ff00
ffff00020100fe000000
0003fe0001ff0002fe00
00fe00fffefdfeff0000
00fc01fe00fffd020000
fe01ff00fefdfe000000
01040200fc01fcffff00
0300ff00ffff00010000
ff010001feff0100fe00
0100000100000200ff00
0100010001ff01000000
fd02010100fffd000000
ff0001ff00fefe000000
01ff0003fe0203fe0100
0001020401020001fd00
ff0002ff010200010000
fb0001ff0201fd00fe00
02fe0103fdffffff0000
030004000300ff010000
0000feff010001ffff00
ff0002fd01fe03020100
030104feff01fe01fe00
fe01fe0000ff0102ff00
fffd00ff01fe0101fe00
02ffff010002ff02fe00
00ff0000020000ff0100
0101ff02000104000100
01020102fd01fd02ff00
01fe00fffdfefe000100
feff01ff0200ff00fd00
fd0200fe00ff01000200
0003010000ff02ffff00
00020000fefffd01ff00
fe010201010000ff0000
010102fffe00fdfffe00
02000001000003ff0100
fd020102fdfeff010000
0001020000ff03fe0000
0000ff020104fb010000
04ff01020000fe020000
ff010000000100000100
fc01010100fd00ff0000
fd03020000ff00ff0100
01000101fe00ff00fe00
01010001010200ff0200
ff0201fffb020101ff00
fe00040201feff01ff00
0000fe020101fffaff00
030000000001feff0000
02010000fd0002010500
02ff01ff030002ff0000
feff00010000ff01fe00
fffc0401010100010000
01010102010001ff0300
0201ff0002fe02fe0100
ff000001010003000200
02ff0000feff00010400
0200ff00fe0300fffe00
00ff00ff00fc01010100
000002010301fd010100
01010201fefe0201ff00
00fefffeff01fcfeff00
fd01040305fd03fe0100
02010002fb00fe010000
feff01ffffff00000000
01ff00fefe0000000100
010002ff00ff0000fe00
00fd000003fcff01ff00
fc01fefeffff05fe0100
01000201fdff02fffd00
010002fffa0002000000
ffff04ffff0104ff0000
fc000100000000010000
fffefe010002fffe0200
ff00ff000103fefdff00
fefeffff030100010100
ff01ffff010202ff0000
03ff000001fffefeff00
ffff01ff02ff00010300
fd01fd02fefe00fefd00
ff01030202ff02000000
000002020000ff010000
fffe0001ffff01000100
0100fffdff03fe010200
fc020103fd0000ffff00
0301ff00fffd01ff0100
0101ff010001ff000200
ffffff02fefe00ff0100
05030002fd00fc01fe00
03fe03ff0301ff01ff00
ff0101fffd00ffff0100
020100fd010300000000
ff010101fd0001fe0000
ffff01ff00fdfd010000
02000003fffe00000200
02fd0203fefcff01fd00
ff0101010000ff00ff00
010000fffe0001030100
fe0001ff000000000100
ff0101ffffff0102ff00
01ff0100ffffff00fe00
010201ff02fe00ff0100
fc0101fefe000201ff00
0002030001ffff00fe00
01fd0001fe03fe01ff00
fb0102030100fe020000
000000fffefe00010000
ff01ff040000f8000300
fe020102ffff01000200
0003ff01000003fffe00
000101ff00ff00ff0000
01000101010001010100
000000ffff000300fd00
0000fffffd01fdfd0100
fd02ff000300fdff0000
02fe0202feff00000000
fd000101fffeffffff00
fdfe0000ff00ff03fe00
0101fffffefe02fe0000
ffffffff0101f9fcff00
01020100fd0001000100
fffe00000203fc010000
01fffeff03fc01010000
ff020001fe0102fffe00
02fffe000001ff000000
010203ffff0002000200
0101000100ff00010100
fffd01010201fe01ff00
010102fe03000001ff00
ff0003000001fe010000
0101ffff0103ffffff00
00fd0100000102ff0000
0001ff0202020100ff00
fd00010200fcfcff0300
fffe010001020200ff00
00010101fffffd00fe00
02ff0100fc00fe01ff00
ffff02010202fc00ff00
01ff0000010400020000
fd010000020102fd0000
ffff01ffffff01ffff00
00fe010100fffe020000
00000200fefeff000200
ffffff0000fffc010200
ff000001fdff01020000
fcff01ff01fc00ff0000
ff0200010000ff000200
00ff0100ffffff010000
ff0101ffff01fcff0000
00ff030001fe01020100
0403ff01fe0103ff0000
fffd0000000203010000
ff010002fe01feff0000
01000201000100000300
01010201fe01fc000100
01000102000000010000
feff0401000403010000
fe0001ff0300fe00ff00
00ffffff02010201fe00
ff010201fefffd000000
0100010001fe01fe0100
00ff0200ff000102ff00
010101010100fe000000
0103000101ff00fffe00
ff00ff00ff0001020000
0100fe0203ffff010100
020102ff02ff0100ff00
fe000000ff00fb000100
02000002fffdfd00ff00
01020002fefffeff0200
fefffefe0602fe00fc00
00000001fffe0001ff00
fe01010001fffdff0100
02010000fffe01000000
ff0203fc0201fe01ff00
0100fffe00010001fe00
020100fffffeff01ff00
ffff000202fdff01fd00
0200fffffe03fcfe0300
02ff0100feff0102ff00
fdfdffff0101fb010100
fefffe0003fe0200fc00
fffe0301fcfe00020000
00000400fbfc03020300
ff00030001010000ff00
03fd010001ff00010100
ff02ff0101fcfbffff00
000301fdfe03fc01ff00
00010100fffe01020100
fefe030100ff0102ff00
000001ffff0101020000
03000201fefefe01ff00
fc02020100fefe010000
ff03fffe0200ffff0300
fe000202fd00fc02ff00
02fe00fdfc0001000000
02fffffffefffd01ff00
0000010001fd0100ff00
ff0101fe0002fe020000
020001fffffe02000200
02ff0001000600000100
fffe010200fdfeff0000
01ff00fefd05fe020100
fdfe01fe01ff0100ff00
010004fe0201ff03fe00
01ff0101ff0100ff0000
00ffff02fffffffeff00
01010201fefefffc0300
0002fffefffffbfe0100
02ffffffff02fe01ff00
fd03030001020300ff00
ffff0101020000ffff00
fd0201ffff00ff010000
fb0100ff0201fffeff00
ff010101ff01ffff0100
ffff01fe010002fe0000
ff01030000ff01000100
02010201fc01fd000000
02ff02ffff02fd000000
000000fefeff0100fd00
0101010002ff01000000
fd0100fffe01ffff0100
01000000fe0002ff0300
0200030101fd00010000
fe0200fd010101fd0000
02030001020303000000
ffff000101fe00000200
fefffefffdfe00fd0000
ffff0100010002fe0200
01000000ff02fe02ff00
0301ff00ff010302fe00
0100010000ff00ff0400
0001ffff0002ff000100
ff02020100020001fd00
0000020102fefdff0000
00ff01ff00feff000000
000001fe01fd0101ff00
0101fffffcfd04fe0100
ffff0101fe0001ff0300
00fe0201fd0001ffff00
fe03ff0001fd01fffe00
01fefffe010001ff0100
010100fe00fefd010000
02010000fd0101000000
0303ffffffff02fffe00
01ff00010201fffeff00
0100ff00fffd00fe0100
02000000ffff01020200
020000ff0100ff000000
fefd000102fffe03fe00
04ff0102fb0000ff0100
fd000000fdfefc000000
ffff01ffff00ff010100
0200000102ff0000ff00
fe01fe000001ff03ff00
ff03020001fffcff0200
fe00010201ffff00fe00
00fe02fd0200fc00ff00
fd0201ff01fffffd0000
01010200fefdfdff0000
ff030101000102fe0300
020102000002ff010100
fdff0100ff03fd020100
00010101ff0101ff0000
00ffff03fffe01fffd00
03fd01ff01fd00020200
feffff0301fefd010000
ffff0403fefefe03ff00
00ff0000010102fe0100
00feff02ff00ffff0100
010002ffff0101fd0000
0102ff0102000001ff00
00010004fd0002ff0100
02020000ffff02fe0200
fefffffe010000010000
ff010100ff0102ff0200
0000020000fffd010100
01010103fe00feff0000
fe01ffff01010401ff00
fc0002fe00fd0200ff00
00fd01000201ff01fe00
fd000000fd0100000000
01000100feff02ffff00
000103fefe03ff000200
00020100000002010100
fd010200fe01fefe0000
00ffffff02010100ff00
00020201000003030000
01fe03000100fdfffe00
00ff0002ff00fdff0000
02010100fc02ff00fe00
fdfffffffe02fe010000
ff01ff00010003020100
fc020302ffff0100ff00
ff0201ffff0001ff0100
ff00020000fefe000100
ff0100fffffeff010100
020000ff00ffff00ff00
00fffeff01000200ff00
01ff02ffff0003ff0100
0102ff0000ffff00ff00
00fe00ff02fffdffff00
ff000000fe0100feff00
0300ffff00ff00fdff00
02010100fdff0200ff00
fe00fe030101f9fcff00
ff020002ff0103000100
fffc0001ff00fc010000
fb02010104ff05010100
020202ffffff00000000
01000100ffff01ff0000
ffff0303fefffd00fe00
ff000002ff02fe01fe00
fdfe010200fffd00ff00
ff0101000305fe010000
fe02000101ff0200ff00
ffff03fe00fe0101ff00
00000200ff0001000000
0302040202ff01fe0400
010002010201ff000000
fe0200fffffefd00fc00
00ff040200ff00ff0300
fffdff00fefd0002fe00
00000000fffeff020300
ff01fe01fb05ffff0000
0200ffff0101ff010100
0002ff01fd0100fe0000
04010101fdffff000100
fd0102020101fc02ff00
00ff010301000300ff00
02000200ffff0100ff00
01020101000101ff0200
feff020103ff01ff0300
fe00fd01fffdfdfe0000
ff0001ff000100010100
03ff00ff02fe02010000
000002ff05fe02030200
00000200010100000000
ff010001010001fe0000
02ff0200010100010100
0002000101fe0101fd00
ff0100fffffc02010100
fd01010001ff0400ff00
fe000200ffff00020100
ff0000ff01ff0001ff00
fe02000001ff01000000
02ff00feff00ff03ff00
ff01ff02030001000100
000100fe0005fcff0200
010100000100ff020000
01010001030107fe0200
00030301ff0200000200
000101fffefd0100fe00
ff00ff0002fcfe020000
01ff03fefffd0002fd00
fe0103fffffcfffefe00
fd010201000000000000
faff030203ff03000100
02feffff0000ff01ff00
02000103fe01ff010000
fdff0000fe0000fe0100
ffff01ff00fe0201ff00
000100020000ff04fe00
00ff01fffdfffe00ff00
fdfeff03fffc01fefe00
ff02fd0103fafefc0100
fe01ff0005020401fc00
ffff0200fdfdfc02fd00
fefe01ff020301010000
00ff00fe02020301ff00
02fe000002fffd000200
fefe01ff01fb00000000
01fd01fffc00fc020100
fe010000ffffff010000
ffff00feff01fe000100
05030001fd0001020200
0100000001feffff0100
feff00020101fefeff00
ff02ff03ff0001ff0000
02fe000000ff0000ff00
ff0003ffffff01ffff00
00ff0102fdfc02ff0100
ff00000100fffe000000
01000100ffff01000000
010202ff0201feff0000
ff0203fffdfffe000000
0401fe01ff0200010200
0001ff01000000fefd00
02000101fcff00fe0200
01ff01020100ff030000
00ff03000002ff000100
fdfbfffffefdffffff00
ffff0202020100ffff00
ffff0100050001ff0000
01000001fffeff010000
feff01fefd00ff01fe00
010001ff010001fe0000
ff01ffff00010102ff00
01ff0002fe000202ff00
01feff02fe0001020000
ff00fffefc0100010200
010000000001fd01ff00
fe00ff00010000020100
fefe00fe03000002ff00
01000101fffffb00ff00
03ff0100fd000300fe00
010102fe010400010000
fe0101fefefe02000000
fe010100feff00020000
feff0000ff0101010100
00ff00020503fe03ff00
0001ff0001ff01000000
000103000001ff000000
ff01000200000201fd00
01ff03fffcffffffff00
fe01fffd0200fc000000
fd0100ff02000100fe00
fe0200020201fe00fe00
0200030101000202fe00
01ff000104fefe000000
fc020200ffffffff0100
0201fe01fb0200000000
120512f1231a2d1c0c00
1e19282c131316261500
0001000002ff00ff0100
00fd010204fefdfbfe00
fffe0001fc0a02fe0b00
ff0000000100fe010200
ff0101ff00010501ff00
010001000000fa00fd00
ffff0100ff000100ff00
fd0101000003ff000000
fefefeff03fefefefb00
00ff01fd0402ff030000
010401fffefffbff0000
ff02000002fefeff0200
0201ffffffff00ffff00
0200ff000001fe020100
0200010000ff00000100
02ff00fe00fe0002fe00
fdfcff02fdffff00ff00
feff00010300fb00ff00
00000001fe0200050100
fdff000100040301fc00
00fe0201ff02ff020200
fffefeff0203ff000000
000101010001fcfe0100
fffefe00ff02fcffff00
fffe0000fffffe02fe00
0200ffffffff02fe0000
fc010000feff00ff0000
00fffb0002fdfc01fe00
0002000001fe0104ff00
0100000101fe01000100
010100000001fffeff00
01030100fffd03000100
00000000fefefb00ff00
0102ffff00fffe02fc00
0000ffff040000000100
020101fe01ff01030000
fe010001000100000000
ff03fe0204fdff040200
01fd00000300fffe0200
fefffe0003ffff000000
0201ffff010205fffe00
030101fe02020003ff00
fefe0000000100ff0300
00010002ff02fd020100
00fdfe00010101fe0000
010101020401feff0100
fe0200fe010000ffff00
ff01ff0000000102ff00
ffffff000404ff00fb00
fefd00fe040202040000
020000ff02fe00fe0100
010102000100fd010000
03ff000100feffff0200
00ff0000ff04fefe0100
02ff00020101fe00fe00
fffd000302fe01010100
0102ff00ff00fcffff00
00ff0202fefefdfdfd00
0201fe0000feff000200
01ff010001fe00fd0200
0000ff02ff01fb00fd00
fefeff00fd0300ff0000
ffff020200fffd00fe00
0000ffff01ff0100ff00
feff0102ffff00feff00
02ffff0203ff01fe0100
ff0101fd040002ffff00
fd000002020002000200
fe0200000201ffff0000
0002fd0003fffe05fe00
010001000100ff010000
ffff00fffefdfe010100
03020100010001020100
ff0200fefefe01fffd00
fefdffffff02fe00fd00
010101000103fe010000
fffe0500fffd00010100
ff00ff02fffffe01ff00
ff00fffefffe02fffe00
fffeffff000000000200
fe00fe00fdfc01fe0100
ff00fefffefffffffc00
ff03010101fefeff0000
0101000201fdfe010100
fefd0002030005fefe00
ffff0301fffe01fe0000
fb01ff010103fffe0000
03fe00fffcfd01000000
0000ffff010101fdff00
00feff00010100fdfe00
fe01ff01010100fdfd00
01ff000001000202fd00
fe0201ffff02fe000000
00ff0101fbfe0002fd00
010102ff00fdfd010000
01fd02000002fdfd0000
fd000101fffffdfeff00
01fe000302000101fd00
ff01ffff0304fffefe00
fffd020100fdff01ff00
ff0000010200fe01fd00
02fffe01fe0002fd0000
000001000000fcfdfd00
ff04fe000102ffff0300
03020000ff0000010200
ffff0102fd0200ff0000
0200000204070101ff00
00ff0200010105fe0200
02fe000002fffc01fe00
ffff000001fe0100fd00
01ff0100ffff02000100
feffff0002fdfcfffe00
00ffff000305fffe0100
fe01ff01fefe0002fe00
ffff0001ff000002ff00
ff01fe01010102010100
ff000000fd0100000300
02fe0002ff0104000100
0004ff0100ff04ffff00
fe00000004fe01000100
01000002fe0001010000
0101fffe02fefd00fd00
fdfe0200fefd01fefe00
02ff00ff0402fe03ff00
ffff020000000102ff00
02000000fe00fffeff00
0200ff01fd00ff000500
feff0002fdfdfe020000
00fffe00010202fd0200
0204fe000304ff010000
000000010002fffe0000
fefe000100feff020000
ffffff0202fd03010100
01000200fffe04010000
ff00fffefefe00000100
00ff01010102ff000000
02ff01ff02ff03010100
fffe030002000100fe00
fefe00fefeff00000000
0001fefe01fffe000000
01010101fe02fbfefe00
00fe00010100feff0000
0002ffff01010200fd00
fffffd010100fb01ff00
ff0101fdfffd03fefe00
ff02ff02ff00ff01fe00
010302020101ff000400
00ff00000101ffff0100
0201fffe010100000000
fefefb0102faff000100
000200ff00fefefe0200
feff00fe0102fcff0200
feff010100020000ff00
fcff0401030106000400
0001020101fdfefffe00
ffff00fe0100ffff0000
00ff01fffe0001000000
fefd0002fe050003fe00
ff0000ff0400ff000200
fefd01ff01fd02feff00
0100feff020101010000
01010001ff02fdff0100
03020101fe00fefffe00
0100010003fdfc00ff00
01ff020101fefefffc00
000000fffffe0100fa00
0201ffff000005ff0200
fd00fe00ff0102020000
fffe0100ff02ffff0000
04fffc0002fdff000100
00ff0001fcff03fffe00
0103ff00020401010100
0002ffff00ff00010100
00020100000000fe0000
00fd0101fefdfc02ff00
01000101ff0001000200
0101ff010502fe010200
fc01fe0001fe0101fe00
fdfe000103fefe020200
fdfd010104fd02fefb00
ff0000020303fe000300
0001ff000002fffeff00
0300feff0101fc000200
0300ff0100ff01010100
0101feff05000002ff00
010afdfe0400fe000900
0002ffffff01feff0000
02fffe0002ff01000300
00ff0102fefe0100fc00
fe01ff0100ff02fe0100
020100fe01ff02020000
fffeff020001ff000000
020001ff01020102fe00
fffdfffe0301fd000000
ffff00000402fd00ff00
0005ffff01fe0504fe00
00040102000403ff0500
0002ffffffff0000fe00
fdff0301fefbfe02fe00
00fc01ff030102fffe00
0104fefd030403ff0100
feff0100010002fc0000
ffff0101ff0000ff0000
ff00fe0100fefffe0300
fffe020003fdfffffb00
00fd000000fe0100fe00
010001fefd0002000100
fffe0300000100010000
0101ffff000001ff0000
00fe00ff02fe0500fd00
ff02ff01fd00ff02fd00
ff0200ff02fffefefe00
01ff00000001fb01ff00
ff05fe00010000020000
00ff02ff0001ff010200
0001010100fd03000200
0000fe0200fefeff0000
ff00ff01010000000000
fefffeff0101feffff00
fe000001fefffdfdfe00
fefeffff00fefefffd00
02ffffff010200ff0200
ff02000002fffefeff00
ffff0100fefc00ff0300
fefffbfffcfffcfefe00
01000101040000fe0100
fdfe010000fefe01ff00
ffffffff01fe00ff0000
00000200fefe02010100
01010000fe00fe000000
0000ff010101fe02ff00
ff0000000002ff010000
0000fffffffffe010100
fcfe0000fe000205fd00
03010001fbfffe020300
00fe020101fb0204fc00
fffe000003ff00fd0100
01fe0202ff0102000100
00ffff0103fffefe0300
0000010201fffe000100
01fe0102050103020300
0200fd010101feff0100
00ff00ff0301ff000000
fdfd0002fb0303ff0500
010002ff04ff00010200
ff03020101ff0001fd00
00fd00ffff01ff010000
fffe0001ff04fe010300
00ff010000fffefefe00
000200fe02010202fd00
fefeff0003000100fe00
000202ff000000fd0400
00020000ff00fefe0200
0002000103fb0002ff00
0001ff0002fffd00ff00
ff010201fffeff010200
fe000200000101ffff00
0101020103ff04010000
fdfd010100040000fe00
fffffdff02fcfd020000
00feffff020001010000
ffff03fffefc00fdfc00
feff0101fe02fe01ff00
00fe0000ff020201ff00
fe00fd00ff02fa04fd00
01fe0102020001fffb00
030200ffff00feff0100
ff0201fe00fffcfd0000
0000fefefffdff01fd00
0000fefd0002ff000000
0001fe00fd0003ffff00
ff01010205fb02fffd00
feff0202fdfe01ffff00
0002010000ff00fd0200
01fd0102fc0201030300
01ff00ff03ff04ff0200
010001010201fd050000
fe0002ff020601010000
01fd0301020002020100
00fe000102ff01ff0100
010001ffff020101fe00
0100010100ff00ff0000
000100fe01fc01fe0100
01ff0201fefb07fffe00
ff030401fefd01000200
fe0100000200fffefd00
02fe0000fe010002fe00
0501fefefcfefe000500
0300feff0001fdfcff00
fd0003000300fefe0100
00fefe02fe03fcff0000
02ff0002ff0102ff0000
00ff0200010003ff0000
fe02010100fbfefefe00
0101010106ff0201fd00
ff00fe01ff0003ffff00
0003ff00fdfefbfefd00
ffffff0002ff0000fe00
01ff0000fe01fefeff00
00ff01ff0000fcffff00
00ff00ff00ff02010300
ff02ff0000ff01ff0100
fe03fffe000200020200
0102fefffe0001fefe00
0100fe01000200000200
fffd0101fe0002ff0300
000000ff01ff00ff0000
01feff0000010204ff00
fd000200fffd00ffff00
00ff00fffdfffeff0100
030300fffefffd010100
fefd0002ff010100ff00
02fffeff00fffefffe00
ffff010100000001ff00
0400ff010203fc010000
0200000001ff00fffc00
0100ffff01000202ff00
fe01fdfffdfe01ffff00
00fdff000200fb02fc00
fbffffff0000ff010000
0202ff0001fe01ff0000
01ff050102fe03000100
fefd0001010000fdfd00
ff000101010005000200
00ff0001fe01fd000000
fe0100010100ff03fe00
00ffff02fffefffe0400
00010202020200000300
030001ff020102fe0400
030100ff02fe0100fe00
01ff0001fefdff020100
00ffff000003fe00fd00
01ff01fffefefc00ff00
01fe0200020001ff0100
010100000605fd000100
0000030201ff0001ff00
fffffe010101ff00fe00
00feff0001000101ff00
000100000101ff020000
02ffff0005ffffff0000
00000204fe0703020000
0303ff000302ff000000
00ffff0100ff01010100
020101ff03fc02010100
fbffff000000fcffff00
0103ff01fffeffffff00
ff000300fe0102ff0100
fd0001000200ffff0100
01fffd000003fd000000
ff000100020002ffff00
030202fc01fd00000300
fffdfd02fe00fd01fc00
0100020000fd02feff00
000100ff00ffffffff00
fdfe01ff01ffff00ff00
00ff0000ff040300fe00
0101fffe02ff02ff0100
01fd040101fe01ff0300
ff01fe01fefdfeff0000
0000ff01010102020000
01ff0100fefffd04ff00
ffff00000000fffc0100
00ff000101ff02000000
0002fc00ffff05fefe00
0100fe000201fb00fd00
ff0000010003ff030000
ff0000ff00ff01020100
ffffff0101fdfcffff00
ff00fd0100ff0100ff00
ff02fefffdff0101ff00
00fe000100000000ff00
00ffff00ff0000ff0000
fdffff0100ff02fd0100
fe00000001fe03fefd00
040100ff01030000ff00
00010001fffefffc0000
ffff01ffff00fe00fe00
00ffff010000fe000000
02fe0501030101010600
fffd00000004ffff0300
ffffff00fd000002fe00
01010001fc0100fd0000
00fffe000001fffffe00
01fe01ff02fff801fe00
00ff0102000003000000
fe00000101fefeff0300
fefefe00ff010000ff00
ff000200030101fdff00
0200000000ff00ffff00
fe01fe01ff0100ff0000
ff020300010201000000
ff0002fe00ffffff0100
ff01fd000103fe02fe00
00ff000101fffffd0100
ff00ff00fe01fefeff00
0200ffffffff0201fe00
fc0000fffcfaff04fd00
ff01ff0101feff00ff00
0300fe0100fffe000000
fdff000200fc00000100
000100fffc0101fd0100
0100ff00040202fffd00
020200010002feff0100
ff00ff010000fe000300
fffe01ff0101fa020100
00ff0001ff0101fd0100
01fe000102ff03fe0000
0100ff000002ffff0000
01020001020204ff0100
ffffff00ffff01fe0400
01ff010002ff01000100
ffff000001fe01ffff00
0100ff00fefefe02fe00
fdfc0100fdfd01ff0000
01000200010001010000
fffe0301fcfafe00ff00
02ff0101fd01feffff00
fe0102ff01000000ff00
0303fe01010001000100
fefeff0001fe02ffff00
ff01010000fcff000400
feff0001ffff03ff0300
fdff0000fffffcfffe00
ff00ff00020002000200
fffffefffd0202010200
0104ffff0302fffffc00
0202ff0105020001fd00
00010001fe05feff0500
02ff0001000100fe0200
01000000fffe01ff0100
030101ff03fffd00ff00
fffefffffeff00030300
00ff000104ffff02ff00
00ff02fffefe0202fd00
fefeff01fc00fffe0100
010300ff03ff00fe0100
01010301fffe03000000
ff01ff0101020102ff00
fe00fffe010001ff0300
fe000001ff00feff0000
0401ff0104feffff0000
