00
7f
dd
02
e9
08
23
e4
13
de
f2
24
00
7f
26
03
10
2a
f2
d6
f3
f4
22
fa
00
7f
2a
0a
1e
ee
26
08
1a
fb
13
db
00
7f
da
e9
f6
e0
25
13
e7
0b
00
0c
00
7f
16
df
fc
f7
e1
0f
f6
13
1b
18
00
7f
0a
09
0e
16
d7
f0
10
e0
d6
dc
00
7f
0e
dc
e0
d8
05
0b
22
f5
07
1a
00
7f
15
19
0b
2a
17
0d
24
ee
28
df
00
7f
08
db
f7
f1
04
fe
ef
f0
f5
e8
00
7f
29
09
e5
f9
f4
1e
f7
d8
17
2a
00
7f
f9
1a
e1
18
e8
fb
1b
e6
03
03
00
7f
21
f3
e2
12
05
f4
20
08
f0
1d
00
7f
e4
03
21
27
eb
18
ee
de
fa
df
00
7f
25
ec
f9
e9
f3
d7
1f
ec
02
de
00
7f
e3
1f
f7
12
ec
e0
d7
ff
e2
20
00
7f
13
16
24
03
14
00
06
fb
f7
22
00
7f
e4
25
fb
11
26
23
d7
e1
06
ff
00
7f
fa
11
fc
23
08
03
25
04
f9
25
00
7f
01
f8
f2
16
d8
db
03
07
fa
15
00
7f
f0
17
1a
22
de
e4
22
1b
ed
25
00
7f
e6
da
fe
22
d6
d9
fa
16
13
e4
00
7f
ea
1d
fd
de
fa
f3
26
f2
1b
21
00
7f
e5
04
d9
22
16
02
1c
02
ea
1f
00
7f
09
fa
ec
e3
2a
ef
d7
fd
dd
18
00
7f
26
e1
ff
1d
ed
e0
24
1a
17
21
00
7f
10
db
fd
1e
ed
ee
16
dd
ed
ef
00
7f
ec
0f
1f
ef
f5
fc
1b
09
0c
e1
00
7f
20
24
20
07
e2
1e
15
05
07
da
00
7f
23
f1
e0
0e
e6
0f
12
29
27
e2
00
7f
1b
25
16
08
e9
05
27
fe
e3
25
00
7f
ec
29
f0
f4
07
e4
db
eb
19
ec
00
7f
f6
ff
23
e8
1b
0e
10
f3
ed
e6
00
7f
15
ef
df
16
00
df
f0
21
07
2a
00
7f
1c
15
13
27
ed
e9
28
fa
26
fd
00
7f
da
1f
18
0e
00
03
00
07
13
eb
00
7f
1c
dd
e9
0a
21
26
fe
dc
f1
11
00
7f
ef
14
fc
ee
29
e0
f3
0b
dd
15
00
7f
01
00
1e
e3
f3
f6
f6
d6
e2
16
00
7f
fa
10
29
0c
11
23
09
0c
21
01
00
7f
05
1e
f4
fe
e9
f3
d9
11
e5
1a
00
7f
04
e0
ee
de
e7
ec
0a
0d
d8
1a
00
7f
20
e2
f2
de
05
f2
f9
0f
e0
d8
00
7f
df
1f
02
f1
df
fb
f8
eb
da
14
00
7f
dd
1b
0e
e6
07
f0
1d
d6
d7
fe
00
7f
0b
19
14
ef
1a
12
d7
27
13
0c
00
7f
f8
f3
f3
e0
e5
1f
e0
0a
22
e4
00
7f
f3
0f
f4
f7
0f
e5
e0
f6
07
27
00
7f
f0
0f
f3
10
f7
ff
e8
0e
02
03
00
7f
15
15
01
e6
26
d8
df
22
fb
f5
00
7f
fb
05
fe
1a
f9
28
29
f8
26
da
00
7f
f1
f2
0a
1b
ef
1a
0d
e8
28
03
00
7f
e8
11
25
f8
16
22
0c
1a
de
1b
00
7f
19
22
fa
04
10
28
f2
f2
dc
14
00
7f
28
d9
e0
fb
28
db
27
dd
dc
f2
00
7f
ea
0b
23
dc
18
04
1b
dd
e5
1b
00
7f
12
20
28
10
ff
e3
27
07
17
22
00
7f
21
1e
1c
ef
fa
17
da
f0
f6
f2
00
7f
2a
2a
e2
f1
e9
26
02
26
fb
ef
00
7f
1b
d7
f6
09
e3
f6
e6
ff
1f
f9
00
7f
07
e3
0b
22
1f
28
da
11
02
ff
00
7f
00
da
de
fe
08
d9
e1
ff
de
f0
00
7f
ee
f2
11
02
01
f8
19
ef
f1
ea
00
7f
ee
08
17
f7
fe
db
eb
1a
07
14
00
7f
0f
1a
e8
0a
01
f5
26
29
ff
1f
00
7f
f3
22
da
24
ed
0c
ed
f6
16
0c
00
7f
f4
dc
e5
db
f5
e5
17
06
f8
fc
00
7f
15
f3
e4
f8
f4
e6
03
22
ed
ee
00
7f
1a
0a
0e
fd
e5
fe
e7
10
0c
09
00
7f
20
ec
fc
fa
f5
14
1c
f0
fa
f0
00
7f
fb
28
d7
f6
12
06
0a
17
d6
26
00
7f
22
f5
fc
ed
d6
ea
fa
28
1d
e6
00
7f
de
ec
ef
f6
27
02
f2
09
29
22
00
7f
07
1a
24
ff
ff
d7
1f
2a
23
1b
00
7f
25
15
23
15
15
10
24
e1
04
f5
00
7f
23
27
22
db
ef
28
20
f9
1d
e8
00
7f
f9
f2
f6
f1
0a
f6
11
ff
fb
23
00
7f
e3
db
1a
0d
e7
21
28
f2
d8
ed
00
7f
06
28
e2
d9
15
e6
ef
e3
e4
0b
00
7f
f9
f1
f7
eb
25
1e
16
2a
f4
fc
00
7f
e6
ff
d9
17
26
da
e7
28
f3
e3
00
7f
1d
24
05
ee
e3
e6
ec
27
1d
dd
00
7f
f9
e0
df
08
d6
f2
e1
d6
d9
1d
00
7f
23
20
fa
04
21
d6
e6
23
06
1d
00
7f
0a
d8
df
d8
08
12
fd
e5
0c
23
00
7f
20
f0
1e
fb
d7
21
19
da
df
ee
00
7f
de
f4
07
dd
fa
04
2a
24
17
1a
00
7f
1d
db
22
1c
f0
d9
d8
18
24
19
00
7f
0d
ec
e6
27
da
0e
e0
f0
11
16
00
7f
df
23
02
f4
29
1e
e7
f1
fa
e0
00
7f
d8
01
e9
26
1c
02
e0
fa
fc
16
00
7f
25
ee
22
23
f7
13
fd
d6
25
f4
00
7f
28
17
df
04
d9
0d
00
ee
03
21
00
7f
1d
20
29
f2
f3
df
15
fd
ef
d6
00
7f
03
d7
23
fe
f2
e5
02
d6
ff
d9
00
7f
fa
11
f4
20
0b
16
15
00
e2
ea
00
7f
f2
fd
0c
d8
23
de
e2
fe
14
0c
00
7f
01
e4
dc
25
06
de
13
07
ea
e4
00
7f
da
fa
17
19
04
e2
0f
f8
d9
18
00
7f
1a
e2
1c
ea
e6
29
10
03
1c
1e
00
7f
d8
ee
db
12
16
fb
e8
f6
28
f5
00
7f
ef
ec
22
f5
1c
27
17
eb
ed
f1
00
7f
d5
f2
ee
20
29
27
0f
f2
d8
ec
00
7f
de
f3
ff
dd
0e
15
f1
21
1c
dd
00
7f
09
ff
fa
16
22
f2
00
ff
14
fe
00
7f
da
e6
f5
e8
d6
24
19
f3
1d
0d
00
7f
d6
1c
14
2b
f9
26
d6
dd
25
14
00
7f
e3
28
d9
e7
19
ef
0c
25
eb
f0
00
7f
ea
0b
1c
f4
1f
23
e2
1a
f7
16
00
7f
e6
0f
f5
15
00
f2
f3
e6
1c
0b
00
7f
de
1e
2b
fa
e4
fa
dc
dc
f7
f4
00
7f
04
12
d7
24
de
12
11
1a
0b
15
00
7f
1b
ed
1a
d8
18
26
09
da
dc
23
00
7f
d6
f0
27
fa
fb
d9
29
10
0b
28
00
7f
1d
de
1d
1f
09
dc
ec
1b
fd
08
00
7f
27
d7
12
17
1b
db
ed
f6
01
dd
00
7f
03
eb
dd
24
25
f5
0b
03
09
1e
00
7f
12
e0
fb
e2
19
1a
db
e8
d7
fe
00
7f
0a
20
de
e6
d7
1c
23
21
13
25
00
7f
21
04
e0
0d
fa
fb
09
24
16
e2
00
7f
12
21
20
15
f4
22
22
25
e2
15
00
7f
d7
24
f5
ea
1d
fc
08
05
f0
28
00
7f
05
2a
06
00
fb
fc
17
f0
0c
04
00
7f
f7
0b
e3
f1
e7
e7
05
05
ef
ef
00
7f
db
18
12
f0
e9
fc
0a
f9
fc
dd
00
7f
fd
22
e9
25
14
29
df
e7
21
ef
00
7f
e8
f8
07
fc
22
06
ee
16
de
00
00
7f
25
dd
2a
f1
28
e0
13
fd
24
13
00
7f
0c
1b
15
26
20
06
1a
d7
ef
15
00
7f
ff
09
16
d7
f6
1a
07
10
19
1c
00
7f
07
29
11
0c
16
d7
20
d9
f0
07
00
7f
12
0c
dd
04
16
1c
fb
f4
1f
f3
00
7f
e5
fe
0d
e7
08
10
e1
e6
f5
1e
00
7f
e4
fb
e8
0b
ff
ea
f8
1a
f3
d8
00
7f
fe
27
e0
e7
24
f0
04
fd
2a
06
00
7f
f0
ea
e2
ea
23
24
0b
00
e1
ed
00
7f
ee
1f
d8
1a
e4
d7
ee
08
fa
1a
00
7f
ea
20
01
11
12
dc
fd
ef
27
10
00
7f
fd
1c
fe
06
f8
02
06
27
26
fd
00
7f
0f
ff
e2
f3
1b
e1
fb
e7
00
d6
00
7f
28
f7
f5
e0
f7
19
db
00
e5
18
00
7f
0c
ff
1a
1a
25
0c
e9
f2
f8
2a
00
7f
2a
e9
da
12
0a
0a
e8
0e
24
dd
00
7f
e9
db
dc
24
25
e5
ef
0f
10
01
00
7f
ec
ea
26
29
f3
eb
ea
ed
f7
f7
00
7f
eb
1a
1e
d6
1a
26
ff
06
ea
db
00
7f
eb
0e
0b
e5
f3
0b
22
11
22
22
00
7f
04
ff
1c
13
f1
1b
dc
19
27
17
00
7f
16
29
19
1b
fe
e6
1c
2b
e6
0b
00
7f
1d
22
e0
18
d9
f7
dd
13
d9
03
00
7f
19
fb
24
d9
01
04
e3
f0
d8
0f
00
7f
eb
f6
21
f8
ee
23
f8
db
e4
04
00
7f
14
04
20
25
e4
0c
12
00
27
f6
00
7f
24
11
0a
ef
d8
2b
19
ed
d8
26
00
7f
ef
fa
1f
d7
eb
17
17
fc
18
f6
00
7f
0d
eb
f9
12
e6
ed
fb
ff
07
12
00
7f
da
01
15
21
fd
03
25
28
ff
fe
00
7f
09
28
1d
0f
29
ff
1e
1b
0f
dd
00
7f
11
29
06
e5
e9
15
1a
ed
dc
1a
00
7f
f9
02
17
e8
1c
de
f2
04
d6
fd
00
7f
21
08
24
e8
08
f4
f0
fb
13
f2
00
7f
2a
21
06
db
09
e4
dd
d6
ec
0e
00
7f
28
26
26
de
ed
f4
fe
ed
0c
f1
00
7f
f4
da
de
fd
e6
dd
e4
fc
f2
12
00
7f
e3
13
29
20
1c
17
03
fd
f5
ef
00
7f
24
16
10
e0
f3
04
ee
03
29
10
00
7f
ec
25
e2
e3
28
00
f1
04
05
da
00
7f
1e
d6
e6
f4
fa
24
03
d9
d7
e1
00
7f
f9
23
f4
eb
da
f3
e5
2a
f7
26
00
7f
df
15
fe
06
26
f3
e1
f3
1a
e6
00
7f
f5
17
0b
12
ee
da
ee
1a
18
f3
00
7f
fd
f8
20
0d
e5
11
f4
19
fa
0e
00
7f
f5
12
da
19
18
16
e7
f3
dc
27
00
7f
1a
05
eb
fd
0b
1a
da
09
f3
d7
00
7f
f7
e5
ff
ee
fe
ef
e1
25
1e
e3
00
7f
fe
f8
15
f3
f9
f6
24
f7
e9
f8
00
7f
10
0f
f9
e0
f5
1b
da
1f
0a
e7
00
7f
f1
1b
f1
0c
e4
ff
13
0a
1c
1d
00
7f
20
03
e1
ee
fe
0b
f0
01
f3
20
00
7f
db
25
21
15
e3
09
f7
09
11
f0
00
7f
0a
fd
fd
28
0f
e2
f8
10
27
08
00
7f
25
f9
f3
0f
f9
02
27
20
0d
da
00
7f
f0
eb
d8
da
dd
1c
ea
14
21
08
00
7f
21
e1
e6
f9
08
d8
1b
ff
e5
0a
00
7f
09
fb
27
12
d7
da
0b
15
23
12
00
7f
22
1a
e9
f8
29
f1
f1
1e
fb
e3
00
7f
0f
1b
f6
20
24
dc
29
23
1d
e1
00
7f
29
d8
df
f1
f3
ee
04
f5
02
d9
00
7f
27
d9
06
17
05
1f
10
d8
e8
17
00
7f
ed
1e
f1
e8
f1
12
1c
29
d9
1e
00
7f
de
ef
18
fc
f5
23
e0
21
eb
17
00
7f
e7
eb
e0
1d
16
1e
03
01
27
e5
00
7f
da
f7
16
d6
07
e1
09
e4
de
e5
00
7f
fc
f4
05
f8
f5
f2
20
12
ec
11
00
7f
0a
07
d8
16
17
0a
da
ec
1d
e6
00
7f
d6
0d
dd
d6
0c
24
e6
0e
fd
26
00
7f
f4
d9
e6
1c
e1
d6
25
d7
ea
09
00
7f
02
25
e1
dd
f2
e9
f2
1c
fb
0d
00
7f
fe
ee
29
f8
ed
08
07
0b
f6
f5
00
7f
fb
de
1e
ef
eb
1d
09
04
25
e3
00
7f
da
03
01
2a
1e
03
17
1a
0f
0f
00
7f
e6
11
24
21
14
d8
f9
14
01
eb
00
7f
1a
f8
09
dd
1c
fa
13
0c
ed
11
00
7f
21
fd
f8
f5
0d
15
21
1d
e8
11
00
7f
0f
1a
e5
e9
e4
e8
fc
fb
ea
d7
00
7f
0b
f6
1d
d9
f8
11
0c
15
e0
00
00
7f
1c
f3
04
dc
1d
07
12
0a
dd
0e
00
7f
e2
f6
26
e6
08
16
12
e0
e7
e8
00
7f
28
29
11
f1
06
ef
eb
ee
21
02
00
7f
26
dd
d9
ff
17
ef
24
d7
07
2a
00
7f
04
f7
e5
00
08
10
dd
07
22
0c
00
7f
02
28
16
e9
26
0b
d7
22
fe
fa
00
7f
e6
1b
eb
10
17
04
f7
f3
e6
e5
00
7f
04
19
0f
00
29
24
22
12
1c
20
00
7f
de
f9
f2
01
0b
24
16
e7
1b
ed
00
7f
d7
0a
1f
16
fd
17
ea
d9
ea
0a
00
7f
03
f7
02
0c
1a
fa
08
14
f6
f4
00
7f
1c
de
04
0e
fe
27
23
27
fa
18
00
7f
f1
0d
05
e9
1c
1d
2a
1a
f7
1d
00
7f
29
ed
dd
fb
fa
f6
e8
f0
f1
17
00
7f
d6
1d
14
21
27
dc
08
1e
e7
25
00
7f
14
d7
e2
d6
00
f1
24
08
1a
e3
00
7f
e7
03
01
e3
fb
0e
f9
1b
fa
17
00
7f
ea
ee
13
db
ff
24
f8
fc
12
f2
00
7f
f1
12
0d
05
dc
ef
ed
1f
09
dd
00
7f
08
ed
e9
21
fa
20
14
1d
07
21
00
7f
1a
fa
d8
1e
df
0b
06
24
e8
21
00
7f
09
fb
e7
1a
06
11
e7
1b
17
03
00
7f
05
20
dd
1e
ef
eb
f4
e7
04
17
00
7f
0b
d8
26
e7
fb
ee
13
e7
14
0c
00
7f
0f
17
f1
f7
10
28
ed
03
e5
22
00
7f
f8
f8
f4
15
f8
28
e0
19
10
e6
00
7f
1d
f4
15
d9
29
e4
dd
25
2a
24
00
7f
21
25
0e
1e
e0
e9
0b
2a
e1
02
00
7f
20
21
19
15
14
0d
26
e3
de
16
00
7f
02
ff
d8
f4
19
13
16
01
24
e6
00
7f
13
19
e1
22
f3
14
ff
da
05
fa
00
7f
fe
12
04
eb
05
01
ed
ec
da
e7
00
7f
e7
0b
e9
f0
14
df
12
13
ef
0d
00
7f
04
09
23
ea
fb
d8
e4
07
db
f1
00
7f
f7
ec
0f
ed
0b
ed
15
e0
08
1e
00
7f
1c
ec
21
1f
1d
0e
f8
24
d8
0e
00
7f
e5
2a
ef
e0
07
02
24
00
09
07
00
7f
09
dd
10
ff
d9
1d
1a
0b
ea
04
00
7f
e9
1e
0c
19
f9
24
ea
e5
08
05
00
7f
d9
18
f3
14
2a
18
28
d7
1c
04
00
7f
24
e0
ee
f2
f2
f5
e8
20
d9
14
00
7f
f0
07
09
27
0a
fc
16
08
e3
d8
00
7f
0f
ee
eb
04
17
27
fc
01
1a
e8
00
7f
03
12
25
e1
e1
14
f0
fe
01
04
00
7f
0e
20
29
e1
0d
1f
0d
1d
06
eb
00
7f
d7
f8
15
1c
1c
19
01
08
11
08
00
7f
f6
1c
ea
1f
e4
f1
dd
e4
18
26
00
7f
21
e9
e4
18
f9
dd
df
1a
fe
0b
00
7f
d6
db
e0
fa
13
fe
db
e1
d8
29
00
7f
ea
0e
17
e6
03
11
e0
11
d6
f0
00
7f
16
e0
fe
07
f0
23
23
db
eb
29
