00
7f
f9
26
1f
fe
ed
f6
1f
fb
f0
00
7f
d9
15
ee
ef
14
1c
10
0f
28
00
7f
dc
e9
25
24
e6
f4
22
00
f6
00
7f
17
29
ee
e6
26
17
16
d6
1d
00
7f
de
27
09
d7
e2
ec
16
ff
dd
00
7f
f5
e4
e3
fe
f5
04
04
e5
e7
00
7f
f6
12
fe
f4
0f
10
f1
1a
e8
00
7f
05
e4
19
e0
2a
15
ec
de
09
00
7f
2a
e5
0a
df
ec
18
1f
e9
19
00
7f
d6
fe
dd
de
fa
d8
01
20
dd
00
7f
12
04
11
10
de
0a
f3
03
fd
00
7f
e6
1e
d7
08
05
ee
0a
1e
02
00
7f
ed
2a
29
1a
26
14
28
29
27
00
7f
23
1c
0a
02
22
fe
fd
27
fd
00
7f
db
d9
01
f8
11
f8
f5
12
db
00
7f
d8
df
e8
06
05
0a
fa
d9
21
