00000000000000000000000000000000
7f7f7f7f7f7f7f7f7f7f7f7f7f7f7f7f
04171002e6e4e7f7141efa09f2e1030d
feeaf41509f916fcfe06fef6fcfde907
f3ee1612e70cfde517111ae4fff11fe5
01e9031106ef1cf513edfdef1400e11c
e70b0803f204e61be31afaf5f4e6f9f7
0420f2f2fffcf0eaed0a0dedff020ee5
1ef7e91f111d06ffe3f7f3fcf3ffe0f3
08fbff05e9f7fdf209030de8fae5e10b
e610f9ff1204ff18f7f415f915e71cf7
0613ec0f19f9110bf01b120ef9ea0aff
15e6e713e111f4f417f8e30ffc1df6e2
0d141c1902040516e1f2fc18e0f40c18
ff12f7e71000fbe2040ce51404201f1d
151bf7051aef19f707070df2fc050d04
ffee16ebfe04f305f90114ebefed03e6
e7fff7e2f7fbf81ce80ffde90cf81c02
10f5e1e4f0efe5f50b061c081ee7020c
00000000000000000000000000000000
7f7f7f7f7f7f7f7f7f7f7f7f7f7f7f7f
11faedff0906e8e0f6e316eb02170e08
eb091213e706e3fee104100af5100f12
00e0fbf4e11107080dfa1c1c1215f414
06e60106f5e012f003ff00160b02fbe6
f2170a09f8f9e0e311f015ed11021cec
0816faf7e0ff0805ff17fc1fecede90a
f0170b020f020e17fd07ecf81c01e808
faef06f0141e14170ee1fb181be6fee0
1bf3f8efe816fe171ee6e50ef1070414
19ee19f9061ff8e1e1f71bed0a04f3ef
0b06f3ed00f3021ae7171d02f3f404f7
e2f2e11a0c1e1a0ffe0900eaeaf9041b
1e11f01005100ae40f0a1e0815efe9f7
e101e514f1f0ecf7f71bf10b03fbe20c
0bff080307ff09f5f206e6fbe81c0714
1de903f2e8feec1412eef7ed141aed1a
e6e1ff15e6e503fbf8f8f5061415e8ee
