00
7f
f5
d7
20
fc
f1
ff
e8
25
22
00
7f
05
fd
dc
d6
0a
da
fc
ff
f9
00
7f
0f
03
22
f1
1e
fa
ea
13
06
00
7f
ef
f8
e7
05
e2
e1
00
23
e3
00
7f
02
0a
e1
04
dc
dd
f9
05
10
00
7f
16
17
21
ed
e8
01
f5
da
16
00
7f
f3
d6
2a
16
21
d6
fd
29
fc
00
7f
2a
0a
f8
f2
f7
da
e6
05
ed
00
7f
f7
e5
22
07
de
09
0b
d6
f1
00
7f
d7
e2
06
08
dd
05
ef
23
de
00
7f
e4
0a
07
0b
24
d7
dd
e0
16
00
7f
06
ff
12
de
21
0c
f9
dd
d9
00
7f
08
1d
f4
09
f8
d7
ea
0f
00
00
7f
17
23
dc
e7
11
f2
00
de
e0
00
7f
09
2a
22
e4
ec
06
fe
05
10
00
7f
1e
ef
d7
dc
1d
e0
da
e4
21
00
7f
0a
f2
f5
db
24
da
ed
f7
07
00
7f
ea
df
f2
ec
15
ff
28
ef
24
00
7f
00
29
1a
29
eb
fd
ef
fa
d7
00
7f
ef
f2
15
24
f7
04
d8
fd
da
00
7f
ec
10
01
e7
19
02
0b
f7
21
00
7f
f3
10
e9
11
d8
0a
ec
15
0b
00
7f
03
1d
f5
f1
db
0a
f7
00
f9
00
7f
22
d7
21
28
d9
26
0e
0a
02
00
7f
ec
1c
02
f7
07
ef
21
13
f5
00
7f
e9
29
e4
17
d6
f6
23
01
22
00
7f
eb
e0
fd
26
1c
e5
fe
ea
d6
00
7f
f3
e4
ed
e5
e4
d8
25
da
1b
00
7f
d7
12
df
d8
e0
12
0d
01
f3
00
7f
f7
fa
09
f8
19
15
21
da
28
00
7f
1b
1b
f9
0b
f3
e6
06
07
23
00
7f
25
1e
e9
f7
00
1a
f0
23
eb
00
7f
0b
f3
ff
e6
f7
1c
e2
f4
f0
00
7f
22
00
fe
1a
20
1e
eb
f2
05
00
7f
ed
e0
21
27
09
fb
0d
d7
23
00
7f
0c
e0
f6
fc
23
07
dc
eb
0d
00
7f
22
f5
f6
22
23
1c
fa
2a
23
00
7f
ff
ef
05
19
00
0c
14
e6
ef
00
7f
d8
fd
f4
17
09
17
0c
f7
1f
00
7f
e8
27
01
de
da
ed
fe
14
d6
00
7f
06
13
28
10
eb
f8
d8
ea
17
00
7f
21
08
e4
16
08
d6
1d
04
07
00
7f
e8
d8
12
15
10
e6
28
0d
00
00
7f
d7
e1
17
ec
ed
da
26
22
f0
00
7f
05
ed
ff
22
ff
dd
f6
1b
00
00
7f
e1
e1
03
ee
24
da
14
21
16
00
7f
01
e1
e9
df
ee
ef
16
15
05
00
7f
13
f3
f7
e0
ec
12
ea
28
da
00
7f
da
0f
23
ef
e2
e8
ea
fc
25
00
7f
10
15
fd
f9
ed
12
f3
e5
02
00
7f
0e
28
ec
fb
dd
ed
23
f9
e2
00
7f
fa
db
e3
da
ed
de
f3
f8
e8
00
7f
dc
fa
11
19
1d
f7
e0
29
1a
00
7f
0d
e0
e5
f9
1f
e4
f5
15
04
00
7f
1b
29
2b
27
07
05
11
2a
f2
00
7f
29
e0
da
04
11
f4
12
e2
fa
00
7f
04
f2
1b
0a
f0
19
ea
03
e3
00
7f
f0
e2
28
ef
2a
0e
f4
e4
f8
00
7f
01
01
f5
d8
07
24
f4
1f
f8
00
7f
d7
25
d9
dd
24
25
ec
de
e9
00
7f
15
18
ff
08
1d
e1
db
ea
f8
00
7f
e0
1d
15
05
28
f3
21
1c
ee
00
7f
ec
fb
f9
dd
f2
18
28
17
da
00
7f
16
ed
db
03
0f
07
0b
f2
e2
