000000000000000000000000000000000000
7f7f7f7f7f7f7f7f7f7f7f7f7f7f7f7f7f7f
07fe0604030108fefb05070104fa04010603
fb06fbfbfa030705f908fb07fbfb06f90802
0702040505080500fc00fbfbfffffb0706fb
fafafbfbfa030501fa04f908fffd0704fdfc
faff0608050007f801fcfe01fc05fc040403
06fb01f902fd0307f90004fa04fe04fdfe00
fa030805020308050204fcfa0002f9fc06fc
0804fdff07fbfc00fc06fb00fb01040104fc
00f9fc030405fbff02fe0601040701fe01fc
ff0107fcfc06fafb0104fcfc00fa0301fa03
0705fb0706fff90208fa02fdfd05fcf8f8fb
fbfe03fef901fefa01f808f8070801070704
fefefffaf802fafdfb05fb07fefe000604fa
02fafc070401fa01ff030101f9060106f9fc
fa00040700fafe020504f9ff02fffe00fcff
01fbfffa0401070106fff9fe05fdfc040002
07fa07fdfd07ff02f8fefdfbfcfbfb04feff
fb07fdfe0205f8fefffc0804030405f90804
040500fc00fb07f9ff0802000805f800fa04
fdfaf9fe02fb06fafefcfafbf9fa04fc0201
f8f8030006fe02fffefc04f9ff06fc05f9fc
0206fcfb07000602000202fdf9fcff03ff07
01fd0007fa00fffefafafa0306fc02fefe03
04fcfefffffaf9fa07fdf9fefdfc05fffafd
02fcff00ffffff070504fa0600fb04fdfc06
fd06fe03040205050103f806fd010702fc02
06fcfafb0107fa0101fdfb07fdfafdfff906
faf807fffb03fa030400fc07f907f8fbfdff
fe0505080502fd01fb00fcf906f807060707
070805fc080006ff0206fe000502fefa0104
f903fdfa00fd080708fb000207f907ff04fd
06fd04fcfb03fd0205fa00fd080708fb02fe
fbf9fb0302fcfffe0300fd00fd0202f906fe
0508feffff04fffe05030803fc01fc02f9fd
f903030605020604fb03f9070700fbfe00fe
0404f908ff050100fc00fd05fc0302050400
fb050105fbf9fafa0005030706f9fe0600fc
00f9ff0003fffb01fdfa07050600fdfcf9fa
05fd020008fff90703ff0202fdfd04040301
0707ff01ff01060705f80802f90003f9fd06
f9f9fefbfe0002fcf8fe0007fe06f80301fa
fe0506faff03fb05fb000807040005fb03f9
f805f9fbf904fdf8fd00050507f8ff000405
fd07ff020100fcfdfe0701fdfb08050603fb
0005f90601f903fb00fefa0507fa0701f9fe
070303fffff9fdfffcfb06fff9f9fd040702
0504fc08fffcfcf9fe0607fffffe02fe00fe
fb030604fd020404fc07030603fa080400ff
05fc07fbff000101050503fefaffff040206
01fb02ff01fb0003f8fe05fef90607fc03fa
fc06f903f904020107000703fb00fe030503
08fb0603ff050000fafe02f801fffa0507f9
060502f9f905feff0004fffafbfffe04fef9
fb04000608fb0203fffc05020704fbfbf9f8
fafdfc02f9040204fc04f901fc070006ff06
fdff05fa00fe05fc03fcfc0700fb08feff01
06fd03fc04fd04ff020306fbfafef9fdff03
000702fc02fdfb01040602fb010502030407
06fa01faf90307ff020402080105f9030707
fbfb010505f9fc0003fb00f8fefd0508faff
fc04fafd0403fb00020007fe02f805f906fe
f90705fdfb01f9fbfefd05fef90002fff902
fb03fd0701f90507fffdff04ff02fcfcfd01
0807feff010402fd08fd0503ff08f80700fe
0600fc0100f805fcfcfbf8fa03070308faf8
08fc01fff9070202080702fdfafc010401fd
ff00fbfef9f9fdfa07fb000101fbffff05ff
0404fe00010608fafbfb04f9fffb0001fdfc
0701fefcff0306f9fe03fa04fffc0504fefc
05f804fc07fcfbfb010103fd0707f9030707
0607fb070607fe01fefb01020201fdfc00fc
0707050306080100fafefb0406fe00fd00fc
040201ff01050307050507fb0808f8fc0308
03fb0506fa07f9fa0203030307f906fd0306
01040407040602fffdff06fb0103050600fa
fefcfefd03f9ff0304fa0508fc01fbfc0706
0304fffd010503f905fdff01ff020600fefc
fb02010000ff05fbfcfafbfff8060101fd01
02fdfe03fe040300fdfdfc0505f9fc0707f8
01ffff040306040500fefc04fa03fffef802
0702fffb0100f800fefc050301f8f9020105
fdfff9fefcfdfffefafe00fafafdfaf8fcfc
fb00fffefbf900fdfe06f9000103030307fa
fafc0705fb010705ff0802fbfd00fe06fa05
fd0703f9fafa00fc06fc03fa02fcfa020506
01fcff05fefbfe0100f8070200f903000407
030007070401fafdfa03fe0107fffe0005fc
04fe08fb02f9fbf9080703ff04fffbfa0501
fe05fbfd08fa030303fb0603fc0804fd0000
fffd0706f900fcfa07fb01f8060303f8fe06
020206fffdfafe0605fafbfbff05f9fffafa
fc0705ff04fcfbfdfefffbfd00ff04faf800
f8ff050401f9f9fd010703fc0707fc02fef8
000406fb00ff03fbfdfe04000202fb0201fd
fefefffc00fe0201fd0401fe00050204fffb
020502fa050505060001faf805fe0600fb06
05f908060804f8060203fa000604f904f804
04050200ff0104f9fd06fefc01fc01050004
fa0602f802fd080308000207fb0303010007
06fa060400ff01ff000804fefbfffc000706
0008f80507fbf9fa0804fc04fe04000305fb
f9f9ff06fa07f80206030507fffffafbfb01
020007fd03fa00fc05f8f9040204020704fe
fdfa01fc030600f9fc0102050301fefafc03
01f805fe06fe03fd0602fd0700fdf9fcfc00
00fb000106fef9fa08fdfe01fffd0500ff02
070204f908fe01fb06fffa01050607fcf904
ff0107fc03040401fdfbfe0003070403fd05
fcfe01ff06ff0402fafbfa0603fc0007f904
06030405fafcf90001fafd0608fb07fc0100
fdff030702fffdfc02ff0507fbfd01fffdfe
f800050700fffd020505ff020700fefe00ff
fefd0602fcf901fdfffdf90401fb04f9f9fa
02fafa0104000203fafd04fd01ff0401fafb
f8f8fafb010207fbfefbfbfd000305fffffb
fe0402faf9050307fd0302fefe020300fe07
07fcfe060503010801f8ff0402ff04ff04fe
02fdfe0203fa07fe07fa0002fe030707fb01
01000606ff0506fcfeff06fb070606fa00ff
0405fffef9fd0202fbfdfdf9fb040305fb04
00fcfc08f9fefdfd0501fbfd03f801fe06ff
fc05ff0806fffa0405f9fc00fe0605fbf807
060500fc02fffbfb01fd00fffb0308ffff01
fd05ff08f8fe00ff0802fafb02f900f80304
0507f9fd04fd01fc07010602fb070103fafc
05fdf9fe06fa03fcfffbfc03fb000204fefe
060701020208f9f8f900fafafff9fa0600fb
0806fa01ff02fb0707fff807fb00fffefd02
01ff06fd01fbf901fa060501fc0001fdfcfd
fafe01030105ff040004ff030107ff07ff02
04fafbfa0606060400fc00fdf803fe0101fa
0204fbfdf9fcff030000fc00f8fe00060201
01f8fafff8fc05f9060308f903f90703fbfa
07fe07fff8feff06020703fafc04f905fef9
fafe06fefefc05fafd0106fdfa00f80702f8
020706fefe04fa04fbfdfe07f9f802010207
fcf902fbfefc06f9fa04fefb0607fc04fe05
070301040302fef9fb020004ff000607fb03
06fd0205f901fefd07fafafb07fe01fc0006
00fd08030700f901fd0203fa03f8fd08fd03
0102fd040107fb040305060405faf9f90400
0702f8f90800fd02fcfa0304fc02fd030107
fafe04ff02080205fcfe01fc07040302fb03
fefa01f807050404fefa00010706ff06fb06
00fc00fc0304fffcfe06fbfc070305fe00ff
fcfb05fc030804fbfa0507fdff01070102fc
0005000502070205fb01fe03f907ffff01fe
0408f8fa010008000008f802fb0001fa0203
04fb0802fc0302fc06fffcf907fcfcffff03
000003f908ff08fa020702feff01fa01fbfb
fc07fa07fd0700fd07080204fa01fb01f904
fa0506fbfc0103f9fa07080403fdfdfc07ff
0004f907fffdfe04fb070407fa00fb08fb05
f9060102f90802fd040400fd0303f9fc00fb
02fcfa07f9050504080305f8fdfb05fef807
0602fa040300ff04f8f9fa07f80708fc05fa
fef9fc0600060605fa07f9fc08fafafdf9f9
06f90307fafcf9f90305f9fe0106f905f807
06fa05fbfa05f9fa06fa0104f907f8020003
0100f9040200fa05fbfefafbfa0305fa0305
fdfbfbfbfeff04fbfd01fb03fafa00fb03fe
03fd0108faf8fefcfa0000fd0508fbfdfe07
0005fe08fa0307fc00fd020100fbfff805f9
fc04fe02fbfc0006010102fc0303fbfff906
fafdfefa0700fd0707f9fdf9fffe02fa0002
fe040803fb0502fb03f80204080605f90007
ff04fe06fc0007fffd0001fafdf9f908f802
fb04fe03040207fcfbf90808fcf9fd0006fc
fa06f80406f9060100fffafe00fd0502fcfe
03fefefcfefb0407fc07070407fefe0104fc
07f90207f9fffbfd0504fa00fe02fc0700fb
f9fefefe0006fbfa05fb06f9fffdfff8fe05
fa000100f800070403fc000403fafcf9fefb
fcfd04fd0802f806fa080703fe07f8000401
03f906fc08fd06030400fdfffdfcfa080706
00f800fafa00fc06fd08010704f9fc04fffb
fd04fa00f906fa060603fffe03fef9fbfefa
f8fcfbf9fa08f80607ff000605f901050502
06fb01fbf907fb0301fe04030502f904fffa
010001fa01f8030601f9020102020602fbff
fd00fbfe0303080803020402f90205fd0803
07020105fa0505fe040605f90702050406ff
03fffe030106fa06040607f901f8fff8fe06
0303fefa0307fefff8fc0002fffa0500fef9
03ff0105fd06f8fa07faf8fe04010504fdf9
0607fd0002050303fffdf90407ff02fd0105
0404fdff0604f9fb02fd00f90302f9fefaff
0602fe0708fcfbf901fcfdf905ffff06f9fe
05fbfa0404fafdf80700fa0607070700fdf9
fefa04fcfb00fbfd0307f9fffb05f8020300
03000106fb01fdf80506fb03f9fc02020300
fbfb00f9fcfb00fbf9f90508fe01f8fa05fe
fafcf903fb03030701fcfe04fffcfc0204fd
fb06ff02fe050602fafe07fc00f8060300ff
fbff0108f808030408fdfc01f9fd05fdff04
03fbfe0707fefb0504fe07040205fefb04fa
f8fb04fffcfa0303fffefffbfaf8fffa05fe
fb07f9fc0808fc03f80106fe06fd06fcfdf8
fffb010401fbfe06fd04fa05f9fbfc00fbfb
fc07fb0402fd05fdf9030400020308fefc07
00fd0400fa06fa03000707f801fa070500fb
f9fc07f9fd00010106fb07fffd060200fc07
fd03fdfd04f802fcfefa0105f9fcf904fdf9
fd04060402fe040201010506fd0706ff03ff
0002fb03fa05fcfbfe070206ff0003020302
02ffff07f802fa0700fa0008000006faf8fc
0502fe00fdff020400fd0505fa04f9f9fbfa
f80705f90303fa03ff02f9fffb0300010001
fbf9fc000103f907fdfafafe07f9fafcf802
0704fd04fafd01fcfffbfa02fa0407fc0303
fa0400f907fd050300f901fbf904fefe01fe
fef9fc01f806fa02fdf904fdff00ff0304ff
05fb060502050404fe070302080202fe0702
fbf807fbfb0703fdff00f9fcfd01fd0802fc
fa06fbf900fafd0006080104f9fffdfcfafb
fa00faff0107ff0202030505fefffa0702ff
faf8fa07fcfa06fdfef90808fb0702fcfe02
f80503f9020002fe0500fa04fcfc00060607
0106020003f904000404fcf802f90500fa00
08fcfd01020501fd00020503060206fafb07
060607fcf80501010503010307f906fa0603
fdfd00fc04fd00fdfc06fafefc04faff0106
fb0207f901fd0206f904fb00ff06fa07fb01
f9f9f90201f8fefdfc060302070004f803fc
fb010407faf8fefff9fc00fa06fefefbfcff
000202ff0502f9f80205f80706ff03fafbfd
01080106fcff0403050104fc05fefb0304fd
07010603030202fb01fb08ff08fff9fc00fc
fbfb050706fcfefefffa04070303fd0000fe
fffa01fc07fefe01fafafefe04fa030205fe
0105070603010503fffb02f903faff07fffd
03fe0601fafefd070503fd04fb05f907fcff
f8fbf9fdfb05f908fe02fd02fcfe08f90404
000204fa050107ff05f8fd06fcfa03feff05
fb06fb0605feff08f9f9060406fffefdfafb
fefa01030600fd07fbfe03fb01010203f8fe
02fc00030300f8fd0100f9fb05fc06fb07f8
0302fef8f90301040707fa0607f80207ff04
fd00fafe03f90807ff050405faf9ff0401f9
ff05fa07fdfffb06fe07fffe050506fa0405
060301f8fafcf8050705f9fc00fef901fdfb
020100fc07fcfcfb01fcfe0406faf804fc07
03f9fef903010800fbfffe02fc02f901fb04
0203010000f90503fdfefbfbfd06faf804fc
0504060307fa06000801fcfd01fdfcf9fa04
0603fb02f9fe010506030303070407f9fb07
03fd0502fdfd02fcfa00fe07ff05fb08ff02
06fcfeff06fdf9fefd08ff01fafc070701fc
0007000100050700f8f900070103fc00fff9
f903fa000005fffa0204fb05fefd0504ff08
05fc0405fc0501fcfef9f80203f808fff8fc
00f906fcfe0407fe0601020501fefa0707fb
060800fb040704fb02ffff02010807f90406
0607fb00f907fafefdfefd01fc02fbfcfffc
f9060206000406fe0204fd05fb07faf90703
02fdf80200fffe0208f9000401000606f907
fcfe050207fd06fffb070108fffc0003f806
000000000000000000000000000000000000
7f7f7f7f7f7f7f7f7f7f7f7f7f7f7f7f7f00
03fd06fb0208f8fd0600faf905fb01050000
00fcfe00fefdff03ff00070803fdfb03f800
05fa02f8ff01fdf8faff070606fc02060500
f9fbfbf9f90708fefcfc05faf90204060000
05ff0501030201fc03080008000707fcf900
00ff02f90106060204030405fe0204fb0000
fbfc010003fffd020308fa080103fc060300
ff0207ff06fbfd0607f9f9fcff0607f90500
fa0501fefffa05f90701fb01fafe00fb0400
01ff07fd00030306fe00fc08fc03f900ff00
fefcfb020104fe07ff08060800fbfcfdf800
fe07fbfcfc05fffbf9fc0206020703fd0200
fe02f9fd04ff04050602fef906f9fefffb00
0300fffdff04fffa04fe020106f8fe020100
fe00fa010007fb0704fe06f80002fbfe0200
070604fc030107f9fe06fb06060102020400
07fdfa08fdf9fe0604f9fc08fd0404fffd00
0405fbf90608fb0306fa00fb030502030500
0506040606fef9ff0208f903fc060603fb00
fa0102fafe08fe0304ff02fcfafc07f90100
f80100fefefefff906f907fe040702fb0100
0704fbfefdfcfafffdfafc07fafc05faff00
010704fef9fe05fbfe08fb05f8050606fd00
fe010402fafefa00000602040502fafbfd00
fb06fffd05f902fd0506fa03ff000200ff00
06fa0605050405f905010400010405ff0500
fb0101ff0608fafcf901fefe02fcfefef800
f905fa00fefc01fe0607010302fc0106ff00
03fefdfe0005fd01fdfc0602fb02fafefc00
05fdfefffa00fe03ff0605fefcfcfafff900
030801fb0001ff070605fa03fd0200fe0600
01f907fff9fff90407f9f9060101fffffe00
020106f9060803060700fcfefb0408040200
03f90002fb00020005fdfcfd07fef8f90600
f80707f904f9ff03070105f9fef9ff00fe00
0402faf803fdfb05fe0308f9fefd02060800
07faff06fe03fd000308000606fa02fc0600
0005f800010603ff01fc0607fa0002fa0200
fa0003fb0108040107060402020301040200
0003fffd020205fb02ff03080804fe03fa00
fcf9070603ff07fe03fb07fb00feff07fa00
fbfef907fb040206fafd060404fbfa000800
0407fafb0803fe000405fa00fe0603050000
fdfcf8fdf807f9fe05fbfc00030206fcfa00
0706fafeff00fe07fc07fafa04fc05fbfe00
03fa0504fe060702fb07fffd02f807030600
05050106fe01f903fbfb0600f9fbfc02fa00
04fefffaff010506fd080201fff900010800
0005fc02fd04fd07070705fbf907fb040400
03fefc0702fe04f904fe02f904faf907fa00
04fb08fafd01fc020504fbfe08fe01fe0000
05fa01fcfaffff04f806fe06fbff0406f900
04fffd0401ffff070603fa04040507fcfd00
fd0006fd0004fa0707fe06ffff0400fa0200
fe01fa0200fb0000fcfffc05f9fffe060100
fd06ff03fdfc0505f903f9fefcfefd02fc00
feff0305fd0003fb05fb08fcf80506fdf900
02fb07fefd0205070707fd02ff0806050200
f907f806fb0006fbfc02010807fdfd060300
06fdfd00050605fa06fdfcfa010204fafa00
fb03f9f9f9faf9fb01fb010403fafdf80300
0006fffb0302000502fc0202f9050408fd00
000000fef903070104fd07fc0006f902fa00
fefb07faff0001fc010204fb00fbfafafb00
0805040105fdfaff0002000004fd03030400
0701ff06070104fffe0807fb0605fafa0100
f9fcfcfc0700060007010204ff0407fb0300
08050500fafdfbfbfb0202ff040104040600
0804f90201fe08fdff0702ffff0504fffd00
0306040508fb01050202fb05fafcfdfaf800
08f802fbff07fbfa02fd030708fd0704fb00
070507010000fb0801fc06fdfe0400f9fb00
06fff901050105fffc02fafaff000701fd00
0608fdfc07fcfa00fafbf90205fa07fe0600
00050405fffb08fc020201fc0001fcfef900
0304fc080000f9010500fa03f80004070800
f8fbf90701080201fc06080300fd0100fd00
0703fe02fb05040401fbfafb01fd04fdfa00
ff0003060401fffc0605070701fc07060400
060500fc05f908030100fd030303fffe0000
06ff05fd0105f9fbf8fc040205f8f8feff00
fbfc00ff07080002fdfafd01060400faf900
07fdfffe06040306060501f9010606fa0300
06fafb0607fc05f80806f8020103fa010100
0601fa0703f90302fc05fa0101fafd070500
fc07fafafefcf9030808ff07060108020600
fefa0607fb00fc000807fd07fbfaf9feff00
ff030803fe0701fefe07030505000100fc00
0002060205f80608fb0207fb04080400f900
fbfbf90301000006fdfdfc03fff9fbfa0200
00fdfbfa04fdf8fbfefcff04fa08fd03f900
0500fa0502fc0704fcfc04fd00070307fd00
0204f906fd08010707f80106fdfd00000000
fb06fb02f904fd04ff07050400fbfe050200
05fa0005040800ff04fc08fffafffc000300
f903f80000fe06fd08070505fefcfd030800
f901fd06f905fa0300f90601ff07fe020000
01fd0207f90704fef8fd0601f9050106fe00
fa06fa030203fd03fb06fc06f906fc02fc00
fd010406fffffdfcfcfffe0706fa04060500
fefd02fdf9fdff02fbfa0302fc01f901ff00
0606ff03fd02fffe06faf906fffe02fa0000
04ff06f9f9010504f80600fafe0404020000
f9fdfefd08fa0401f80102fe02030603fa00
00fb06f90008fcf80505fdff0303fa000700
00fb000004ff03f8f901fd01050507080700
0200fc05fbf9f90703fbff0007ff0006f800
0801050101fef8fa03fef9fffb050700ff00
03050604010008000303fdfefd020405fb00
fd070103ff060402ff0708fc05f904fc0800
f9fbfafa00fd05fafc07fe0306f9fdfb0200
fc0207fc0404ff01fc01fd070802fbfbfc00
01fc04f806030407fff9fe01f802fa020200
0200fffffff903fa03020703fd02fdfe0000
04fdfd000402f90505fd020301fb02060300
f90602fdff040003fc0202fc050401fa0000
02fc02faf9f8fff90205fdff07fe03fcff00
00fdf9f9fafafcfb0701f906020500f80700
00fb06fd0003050202fdf90604060208fd00
0303fc0602faf803fa06fa0306000604fe00
0800fffafdfcfd01070504ff01fafaff0200
03f9fe07010304f904fcfc0707fbf9030600
0008feff01fc0004fb02fc0600fcfafdfe00
ff040505fd0505fafc0306fc04fff8030400
04fe03fe010204f908fd040301fcfafb0300
05ff01f8fb08ff060806fe0301fffc04fc00
04fe0507fcf9fefb040400fafc0407fb0000
f9030501fc05fc030202fbf9ff0805fbf800
fa01020301fc030206fe05fdf8ff0405fd00
0701f9fef8f9f905fb010300fa01fefd0500
00fcfb02fdfbf9f904f9fbfd01f8fa01ff00
05fc020304fafcfbf9030003fefc05ff0000
030200000806ff0508fefaf8070706030700
01020408060702f9fc080606fc0807fef900
fdf902fafe06f8fcfdfd0007f9fc06ff0400
f9060702fdfcfdf90106070302fa04feff00
fefe02ffff030703f9fcfafcfa0201040100
faf8030700ff01040204f80401feff00fb00
ff0704ff0702f905f9fa04fefefff901fe00
01fc03fb0400f90704fc0603fc0805f9fc00
fc08fc0001f90004f9fcfdf9fe0104f80700
02fcf8020201fcfc01fffcfc04f906030600
06f806fafbfa00fcfdf907fcfe02fdfafe00
fef907fdfbfe0106fafc07fe010505070500
02fdfefd05fb08ff03fc070401fa06fb0200
fffc0304fbfe0507fb0003fa05fcfe01fc00
ff00fb07070602fd08fc0704030505050600
fbfa0304ff060102fd07fa08fd00f9f80700
07fcfa05fc020602f8010800fafdf9020700
f901fb0200ff0506fcf9080603fd04fafd00
03ff00fb040208f9fffff90705f907fefe00
040507f90103f8feff020705060400ff0600
020605fafcfff9fa01fafe0700fffcfd0000
01070201f9f904070803fa0506ff01fb0700
02fdfa070107030304fcfe0002fb02f9fa00
fcfbf9fb000607fbfefbfefbfa0204fa0700
0500f9fefcfffa0804050004060301fd0700
fc0702fa03f804fe0004050200fafe000300
05040104fe0107ff020105fe000601f80500
f9fb0306fdfdfe0000f8fafff8f9fafc0500
fb050201060507fffa04fe00fff900ff0600
ff0604020507040406fa0403f90201f90600
f903fbfe01fc07fef906fc01fefefc080000
0606ff04fe06f8000505020303f803fcfa00
06f8fc0102ffff0602fd0405fafa0602fe00
03fd04fcfbfe04fdfbfe0401030802fafd00
00fb01f9ff0401ff07f9fbfb080402f80000
f901ff060805fdfcf80406fd040400050800
0406fffcfbf8fa030102fffdfffe0702fe00
050406fcfb07fd01f8050101fbfe05fc0600
0301fe000607f9fb06fc02fb000200030700
fd050101fdfd01fb08fcfff8fa0804fbff00
06010104080807fbfd060307fe0206f90100
fe000107fa07fefefc0602000501fb00fe00
000404fbfb00020608070600f906fe040100
ff05fe0107f9fcfefef808fd07f8fbfa0500
fe03fb0706fefd08fafafbf9fe0206ff0600
f9f904fcf8f807fc01fcfdfd070207fb0600
fe0503050502050001020002fc02fdfd0300
f900fd0706f90302fb04fefa03fa04fb0100
020301fcfafafdf9fe03fdfefd0206070000
fefb07fafafa03fc05f9fe0207fffcf90600
fe0703fe03fbfbfe0203ff00fb01fbfafa00
fcf9fcfbfe03020200fe02f9010802fb0200
0400ff030307ffff0706fe02010005faf900
050206fc0708fa0801fe000605fe04fc0800
fd0100fefd0407fc0204fbfefb06fefbff00
f90007feff03050307060205fdfff9040300
05f8f9faf807faf9f8fafe010104fc040700
ff07fafbfb02fe070703ff0502030703fc00
01fafffe0406030003fb03ff040001fafb00
fbfbfd03fcfb040405fa05fc070007030800
f8fd080403fef9fd03fb0703fd02fe070400
00040405fc07faf905ff05fa01f8f9040700
fff90105ff03fefa01fbf9060201f9050400
fc05ff040004070007fdfb00f8fb00fcfc00
fd0004fafc0103ff0707fcfb000400fcff00
04fafe030007f9050305f9f9050403fafc00
06fd040206fffd0001fffc00f90102f90700
ff0300fcfc07fc05fe0703050300f9ff0200
ff0207fef904fbfdfa02fefe070402050600
02fd02fa06ff00f9fa08fcfaf9fb0506fc00
02fa00010200f902f8030004040307f90000
fafc05fbfcfef90805f9030700fdf9ff0300
fb0000fb03ff07f802ff06fbfffd07f90200
f906fdfbfdfd08040301fef9030700050500
08000703f8fcfd02fffefafdfcfe00020100
08faf9040107fa030605010703fd0402fe00
f9fe05f9060001fc04fcfe07fafd0704ff00
04fa020503fe08fd05fefc01fd0402fd0700
fb0302f807fdf900fcfd040503060706fe00
04fff805fffcf90101040600fafdfefaf800
030000fc01fdfc030403fcf80106f9faff00
0701050707f80706fb04ff00fe040007fa00
fe05fd02fcf906fc0504f9fafd07fd040300
04f9fb0000030701fb02f8fe03fe08fe0600
fa04070207fb0406f9fbf8faf9fb04fffb00
000601fc050104fc04f802050503f9050100
ff03fcfe01f803ff0302fe04fc0501070100
03fc08fb01fb02fbfbfafb06fd01f9fd0100
f90400f9fa01fc0101fa0406fbf8f903fa00
03fef9040207060205fcf905fe0705010400
fbf8fffafdfef8fdfd03fffafc0107fefd00
05f8fdf9faf9070406f9fa06fef9fcfafc00
fb0608fa01fdf806080403fefdfe08fafb00
fd0401fcfefb06fc06070605f9fffdfb0600
00fafd00f905fdfafc050003fb07f8fefd00
fafcfd0103f9fbfdff0605fffcfe03050400
fa070700fafe000407fd0604fefd04fdfd00
0400fb0103fcfff9fa02fa07fe0005fe0500
06fafc08000606040801fffbfb0405040000
fb0805fbfcfa07fc0503fffd0305ff000100
05ff0306fbfa01fe010007fa0505faf8f900
04fbfef9fefcfe07fbf8f800030606fe0400
f9fe00fc0401fffe07fcfa05ff0205fb0600
fbfe05060505fafa020105fb06fb01f90100
0003fd0105fb000101f8fd0803f902fb0000
07fd08fff9fd01faff0002f9f90506000100
05ff03fa0500fffff8060706fb02fa000200
f9000003fe0407040307020000f9fdfbfe00
f906fdff070405f8070507fc05ff06070400
02ff000107fdfefcfbfc00fe050507fbfb00
fcfcfa00f8fe0000fc07fcfbfefe04060300
03f905fa03fb000506f9fefc04fa07fbff00
fbff0102fc03fffffe070303f90507fa0200
0605030202080802f8fb02fb0403fa08fc00
01ff030601ff00fefbfc00faf8f9f8fcfa00
01050101fd02080205f90208000407fefe00
06fbfb03fa07040408fe0005fd0704060000
03fffa00f8fd06fa0207050207fdfe04fb00
fef800fe0601050207fd0604f8fef906fc00
0106fc0006fefcfbfb03040600f9f9f8fe00
0000fb01040306050202fefe0102f8fafd00
fef902fc01fa02f8f8f90701fcf9faf90000
fef802f902fb02feff07fb02060005fefb00
ff0207fefbfffb060006fe05fcfbf8fbf800
fafa0601fa05f90204ff02fb0402fdfe0500
000000000000000000000000000000000000
7f7f7f7f7f7f7f7f7f7f7f7f7f7f7f7f7f00
08fdf805fdfd0002fefffcfdfefb07000000
fe05fc03fa04070504fb05ff060707070700
0200fdfffcfcfd03050001fd08fbf906fb00
07fcf90600fa04fb07010607fbf900030200
0006f80500fefc00fd04fcfb07010403f900
07070303fefd0502fc03fafa000506fcfd00
fb0500faf90608faf906faff070202fbfd00
0305fbfdf8fe06fcfffaf905ff01fafbff00
02020302030301fbfc05fafc0104fcfe0600
07fffa03f806f9f804fd00f9faff05050100
fd01fe030600ff0503fa0807fffc00fdfd00
fe06fb060100f8fefcf9fffc020505000400
00fc0800fafbfd05fe0101000407f9fcfc00
fe0002000701fe06060204f9070208070500
fe080000fafefbfffef906fe07f9fd020400
fafdfd0001fa040707fe01fefa030700f800
04fb01fe040608f806fcf9040206fe060100
fb06fa060206f907fafc070005fc02030700
04fe0601050307fe030408fe01fe0802ff00
01f8fdfb05060508fe02f8fe04fdfb02f900
03fc0003f8fe050403f9f9fa0804f9020700
0402faffff070205fffa0001fc010006fd00
0406f902fcfe02fc00ff0402010702fb0800
fffefe0502f9ff0206fb0102fefaf900fe00
fdfa02fefef9fbf8fefffafdfdfe0302fd00
00fd010701fe07000603fafb07f904fd0000
fa0402020107fbf903000101fbf90104f900
07fe0100030605070403ff0603ff0101fc00
fcfe020003f8f9fafcf9f8fc0400fe05fc00
ff02fc01010303000600fd00f9fcfffffc00
ff04fff8fffd02fc05070508000001fafa00
fe0503fe05fb01030707fbfa000405fcfd00
fefe05fffd0704ff0801fe03fdfef9fefd00
fdfbfffcf9fe040401040804f905fafafa00
0406f9fd050707000507fafbfefa07050700
fb06fb0506fdfef8ff0302f8f9f906fcfb00
08ff0501fafafb0401fd0000fd0103fbfa00
fffbfc07f9f907020403fa07fcfe06000700
060605fd01fa03fa0705fb0203fb00030500
0008fbfdfbfdf90300f9f8f903ff08030400
f9040004060301fafffc0303fe08fffbfa00
060406fdfbf905fe0308050400fffdfcfe00
06fa07fb0005fdff0705fb00fafc01f8f900
07fcfffd0108fdfa0500fbf9fc020404f800
fb07000206fa040105f8010401fcfcfd0000
fc0104000504fc06faf90203fe01fdff0000
f8fcfa03f8f80705010406fcfffa02fe0600
0501030101fafa0702f9fb020701f8050300
030200fc0702060506fefb06fffb03fd0700
050606fcfcf9fefafd00f9f807f802f90500
05f9f8f90801f904ff07f9f90407fcfdfa00
fefd0306fd01fc0104fd050400050700fe00
f9fefc0001fefe00040700ff0004fc050100
0407020305fffc05f8fefe0505070807fb00
0407fafcf9f90201fe0300f9fa0701000000
f8fb0308fbfa000300fffbf900030006fb00
fefffafafe0301f80706040606f808070500
00ff04f90107fdf805ff0207fd0204000600
ff07fb00fa070600fa02fb06fffdfd08fa00
faf9fc06fb0105fc07fffc01fbfa0001fe00
fffe0701000106f9fcfe05ff0301f9040400
f90202fa0303fc06fef9fbf9040302f80100
fb0204f80008f9040607fe07fc000001fc00
07fa0306fefa020403050103fb02ff05f900
fafaf90702030003f902ff05fa0700f90200
fc0404fffe06fa07fbfa01fc0807fefdfe00
fb0307f9fe01fd03fc0507fe06fafa060400
fbffff02fb0104fe060501f9fb0501fe0200
fb00fffef802ff0104fa06000308fb02f900
04ff02fc0406fbfcf90606030207fe030400
0403f80205fd04040705fa040400fcff0700
ffff05fd04fa0504f907fefbfef9fcf80700
0601fe06fdfa07010303ff08fd01fbff0400
07fafcff04fbfa0206fefcf9fb07fd05f900
fe010004fd04fd05fdfbfa02030101fefe00
0300f9030703ff040402fafa0402fa020000
fdfffc0706fdfdfd0107faff06fe0701f900
fa0303fcfdfd07f90306fdfdfbf800fb0600
fa030505fffd060200ff05fefcfcfd01fb00
06fcfd08fb04fcfe07fc05fe0801fbfaff00
ff0407fffd00040303fe0702f904f8f90700
0002fd04fb0502fa05ff050108ffff07f800
fd05fe03fd00fefafb07fafc07fbfffcfd00
05fd0005050604ff03fa03fafcfb01000500
03fdfc01020305f906fefafb0801fd050500
0203fafc0300ff0801fffb00fb0306020100
010104fc05fcfbfefcfbfcfc05fcfdfc0500
fa03040504fe0405ff02f90602060604fd00
07ff00fe0603080407fe0702fe06faff0800
fd0103f90406fafa06f9fdfbfb0500000600
fc060804fffb04f9fdfafaff070704fbf900
01040201fdfffffefbfefafd00fefbfc0100
08fcfffc070600faf9fe03040600fbfb0000
03fdf8f9fa0108fd0407060107fbfbf80000
fbf90005fe05fefb04fbfcff010508f9fb00
000005f8010103fbfe07fdf903f8fffe0200
04fa02fc0305fbf9fe03fcfffe01fcfd0000
02050206fd01fb0608f90801020202020200
fb04fb00fcff07fa0708fafd04fc02f9fa00
01fa0507020104fa07050006fbf9fdfcfe00
fefffe00000702fb04fdf80105050600fc00
0402fefe0306ff0804fa050805fbfa000300
fafff9fb0201f803fb0303fb030406fc0000
01f9fdff05f902fb05faf90101f80706fc00
f9fb05f805fff901f804ff0002fcf8010300
000704fc040206040601ff05ff07feff0200
fb04fa000302000006fa07fafcfeff060300
010301f8f9f807fd05f907fcf90207070300
0007fcfd040304fa0606fdfefe0103fd0100
06f908f907ff03ff07f9faf90207fd000600
fbfd04fe04000305fdfe05030101fc050700
fcfc060701fcf9010804fe01faf9fbff0700
fe0707fe0703fa0800f90603040804ff0000
fa02fb02fffe020308fafdf90505fffb0600
ff02fefa050102fe05fdfb02f9fefaf9fd00
020208010006f9faf8fdf8ff050300010700
08f8fef902fcfc05fc06f902fe04f8fcff00
07fd06fe08fb02fcfbfcf8ff0301fafd0000
ff03f801fb05080005f9fefe03fd0206fe00
03fe06fbfd05030401fdff07fc0300f90400
f9fbff0105faf8f8fcf8fd0001fefcf9fd00
05ff050701040108050201fa0503fbfeff00
01fefbfbfa08fb05f9fefefcfbfafefbfb00
ff0201f80506ff01fd0100f804f907040200
fc02060801040008fefefd08fd0802fe0000
0304ff06feff06f902060608fdf9ff000100
06f90601fffafe0302fd030103f9fefefe00
000202fdfef8f9fff9fef9fff8fb03040100
00fe050005070500fb03070607fa0100fb00
04ff020303f8fc02fa01ff06fef90403fb00
01ff06fa020707ff04fa0008fbfa07040300
050304fd070100fffd07010204f9fa010600
fd0100ff050002fffcfa05f8fafafb070200
fe07ff04fcfdfd04fefef80005fcfdfdff00
faffff05fcff0001f8fd010502fefc080200
f8fa00fb0303fef8fc06fa0601fe0105fd00
070808f9fe010007020107040004fffb0500
05ff0302fcff01ff01fe07f901ff00faf800
fffaf8fd07f9fcfbfb0400fe02ff04fbfe00
f808f9fb000606f906fdfc0503fe01fd0800
fd0602fd06fc06fefffd0004fe0400fffd00
fffafd01fdf806f805ff030600fe00080200
fefeff0201fefd05fa000200fdfeffff0400
050601060602fffc010506fdf9070702fc00
050001fbff02fafbfa05ff0100060306fc00
04fd02f904fc0403050106f9fffdfb020200
fdf8000100f906fe00fffefd010502f9f800
07f901000407ff01fe0107fd03fcfdff0200
fef8fffd02fff9fffcfbfcf9f9fdfb00fd00
f8ff0602fb050402fe0706fb0404fefc0800
03ff07fffefc07070507fc00f8040403f800
f9fdfd04010803fcfa07fa0805f90700fc00
0501fefa04060304fefe0008fdfb04fefd00
fdfa0601fb04fb07fef9ff0705010305ff00
0806fffdfe00fcfb05fffdf905f90208fe00
01fef9050500fff9fd060307fc02fcfe0200
ff0100fb0604fe08fcfc0007020407fafe00
0006fe0004fafffdfcfb0001fcfafb040800
060607fc06fbfc06040003fcfefa0307f900
00f9000501020104fcfc07f9000104f90800
fafffdfffa0302fe03fff90204fefbfdf900
00fbfefe0506f80607fcfa0407fb03fa0600
01010601fc06fbfcf904fafb0606fb050600
050602050501fa01ff0207fdfbfbfd040400
f9f801faf807fa01fd0102fe00fe00faff00
fb050702fa08000601f9040005fdff040400
ff08fe06fa0406faf908f9ff02feff03ff00
0007fa0200ff07fbfb03ff02fcfa03070100
0002020303fb0303030805050202fe06ff00
01fe08fcfe020604040603fbf90108080700
ff05fcf902f800ff06f8080702fcfeff0100
05ff0005ffff00fa08fc02fe03fe03fb0500
00fb0801ff0003fcff030208fcf9fe06ff00
fef805fb0200ff03feff07fd02fffc00ff00
f8fcf9ffff0606ff03f808ff02f9fbfe0000
0404fe0705fb07fdfffef900f80803fafc00
fffbff02fe0507070403030601fe00fe0500
0001060703fa08060502fb06070103fdfd00
01020307f9fc03070503fafd04fb0304fe00
fdf9fb0503f9f801060103f9fefe01fffd00
0405fff804000600fb00fefb07fe06fafa00
fcfa01fefefd06fdfbfcfbf80406ff040400
fa08fe00ff07f9fa08f8fbfffaf9fb040800
fe04fb03fdfdfcf803fef8fcfd04fcff0800
0100fafd0300000204060402f8fcfafa0200
f8ff0600f9ff0102fdfdfcfe040807fcfc00
080707050500060004000704fafd02ffff00
07fb08f90204080603fb0604030100f80300
080100fdfe02050601f9fa0600080303fa00
050701fd0703f801fbfffdfdfa01fa06f800
0107010304fcf9060002fc00fe0605fa0700
f800fefaf905070404030003000700fffb00
0304fafdfdfe00ff060001080205fafaff00
00040605fd040006ff0700070100fe05fc00
00fcfafcf8fd050604fe070300f8fe070500
05ff0306fb070001fe030202f90400faf900
fdfd05ff01f9f9fc0702f8fe03f802fe0100
fb0304ff04fefcfdf9fb0503030304f80800
f905fffd04fdfd01020105fafafe08f90400
05fbfa02ffff01fafffafe06fdff0800ff00
fafc0105fd07f9040001fefc0207fcff0400
020603f908060608050704fc01fbfaf8fc00
f9fb0205040208fa02fc01fafefc06fd0700
f9fbfeff0604fcfef802070605fefc060600
fefe07fffd05030003f9fefdfefaff000500
06fefefcf908fa06080003fe08fa0002fa00
050604fd07f9fefdff0101fc060302fa0400
06fef8fbf904fb010103fdfefbfcfd020300
06fbff05fdfc02020500fb080106fafff900
fa08fefefa03fcfa0206fbfd07fef8fe0200
02fafd0300fdf9040507010803fe01040800
04fd0106fafeff00faf9030800f8faffff00
f9fdfe070707fa060501fd0205040703f900
fffcf8fdfb02fa010001f9fefffffd08ff00
fafcf902fdfd04fcfff9070303fd0605ff00
ff03f9010107fa020104fb05f8fefc080500
05030705f9fffdfd00fefa02fb05fc05fb00
fd0101000408f8fdf9fbf906fbfc04ff0400
0506fa07fc07fb06fd01f804fb05fbfff900
070507fb04fdfa02fdffff06fefd01fefa00
f9fdfd060001fe03fa0006fc0406fa080000
f9ff06fafa07fb01fb01fb06000706fe0600
0007030601fbfeff03fa0508070807fbfb00
0103fefbf9fb0406ff06fe0305fe0207fd00
fffe08fbf804fd0006fd07fcf80604f9fc00
f9f8070203fbf8fafdfd00faf8080306fd00
0807fc07fc0002040408060500010002fe00
fa07fe0005fdfc08fafaf8f9f80203f9fb00
0600f8fd03020007fb02fcfb0408fe010000
0600000408fc0508f9fb0300fef8fc050700
010306fd00f9fd06fcf901fc05080407fa00
f807faf907fbf8fd0106f9f9ff0400020400
050003fe01faf805fdfd0201fa03f9060600
060204fcfbfaf907fa0503fa040506f9f900
02fefcf8fafbfe06fffefcf9fbfefe06fd00
0300fc0405040702fa010204fefa05070500
070403fdfd0308fc01fb01f901f902ff0200
faf9080503fcfc070704040507030302f900
fe0106f902040103fb03ff03fafa07070600
f9fd07fe02fafbfe01fe06080500fdfcfc00
f804fb01fc030106f9fd07fdfefc04fd0500
07fbff00fa0007010207fa05040701fbf900
fc0306fdf90007fcfafc0506050201f90700
03f90508ff06fdf90608fd01f9ff06fb0000
f9f906fffb07fa0408f9050804010604fa00
fd05f9fffb060202fc000303080704fe0300
04f9fefefc08ff00ff01fff808fc07ff0300
f9f9fdfafefbfbfbfa04feff08ff07fdfc00
f9fd030807fbfa050303050602fdf8f9fa00
fe070305fd020000040407fe07ff0206fe00
03fffb0105fcfb02ff030507070008020600
030701fefcf9faf9ff07fb010105fbfb0100
0307f8ff07fefffdfc07040003020402fc00
05f9ff08fb000006fd0308fdfd02f903fa00
06050504fdfb0507fe04fafc06f902fafd00
06fa0001f901f901fdfd03fa02fe03fcfa00
0306030706020206fdfcf8040102fdfcf900
000000000000000000000000000000000000
7f7f7f7f7f7f7f7f7f7f7f7f7f7f7f7f7f00
07050207fb0302fdfdfc0203ff04fdfc0400
fb01fc02fbfc02040806fe0703fefafbfb00
0300fafb06fcfffcfefefdf9020700fd0500
f900fefcfb0105010003f808f8fc01040500
010204f9030800f805fbfb04060404050600
05f907f9f80402feff05fdfef90101fb0700
06fffcfe00faf90403040408fe060603fc00
fb07fa01ff01000403fbfdfdfefb0203fc00
fefaf8fcfc040004fdfafcfefcfaf9fb0600
0707030007ff0305fd03060706fe0104f900
f8fa00fefc02050400fffc0500f904f90200
f9000004ff000403fe040102ff0301fa0100
0503ff030103fe00030102040706ff01ff00
04fb0802010504feff00fff805fafffff800
f8070200fe01faf8fafffb0406fe05fa0000
06fc020406fcfd0502fefdfc0302fd020300
0700f9ff01fa0505fd06fe06fb030003fe00
fb0508fb01f9fffbfcfc020502fbf8020300
080801fffcfa06fffe01fefd0501fb050200
f9fd08fcfe0403faf9ff00ff06f9fdfbfd00
01fc0200fa04fdfffdfff9fa000005ff0200
0504f9f9fb06fc07fefffa050400f8fa0100
0403f8070305fa01060003fcf9f900fcfe00
f904ff02fd0005fd0505010807fcfd03f800
08010404fcfaf8fe040502fd0301fe06f900
f8feff05ff00fc0001fdff00fcfa06fefe00
00fc04fc01fd0507060406fd06fafbf9ff00
070005fc0400f907fdfbf904fdfbfcfc0600
04f8fbff0601fcfb00fd00fffcfe07fefb00
07010108f9fa0205fbfdfefd060601f9fc00
fdfdfd0106000406fe06fe020607fdfff800
fefb0002ff05fb04ff0406fe0306fa050100
fb0601fe0603ff0700fafffafb08fd070400
04fb000701fbf8ff0007fcfb000305f8fa00
08fbfb01f9020303fffbf8fc0105fcfaf800
030301fefefcfa02ff0402040106fafb0100
02fb010500ff00fffffbfbfdf8fa03fbfc00
0306f90502fa05f808fc0502010105f90600
0305fbfd070706030605fd0004f802fb0600
06fd07fffe04fffa00fc06fdfefc00010200
fd0704fb050302f9080203fd0103fa010400
07030001fffdfe07f8fe0201ff0603fafd00
f904f90300010308fbfa070705fc00ff0400
04f90705fbfe08020302fd040606fafdf800
0100fafc060203fcfc00f9ff0401fb030300
fdfa08fefe0607fbfcfd03fefa030302fe00
0403f9f904f8fa0306ff0606fd0002fbfc00
fdf90506ff00fcfffe03fdfb08fc04f9fd00
02020108ff05fa00ff07fd060506ff01fd00
03fafc00ff02f900fffcfcfa07040007fe00
030508fefffe0608fc02f9f9030303fd0700
06fdfa070501010207fafb05fe04fa06f900
0305fcf903fafa05f9fc00030505fffefa00
fd02fe04faf9fcf9fafa06040000f9060700
f8ff02fafbfa0603ff03fefaff06f9fe0600
fd0707ff00fb0504fafa0002060000fdf900
0700f901fd0004f8fb00f802fb06fcf90500
f9fafbfefcfafff908faf9f900f9ff070400
fc02fe00fbfa03fa05fcfff80800fdfff900
fbf9060000fb00fcfffdfdfff80801fb0000
fefa000202fb03fcfdf8fffb06fe04f9f800
f900070407fbfbfd06070502080700020600
03f9fbfcfafd040408fc0307fbfdfd080400
f9080707fa060304fffefeff01fa03f90100
f8fdfbfbfb0307f9fffa06fdff07fefaf900
07fd01fe05fafefa0100f8fc02040402ff00
03fb060305fb07fe01fafcf9040301feff00
03fbfffd0207feff050000fb07fa02f80100
000408fd08faf8fcf902fef807f8ff07f900
fb030002fa0101fd0605fe05fb00fffaf900
020106fefefb07fa08fc0806000305fa0100
0506050402030104f9f8fa0001fc0507fe00
ff0804ff050000030508fa05fffd0700fa00
0307fa02ff07020505fef903f8fe08fc0100
fe0007030205fffd04000100070803fafd00
03fafe0607fbfdfcfa07fe0604fefef90500
07fcfc04f90604fcfd0106f8ff02f8fa0400
fe02070701fe01ff06080300060403fd0100
0503fa0306fcfcfc08f9f903fdf90607f800
06fb01ff03fefefb020304f8fefaf9fbfb00
fb00ffff02fcf905ff04fffb010005fcfb00
050307fb00f801ff030004fcfe01fef80100
f9f90302fffa0803fc0408f9fd06fbff0500
00f907fffe080406fdfd0403f8f9f9ff0700
0502fbfdfffdfafd01f902ffff0103ff0500
04fdfbfcfbfdfefd050401fc010001fe0700
fc0704fd0101fe07f9fffc02fc0705fbf900
fa01fafa02fefb03ff0804fc04030508f900
00030800fc05fd050001fafa03fb06fffd00
000805070108f8f9fcfcf804fd00fc030700
000506fc0102fbfefbfc0003060106fcfb00
fcf90203fc0700fd04fc020503fc03050300
0604fbf8f9030605020103080401fa07f800
05fa0600fe07fdfd04fe0101f9fefdfb0400
f90207fbfa02040702fc00020400fcf9fd00
04fb03030305fcf80002fbfcfbff02010300
08060300040507fa0305faf9fdfefdfcfa00
fe0501fefff801fffa00ff03f800fa080500
06fb0304070601020406f9fbfcfdfb030200
ff04fd00050503fafefa0103f908ff02f900
fffe050002fd020307fa01fb04fef8fa0200
04060501000100f9060307fc05fd06030500
0206fb06f902030501faf804fcfa08000800
04fbf806070300fd000303fff8fc01070300
fb02fe0305030506fa0805f8060304fafb00
020406fe06fa0603fc060503fafd0204fc00
f90403fc050407fb04fe07fdfdf90804ff00
fc01fbfc0002060503000702fc0606040600
fffb07000700ff06f802f905fefd04f90700
fafdfffb0603fdfc08fa03fcfcfc0603fe00
fe0402fa010804070006050407f9fffa0100
ff010007fbfbfdfdf9020007fffafafe0400
fffcf900fefbfbfffc07faffff05fcfb0200
05fb0603fef902f901fcfffcf9020108fd00
0803fafc050504ff0008000705000002fe00
0306010101fdf9fb020200fb02fdfd030200
03fbf9fbfffa0704ff0508fcfe04fdfbfb00
ff07fb08f8fbfbf901fb0502fbfafd070200
07fa030007fd0303fa06f9000807fffefa00
fe03fafafafbf906fa010702fefcfa060100
08fe06fb01fbfcfd030307f902f9fffcfc00
fcfdf9fffa0800000404f904feff02fa0300
fc010308fbfc050006010707080003030600
02070308ff0204020705f807f903fbfbfa00
faf8f902f90403010700f90103fdfc040200
f9060303fc030405fdff00fc0506fd03f900
fb040207fe07fa01fa03fb0607fd01050500
0204ff050302fc020101f90705fcfbfcf900
fefa05fb010200fafb08ff07fa0206fcfa00
00f80504010806080601030101fd07010300
0206fc0106f9fcf805000201f9fdfafd0300
07fe03f9fe06ff03fa010600fb08f8050600
08fbff040706fa07fa070003fd06fb070600
00f9fb0505ff0501fc06fa040202fb030700
fc0406f805fcfe020400fbfdfdf90300fe00
fe060206f8050407ff01fd04fcff00070100
fe0704fb05fbfcff08fefe0507050305fd00
05ff07fdfffa00040600fefefc0601060800
0300fc0200fb01fafffcfdfcfe01fd03fd00
fdfefdfafd02fafdf8f80104f9fc01f9fb00
0403000303fcf9fe03fefe0204f9fb03fc00
03fffff90702f902fc03010101fc0007fc00
010706fdfd0003f908f80503f905fffdfa00
03fcfd06020204f8f9fc0302fc030002fb00
01fafb07f9fef9fffbfbf90703fe04070400
05f9fefbfdfffdf90300fefb00fbfe08f800
fefbfffcfdfc00fc00f90706f906fafd0600
fffbfb0605fb0103fa01fd04f8f900020600
ff06ff02fbfdfcfffaff06fe040104fa0200
04030604000807f904fcfc07f9fc05060600
f903f8fcfb06fefefaf80500f8faff050800
0301ff0500020205fcfd04f900fdf9fc0600
fb05f9fc06070602f9fc0101fefdfefdff00
f9050401fbfb03fd03ff0602fdfcf800fb00
fe0403fcfbfe0000fcfffe04fafd0401fb00
fefdf8fb07fd0206ff03fe03f90601fe0700
0408f80607010708fd03010308fc03040300
fefbfd05fefe050204f906fef9fd04fcf900
02fbf9f9fcfcfb01f903fc0004fcfffe0800
ff06fd0203fef9fc06fa07fefa0001030800
000307ff0601f806fbfc020101fc02f90400
0700fefd00fc01060405fe0403fb08fafb00
02030203000804f8f9fc07fe0807fe000500
02f9fe07ff080308fd02fdfc05ff0200fb00
03fbff0303fcfdfb040201050705fbfe0800
fe01fbf9fdf9fe030504ff01fdfb02fa0300
fffe0802fc040100fbfafb0201fb0001f900
fef903fdff0000030001fa040103f9fbff00
f8fcfbfafafe05fcfcfcff08010403fbff00
010403fefc04ff02fa03fa04030207fa0400
fa0204fa0602fdfcf90705fcfefcfa06fa00
f9030302f9fafefe0805f9fe0303fc060400
f90700030606f804060004f9ff0701fd0100
0806fa01fe05fffdfefc04fc07020200fd00
fbfe07faf9060001ff050507010200fdfc00
fe03ff010706020103010405fffafd07f800
0407fafb07fc07fb01fcf9fffdff06010700
08fa0002080600fbfeff0006040504070600
fd0402ff060403060106ff0005fdfb000500
00fb06fdfe060201f9040101fe01ff00fa00
fffafffe0800fdfa0508060007fdfefffa00
fe00fb050202fdfcfcfa0503feff0203f900
fa0101fff9f800fb03f904faff0107070400
fb0503fb01040103fcfefb08fafa00020000
00ff04fe02fd0808f8fb0208010101060000
030801060003fefffe0106fdfbfef8080400
fcfa07f9fefb0104f903fe02fffefcfaff00
05ff0106f900070305ff0408030307030000
04fc000303fc03fbfb020104fd07fffb0700
01f803fff9fbfdf803f9ff080706fe040500
f9ff0301000600fef9fefe06fd05f9fb0300
fcff0107020004f8fd0604000605fe05fd00
f8f9030103fa0706ff06040104fa0502f800
ff04fbff04ff03f906f90002010501faf800
03fdf8030406f90703f90606fb01fb000600
fafa02040508f8040603fd06f8fefdfc0600
fe02fcfb0801f8fdfaf907fdfc0305050700
01fc04fd07fdfc0801fd07fafa0306010400
0104fc050405fd04faf9fffaf801fdfbfd00
fa03020101fff9fffafcfefd060502060100
fe01020201fd070803000807fffafa04fe00
000705fb050000fe04fa0403fb0004060600
f904fafffd080503fcfd02ff04ff07fe0600
02f8fb03fbff0403fbf8000804010407fa00
fffefe0300ff020004f903fa07fdfa080300
fe03060505fb0207fb0607f904fa02000500
fff9fcfcfaf900fd03fdf9fdfd0700fb0700
00faf803fefb0506f8fd0000000205040600
02ff06fd0601fd0301fffcf9fffdfdfb0800
f8ff020103050506fe07fe07070104fffb00
01fd07fa00f908000508f907f90501070400
0704f9fa06faff04fefef8060208fffa0600
01fa04fd05f90303fdf8fd05fc07fefc0500
fb06fefcfdf804070403000106f9fafefb00
fd03fb0705000408fc0201fc000207f90500
fbf8fafbfcfa010200fcfbf9fdfbfbfb0300
fb01ff02000401030401ff02fb05fa060300
0002fd070803f8fdf80304fcfd0403010600
0208060103030407fe00fa0400070007fc00
f80005fa070601fbfa00fcfbfbfe0704fb00
00f80205050105fe04f9050602f9fc060200
fbfefd0501fc06fa0406fc08fd03fefd0300
0706fc03fbfcfd050107070708f9fafb0800
f9fc040805fc06f9fb0800040501f9fbfe00
02010607fb0806f903fcfdfafef9f9ff0000
0105fb03fcfc0806fffa0302fcf902fd0200
0701f80407fb04fe080305060305fa04fb00
fd05fd0406fcfcfa0004fc03fdfefe040100
07fb0700fffcf8faf806fa0405010000fc00
0703fd030607fff8040500050603fd02f900
f9f9fa0500fffa0704010506fe0106010700
fff805fefc0300fd05fd0401fdf8f9fefa00
08f8fef9fd0506040200fa0100ff07fb0500
0005fcfc060303fc040205080706f9000800
06fdf80804050001fefffbfbf90005fbf900
01fcff06fdf902fdfbfb040803f9fffe0300
fd00fd030300fefefefafa02fcfcfb08ff00
f9fd03fdfc06f902fdfc0502f90103050800
08060005fbfdf9fc04fa07050400fbfd0100
fefc01fffd030100fc02fa050508fffffa00
0400ff0207fdf9fd050001fbfd05fb040700
fc0602fafe06faf801040200fe05fa02fd00
03fffafcfcfffc05f9fcfb05fbfafb07fc00
0705fdfefaf9ff02fd0702faff01fc040600
060100fefafdfe00fc040605fb0302030000
04070100060400fdfafdfc0302fe04f90100
fa0703ff03fc00000202fafc08ff07fc0100
03050400fa05fb0004f9f80607ff05f8f900
07f9fc00fc030005fe05fc08fc03fefb0200
fffa03060006f90403000702fc0207020500
010301fdf90607000803030400ff07fefc00
fdfefff90606fe04f805fb080003fbfbfd00
00fb0500fd0804fe00fdfb020607fd08fa00
f903fe000001ff04fa06fefafa00fafdfb00
fd0604ffff040004fbff02f9feff03fcfc00
0201fc07ff02fbfbfc010201040200050300
faf907ff0701fdf9060502fefe02f801fa00
000000000000000000000000000000000000
7f7f7f7f7f7f7f7f7f7f7f7f7f7f7f7f7f00
fd020400ff0103000702070401f805000000
fdfff80008fefa06f9fcf903fcfffdfe0600
f9fdfd0202fd0102fa070706fbfd0501fc00
f9fe0507fb07fc07fe00ffff0601fffb0600
f907f8fa0006fefa060704fa060300fdfd00
ff0401fc02fc02010006fbfdfc05fb000600
0504fafafcf9fa0706ff05fdfdfd0705f900
0707fff8faf9fd060606ff05050106fb0600
fc03fffafffb0503fe03fbfbfd04fbff0300
01fa04fa060101fd08f9fbf801040706fb00
080501fefffe070707040104fc03fcf9ff00
04070104f9fffd0505fafafaff02ff04ff00
02f90705fdfd04000403fe04030406fcf900
f905fe07060306fb0205fd02ff00fe010700
020701fa04fbfbff01fb0004faff02000400
03ff06fb01f90501fbfafefb010002070400
00fc0606fe06f8f804fd0408fa040705f900
fd07fcff080203faf9faf8fffeff03030400
03000107fd0606f905fcfa020607f8ff0300
fd06ff0200fb070404010202fdfe07010400
01fbfc05f8fd01fd0207f9fffdfdfc00fc00
fbfd06f8f8fc050103010708fa0703040500
07fe0600fdfc040100fc06fe06fcfffb0600
f90407fd030102fefbfffa01fa050608fc00
030204ff01fc020608fb02fafaff00fcfc00
0405f9f90301fdf805000507050203030600
0701fefef9fff9fa0205f9f805fb0308fd00
08feff02fc00fc00ff01f902fc06fefe0700
fb08fdfaf90107fc08f9fb0500f805fa0200
020500fe080101fefef9fdf8fd05fe050200
fd040603ff02fafdf9fa070606f9fffa0700
f90501fbfc0802fcfefe0005fffdf802f900
0307f90002ff000600fefb020701fb06fd00
fefb07fafc07fe07070303fb02fa03fc0800
040207040502f808fcfefb050206fd020100
080204f80001f90200fb050302fafafef800
05fc04020502fd02070807000401fffa0200
0801fafd050401040100fcfb040606f9f900
0105fb07fb0602fb07fffa00fefafefd0300
fe0404000002f9050803f9fef905fbff0600
04fa070006fcf9fa07fbfef9000403fd0700
f9fc040506f9fd07fa0307ff07ff00fefb00
fb01080607fe0803fa010004f9f9ff060600
0105fb0603020105fd060300fbfb00040100
fcf9fffc03fafafa06fafff90207ff06f900
00fefe0305fbfe010204fa00fcfdfdfa0700
faf8fbf80406fc02fff9fb07f90600f80100
030707fbf80601fc08070207fef804fffc00
fb030406fe07000707f90402050506fc0700
fe0504fbfa06fa0001fffb0601fefbfd0000
000301070104fe07fa01fa01fafb06060200
f9fb07030406fbfefe0805fa0200fffd0100
fa01fffefd07f90500fafbfe00fdfe06fd00
fe0206fd0603fffcfcff0007070607fff900
fcfafe0500fb02fafcfd050707ff07fe0300
f9fe00fbf9060303fefe040104fdfff90500
0304fb06fa07f801020500fff901fbfdfc00
03fffb06f90703fb03fbfcfffe03fb03ff00
fd07fcf9fafdf8fef803fc000304fdf90700
0604ff05fc03060107fd040600fefbfc0300
0102f9fcfffbfd06fc04fbfafd0601fc0400
0406fcfa0605080107f90602fdf901fb0300
fe020001fa07fb0003fc03f907060202fd00
04fafeff00fa03f9ff07fafe05fefcff0100
fcfd0505f8f9ff05fe000307000403f8f900
fafc04fdfa02fdfffaf90303fafcffff0500
00f90305030208060305f9fefe0505020700
04fb0500030102fffbfffaff02faf8fd0800
06fd05040005fa040008f9030602fbf9fd00
070804f9fafafcfc0601feff02fbfcfcff00
f8fb04faf9fe0106ff0800fc0406fe010600
fefb06060107fdfb0406030007fb0504fd00
01fffaf8fffdffffff00fffa00fdf9030800
04020805fb04faf9fc05f903fefcfe060600
ff04fe030400040501030704fbfaf9f90500
0306fbfd06070705fbf8fafa05fa02060500
faf9fb080707fbff06fd000302fe00050000
0201fdff04040001fbf90603ff0501030800
fdf905fffafa010506fcf90808020200fa00
fa040305fe0400f90008fbf9fa04f9fbff00
0804fc050302fafb05f903fd01010006f900
0303050702f901060100fefb0607fcf9fb00
01fd03fcfc000500fcfcfb0600010001ff00
05f90100fbfbff0207070206fd0300ff0600
f9fff9fcf8fef9fa06fb06fcfdf802fd0200
fd0400faf8000502070504fefbfbfe010500
0705fffaf9fb070402010002f9fb05030000
fffc0204ffff06ff03fc05fe04f801fff900
0202f9fa03040703f9f9ff030602fdfe0400
fbfe0405fdfb0604070604070607fff80600
fefaff010605f807fc010805fa0203faff00
fd06f907fc01fcfafc0307fdff0706fef800
06fafa0700fbf9ff0107fb0500f905060500
05070705f9fe0107fdfcf804070803fc0000
0704fe06fc0605020000fffc010607030800
0403fafc0701fe00f8f8fc07050307010200
02f9f901fdfbfff9f8fbfa00fffc0204ff00
02010403050107f9fe02f9fb05fefb07fe00
f9faf9fb04fa00fefc05f900f8030402fd00
ff06030704fefa00ff03ff08fb07ff030300
040108fefd03f9030703ff00080502f90800
fdfb05fefe07fdf9faf90406000702070600
04fa02fc02fffb040204fe05f8ffff010500
fafe04f9fafa05fe050200f80606fe05fe00
0106ff020702fc000201fb04fc03fbf80000
fb0706000308fa05ff00fa00fa000400f900
000306fef80205f80402fef90200ff01f900
0401fe07070700ff05ff03080404fcfefa00
0407fffc0403fafafa03040603f9f905fa00
fdfa00000103ff0306060104fcfa08f90100
fd05fa05fafd04060506faf9fcfa01f9fb00
fc08faff04fd06fbfb05fa04f804fefbfc00
0506fc02f9040501000302fafd03fbfa0500
0304f9040401fef904f8fbff000402fdfc00
f806060705fdfbf9fc060004010806fef900
07fc040307030507f903fcfdfc0704040200
01000303fc010400f802fcfffa07fc000800
00000708f9fbfcfb0506070507fe00070100
06fd0302fdfb0601020604010608fb030400
01fcf9f9030002f907f9f9040601fd010300
06fffa06f808fd0007f908fcfffbff000700
0507040006fffc01f8f905fff902fe080200
f807f902fe00fe03fe0502fbfbf90305fb00
fa0408fafdfc0101f90507fc060402ff0600
fafeff0105fc0707f9fc03fe03060206fc00
fdfaf90203f806f9fafb00010001ff08f900
ff0607f8fa0002f9fc04ff03080503fe0300
fc03fa0203f8fe0000fe00fbfb01fe000800
fcfcfc07f9fcfe0007fb08fffafcf906fa00
06ff07faf90506fcf9030305fe02fefeff00
fafd0607010805f8070001fb0304ff060500
010300fe00fc07fefefe0200050701f9ff00
0608fb01fefafafb02020604fe01fcfefa00
fa07f9fe0507fdfdfe00f8060401f9fdfd00
0403fb0005070603fb0207f801fffc03fc00
f904fa08fb00fd0803060105fef90100f900
fdf9020308fc07ffff02030401f907fb0800
fa03050701fdf907fc07fd00f90004fa0000
f9faf903fffb060505fd02fafd0706060600
0707fbfdfbfbf902fff9fdfd050603ff0600
fe04fdfd04fefd01fafe0404fc0303000800
0802fcfeff07fb0805fd03010504fb08fa00
f9fefbfafa0100fafd0507010805fdfb0700
faf903fffdfd02fd07030104040307fefb00
00080405fd030608fcfb04fc0003f8fbfc00
01fb00fdff05f900fb05fff8080105020600
0003fefcfb05f90507fc06fcff0202010100
000406fefef8020704fd08fd0503ff08fb00
fd06fdfc0006fc08fbfa0401fd00fcfb0200
0603ff01000804fe0806fb01fafa00050000
0700f904050005f9fc020403fdfaf801f900
f8f905ff07f9f90102f8f900fb04fd04fb00
fbfcfa03010700feff02fd05fc00fb000700
00ff0107f9fd00010003060501f80704fa00
fe0702fa04ff050202fe05fe0603faf80700
060005fb0701fc0302fbfbfa02fa0404fb00
fbfc01fafafff8fbfdff07fef9fb04030400
05fdfa00f90607fd05ff0707fd040602fb00
080801000000fa0004fe06fa060801fffc00
fafe060401fcf8ff03fffd02fa050202f900
f9fbfcfdfff8fffafdfd0704fcfcfc070200
fcfef901fc080004ff05fd0708fd02fe0500
f901f908faf903fe0300fbfafffa0701fd00
0106faf903f9fb000604000503f805fdfe00
ff05f9f90107fd0305f800fbfafa06fe0300
000101ff0007f90501fb0101fa08f9fa0000
f9f903fc06fbfbfefd080500fe08fa02ff00
060200fefc0406f9fcfb0308f80504030200
0703fbfefcff05f9fa0000fcfb0104fa0700
03020603fd080300f904ff02fafe07fb0300
0402fdfc03fc0701000407fdfd070801fb00
0200fe0307fbfa05fb0302fefaf9fbfcff00
fdfe050305feff07fbfff90200fdfdfef900
f801fa06fafcfa08050507f9ff0004030100
faf9fe00f9fa0506fe07fafb050107fa0600
05fff80707040008f9020000fe0402fd0700
040507fd0706f8fffb0103fafbfffffa0800
fe01fef800fffefcfb0802f9fc0800060200
fffe05fdfefafafb0706010401fe00fe0500
04fb01f9fc080600fefbfdfa05fb04f9f800
07fcfefe07faf8fafbfd01f8faf904fffd00
0505f9fa01fafa0602ffff01fbfcfc03fa00
f8f9fa08fcfc02fafff9000701f900020000
fc06000805fb000006fd02fbfef8fafaf900
050308fafafe0002fbf8fd06f906fafcf800
fffafdfa0602fb050705fcf9fcfc05fcfd00
05fa0305080204f80001fefb060506020500
fefa07fcff020101fffdfffafa0002faff00
fbfd04fcfa01070200fb03fcfbfa05fe0100
08fffbfffd030303fffafd04fa0707050200
04fcfaf906fe08f80102070702ff02010300
fffe02fefb06fafb06040600fef800fffa00
070304f9080705fffffffe0002f9fe00f900
0806fe00f9fa00fdf9fb04020401fd080600
06070305fa00010607f9fb08f9fa0207f900
fc05fe04fc01fafb0103fd02f90701fefb00
fa05faf805fd05fdfd03fef905fcfff90600
fd08fb050606f9fbf9fc0401000401010200
060006fffc0603fa01020100070702fb0100
f90808ff04fb03fefffdfcfdfcfd00040600
fbfa03fffc06010205fc010101fcfdfd0700
0004fa0100fa080805f8fe06fe0204f8fb00
fcf90203fe05fd02f907fafd0607fa04fb00
f9fdf8fdfa00fe01050402fc060103fe0100
fafdfdfd0007fbfc02f905fbfefe0800fe00
02fb020305fe0707f805fa05f9fdfbfbff00
00fafef906060405fffffcfffdfa03f8fb00
fdfafa08fc03fffdfdfdf8fb00fa07ff0700
01ff0005f904fffefcfbfffdffff06070200
0007fd070002f904030100fb01f904070100
fafdfcfefcfe02f9ff03f9fbf8fb00020100
f9fa0404060704070105fcfa06030001fa00
06fa0708fe0006f906fc0105fa0106fff900
fefe0200fa0200f9080003050701fffefb00
070404f9fc03fc02f8fafcfaf80202fffb00
04fd0208020001fef8030006050608040100
fbfafef80100fcfe000205fafdffff02fa00
06010402fc06fd0706fc00ff00fe02010300
f90202fffb070402fcff0502fafd06fefd00
fdfa01060102fcfefa0508fd06fcfafcf900
07f8f9fcfb03fdfefdfefbfb00faff070200
f9fa02fd0205f8fafe08f903fa05fb02fb00
fc0801fdf8fc06fbfb020106f9fefafafa00
06fa020803fd0304f9fa05fffefc07fe0300
0000fc06050102fbfff8fafbfefd0803ff00
f9fcfe00ff020306fcfe01fc070705fcf800
00fdfd02fc04fc02020705fbfffcf9fd0600
01fafc0706fffbff000108ff0608ff06fe00
fbfcf8fd03fc0504ff00fbf90008fffd0300
0207fe02fe02fb0302fcf807fe06f8fc0800
080307fd07fc01fd01fb03fa04fa0403fa00
f900fdfbfffef9fa0105f9050307f9030100
f9fdfdfffcfe07fbfb00fbfdfaf806030800
02080403ff03ff01fdfd0706f8fffafdfc00
fdf9fffeff01fe0206fd06ff0006f806fb00
01fe010705000802000200faf9fffafcf900
00fbfff9020306fdfe070305ff06feff0400
080607fa05f804060503060401ff02f8fb00
fafe0602fe07070305fbf9020303fb01fd00
fefc08fc07fd030604f9fe0806fefe07fa00
0701020201fcf9ff07fa0700fa0205fa0100
fe03040400000206f90603f9fb08fc05fc00
070805f80204fc00fd05fa0102fafcfbfd00
03fdfbfefc020102fffd0202fe0407fb0300
fc00f9f801fa02fcfafdfcfbfcfbfa070100
fbfa06fa0606000200f9fefd0007f9020200
01ffff02fa080702000505f8fe040200fc00
03fcfa0000f9fafffe0400010204ff06f900
fa07fcfb07f802fbfd07fafafe08fbff0000
fcf805030604f8fdfd03ff04fe08fefd0200
f8fefcf902fdf9f9080403fa02070400fa00
06fbfbfdfcf903020008f8030605fd040200
fffbf9fa0803f8fbfaf901ff01f805030200
fa00fa0003f9050007f8fd060704fcfb0200
060504000501f9f9f8050002fafaf9f90300
fe0003fb0702fefffb0104fa01050604fc00
fafbfcf804fcfc010803fd0200fa05000200
000000000000000000000000000000000000
7f7f7f7f7f7f7f7f7f7f7f7f7f7f7f7f7f00
0105ff040201fb0006fff803f80202f8fb00
fa07f8fdff0106f80301030405fd05fd0400
03faff02010000fafbfe04fd07fdf9f9fb00
fafd02fd020105060404fe04040407fefa00
0402fa0300ff07030207f80802fe03fff900
0102fbfb02fa0307f8fa03fb0804fffe0100
fafefbfd0602fafa0800fd00000702fe0000
fc07040106fa0605f8fc01ff0400fefff900
f807fa03fa0401070508fc010102fafefd00
03faf9fe0105fa060302010400f8fafefc00
06fefbfafc00ff0201fffdfdf90101040700
fa06fffe01f9ff08070006fc00fc05000700
fb010707060200fefcfa03fc04fd0008fc00
04f9010207fbfcf90506fd01fefdfbfb0100
030601fe020201fb07020403f9fa07040200
080405fafefffc06fff804050500f904fe00
fdf9fa05fc00010301fdfffe0706fffffd00
0205fe04fcfd08fd05fc06fefefc04f80800
03fd030102fffbfd00fdfefef8f90105fa00
0300fa0605fefa07fef9fafbfffafe00fe00
0506fa0307fb0306f9fafdfef80000080500
ff03f8fdfc0105000705020105fc0100fc00
fefb02fa02fcfefd04fb06fbf9ff02fffd00
fb0301fdfe02fc05f800feff0404fdfd0000
060802fefbfe01f8fc04f90307050207fd00
02f800fb01f80402f8fc05070602f9050500
f807ff0603ff0705faf90601ff03f9070100
fc0102fafffb02fdff05fcfdfe03fe03fa00
fbfcfdfc03f9f9fbfd06fefa010005050300
040106f900fc070500fe0104fffd05ff0300
fc030501fcfffe05faf8fe0601fdfffefa00
fef9fd02fe02faffff0807f8fdfb00fafa00
02f90702fa080301f9fdfa030705fd040000
f80101050701fafdf9fcfbf8fbff0208fe00
fcfb08ff03fa020103fc06fc010806050600
06fbfdfffdfdffff05fe0706fa03fd060600
fcfc0807fc040100fafffff90002fe020000
02fb0304fbfa030701fbfa05fcfffd040500
00fefcf9fb03fdfc03fa06fd06fbfe01ff00
00f906fb04fdfe06fafff903fd03fc020400
fffc00fffa020702070606fdff02fcfb0200
0404f901fb060505000402fc06060305ff00
fe01fdfafa05f903fc0704ff07fdfc01ff00
05020406050502fdfefefdfafa05fffe0100
0704fd0504f8f8fafaff0007fd0808ff0000
fd02fffb03fdfdff03f8fa07fc0305000600
fafc080606fd0105fdfe0407f802fe06fd00
f802070303fefeff01fb030702f8fe010300
0101fafbfe080304020301070704fffd0100
00fe0304fe00ff06fb06fa0005f80200fe00
fd000103fefefc05f9fa02fdff06fcff0400
00fd0605fa0506fa06f8fdf8fafdff060300
020006060203fe01fdf9fcf9fd0707030700
0503fd0407030204f9fb0007070606fafd00
fbf903070503fffffe08fcf8fc05f9fcfa00
f8030104fcfbfcfdfd01f9fd0003f8070700
0304fdfbfa06fc060602fa06fdff04060600
00fafe010601f8fd040802fe03f90001fa00
0006fefafbf903fb02fffcfefd020408fa00
fd0302fafbfb00fb0005fcfb02fa03fd0300
0103fbf800f905f90201fbfa0005fc08fe00
fb05fff8fc080606fbfafcff080405fb0200
fff907fc060002fdf90505080700f8fb0100
080206fdf9010707f9060702fa00f9fafc00
06fe08050202070007f9fd070100f8f8fb00
fd00fbf907fafe0102fb0701fdfbfefa0700
fb00fbfa06fef906fdfaf805fc0306fbf900
05fafff9060605fdfbfe04fe05fe0806f800
fd04fbfdfafd04f806040108020805fbf800
fb050802f8fe0200fb03fe02fc05fe00fc00
fafffc01ffff06fc03fe06fb00fb04fdfe00
0004f90202fcf905fa03fef8fd0307fd0300
fd04f808f807fe01fffffa00fc0100080400
01fe04f80805fc0702010503fd06fdf90500
0206040204f8ff02fcf9fa03fbfa03fe0700
fcf902070005fffe0300fc05fe0404fc0400
0306fff9fb0501fb04070804fb0707050700
04fc060107fb0400fa04fcfb04fdfdfc0100
f900000702fdfbfd03fef907050805030100
fd04f9020402fa00fafefafffb00fefffe00
0302f901ff05fcf900f903fdfe04fcf9fa00
fa03fb02fd07fa00fefd070300ffff010700
01f907fdfb0601fdfd0100fdfbfaff030200
080301f906fffcfafffafbfdfcfafe020100
030500fafbfd07f8fdfcfe0404fefa03ff00
05070504040500060701ff060700fe02fb00
01fdfffafb01fbfe0705fb00fbfefe06fb00
0605f9f9fdff04040208fc05f9fdff060400
fbfa03fb05f906f90207fb02f802f806fd00
fffef907fffafffd03f8fd04000401fafa00
f803010304fffa0606ff04040205f9fc0500
f8fffb06050705fafb030706fdf903f90400
ff02fc0101000706fffc0101f90605020600
fc050703fafaf9fc0107040505ff0201fd00
040302fe07fc05060406fcfa030105fef900
f901fef803f8fd040001020102050808fa00
fcfcf9fd06f804fb0707fd01fefb01fd0100
06fdfa03040304fcfbfe0501fb0406fd0200
02f9fefffb020804ff020402fcfb06f90200
fc03fa0205f90500fafd0205fc06fcfefa00
fa00ffff06fbf9f9fd01fd00fdfff9fc0000
01fe07fef90507030308fb0305fc02fd0600
fc01fc070402fefa00fafe0607f803070200
fdfb08ff06f904fcf905ff01f9fe00ff0800
0007f907ff040107fcfb06fef8fc04fb0700
0306fa03fdfffc05fdfd0004fc0302f8fd00
05f9fc07fc01fd06fbfc0605ff04fc08fc00
fafbfd07010707fffb00fefeff0804040300
0204fdf804fb03fbfd03000604fe08f80300
fef8f8fb0004fbf906ff06fe05040307f900
07f802faff0703050200fd0000f906faff00
fc00fefd07fd0804fafafb0801f8fa01fe00
07fbff0507000406fffcfbfefcff0506fb00
fb03fb04fef905fcf904000305fa01fe0100
fb08fafe0300060503f8f805fd0103fbfc00
0302ff03fb06f8020402fbfa05fdfb07fd00
04fefbfefd05fbf801fc0506fd0202fb0600
fcfbfafc0206fefb04fd02fd01060105fa00
06fc02faf9faff000101fbfafffffa000600
ff0105fafc08fdf9fa07fbfc07fffefa0500
0305fdfcfd07fdfcfefcfc0508fffc040700
020501fbf807f8000607fefbfffbfffe0100
f9fffd050806f801f900fffcf9fdfe020100
0101fa06fc0406fe01f9fafbfbffffff0300
0302f9fdfbfafffb01060106070101fdff00
01fefdfe0307faf905fbf80307fffdfe0100
04fd030507fe00070703fe01fcff00fa0300
f80601fdf902fe0008fc03fbfffbfa03fc00
050006fc05fffafb00050007fd080601fc00
0203fc0005fe0301fffd030800fbf9fa0100
07f8fa07fcff040200fe00f9080000040200
040606fdfa0506080001fdfe08050807ff00
070408fa0403f9fcfbfa02fc030605ffff00
faf8050804010105fff8f80001030208fd00
f8fc05fbfbf80006ff06f8fafcf80305fb00
faf8ff01030103fc070100fd0403fa08f900
fa01fb040304070400fcfd050400fcf9ff00
fd010602fdfdfefa04f9fd03fb0607fd0200
0707fbfa04fdfaf9fb060004fa00fb05fc00
06040607fafef8f8f905fef9050301fafd00
05fb05fc0607fc01f90305fffa03fffd0600
02fc0204fcfe04fbfbfffb030200faffff00
07f9fc080300fb07f80700fcfbfe06030100
02fafa0307010000fb050603fcf9fa070300
fcfe05fa04020706f9fbfe00f8fc08fff800
0601fb0003fa06fc05fa0203fdfe07fa0400
030000f8fefefdf807fd0603070500fbfc00
fcfb0707fb00010107050006010406fcff00
fc0304fe07ff0506fbfb06ff030005060600
fdff08080203fe04ff0103fef9fd06fffa00
06f9fbfd0105fc040204fdfcf9fe07fdfd00
ff02fbf9fdfb06fd0006050604fa08040000
040003f9f8fb01fb080704fafd05fcf8fe00
0500fc02060001ff04ff05fd060105fefc00
00060002fd0406fe0701ff02060101020600
06000707fcff07050000fefb08f800fdfe00
f9fcfafcfdfc050505f80200f901ff030000
fd08f8fc01f8fffffbfbf9fff9050401f900
0506f8ff05ff07fffbfdf90301fbfd000100
fef8070300fb03000304fa06fb0208060100
ff00f907fa08040304fafcfdfb0107030600
f901ff0702fafbfafcfef8fff905fbfd0700
fd00fffaffff03f9f9f9f90504fc0306ff00
0404faf904fffafa0305f9fb070106fc0100
f8fffbfd05fe00f90501fafafc00f904f900
f9f9ff0504fd04f90502fafb010604040700
f9ff07fe0502fc060404020403faf9070300
fcfd030601fe0708fefbfffe010001fdfb00
fdf9fd0702fe01f9fb080301080507fb0100
0400f906fe02fb050601f8050607fffffd00
08ff01fefdfa01fafb070001f900fc00ff00
04fbfa0506fb00f9fa020201fe0705fdfb00
04fa02fa0608f901ff0206fc04f803fc0000
ff020406fefdfd00fb000806fc0601ff0200
fc02fffef8fb0202fb0204fcfd0502f9ff00
fb03fe070405fbfefd0105fdfe06fffb0300
080303fdf9070406fdff02f9fa0502fc0100
ff06070803fb000404fb03ff0307fc080400
01feff0105fefb04f901fcfffbfd07fa0200
fffef9fb01fefd0100fffb0804fbfb03fe00
00fdfd0207fafdfcfe0100fa0106fcffff00
050704ff03060203ffff04060705fdf90500
f901fc030105040606010303f9ff0603fe00
04fa0003070208fd0506fbfc03fbffffff00
ff0205f8050406fffefc02fd00fb03fefd00
fa08f9fafcfd04fe050505fcfa08fbf80100
ffff0707f904fa0003fdf8fbfbfafb060100
0107f90403000100030407fafefb0007fd00
f9f90207fcfd07fcfbf901fdf9fdf8fcff00
fffd00040603fcfefdf8fffffdfaf902fb00
0202fe04fa0403fbf8fdf90304fc05000600
fd0207fffb0707fb02fcfcfd08fafefaff00
05040006f8fc060305fef9fb070402000300
fdfa020003ff07fbfffc03fdfc07f8f9ff00
010000fb0305f9fc00fff8fffefd07f80200
fb0300fb0102fefefbfc0704fd0804000400
020102f9030601fb0304fb06f8f9ff020700
010005ff06fa02040704fffbfa040401fc00
f90004f8ff04fc02f803fef804fd02020700
05f9030604fcfc0205f801fe00fb0601fb00
0108ff07ff03f900fdfafbf8fd04fafa0000
fffefd0004040802fdfdfa01fdfcf9060200
06ffff060104fb0005fcfe00020705070500
080700f901ff07fe0704fcfe06fcfafffd00
0305f904f903fcf807ff02f9fefb0002f900
07fb0306f902fafefffd07fc08fefc050700
01fe0602fb020703fa030206fefaff030600
030408fa04fb0004fa0107fa0603fc04fc00
f9fa010603f90405fffaf9fe040502fcfb00
05fe020704f908fbfc050200010701fffa00
fd05ff04feff05f9fafb0401fb00fc020600
01fe0802fcfbfd020202030103000603fa00
fd03060007fe030001fafbfe06fef8fb0000
04fa0505fe06f9fffafe030202070704ff00
08010207fff9fa01fc06040701fa07040100
f9fe04fafefc0000fd0501fe02ff05fcfd00
0700f9f90007fcfd080603fd020107fe0100
fd02ff02fe05f800fb01fcfefc0008fbfd00
04fffcfc070301fafa07fdfcfb01fefb0100
060402f9fa0100fffd02f8fd07f905fd0700
02fffdf90300fb02050601f8fff8f9fb0300
fe06fefe0607faf9fffe030304fa07fc0100
05fbfb0704ff0600fd0202fc000303040700
fb000600fcf9fefa0603fe00f90103050300
040703050506fa00fafffffd06fd07fefd00
fdfcfb06fffd08fe00030201fcfcfcfb0600
06fcfc05fffafc04010604f80206f9fdff00
000507fd030004fe05ff000701fcff020700
03000601f8fcfbf9fffa0106f9fcfafafe00
fffd04fd06fa000107fd0302faf9fcff0400
05030705f8060405f8f9070600f8fb020800
02f907fefffafe07fffc02fa000300060800
fd05f8fb01fef9000004ff0602ff05050300
f9fa08fc060602000507ff060107fffffc00
fbf8ff0403faf90307070403060601030100
fb0007030006f90403070003fffffb070700
fef9fbfa04f90205fa00fdfd05060606fc00
040403010400fdfff802fbfa07f9fe030600
fb03fafa07fd000501fcfefe0005fb040300
fdf908fa00080407fb00fefefcfaf901fe00
f9fb070700fefe07fb05fcfc060304fcfc00
fefcf901050404fd0200fffafdfe0205f900
fc07fefbfcfc03fc040604fb0207fb070000
fb0207f9f903fd08fdfd01fbf9ffff04f900
02fa03fe0002fbfe04fb05fd00fc06020400
0104fd00fd07f90004fb02fcfbfa02fffb00
08fef9fd01fafcf9f9fcfc0403080103fc00
01fd05fbfbfa030304f902ff05050700ff00
f907fb0306f80004faf9f90300f9fffb0100
fbf802fc0603fc0206f9fef802fdfe00fa00
040306010407fbf906fa0200fbff08fd0400
04fffffafdfc04f8fdf8fb03fe0206ff0500
fb040702ff03050503fffd07fef9fe070200
f906fd0101f902fb0707fc0201f803fd0600
fa03fc04fcfa0001fd0201fb0605f9fffa00
fffafff907fb080304fd030504fb03f90000
02070008fff906fcf804ff07fffe0805fb00
000000000000000000000000000000000000
7f7f7f7f7f7f7f7f7f7f7f7f7f7f7f7f7f00
04fe050001fd05fd0507fffc07fc06020700
0503fe07fd01fbfbfc0003fefafc06050100
05fb03fefb05fff8fa02fffa010302070500
faf9fcf900fdfe05fefe0405010408fb0200
fcfffaf8fc030407ff00f90107fcfb050100
fc060201fbf90408fdf9080604f9f9fdfc00
05fffa06fe03fffb06fe01fd0005fc020100
04fc02fcfbf800070500fdfefbfe05fbff00
fffc050402fafcfdfb050500fbff03050700
04fef906fb07fb010408fa00f8070103fa00
fa0107fefa0008fa0702020004fbf908fd00
0107fafb03f8fc00070007f904fbfb050400
01fd07fafffb02fe04f90407fdfffaf9fb00
fcfbfa0508fa07050207fd02fd0101020100
f9fa05f901fdfc0504fbfb0308f90406fa00
0207fbfef904ff04fefb0802fbfffefd0400
0107fcfafa07fb0506fbfbfdff0500fdfa00
fd06fdf902050605fafdfa0500fe00fbf800
fb02fe06000605ff08fb02fa030107020000
ffff000700fdfdfc06fb05fa04faff03f900
06fafbfc0605fd03f9f9fb03fbfc0503fb00
06040504faff0007fc030401010708070700
0207fffefc01fdff0302fd08f903f8040600
0407f90704fb04fdfafa06fbfb02fe05fa00
00f902fe02040603f80106fe04faf900fb00
fffffefc06fc0507fe01f808f90102040000
04050103fd00fe0408ff050505fb01ff0200
fcfd05fcfcfbfe07fbfaf9f903f80108fa00
f9fb0502ff020601f905fbfafc0405010200
07fa02fefd0501000406fdf80704fffe0800
0407f900fe08030804070201fdfefdf90100
04fe07f9ffff02fa060203fb01fefb000800
0805fd00f8060202fffffd07fb050304fc00
0505fefa06010507fafd0105fa0001fa0200
08060507fe0602fef9070004f9fa08fcfb00
0602fc06fcfb07040706080704010502f900
fafefefbf9f9060100040502fd0301010200
0707fefb0506fefa02fc0805fefafbfb0200
030305fef8faff0303060000040003fbfd00
06f902fef9f8f9fcff03fef8f90006fb0100
fa000507ff0007060401fcfb080008ff0200
01fbfc080306f90205fcff0700fefcfa0200
05f9fb00fa07fc01060605f9fafefcfc0200
fa0701f80207fb060303fafe03fcfb06fb00
fdfdf9020505ff0803fdfbf903fffafff900
fcfb02f90700fd070006fc060402fa010500
0606fd070500fff9070608060501fffdfe00
fffa0100fe06fdfbff04f8fb0501fc07fa00
fb0006f9f8fe02fb0504f8fffefbfb04fa00
030404f8ff01020603fb0404fc02fc070000
0703fd04fcfbfcfbfcf90806fd0001fa0700
f90201f907fe0108fe05f9040702ff060300
fbfe070503010701020603fc02fd04fd0100
06fd02fc0606fdfd04faf9fcfafe03fcf900
fef908fc060500070700070708f9fb04f800
08fb0603f901fdff0105ff03fa08fb02fd00
ff0302050101fbfcfefefafd060204fb0100
fef907fefa070700050600f9fffe04fe0300
fdfe00fb0202fff903fffafcfd03f9030400
0706fa05fefa05fcf90301000606fdfbfe00
030701ff040304f902f90707050004fafc00
06fafd0704fcfe03fdf905fcf80603020400
0304fdfcf8060603040407fafc0208010700
04ff06030002fff8f8f9fb0506f800fe0200
0705fcfef9fd05fe08fcfffb01fc02fb0000
02fa04f9fa070407fdfa01fc00fc03000800
03fff9fd0202000307030807f9f901020000
fbfff9040604040206050004f90508070700
05fe03fcfb00fcf9f9020200fc08fb07fb00
0100fb0400fefc05fd04fc000608fb02fb00
07fb08fbfc00fa050002f802000302fefd00
06070602fdfb0306f9ff0501fc03fbfdf900
fefbfefcf9fb06fdf907fd00fa04fc060700
0300f9fb06fcfdfd04ff0305fd0605ff0300
050303fa040107fa0302faf9f9fb03020100
0303f808fff9050602f804fbfa0802fff900
fb04f9fc070707fafcfa04f90605fffdfa00
020001fcfd07fc01fffbfa02010100050100
040303fdfffa07fc06fc0406fffc01fff900
020306fbfa0308fdfe04fe07fd05f902fa00
fefcfc0100fa04070106fcfc0603fa070100
ff06020106fdfb00ff07fa06fdfafbfc0000
02040506fafffbfff807070100fa0203fb00
fc0404070303fafbfdfcfdf903fa07fe0700
fd08fc050301000303fbfcf9f90706fffd00
06feff05fd0104fb0608fff8050108ff0500
00fb08f80705fbfc06fffa04fa02ff02ff00
fefc05fe04fff8060106fafb020107fb0600
ff06fdfbfef8fb0304fafcfefdfffd00fc00
05040007f9fa050000fbfefb050000050800
fb050203020203fb020406fb07f80105fc00
03f8fffe05f9f9ff07fa0601fefd08fa0700
f9fd0206fdff03000004f9fffdf908080600
f902fd08fc030503fa01050503fbfafdfb00
04feff070100f8fc0001fafbfcfafb020800
fefa00f800fa0205000605080803ffffff00
0003fd050003ff0305010102fb0104fcff00
f8ff04fd07f90406fe060007f90600f90400
fa0204fc08f90001f9fcfb00fffc00fc0300
faf9fe080407f900fb0706fdfafb08050200
02040008fc04ff0307fc040201fafc020500
03f906fd050400fbfd020203fa03f9fb0000
0000fe0102f905f90802f8fd0201fa050100
fffbf908f8f80202f900f80703faf9000100
05f90707fcfafafbf806f8fe07fcfe010600
fafefc00f90407fb01fef8fa040505fa0600
fe06fef901fc05ffff0106f9fb03faff0000
03fcfffaf9fdfe01f8fcfdfa05fb03080800
fa00fc07080404fdfe03030201020307fa00
fc0505fffa060506080002fefe0501fe0400
05ff060103fe0005030307faf8fffb06fd00
fc0304fc0100fc0707fa0207fe05fe02fb00
fafc0207f901f80701fafa02fffc02010200
fe070505f90006fcfe03060708f800020500
fefa07010406fb050403f9fc01080604fe00
fafeff0700fd06fc05fc02fffafb05fa0200
04fdfefcfb02fc03010002f9070101060400
06020205050507fd02f8f90601fdfd020600
f8fbfefefa03fffdfe03030608fa07fc0500
fffb06ff07000106fdff07fe070104feff00
0302fd0306fcfe01f9040504fc0601f9f900
0707ff0207070200fdfefc0306fefc05f900
010800fc01fffafb050006faf90001fef800
f906fe06fa02ff03fbfe0202fbfe0507fe00
fffffe05f908faff01fdf9fefb06ff04fe00
fefa04fe0404f90102fb08080600fffa0300
01fb020107fc05fbf90703fd0406f801f900
07fb0103fcfc0400fd080006f904fafbf900
fffe01fc07fcfefe07fe0006020105030800
0102060106f90805fcfdf90705fdfc01f800
05ff0002fbfa05fcfcf9fd0203fb0501f900
060601fafdfdfbf8fa08fe0301ff0402fb00
04fa060500fffffe03fff905000303fefc00
05f9f905060002fdfd0204fc0200f905fa00
06f9fbf8010000fc0607f9fa010204000700
fd0404fb02ff0004fefaf9fdff04fffefe00
faf9ff06ff06fd05fd0602fef9020006f900
f8fffffdfbfe0508fffb06040005fd030400
02000701fcfb030603fcfbfd03fbf906fc00
fbfcfcf8fffafb04070508fd0701ff030500
fbfc04fc06fd02070605fcfcfeff07060700
050106fcfdfe06f808fc05060208fc070400
07fdfe00fefbfa0007fb0706fcff0602fa00
ff07030106fdfbfb0402fb03000603fefd00
06f90503f8030001fdfd04fa00f904f80700
fefc0600fffd0705fbfbfc01fb0605fdfb00
0706fafd04f9fdfcfbff03000803fc01ff00
fefb0204fbff05fa0305ff02fd05fbf90700
fbf8f9f905f80201070105fdff02fdfaff00
0406faf9f9fc0203fa000006040107fefa00
02070403f908fa010106020200fbfe00ff00
03fb0107fafc0701fb0508fffd02faf8ff00
05fefb04ff02f90205fc060408fe00f8fd00
0307fe060404f8030302020805faf907fa00
ff05f9fefd070405fc000100fc03fd020000
fefffcf905fc0501fb00fc03f907f8040100
07fe040700faf8fdfcf90207fdfe06080400
ff00fa0203050403050503fefd0400f8fd00
fc07080602fb0804fefb01fd0700fcfcfd00
fbfc0105fafdfb03fdfa070003fc04fdfc00
fafbfe0606f8fef90503fcfa05ff00fc0000
07fbfc030603f9fb0106060302fe01050400
07fbfdfefcfffdfef906ff07fef808010300
0201060203f8fb030707fe06ff07fafffd00
0802fe02fffb06ff00fdfa0208fd08030800
ff03fd00020100fbfa05fefd06fffdfc0800
040504fefdfffffdfcfe07fbff030607fc00
010208020803fffafefdfe08ff0503ff0400
05fc0302070301fffaf9fafefcfefefe0700
0306fefffdfffb070704fd02fbfafafd0600
060705070304fefffdf901fff9fafb030400
04f906fbf8f904080502f9060300fb03fc00
01ffff0806010507fd03fefa0303fdfd0800
03080803fafef805f802f8fd03fffb05fb00
fefc0506050607020404f8fa03f9fafafc00
f90404faff08fdf8f800ffff00f904fcfb00
04fd05fd050203f8fffefc07f8fdfefcfd00
01fe0606f90203fcfe01fdff080300fb0500
00f8f9fef9f901010302f8fa0304fb06fb00
f90306080702fc0308ff030303fffd06fa00
ff0400f8fc04fb01fc02fcfa040100050100
07f9fb05fbfb03020701f8050707fcf8ff00
04fd02fd00fa00fbfd07fcff0700fdfaf900
fcf9080108fdfb01fb020400fa040105fd00
fb0705f80001fe02000404fffef9ff030300
0402fbff080706fbfa02fc06fafc07020600
fafafb0806060408fffdfc02fb020502f800
fbfbf9fa0001f9fffafcfcfafefefd010700
06030105fc080406faf9060403fefbfbfe00
fbfc05fcf9fb060204fefcfcfa04f904f800
01fa04fafbfd03f80007fb04f80308fd0300
f90306f9fbff01f9fd0008fbf8060508fb00
050601f9fbfb08fafb060106f907fa06fd00
fff90508f80603fcf908030104fffe040600
fd01f806fbfff9fc08f9fb04050205040500
f905050006fd0103fa0200fd02fef8050600
0205fc04020500f8fe0004ff05fc05fb0500
fef908f90703040503f9fb000400fff80200
0002fb0807fafbfbffff04fb0308f9fcf900
05f901fb07fc0005ff02fb05fffaf8fafc00
04f9f902f90106fbfff8fc07fe00fef90100
fefe03fbf8fb000706fe04030003ff060600
03fbf90505fc07fb06fd06fbfe0307060400
0403fd0605fafb030701fe0705f802070100
fd01fd010406fafa0303f8fefb050200fa00
010603fcfef90407f9060205fefafd02fb00
00fd04fef8fb05f907fefa0602f80307fc00
03f807f904fd0006fbfe05fc0001f9060500
070802fbff03fc05fd07fc04fd06faff0100
0105fd06070400fcfaf8feff000407fcff00
02fc05f90107fcfc06fafefff90202080700
fef907f900fbff07fcfafe05fe01fb07f800
07f9050607faf9fbfaf904fbfcfdfa07fd00
fd06fb03fdfcfbfefdfa0800050303fa0700
03fcfcf8f90505fefafcfd00f9f9fdfe0000
fd070407ff010101020303fefe02f8fff800
fafcf907f9fff800fe0706f906030602f800
ff0508fcfe01fffcfa080007ff04f8fe0000
05fcfafb020300fcfd0707fb050505080600
fe030004f907010607f8fefafc02fd02fa00
faf803f90306ff06ff0004000103fa070000
0806f8fafe00f903fafcfb0606fdfcfbfc00
05fdfdfff90300fbf908fdff0207f9060100
01fbf9fefc06ff05f8040107fbf901060400
0305f9fa01ff0307fffb04f80205fb010600
fbfaf9fd00fa05f9fe030203ff01faf9f900
fcfcfd07fffcf900ff01f8fc040300fdf800
00fdfcfcf9fffb06fdfc08fafa0306050000
00fcfb03f9fb020501ff060004fa0205fd00
faf802fd04000500fb050405fdf9ff040700
fdf907fb00f900f8020604fd0305fffb0600
f9080002fdfd0201f90501fbfd01fcfcfd00
02fe0304060707fe060405030704fefbf800
04000702fe01fc0803fc020703010202f800
fef8ff0708fffd0405fe00fefcfc04fe0200
08ff0301fd05fe0408fffbfcfafaf9fcfc00
f9070207fd0704fa0200fbfe0405f807fa00
ff01fafa05fb040805080607fb0605fc0500
fb02ff000702fbfc0706060603fdfbfe0700
fcf9fcf907f90006fc00fb0106fc00f90300
fa00ff0006ff06fcfffa000602f904f9fa00
000607f9fff8040203010407010303fbfd00
ff08020005fefffe00f9fef80501fc030300
0707fa03fd02f908fe06030705ff08020500
fa0407fcfbfefe06fdff030208fe0006fb00
fcff01fbfe06f9fdfe07ffff01ff03040400
fbfc0602fe00060002fcf90200050106ff00
04fbfa03fefdff0504fd03ff030005010200
050100ff07000506ff03f9fa060300000500
00fafd010707feff0703fffbfb0104fcf800
fd02ff070105fefe010302fb01fefcfff900
05f907fafe0200f907f90506fcfd01060200
0007020301fe0607fa05fdff0205f903fb00
fe000405fdf90305000806fe07f903fa0600
02000007fc0501fe0502fbfcfa03fdfc0500
fd0005f9fa0105fbfaf9fa0507fbfa040600
f9000202fd00fafff9fbf9fdf8fffbfcfc00
000000000000000000000000000000000000
7f7f7f7f7f7f7f7f7f7f7f7f7f7f7f7f7f00
0103fcfbfbfa080102f902f9f8fc08fc0000
fafb0804000307f9050303fe04fbfc00ff00
00ff07f8020500f90405ff020101f9080600
fe01010000fe04f800fafb020203fd010300
fcfbfafc00000308fdfa06ff0000fcfc0000
fe03faffff030505000605040605fd060500
03fd020602fdf806fdfb02fd010606fd0700
01fc0307010703ff020007fcfcfdf9fef800
01050205fd04fc0601fa06fdfd0004080100
fd00f9fc04020408fc0006fffdfff8fd0600
03fb010108fafa0704fb00ff0304fefc0200
fcfe04fcff06ff03fafd05fa070102010800
020605030402010706f901fc08fd0701fa00
020207f806030700fe0807fb04fe06faf800
fb08fc04070700fa000707fffa0406f90100
fa03080805fa03fdf9fdf906080406f90400
01fe00fcfa0505fcfcfbfc0202fc06030200
ff0401060604070104fdfdf800faf907fb00
07ff00fc05fef807fa06ff0003fcfa020400
f9fdf905fff90002020805f901fafdff0500
0502000202070000fbfdfd03fcfcfc01fe00
0106060405fc0207fffafefdfd0707060000
f8fbfdfdfdfefa0702fffaf908fffc06fb00
f90608fd04ff03050203f803faf9faf90400
fafa01ff01fe06fc040504fafdfdfd08f900
02fc07ffffff00fdfff9fc0100fc0306fc00
ff0301faf9fb01fbfc02f9fc00fbf9f90400
fefe05060403f90607fa0600ff02f9fe0500
0403070301050606020301fdfbfcfd020400
fbfafcf9fc00fc03fffdfd010101f8050600
fd0203fc03fb0708fefbf90301fb0606fb00
02070003faffff02fbf9fb0207010102f900
01f9fc00fdfe020307fe0201fe01fe01f900
fb0307fb06fe0005fa08f9fa040105fef900
01fd03fb070802f803f9fd000605fcf9f800
fd06fbfb050402fb03f8fafdfd00fd030000
05fd040102fbfa01fdff02fb070403fc0700
fefafc000106030402fefafaf90505ff0500
030703fbff03fcfa05fbfc03fefcfe07f800
03fe01fb0101fafe03fc06ff04fef906fb00
00fb0401010200ff04fd0003fafe03fbfe00
fa00fef9060401fa02070501f8fefbfffe00
fc01050002f807fffafafefdff0701060400
040402ff05fdfef807fc0206fa02fcff0000
f9080804fb07070105040605fdfffbfcfb00
01fa000405f9040404fa04fa0401fcfc0700
fe06f9fe06f8fcfbf9fa0606060305040300
fe05fb080200030206fd03010102fe06f900
03fb070403fb0505feffff0003fb06070600
04f807fcfa0201ffff02fa05fcfffef90100
000801f900fdf80608f908fffaf90400fd00
040408ff01fe030700fc0706f802ff010500
00faf80003040004fef9fd0805040001fb00
0102fdf906fefbfefd01fffbfcfd03030500
fffc07ff04ff07ff01fcf8fafdfe05fdfb00
0704fc0503ff01f8fcfe030103f9fe010500
fefff904fafdfe010002f904fc0701ff0700
0306040407fdfd000101070705fbfdfbff00
fe01fbfcf900fcfa04fcfaf9fa06fbfafa00
0506050300fdf90306000305fa04fafcf800
f8080306fb0303f90603fbfc03fa01ff0700
f80700030202fbfffcfefe0601fbf9030100
04fdfefa00f902fbfd08fa07f80403040500
f903fbf907f8fffc02fb00ff0702fa00fa00
05faf9fe05f800fc04fff9f801040105fa00
000604f8f801fefa02fffafa010804000000
04fc0603fdfcfa0400fd00030703f9fffd00
02fd030406fe0401fafdfe05fefd02fefc00
ff06030507faf8f9f9fcfe0404ff0107fd00
08fef900ff0106f9fa05f9070006f9ff0300
fffbfe020801ff02fd050802fa03fef80100
02020604fb0308fe0506fc05f8040306fb00
fcfc02fffff9f8f90304fb07060608fcf900
fefffaf900fa07fafd01f806060004000100
fe03fbff01f904fbfc0107040205fd060700
faf902ff0004fb03f9fefb02f905faf9fb00
0408fafbfd02060801f90702fff906fb0400
04fafef90501fefa020103fc07fdfa030200
f9fe00fc0303fb0200fa0003f80006f8ff00
fd0702fdfcf901fc02f9060701fe06010700
05fc02000403fef907fb06fe020600f9fe00
0502faff02ff03f9060101fefefdfa02fd00
fe030204ff01f8fc05fef9fbf8fa03f80600
f9ff03fafb03fefafe03fffff9fefe06fe00
fdfa00020608fefbf9fc03faf8000305fd00
03f9000805070806fa02fafcfcf8fcfb0000
040001f9f900f903fdff02fbfe07f9030800
f9fcfffff8fdfb0301f9fc04f8f8f9030500
05020103faf8f9fd0600fbfc040403fcfe00
f8fb0707ff07030607fefc0501fbffff0000
0705fe0002f8fd00ff030001fafefefbfe00
fdfe0102fcf807fe0804fc04fd020002fb00
fc080403ff0103fc02f8fcfefdfd07fcf800
07fcfafffc03f907fc080207fe030003fc00
fc0706ff00fbf8fe04030703fefc08fffe00
0407fa0305f8030101060602fb0104fb0600
fff90406fffb02fa0604fe08060000fef800
040000f9fb0406f80105ff06fcfe0308ff00
060104fefe0504f900f9f904fe0807fe0800
06fb07fa05fefa0800020604f9030404fa00
060704fb000701010601fa030206ff010300
f9ff01fefb0408fef90100fdfd010403fb00
01fb07fef907060402fdff0000f9fcfdfd00
fd04010005ff08fefd00fcfa01fd08070400
fffefaf8f9fa03fafcfc040705fc0503fc00
00fefd0404fff906fe0002fd0606fefa0300
fafdfa0306fdf9fb0101fdf9fd05ff04fc00
fe0608fe01fffd00fbf9fbf801ff0103fc00
fafbff06fffdffff040300fffcfb0605fa00
fffefb02050507f900fdfb0201fdf9060400
01fdfd02fe03fcf9fe02ff01060602fc0800
05fdfcfa0401f900faff07fd080102ff0200
fd05fa0507fafdfe07fe08fd01fafdf8fe00
040407010306fcfb080604f80506f907f900
fd0004f9f90603fa07fdfffcfdfafe05fd00
fe06fdfcfef8fafa0204fa08fdfc01ff0100
fafdffff0607fbf9fcff0203000307f90200
0806fafefd00f9fd0307fff906fe04050400
07fdfc05060205fe04fbfc0802fffd01ff00
05f905fd03faff0305f9fbfafb000402fc00
fe00f8fa060405f80708fafdfffe0306fc00
0000fcf903070201080408ff0005f9fb0000
05fe06ff050805fcfa0002fcf904fd030100
fff9fdfaf903fe02fffd05fe07030805fb00
fa0306ff0101fd06fefa0100040201fbff00
fdfbfefffd04070205f9ff0601fb0305fc00
0300fafc03f9fa060805feff050408fafa00
02fbfcfe05070504fdfbf8ff060705050100
fef9070700f9fd0606ffff06020407f8fa00
fafefc03fe050806ffff0608020104080300
fffefffc0703f90101000105050304040400
03faf9fa0401fa02f9f9fcf8050305080100
05fd0605020000faf9fefc0605f900080100
fb03fb06060103fc030605000205fb01fb00
040105fa0302060805060500010301fa0700
ff02fb01fbfefcfff902f90602fc0307fa00
f9fd04fffdf908f9fb000403fffafc07fb00
01fffbfd0406fa06fa0307000108fa060800
fe080506fa07050107fbfe07060102020200
0704fbfafe040801fe04fb0708fcfefaff00
fefd07fffd05070002fd0700fb060107ff00
00fcfe06fef9050003000703f803fd02f800
fcfdfe0501fbfa01fffafcffff0001faff00
f80000f9fc0301ff01f9fbfdfcfe00fb0300
f806050203fdfafb080307ff01060201f800
ff08fd04fdfa0307f9fa03fd030000fbfd00
04fdfb0007ff06fcf903f90100080104ff00
0300ff05fafe04050705fcfdfaf9fb06ff00
0406ff04f804fefe02f9ff030302fffafb00
02fdfdfffffafef90800fe020500f801fa00
04fdf8fbf902fa06fc0002ff0304fa01f800
fffe0407fbffff02fe0706fcf9f9fb020100
fdfa0505fbfa03010003f9fb04fb02fcfa00
fefb070405f90700f8fc01fb070705020000
fe0503060101fc05f9fe0104f90607fdfa00
f800fcfaff07fa0005fefbf9fe02fef90700
fffafbfa03f805fefefd06fdfcfa07f9f800
f8f9ff04fa00020406fdfbf904fa0503fd00
050707ff07f90404f801fffdfe08f9fdfa00
feff02010608fd010101fcff00f906f9f900
fc0405050106fbfb0405060605fd0106ff00
fafe08fffcfeffffff0703f802030207fc00
0002ff000001fb0802fffcfdf8fdf9faf900
0704fe05f90305fbff05fdfbfff900010500
00fd0200fafcfc080703fbfe050705fa0000
fdfefcfbfc0102fc020002fa0100f9040600
00f9f8fffffffe07fefffb06fbfa01fe0000
0303f803fb05060403020606fc050004fc00
f90601fd0305fb01fa010404fdfcfd000500
fefa0301fa07fdff05fd00f905fcf9fc0700
f8fafa020008fcfe030505f90301fcfafd00
fd0704fcfd0506ff020201f9fcfd0006fa00
03f9fc00f805f8fcfb050602f90408fdfd00
ff040006fcf8fa0304f9fc020204fb010400
f905ff07050700070402fe03fb04fd02fb00
0204fd0200fdfc0707ff07ff010701fd0500
fefefe060005fd0101fb020701fcfefcff00
050201fc07fe03fe02fb0803fe0705070100
fefe06070105fc0002fffd0107050604fa00
fa060302fc00fcfcff00fefd0307ff060600
03000307fafcfefc08000701fdfd03fd0700
04fd06000703fef8fb0701030405f9fcfb00
f8f905000306000405fa02f801fb08ffff00
fffb02f805070503fefefc03fb05f8fa0200
f80308f904fe06fd04f9040700fdf9ff0700
0601f8ff050504fdfe010208fdfdfe05f900
f9fd05faf9f905fa07fcfc0800fdfc010600
fe01fb04fcfdf9fd02fc0207fc05fcfafb00
fc00ff07fe0005030002fbfdfbfa01020700
03fdf9fefa020703fd03fe02ffff02fcfc00
0004f90401fb05fd02fb0404050206050400
07ff0001040500f9fe00f8fc040008f9fd00
fffbfa0804050201fa02fdfafe0102fcf800
050401010508fb03fafffdf8fef905f8fe00
f9030704f90508fe06fe05020402fafe0100
fd040106fc04fff8fb00fefefef904050300
fa0702fffc06fa060804fa01fafe0002fb00
02f9fd060806fa02fb0005fbfdf905fc0800
fb07fafffb00fc0708fcfd00fcfefb050100
06ff01fd05fff9ff0305fdfefd07fcf80200
fc00fb01050503fffb05f90501030707ff00
fff8040503f9fafa03fdfdfafe0605fcfe00
fb04fdfa00fa070600fe02fdff01faf9fe00
fafa02040501fefe0805fe0004fe0003fe00
03fcfafcfa0208fdfa06fafc0300fe00fd00
01fbfdf90308fc02fe0304f9fafafe07fb00
f906fefd02fff8fb06fffd0600fffefc0700
fefcf9ff05feff06fefefbfc04fdfa01fa00
0806fe05ff0300fb06080701fdff00000500
fffd0400f906f8fffbfbfb0007fcfc010200
0704fffafbfdfbf80100fd06f803fc080400
03fd0503fe03f9fbffff05fffc030301fb00
020600fcfaf8030000040400fafd0402fb00
fdfcfd02f9fafc02fcff040800f9fcfefb00
04fcfa000000fef9fafb0300040702fcff00
01fafbfb04000601020107ff020208060400
f9fdf806fcfffb05f906ff01fffc0303f800
02f8fdfd07fc07fe04fe0104f9fc06fd0400
0202f9fcf908fcfd0607fb04fdfd0400fe00
fb08f9fb0101fdfcff00f9fdfe000300fe00
fc05f9020300fefafffcf9fafefcfe020300
07fb070104fafb0107020200050605010500
02020506fdfcfe0602070303f9f9f9f9ff00
01fe05ff0006fefdfdfb03fe070705fafa00
0103fbf8fe0700050006ff0203fc07ff0700
fa00fa0801f8fffe05030600fb030005fd00
05f802fe07fd0203f908fcf808fb00ff0500
05fa04020703060401060101fffaf9fe0700
0504fa0700f907f8f802fdf8030700fdf900
0006040300030702f9fafffafe03fbfa0000
07fcfb08feff02fbf9fffcfaff04fe07ff00
07fdfdf8fefbf904faf906fc020506060700
fcff0408f8f900fc080701fa01fdfff80600
fafdfe080000fefdf90601ff020007ff0100
f90505f804fbff00f906fb05f904fefd0300
f90208fefff901f9fefe03070707f9fd0100
fcfefffffc05fa02fc00040404fef9ff0000
010000f80100f902fbfffbfb02f9fd050100
030002fc000505fd080201fffc07f9080600
0500f9030502040600fb05fb03040500ff00
05f8030004fc080007fa03fb02f808fdff00
fe07fff9f901fc01030107f9fe0006fafe00
00f906fafcfcfefbf8f90102000303080800
fbfbfdfdfb08080705fd00fe06fd06fc0800
06fc00f9f8f8070503fe0400fa0400fdfc00
f9060502fd070807fff80107fdf905060200
0506fe0308fd0704fd01fb03fdfa02000100
fafffa0500fcf802f9000802fbfffafb0300
08080504fefd00f9fbfc02fbfd00fb060400
03050608fc0201fefffefe0001fa07fff900
03f801fc0702fa02ff0704060702fa07f800
fb04fa01fb03fa0203fdfe02fa080605fa00
0505fffcfc00010606060601f90705fc0200
060602fc05f9fefbf80805fdfb0202f9ff00
0401fbf904f9feff03f901080503f8020700
01fe0105fc0204fa0207fcfc06fefe080000
f902fa00000104fdfefafc01f8f900f90500
000000000000000000000000000000000000
7f7f7f7f7f7f7f7f7f7f7f7f7f7f7f7f7f00
fe04030001050403f90307fdfb0500fa0200
070803fa040301000002fff900fffc020600
fc01fb0201fa020705fc01fa00ff0307fc00
0105fa0301fb06f80007fcfafe0200faf900
f802fe0100050604fffef90503fcfbfb0600
02fcfe02f8fa06fd0404feff0007fbfb0700
f8f9fd01f90704f9fb0606f9080107060000
040308fbfc060200fcf9fc050403fbfcfb00
03070301fdfefe08fd02fcfd0307fc07f800
05fbfd02f8fffefc0608070205fb0702f900
07fef9060305f8fc06fc060400070205fe00
01fb08fcf801f9fd070406f8f8fd06feff00
04fd0008070805ff07060000fafafd06fc00
07ff0301fb00fcfff9050306040406010300
fd06ff02f80801fdfd01f907fbfb0203fe00
fc01fb00f9fe02080202fafa0601fe06fb00
0404fcfafffcfe0801f90301ff0604fdf800
fe0302fafb020700070700070107f905f900
050508fef9000105fa0703fe0003f9fd0100
fb0300000000fcfc0600f8fc08fd0103fe00
f9fe06fc0202fb0703fefffe00fa06f80000
03fa080201fa00050103fd01f9000704fc00
ff050200fefe02020103070007fbfa060300
fffe0300020502fe010601ff020502fdfe00
020403fb04f9f9f8fa04ff07fdfcfafa0000
08f8f9040600f901fd0801fffe0601fffd00
fffc0302ff04f903f9fcfcfc0505fdfb0800
fdff0707050102f8faf8fe00f90704fc0100
0501fc06fbfc010003ffff0203000308fe00
fffdfafefc0606fafb01fa0400fb0005fe00
0607fa01fa00ff02ff00fa0003040503fc00
fffafff9fcfe07fb00fbfd00f802f8fcfa00
fefc03fa000000fd0105f907fefafb05fb00
06fa040203f902fcfb050005f9fff9060400
fb0804fb05faf90604f903f8fb060207fa00
00fc0500f8ff02fb07040001f9fd0802fe00
fd0203fa04010707fb060608fc04fb030700
fe0304fafcfffcfefcff0300050003030300
0802fd05fb05080006f807fafafcf907ff00
0702fbfa0305fdfafa04f9fb05f903060200
0100fefafafafd0104fb06fb01fefb000700
0606fefc060604fafdfd0505fd01f9fcfa00
07f908fe0201ff04fbf8fc0605fe05080200
0007fe02fefcfb0204fd05f90405fff90300
fd0006050002050702fd00fb0701ff070000
02f904fdfc00fbfdfa05faf9000002040200
fb040201050300f80100fa0702fc05070500
fb03fcfe06fe020307fffbf9fdfafc010400
fa03fb03fa00fafcfaf8fafe06080305fa00
06f900000005080005f9040403fefbfc0100
f80602050407fc040606060207fefe080600
06fc0007fcf9070202080301010000ff0200
fffb0705fd07f80607fbfc08fffaf8070800
07fbfffbfd000601fcfa0006fd0701fff900
00f905f9f9f908ff010001fdff0103ffff00
00040002fcfeff0105fe07fa0800fff8ff00
fffbf900fbf905fdfb0206f9060404fbf800
fc0601070207fe0500030808ff0007010400
050103fffaf8fdfb0507ff0501f9f803fd00
fdfdfe080708020105060108fb0605fe0100
f9ff01fcf804f80807fef9f906fd04010000
02feff03f90606f9000400fffdfb01fdff00
02fc000003fa0805fef8fcfffe0106040700
fefa020205faf90302feff0701fffffe0400
fa01fafdfdfd0503050608fafa0805fcfb00
ff04fe0003fbfd04050808060605fc050600
00fafa0506060408fdff05040306faf90400
02040005fe06fbf9fc0201f903fefdfcfd00
fbfdf8fb0500fb0401f8010504fe0807fb00
fa07fe070403fb01fe0106f8fc0201fffd00
feff0506fcfffefd0302fdfa02fbfd040100
fffb07fb0003fe03030102fe00f9ffff0500
030005fbf902fa05fc04fbfcfc040400f800
fcf9fffbfbfffbff070508fff9fdfb02fa00
0500fa01060404fefcf8020504fe01000000
06fffe00faff0503fb0100fcfe010500fa00
fbfffa070508fbfa030203fcfaf9fffa0500
fdfc05030207fa05fa00f900fc0403030500
fa01070002f90001fe0607fc02020501ff00
fcfbfd0004050506faf903fdfafff8f9fa00
fd04f907fe07f9fc050101f8f8fd02fb0000
0403fffff906fd0507fdfcfe0408fd03f800
02fa020107fdfa0002fe0206fdfdfe050200
08fffc07030406fcfbf804f8fdfa03f80600
faf8070206050403fbfc07f905f9f8040000
ff060406fbfbf9fc0702fefcfa04fc06ff00
f8fd020005000704fc05070406f9f9010200
07fffdfc07fef907f8faff0002fe04070300
f90107fdf9f9fffaf907010504f801080100
04070300f8f8080802fe05fffefafafcfc00
fffffa0701080007030103fc0605f906fd00
fbfffb04fefdfbfd06f905fffc0606fff900
02fafb0308fefafc05fcfafd03fefb06fb00
fffb0605fefefe08fdfc04050406fd050100
fc0807fefc05fafb060503fb080505010700
080405f90008faf90206f90407fb0707ff00
01fe060503fbfffc03f8050506fb0802fc00
04fdf9fdf90002ff0405fcf808000606fe00
07f90507fd07fffafafcfdfb05fc0007f800
fe01fc00f902ff0504030705fa08fb05fc00
f8020004fbfefe05fd0100f907fafffbfc00
fffe00fa03f905fdfcfeffff05f805f9fb00
fcfefefdfe03fbffff060101fdfefefefc00
fb0701fc03030007fefbfdf804fbfafb0500
fd04f90803fe080607fefe04fd06f9fa0200
0303fa06040207fbfb0501fc0308f8000200
fe04fdfffa07f901fb05fbfbfd00fd050500
fe06fa040806070500050002fffa07ffff00
ff07fc03050504ff00fe0006fd05fbf9fd00
fb00fb040703f9ff04fe0403f9fc04fcff00
fa010206fcf9fbfb0507fdfa01fcfc02fb00
0205fefd06ff08fafc0407f9fb02feff0100
ff0506fb0001fa01fa010307060105fd0400
06f901ff07fef804fe00fafff9fc0206fe00
ff0401fffe02fffffa06fafd04fa07050200
05080608060604f908ff06000700fb020400
0601010205fbf9ff06f8000603f905f90700
07fd06fe05fefe02070508fbf903fa060700
f9fffdfcfaff07f904fafa07ff05fe02fd00
0707fffffffa04fb00ff020301f808fefe00
05fef9fe0502f904fa02010501fdfdfe0000
01fffa0504f90700fbfd04000200fe00fe00
fe00000605fd0106f80204030502fd00fc00
00fd03fefaff07fbfefafd08050406fffe00
fe01010804f80607fdfffd02fcff04050600
06fafa0501fcfcfeff05fe05f9fd04fff900
01fff9fd0402f90207f801ff05fa0205f900
fefb08fd02ff02010300ff070202fbfc0400
fefbfcff07fc04030300fef9060104070500
f9fd08f9fe03fcfc01f806fbf900f9fa0400
050000f8f902fdf908050608ff0208f9fc00
f9fd0300fa04ff01fe05ff05fe07fe05fa00
0303f9f907fa04fdff05ff07f80106040000
0706000607f9fd00fa06fbfc06fdf8080300
0107ff06fe07fe030300fbf9fcfa01fdfc00
05f9fa0703fd0100fbfaf9f8020101030500
f801f902f908f903fdfc04f8ffff04020700
fdfdfbfa02fdff01000005fb07fcfbfdfc00
ff01fb03fafd070604fff90707fcfdf90200
03fcfcfa040701fafafbfef903000707ff00
ff08fd0201fbfefef8fc06f9ff0308fdff00
fa060405fdff04faf9f804f9010601010300
04f9fa02020001fe02faf90504fd06f8ff00
030501fa00fe07fd03020205fafef8fffc00
fbf9fd02fe02fb0206fd06fafd05f904fd00
fdfaf80008fcfdf907050704fc0707040500
f90101fa02fefefdfc01fa04fcfbf9fd0800
04f80206fcfa00f9ff0004fe0602fd05fc00
0005fcfb05ffff000305fd0305fffefcf900
070806fefdfdf8f80601fefc0407fb000600
05fbfefc05f80705020508fbfe0107030700
06fa07fc06060702fa0502fe04fcfbfcfe00
0406020506fafbfc0605f9fa010807fa0600
030700fe04050007fcfcfefafcff01000000
fbf90107ff0202fa02fb04fd04fcfa000000
fbf900fbfa07f9ff05f9f9f9f90705fd0600
fefffb000606fdfa01f9f9fb040507fb0200
ff0700fa0001ff0006fcfd05fd00fffa0700
f8fcff050805fffcfa04f904ff08fcfb0700
fd07fafcf9fa0305f9030401fd06fcf90500
f9fc010101fa0105fffbfd07000100faff00
0302ff02f8ff0003000803fe05f902030200
fa000005fb00fafffe040607faff02fbfc00
f9f9fbfffd00fb07fcfffb0504fef9f9fe00
0307fcff08fa030608fafbf9fe01fb02f900
01f9ff05fefb0606fe07fbfb030700fa0700
fff9020300fc0000f9f904f905f803060700
0207ff07fb01fbfb030106fd02f8fbfe0500
fc0404fe0303f900fe050101000104fff800
fdff0101f9fffc0100060104050501070600
0100fefafb0408f90507f901040504f9ff00
030601fc01fffff9fdfcfb06fe04fe010100
fcfdfbfa04f9000605f8fffefcf900feff00
0308fdfc060105fc0804fe0407ff04060100
070302fcfa05040100fe0102fafe08fa0000
030407fa01fbfd040101fafc050106030600
05ffff04fe000207040804040600fdff0500
00fe04fa06fffd08fb01feff03f903fb0500
070408fdfdfafcfe03f902fafa06f9fafb00
0800fffe020002fffd06ff05fd0604fa0400
fd08fafffdfafe0402fa05fe02f800020400
fdfbfb040203f90003fc0104ff010000f900
fafff8ff02f9fc00fe0102fd020601f8ff00
fbfa00fd0105ff07f901fbfefc05fcfdfa00
000605ff0407050702f9fa01fe07fe020400
0204fcf907fcf9fbfe0103fe08fdfbf8fe00
fd01fb04ff02fdfb0405f9f8fe0603040200
0006fdfd03fb080706fd030003fefafdfc00
faf8f90401fef90506faf8fbf9fefaf90000
fd0204fb0003f9fefe07fc010306fe03ff00
03f9fc06fd0500fa030304fefafdfdf80800
02fefefa030107fbfcfc0305fdfb06fefb00
fbfffb0303fefff906fdfdfef90705fafc00
fc0601f902fa000000070502000707fa0500
000707020201fef802ff0302faff0303fd00
02f9fefaf8fcf9fffe0100fd050605fdfc00
fa0105fdf80701fd00ff0005fffc01020000
fb0300fcfc06fd03ff06fbfefbfd00020500
0004010703fe080002fffa0005060306fb00
0505fc0002f80103fefc04070003fc05fd00
fafefc0105f906f90407fc050006fd03fb00
01fdfefa03fdfffffa05fc0503f807070600
07fefdfc0000fa0607fe0503060205fe0100
0504ff06faf8fd0405f9fefaf900ff00f800
03fdf901f904fbfafd0106fe0507f9070600
02f8fd0601fbf9f9fbfafb02ff0706fbfb00
080707fdfaf907fffb000700fb0305010700
03fdff0504fdfefd0702fafefafafe060300
000206040608fd020103fefefd0307ff0200
fe0606ff05fff900070308f90006f9f8fd00
fd0206fa07fe030501fdf907010506fbfd00
fdfffd01fa07fffcf8020502f90601040400
fffcf9fdf9000802f9fcf9fa05fe0305fa00
04faf9fefa050803000500fa07fdf9fffb00
02fcfaf8ffff00fd0107010204faf9fa0100
070300fa0307fb08fb0303fc08fafc080700
fff9000806f907fcfafd03040206fbf8ff00
fc02fefd0206fcfa0403fffa030302f90600
fb02ff070702fcfcf8fefd01fa0706fc0600
fe08fa0502fa010704000208fcfb08020200
fcfffcf9fc0400ff03040607fefefcfe0500
fff9fefbfdfbfcfcf901f8050206fc030700
f905fb06fff9fafd0205fb03fb01ff020500
fffafdff0603f907fd0802fffbfcff040300
050406f8fbf903fcff03fcfffcf905fd0400
fc06fb070604fef9010408fb02f80005fb00
fafdfbfbfdf80600fdfb03fff9ff04010600
07fafefa070001040602fc03f8fd0104f800
f908fafcf900fdfa00fc0103faff04fdfc00
0402f802fd0501020404ff04f801f9080000
0005fe010604060201ff06fcff0005050400
0404f9fcfeff000502f805fd06f908fdfb00
0707fcf905fc0102fbfa0103f9000500f900
fffffcf903050005fc0403fe0406fd04ff00
fff9fa0207feff0500fdfafcfdf9f9fdf900
0601fbfd03fcfb00fc060108fb0708f80100
fdfa00ff06000504fd0700fdfcfafffa0700
fb01fefbfb06f9f9030301f907f8f8040400
060003fbf80801fe04070006040600f90500
fe07fe000300fc08fefb07fbfdfd03fb0400
06070400fb0400fffbfcfc030605fc030000
0102fb00050005fc06fef906fa02fa05fa00
0706fe0102f802fefb06fd03fbfc00f9f800
f90003060202fc0708fbfefc050303070000
04fa0305fd070103fff9fefdf804ff020700
fa02010806080500fcfb05fd02fc01030100
01fdfe0500fcff05ff01fc00fffb06fc0100
fdfd05fb0501fdfb05070604fc0001fc0500
fa0005fdfffe05fef80203fe05f900050400
0106fb01070507070003020701fefb02fe00
0801fcf902f9fc020500fcfdfafeff060400
f804fd0106fafb07fd01060503fc05fbf800
03030008f906fbfdf800fefc03fb0702ff00
07f806fa020106000002fbfe030006fdfd00
00fd0600fb050304f9ff05fffff90501fb00
fb060202f906fbfa0306fb01050403f9fc00
07fd0000f800fbfafb010307fa07fa00f800
000000000000000000000000000000000000
7f7f7f7f7f7f7f7f7f7f7f7f7f7f7f7f7f00
fcfdfd05fffffc03f804fbff06fefdfe0400
0608ff070201fffc01fefd00f8fd00fffd00
f9fcfd07fafb03fd02fa070403fff803fe00
07ff00fcfbfefaff06fd03fc0205f805fc00
00faf8fb0004f9060306fffef8fcf902f900
060604fdf906fcfb000106fb0706fb05fb00
05fd00fa03ff03f906f9ff0602030704fc00
08f8fef9f906040703fc0704f90700050100
fe02fdfa040703ff07060001ff040203fe00
fe030401f903f904ff04fcfa020104f90000
03fc010604ff00f9070504fffa0104f9fb00
fffbf806ff07ff070602fa02fc00fe040700
fc06f8fcfffffc0404f8fd050006fefc0500
ff0203fc08fdfbfc03010106000606fdfe00
0504fc05fffa02050100fa02f9f8fd040600
f903f90208fbfbfd030504070001f802f900
fbfdff050406070800fb05fb08fc03f80800
fb05050002fd020406fffa04faf905070200
070101070107fd0007fbfc01fd0007f8f900
03fefefdfd02fbfa03060107fd0603fa0700
000807fa0604fb01feff05fd01faf9fd0300
0104070005fffffcf80700fdfff8f9030500
08fefb0502fdfdfafc08f9fbf804fc06fb00
00f9070108fafcfb0100f802fb0502fb0000
060605ff0006fdfb03fb040602fe04fefb00
0004fc0703fd08fdfbf900fffe0205000400
fdf8fffff80406fafefefe05fbfffb020100
fcfa01fbfafefafffa050503f80207080300
fd0707f9fb06fc03fc04fcfdf902fb010400
03f9f9ff00fc0306fa01fdfe0500fa03ff00
0606fd07fbff0101fffc07fb050303f9fc00
070603ff010004030404030102040004fe00
0807fcfc0707f9fa0300f9fb06feff000300
fe02030204fbff0505fefdfdfffffdf9ff00
fd00f9fafd0308fdfd0707fe07fd0203fd00
fe02060402fafbfd0504fefd02010108ff00
000203050005fbfef9fe0005ff04fa03fe00
040702fff906f907f8f90200ff0000080000
ff000406f900fbf90304fdf9070303f90100
fe07fe07fd08080704f9fdfdfc07fafdfa00
01fbff060006fafffaff03fd0403ff08ff00
05f9fa07fb07000603faff03fc0800080600
fafa01f80200fffb00fc0400030103f90200
fb01ff02f80704ff0506fff905fb0002fe00
0105fd070403fd040604fefd06fdfdfa0400
f802fc07fb000404fd080200020104fdfc00
fe050002fefa08fffdfffc04f8040701fc00
fefefd020502fb05fb0806f8fff80003fe00
0505070607fc0105fffe0504fdfaff000500
0107f9fc010101fb04fe020400fc03010600
00030008f9fffefa07fcfefefdff0103fb00
06fbfc01fc02fc08fefdf90408fe02fcff00
f9070301070100f9fdf90404fe0503020000
fd020102fafd0106faf906050407fb01fa00
fd0404fefd03fa04fc00fffe06fdfb010400
00fe0001ff04020204f8f904050404fd0600
04f90407fff8070601000302f8f9fc06ff00
0004010304fcf8010203fb0401000702f900
fefffaf9030407fa0203fafafafa04fa0700
f80402000001f90307fff8fa06fc01fb0000
fc0500fc040602fc010300fe02fb00020800
f907fc00ff04fff8ff02fe06fbfb04fbf800
fefc0001fc0602fb02fcfdfb0504fdff0500
fff9fd00f906050308f9fff90000fbfcfa00
03070603f9fcfcf804fdfbfefef90203fb00
fbff08fff8fd06fbfe01fc03fc07fb05fc00
040007ff0405fd0305fa04fa0807fb030200
05f905fdfafb010307fb00fa04fbfefbfc00
03fc000500fcfd020603fafcfd00f9070100
fa010402040700fffef80601fffb0400fe00
0201fafd0306fe02030603fff8fb01fb0300
0107fb060705fefb01fd0107fa04fe03fa00
04fcfe06fa070707fefffd030202f906fd00
08fc0303fefbfd030600030505fcf9f9f900
06fd03fcfd01f901fbfbfff9fafb0307fa00
08030407fd070604fb04fbff07fe0206fc00
fd0703fdfe0707fa05fd05fdfe07fafffa00
00fbfa03fdfffa0408010702fc07ff05fa00
fd07fdfc040202fb06fc02fef9010107f900
08fe060805fef90408fafff80702fb05fe00
fe02010605f9ff06fa06fbfffd0705010000
fa0101fefdfa0106060500fd06ff0102ff00
fa07fffc03fef906fd0202fdfafd0307fd00
fb0101fff901010704ffff05fff8fffafa00
010705fb02fc05fa07fd0103fb03fdf90500
04f906fbf9ff03fb03fb0103fb0500f90500
0801ff03f906ffff02fafbfafc02f805f900
06fb010001fef90208fe0000fe0407000600
01060407fbf90703fa060701f806fe060000
fd030504fc08f906fa050502f907fa05ff00
fcf8f9fe00ff08fe03fd05fc020606070400
faf8010501fafbf9f8fc000208fffdfdfb00
fdfe06fb07fdfc070005faff0407fdfcfe00
faf9ff07fdf8f9fd06f9fefb02070505f900
070004fef9fb02050707fcf90608f8f90000
fdfe04fafc020800fc07fbfefefbf9fefb00
fb05fb07070806f9fbfdfefcfd050000f900
030002fb03fafffb0000fd02fffc03fd0600
fe0300fe01030402030202fe0406fc040300
fc0301fd0400fffc060507f9ff0105fefe00
0507050705fdfbf9fffcfa070403fa040000
fd08fc010403f9faff0302f905fefb040500
040304fbff0804fd02f9fc000107fdfefb00
0206fbfc0205fffd0808fffffd060007fd00
0606f80001fc0806fd0002fafcfe02fa0400
f906fefffdf9fa0507080807f807fefcff00
01fbf90406fffdf9f9fefcf9fbfefe010200
fef9fe02f9ff05fafc0104080300fbfffe00
fbfb0101fd0304fb0001070104fdfe020600
fe0305f80400faf90202fcfaf9fdff040300
070504fafafffb06f802fef9fa0204feff00
ff050006fafc0107fe05fefafcfdf9fa0100
fcf9fefe02fafb0104fa05fc00ffff020800
fcfc03fb0403fc05fa03fcff0406fffa0200
f9f800f9fbfdfc03fa06f90506fdfafef900
06020104f9fa07f80104fc0006fcfd07f900
f8fb060707fb06fd050801fdf8fc03f9ff00
f9070000f9070605f903fff8fc0604fbfd00
f9080506f9fefb0205f9fcfc02020404f800
f8f9fffb04fa02ff0602070200fa06fafc00
fa07f800fffd03fefafe02fe07fafa04fd00
050003fa03fbfe04ff06f9fc07fbfd04ff00
fdffff0207fd03fff9010600040301080500
04ff01040802fc0801fbfe050506fafefe00
f9f805f90707fbfc08fa00fe0305fbff0300
0602fe06f9f9030704fc0503fffb01f90200
fefc07fb06060602020608fcf8fe05fb0000
fe02fdff0000fd0706fa0602fcfbfe000200
0108fef80103ff07f9fefe040306fcff0800
05ff010707fa02fdf9fafdfa0705fd020000
fa01060606fc0306fb0005fef90707ff0200
07040005070100faf9000102fafbfcfc0500
ff0603ff0805fdfbfefb04f8fd0507fa0400
06f808020402fcf901fdfbfcfd05fffc0600
fbf903ff02050204050306fb02fdfaf80500
fbfe00fa0503fdf805fffefefa0705fafd00
fffcf8fb00f9fa01fb01fe07fdfb05fdfb00
fa0602fdf9fa01000808fb03fcf903fbfd00
fbfa04fb0001f9fd01fbfd06fdff0107fa00
03fefff80807fefe0600fcfe02fffefa0000
0100fef8fcfd0003fafbfb0607fd07fffd00
fffb0102060707f806fd03fb0700fb060600
00fdfd070008fb0000080100ff01fbfc0100
fa00fdfd060203f904fefff904fd01fbfc00
050000fffe0205040602fefbfd0705ff0400
f9fffe02fef9050407f8ff06fc05fe010300
fbfdfefbf906f90505fcfafefdfff8000400
04fa000600fcf908ff04fa04f902fffcf900
0301ff00f9faff04fe01080002feff000200
fbf9f904ff04fbfbf9000200fbfbfdfdf900
f9f8070007fa01f904f9f9fd020204fe0200
fe030002080202fcf9040502fb01fcfbfc00
fdf904f9fd04fb06fa020200fd0000fcfa00
06ff05fdfe030405fbfd030107ff01fcff00
01fc030501fb020506fcfd00fffc03fe0000
fefcfd0006fcfd00faf900f9fef907fd0800
fc0004070103fc03060507fd04fc0507fb00
fafe0608040207fdfdf903fafefa02030200
f8fefdfaf9f907fe0700f904040403fafd00
03f907fffefff907fafb07fa00080200fd00
fef9fcfafafbfefcff02fefafd0305fff900
05fa0207fefefd0007f9fd07fe0500070700
f8fbfcf904fbf8fafc00fe02fb0300050200
fcf80305040606fd02fc04fd0205fb030400
fa030801fe04fbfc07f906f90600fcfc0500
0502fcfe08fd050502fffd0205f90106fb00
02f9f802fcfa01040406fdfa00fa00fc0100
01fa04f9fc0704fd060301030101f9fe0700
0002fb00fe08fa0407080603070005ff0700
fefdfefd0502fd0001fafb03fd01fd03fb00
0206000401fb060207ff010404000204fc00
0005020008fa00fafefdfcfdfd040505fb00
fff8f80302fbfbfcfbf80400fa00f904fa00
fc030603080408fbfd0707fb01ff02060700
060402000506fafafd01fe030800fefd0200
05020108f802fb000602010208fbfa070000
07f9070402fdfffafb02f900fffefefbfe00
020306ff02fd00f9fa01fdfa040007fbf900
01f9fef906f804fe020707ff07fafc010700
fc0701fb020604fa05040706fafc01040300
fdfd08fffe07faf9fefdff05f8fb05060500
030101fe06ff0006fe0502070307fd04ff00
00030303fc06fdfd0305f903000300fbfc00
fdff03fdfdfa00050004fa07f903f9fefd00
0202f8fb02fbfb00f9fa0107fbf9f8010400
0407fff904070107fa02fff906f9f9f9fa00
fdfdf903f90008fafdfafffc08000704fd00
fa02030308fffa0603faf90503fffbfffa00
fc06fafffdfbf903060406fbfb000706fb00
0602fb000201faffff030304fafd05fcf800
fbfd0506fafc06fd0005fe080008fd000100
fb00fa03ff0406fef90602fc050500feff00
07fbff03fffa0105010004fe010201fa0200
030202fafafbfd0106000605040704ff0100
f90501ff010405fc0603fdf8fe00f9fefb00
06f9060505020106fd00fb02fc0005050600
000501020503fafefaf902f9ff01fc04fd00
fffb07fbfbfcf8fb0501fb04fc01fe01ff00
fe020002fcfefafdf8fe0500070000fd0300
01fe00fffbf9fbfd00f803fa0705fb080500
fdf8fafbfffa02fb07070600f9f9fd070400
fffff9020104fcf9f8fc0500f9050107f900
f805fcfa02fd03fafcf8ff03010802080200
0705fffd0100f9f8fffd070404020407fc00
05fc0303010501f906ff070203fefc03fa00
fbfc0500fdfafa00fb08fc01fffd0002fb00
fe040104feff01fefc03fc0408f9fefefe00
fc0803f907f8fdfafafe0405050406020800
03fc05fa0404f9f9ff04fbfc03fefefd0500
ff0804f90300fdf9fb0205f8fafbfa03ff00
0107fffafafdfafd03f901fb060502f9fb00
000208fbfc0305fa06f9fdfd0607fdfbfd00
00fdfff90500fafffe02fb0808fafb02fe00
f9030702f8ff03fafc04fc07070204000200
fdf9f9fcfffffdfdff01fb070207fa03f900
fffcfffe0502060204fffffb07ffff060000
ff05f8fcfd0500fc060508fa0306fc070300
0407fafc04fe0106fc020605fcfd02080300
fafbfa040504fc07fafb07fffd02fff9fe00
fdfbff05fdfcff06fafcfb0301010205fb00
010104010706fefaff04fd00020402fffb00
f9fefafb0204f90602f9ff03fd0603000100
00fbfe0307070507ff0308fcf8fd05000500
f80407fb0101020601fd0705fc08fa000000
fcfef9fd00fb0002f90508fb07ff02070400
0504050207000306fc0404000303fc010500
06fa0007fcfbf9fe060000f8fdfe0500f800
fafb0000f908fafbfd040203f9fefe02fe00
04f9fc08f903fbfefa03ff00050502f90500
fa010501fd050804fcf9fefc05fdf9faff00
f904fd06fcfb02f90407fa02060500fcfd00
fefc0708040701f9fa010204f8fafd030500
01ff02fffbf900fefe0102ff03fa01070500
0406fafffe00fd020300060405faf9040700
05030503ffff04fdfafc0600faff03030500
ff07f806fef8fc0608fd0601fbfb04020100
00030705fb040403070306fd03fafa03fc00
0000fbfafd0300faf9fc04f9fe06fffff800
f8fe00fafbfc03f9fefdfc0000fdfc000600
fcf8fd060700fdfcf900050607fefc01fd00
f803ff040301fefd05020301fbfdff06fa00
fdfc08030504f8040603fa0704f9fe04f800
01fd06fdf80202f8fa04f9f907040005fe00
ff07fcf805fafa04fcfafd04fbfff9050800
02fef90006fbfa060207fc0500010503fd00
fdfdfffeff030302fc01fe060007fafbfd00
0607fafef805fc03f9f903000806ff01fd00
020007ff0102ff00fa04fbfa0708fd06f900
0107fd0000f9fcffff05fb02fdfefbfcfc00
08f900ffff000300f9fef907fd0404040700
0202fcfcfbfdfe010304fffffafe04000400
0006ff0604f802fd000103fbfafb0004ff00
05f904fc0603f9fefd07fbfdfd00faff0600
06000504f804fb0606fd06fcf8fdfdfc0000
ff030405fff9fbfcfa01fe03fa00fd070000
fa00ff04fc000503f9fd000002fb04fff900
08f9fcfe04ff0201f906fa0508fbf9fefc00
000000000000000000000000000000000000
7f7f7f7f7f7f7f7f7f7f7f7f7f7f7f7f7f00
050601faf8f808fafafa00fefefa05060600
fc0500070105060405ff03fef900f905fb00
080703fefdfafb0802fe020306f908ff0300
fe08f9fdfb06fbfbfb05fffb03f8f9000100
0303fff9040206060401f9fefe0508fb0500
07010601f9ff040504fe070703fa0304fd00
fe08fdfafa06fbfcfdff0704f800fbfc0300
04f8080405050304fd07f8050801fbffff00
fbf9fd050106f905fefefffb0202fcf90100
ff07fc0605fffefafc05faf907fd01fb0100
fafb02040505f904fb06fe0003030500fc00
fb0305ff0403fbfc00fafa05ff0705fa0400
0703fe07fffdfbf903040301f9fa04fefb00
080008f9f905fb02f8f900fdff0806060500
ff05fefaf806f90505f8030605060700fc00
fefc0306f80700fa0604ff0407f804000000
02fdfb050007fdf802f90108fdfdfbff0100
fe06fcfc0705fe04020404fdfa010506f900
fd02fbfc02040500fafffc07f8fefe05f900
ff01fd00040103fd0202fafafafefd03f900
fd0404fe03fe00030204f9fbf8fdf9000300
fc0201010404020706ff0205fdfb03feff00
0403f800ff06ff03fc0008fd03ff00f90700
08fbfcf907fb06fbf9fd01fbf8ff0001fa00
fe0306fa08fd02020003fdfffd0508fd0300
f9fdff01010505fe000307f90606ffff0200
000306fbfffffe0104fb0705fefefffd0800
02fcf801030002faf9fc07000300fc04fa00
f8fdff03f9fc0207f904fc06fe0405040600
f80606fafffd01fdff000502fa0502020500
07fffb00fb05fafffe0202000606fc070000
fb04fbff07ff08fbfa030505fdf80607ff00
fc030207f9040405fafbf9fff80805fe0400
0608feff05fdf8fefdfe03fafefdf9fe0600
02fffc0701fe0703fbfc02fcfffa0001f900
070604fa00fe0304f90603fd04f8fdfb0300
ff08fef8fefcf8f9070503f9fa07ff070800
fb06080603fbfdfafafaff0004f9fdfafe00
0302030602070201fd05fefa00fc03fefa00
fd070201fa00fbfafeff02fdfa060003fa00
0608f8fb060707fafefcff00ff000004f800
fbff0504fb06fffe0207060208fe05fdfa00
fe07f9fc0103fb06fbff0500fafa0204fd00
03fbfa03fa06f808fc04fdfafdf90407fa00
fd040801faf8fd0400040206fa05fe03fc00
fffcf807080207fa06f8fcfb03fb00030500
04000400f9fdfa00060506fe050507ff0500
03f9fefa08f9030803ff05faff0600030000
03fbfaf806fbfefdfb0400fe0303fd040700
08fffffafb0204fd0605fa0200fafbf8fd00
0203fff90004fd01050404fefefa08030300
08fd07fef901020104f8fa0105ff08040100
08fb0607fcfafd070107f9fd05fdfa05fd00
fefa0500fefe0800fb01fafc030404010000
fe02f8fe0700fdfa0304ffff04fffe000600
03fe02ff07030803050404f805fa0708f900
00f8fffafd04f900060707fa0403f9000100
fe03ff01010306fcfcffff00fffe0708fd00
01fcff05060501fe04fffff8fe08f9fcfa00
08040300fa0606ff0104040303fa0304fe00
0601f905ff04fa0703fffffdfe0604fd0300
fb01fdfafefcfffd04fef90003fdff060300
0508fc0700fefd06fa0604fffb010102fe00
f802fb0302fa020606fe06fafbf9f906f900
0500040403fffc08000604fe0204fafafe00
03fb0400fbff06fdf900f8fb040705050000
fe05fafcf8fafbfc06000000fefd03070000
070103fcfe01fc01f9fbfefc0500fdfc0200
010507ff0607f8fefa0002ff01fcfe010100
f901070104fb070005fc0003fe00fc01fb00
07fb01f9040806fb080307f907fb03fb0300
02fc00fef901faff0405f90002fc0101fc00
08fafbfa07ff08050002f904f900f8fa0700
0607fc00ff03fbfcf900fefdfa00f904f900
fdfafafffbfefbf9f9ff06fdfcf801fd0100
fefa0004fafdfc02030606fe0406f8050200
fd06f8f9fb0605fa02fefd02fffdf8fc0000
fe020001fe0207fe06fdfcf900fcfe000000
0400fd0303fe08fb05fafa0405030206fe00
010000fb06f8fdfbfa05fb02fc06f9fd0200
07fefafa00feffff02faff0706fdfc070100
fc00fbfaf905030600f90300fd0407010000
0703fa03070705fdf800fb0600fef8060700
f9fe01ff0805fbfdfafe01fcfefb0004ff00
0707f80807fb060205ff04ff0302fffb0100
07050602050200ff00fcfd02fc0402fdfd00
03f9f8ff02fefe07fb04ff06fffd04010200
fc0105f8fff901fff9fd0303f903f9030600
0703000702fb0001f901ff05fa07fe00fc00
fefbfcf9fff8fffdf9ff0000fd060401f800
fc02fb07fd07040305fb0703fdfbff020500
0301f903fffafefe06fdfb01fb0100020100
ff040502f906f9fe05fffdfe0307fe070500
f9f80605070303fcfdfaf8fdf9f9ff04fe00
fa07fcfe05fe0508ff04fbfd01f900020700
f8080400fbfe0008fe02f8080502f9040500
070502f8fafc020207ff04faff0606ff0200
08fd0300f9050808fa05060500fb08fd0300
fd060502fd0205f803fafd04fefdf8fcfb00
0606ff04f90803060506f90604060507fc00
010307fafefdfaf8fe05fe07fcfff803fc00
05fa0103fef90308fef90202fb0603fdfd00
f8ff040307fb04fafe05f804f804fefa0000
fefcff07ff02f90106f904fbfaf90402fe00
fffb0306060801fafc05fa04010104040000
fd0507030700fffafdfb0800040704fdfa00
fafe05fd01fb0305ff07fbfd00f906faff00
06fd0501fbfaf90701070503fb07fafbfb00
fbfcfefb0300f9fb08fdfe03f8ff0801f800
030603fd02f8f906010303fafd08f9010100
