00
7f
0f
ea
db
d9
d8
23
da
0f
0a
19
00
7f
ef
08
25
ee
29
e2
2a
0e
18
1e
00
7f
e2
06
f0
0c
e0
0b
16
22
e0
da
00
7f
e2
e3
00
e0
e1
06
28
f7
09
04
00
7f
fd
e9
df
0d
d9
15
ea
ef
f8
15
00
7f
0b
f1
1f
07
f2
dc
13
0a
1d
20
00
7f
db
10
fb
f2
05
04
0e
e9
de
e5
00
7f
ef
e7
24
ec
da
fd
d6
11
0a
17
00
7f
18
10
f4
26
0d
e3
e2
f6
0c
f0
00
7f
25
0e
1e
1b
f8
26
eb
db
0f
e0
00
7f
0b
ee
df
d9
0d
df
09
fe
0f
25
00
7f
db
e5
1c
e0
0b
0f
20
f6
0c
eb
00
7f
0f
27
fe
11
dc
2b
f8
e6
d7
0e
00
7f
ef
f1
19
f1
09
0c
d5
dc
ec
e4
00
7f
d6
e4
d7
d8
ef
d8
15
de
e5
f7
00
7f
25
f9
f5
d6
ea
1c
24
01
19
d8
00
7f
27
f0
d9
21
f8
08
f3
23
1a
28
00
7f
fa
22
15
1d
dc
f1
24
1c
da
f2
00
7f
25
d8
27
1c
0f
1f
db
18
fc
1e
00
7f
ec
0a
e5
00
e7
19
21
e5
10
dc
00
7f
f3
f0
f8
f3
29
20
e9
e8
29
19
00
7f
02
1e
28
e9
0f
0f
eb
fb
dd
05
00
7f
dd
f7
00
d6
ef
d5
0e
fd
0a
f0
00
7f
dd
06
06
f9
f4
fe
eb
17
0a
db
00
7f
08
1f
ef
e6
0b
ef
d7
e0
23
1b
00
7f
25
18
f2
fb
ef
e6
29
15
e7
15
00
7f
eb
f9
e1
e2
f0
29
00
dc
14
fd
00
7f
28
e4
e2
fe
fa
e5
db
db
1b
00
00
7f
1a
00
e0
f9
f2
fc
eb
eb
df
ea
00
7f
d7
20
23
25
20
eb
f3
f1
06
f9
00
7f
0c
d7
15
ed
e4
0e
10
da
1a
11
00
7f
f3
26
fd
22
03
1d
f8
ed
26
1f
00
7f
e5
ea
f1
fd
02
f8
17
16
d8
28
00
7f
24
16
e5
07
f4
ea
f9
e5
e8
10
00
7f
01
13
0f
e3
15
dc
ef
0d
0c
f5
00
7f
1f
0c
d6
ff
23
d8
e6
09
0b
f6
00
7f
11
20
18
26
0d
e8
ef
db
04
f6
00
7f
e5
fb
d9
ec
f5
1f
0b
0a
f6
e9
00
7f
d9
d9
d5
0d
da
e3
f4
11
df
f5
00
7f
e0
df
12
e1
19
f5
1d
26
11
ea
00
7f
fa
20
10
f1
21
fa
03
ee
21
d8
00
7f
06
07
ff
0d
1b
da
1b
05
d7
fe
00
7f
1d
10
d9
1f
f1
e6
dd
10
e9
db
00
7f
07
18
23
ea
d6
dc
fc
1b
d8
12
00
7f
18
f2
e3
04
f8
13
04
dc
eb
dd
00
7f
e8
25
10
e0
d6
f8
18
ee
15
07
00
7f
12
e0
27
0f
16
05
da
0e
e9
28
00
7f
06
e5
ee
08
29
fa
1e
28
23
d6
00
7f
0a
f0
04
11
1f
0d
1e
fb
07
29
00
7f
dc
fd
fb
f9
15
e6
11
e8
27
2a
00
7f
eb
e3
db
04
ee
0e
fa
ec
04
f1
00
7f
1d
de
ee
19
1b
0b
fd
f4
10
1a
00
7f
fd
e3
0f
ef
e8
f7
0c
14
16
06
00
7f
02
20
f0
ee
e1
1e
f9
20
fb
e0
00
7f
14
fc
fc
f4
fa
e4
27
11
fb
ea
00
7f
0e
e6
23
dd
fe
1e
28
26
02
e8
00
7f
16
09
e7
eb
11
27
f0
f7
09
14
00
7f
29
2a
f1
14
05
f3
d9
0e
0e
2b
00
7f
1a
1f
1c
18
fe
e0
0f
2a
dc
27
00
7f
16
ef
25
1d
fb
13
09
00
e7
06
00
7f
19
12
24
1b
ff
1e
d9
15
e6
0a
00
7f
e7
e1
25
17
07
e9
d9
ee
27
15
00
7f
f4
f4
f4
ec
ff
14
20
ec
29
14
00
7f
f1
ec
fe
04
e3
27
13
1a
24
03
00
7f
14
dd
fb
e0
13
07
0e
e4
25
07
00
7f
00
0d
ec
de
fc
f7
e4
ee
1e
fe
00
7f
0b
24
e5
ed
fd
22
f3
f8
29
da
00
7f
0a
00
0c
eb
1b
16
00
d9
02
1b
00
7f
fc
ed
21
e5
dd
db
0e
1e
f5
07
00
7f
1e
d8
19
24
23
ff
11
11
1f
e6
00
7f
03
ff
19
03
10
e5
e5
1e
ec
15
00
7f
f4
f3
f2
e7
d9
e5
18
ef
d8
ff
00
7f
1e
e3
09
2a
f2
01
21
db
f2
f9
00
7f
e8
29
0d
ed
f0
2a
2a
1d
d8
12
00
7f
1a
dd
12
1f
f7
22
de
dd
dd
0a
00
7f
02
12
f8
16
e3
f2
06
00
ee
0f
00
7f
da
dd
0d
1f
06
00
14
17
fd
de
00
7f
0a
17
1c
d5
22
00
d8
ed
ee
e9
00
7f
eb
d9
06
04
dc
d8
ff
10
e2
ec
00
7f
f9
07
ec
fb
de
1f
0a
09
f1
10
00
7f
16
08
17
21
00
00
da
e5
f4
f3
00
7f
e6
0b
19
d7
db
fc
1e
12
fb
0f
00
7f
21
e4
e0
de
14
1b
d8
fb
eb
e8
00
7f
ef
fb
e5
e9
2a
f8
f3
fb
14
21
00
7f
da
f8
25
ed
11
18
eb
f0
12
12
00
7f
0d
e5
fc
ee
ec
d7
ea
06
21
10
00
7f
21
e4
28
12
0e
26
d9
08
e9
e1
00
7f
ec
1b
11
ee
f2
ef
22
0e
e3
14
00
7f
0b
06
22
24
26
f7
2a
08
f5
d6
00
7f
da
d7
e8
0c
19
26
f2
26
fc
ee
00
7f
ef
28
f8
d7
fa
f6
28
f0
ea
e9
00
7f
1b
1d
27
ff
1f
04
0e
17
1d
18
00
7f
24
07
ee
25
1d
06
db
15
f7
02
00
7f
d8
18
00
f4
09
e9
f8
e2
ff
0d
00
7f
e0
0d
e4
f3
e8
fb
13
dd
e7
19
00
7f
f0
e9
dd
24
e1
23
e5
e2
f7
09
00
7f
eb
dd
e9
e2
20
e0
24
d6
ed
f8
00
7f
e9
20
1a
28
0e
fc
f4
1e
13
28
00
7f
0f
f0
21
07
25
0f
da
ec
fa
22
00
7f
15
dd
10
09
1e
28
ed
23
05
ef
00
7f
25
f2
04
0a
de
fe
e4
d7
f8
f7
00
7f
04
17
08
29
02
21
05
f0
15
15
00
7f
15
19
f8
28
1d
ed
e3
04
fe
f2
00
7f
26
f5
0c
0d
d7
1b
e6
04
e4
0a
00
7f
ed
f1
de
ff
dc
e2
0c
18
db
dd
00
7f
04
28
14
e3
06
e5
de
d6
e2
0a
00
7f
1e
e9
05
f9
1f
e5
16
10
23
e2
00
7f
1a
ff
e5
26
0f
0f
05
03
26
01
00
7f
17
17
e6
dd
24
0f
14
e5
0f
17
00
7f
1f
f8
d6
1d
e8
00
24
d6
f6
22
00
7f
09
f4
f4
ee
00
16
02
f7
05
e1
00
7f
22
d8
d9
f5
fa
d8
f0
0c
d6
03
00
7f
21
fc
e0
e6
fd
12
06
11
09
da
00
7f
29
f2
ef
04
ff
dd
ff
27
fe
16
00
7f
ff
0e
e4
e8
00
26
11
26
00
03
00
7f
0c
1f
f7
f5
1e
f3
01
f9
18
1e
00
7f
d8
1e
18
ff
d6
11
02
15
1f
e4
00
7f
db
df
28
17
f6
f7
04
1b
fb
ea
00
7f
e7
24
24
f6
fc
16
f9
2a
dd
0f
00
7f
e9
dc
e5
00
20
1d
0f
e6
0d
17
00
7f
e8
f1
f1
18
e2
f8
f6
f4
00
01
00
7f
f1
eb
0f
e7
df
d9
e8
03
01
db
00
7f
03
dd
fc
de
d6
ff
ee
22
29
f3
00
7f
1c
2a
0b
17
e7
18
08
eb
17
08
00
7f
dd
fc
1d
de
20
ec
1a
fc
1e
ff
00
7f
24
f9
2a
16
d7
fe
0d
03
0e
03
00
7f
09
03
ee
01
e5
f2
fc
03
ed
fa
00
7f
24
27
0d
ff
11
e8
f4
e6
08
ef
