00000000000000000000000000000000
7f7f7f7f7f7f7f7f7f7f7f7f7f7f7f7f
fb07fa06fb02020100f704f804fcfb0b
f7fd040af9fa020bfffbfd0303fafa04
f503f7fe0703fa02050bfc0109040907
000b0a06f8fffd050502010800fd07fb
01f6f706fdf5fd02f9f6fcfef80205f5
0204fffd09fefc0206f80703fe03000a
03f8fefe00f8f501000904fff6010704
fefb0a090009f6fd05f5fb0305fffe0a
0109f8090406fff904fcfe090805ff01
040afa04f60b0900fb04fb0b0505fbfb
0af7f809060afdf8fff807fc00fe0304
f8f5000b0bfaf707fefdfc08f5fa0af6
f60207f601010406fc09f50708f70b02
05faf506fafefe03fd0907f7fb06f9f8
ffff090b04f70afefbfdfbfff70701ff
f60b0700f50204f609090909f8070bf8
fe04f70101fbf5f608fef5fc03fdf901
06fb04040a0302fafa0a060a05f5ff09
fe08fd0af5f9060afe06fef6080a0202
fdff0300fc0001f6010bf802fefdfb06
fbf90404f908faf808f802fcfa0202f8
0303ff07060a06f5f80407f7000aff06
01f7f808f8f8ff07fa0302fd04fcf60b
f80af6fdf9050b08f9090a00fc06fbf7
0009fcf80b0302fd04060b020106fe07
fb050af50201fef8fe05fafefe09f906
fdfb0501f7fc0a08090909f90607fbfd
050803f605f809fe00f70bf9fc0808fc
09ff02faf9030a01050b09ff01f607fb
f901fb0305fdfb02f6f7f70afcf808f7
fef70901f8f605f70307f506fcf601f6
080a0202fefd0af7f6fdfa03f701fafc
0807030a08fbfdf5fb0bfbf6f70bfef8
0506040afefb00f6fc06f5fdf5090a0b
f904fbfc05fd06f6f8030af5f8ff06fc
0bfc05f5fef8f50300f502f7f6fafe0a
08f8f605f802090a09f8fdf9f5060806
09fbfbfe0507fdfe020604080009f70a
fc0207fa06faf601fff9fafd03f6f6fa
090505ff0b0b02f90908fafefefb09f5
0a070601f60a0505040708fd04faf60b
080308ff01fe02fbfbfc0b03fe00f701
0802fbf50506040bf7f5f7f50bfa0507
fd0406f8feff08f9f6080704fbf501f5
0502fc0606fb0902f7080305f9f508f5
0bf600f6020509fd06010700f8040000
070609fd01fd090401000202fc0bfa07
04070607f7fcf6f702f90afdf50403fa
f5fcfe0904030bf802f60209fefbfdfc
fa0afaf806faf50b0300fcf605fa00f8
01f706fcfdf90af6f7fbfaf80406fe05
0b0509f8f709f800020402020007ff01
fdfbfafe06f8ff0106080bf6040b0afa
0a06070bfb08fa0afcf607090402fcf6
05fa06f90af907fbf7fef7f5f5fefd06
0501f7f90409fc0000070506f60a0a04
030302fffcf90af80b00080905f7f50a
fff9fff6fa0afaf80a0203fb00fc080a
fef5fe01010806f9ff060b020bf6070b
fe0a01060b09030502020805fefaf501
fafc00fcfa060005f7fcf5fd0500f5fd
fb080302fd07fff5ff07fb0a0b00fe0a
00f70b090209fbf9010a0a020000fefc
fb0903fffc0bf6050afc0af900f506f7
0600fbf7fefff9f6f80a080a04faf7fa
080302020400f9fefb080afdff030708
09fff5000709fc00f90b06fefe00fa09
02fe080a0705fef707fc070a08fa0509
f9f8f806f707fbf802fd010405070bf9
07fb06faf6faf6070603070205fa0b02
0b02fd040a02030302fbf7f8fff907f9
07fb090b05ff0605f902fa0105fafe01
f706040108050602050203fefbf604f7
f70701f606050207f8fe0bf703f8fdf6
0803f508f50806fc05f9f5f506f8f709
0a0802fbf6fbfa060af909080b0a0409
0302fc0bff02f8fb060104f5040af805
000009f70af903fdfafdfb020303fdf6
fd0309fc02f8f8f806f70905fefe0402
f901f701f8fef6f6060703fb00f907f6
f6fcfd04fc050afa0a080bf6fb08fefc
fdf70b050405f804fdf705faf701f906
040603000b0b090807020100fd02f708
08fe060509f8f60400f50b09f6f501fe
09f9030009f9fff8f706f9f7060afa01
03fc00fdf7f9f5040aff0607fefef602
f6f501f6ff03f6fd00fe0602f6090bf6
f905fe06f7f7f6fdfff5f9fef80700f5
02040b05f806f7000a01ff0bfbfd03fb
0101f8f702fd0706fd01fdfdfcf8f6fa
f9fbfa09fbfff80406f6f7f80a030607
fb0b08080207fd0bf5faf601f7fd05fc
0a0b02f7ff0306fa0906fdfa07f8f8fa
fd08fe01f6fe01fd08fd08f8fb06f607
00f8fafd0bfaf80a0808f7fb0009fb02
080b08fc05030507fdfe04ff02fffff8
00fdfffb07fbf8fef6ff0704fb0a09f7
fafa0302f9f70a06f907f804f9fd010a
f7f60908fe08ff0508fef9f9fd010002
0303010bfd0207fc01f6f8f50806f6fb
00ff070afa0308fbf7fa090afbfe03f7
08fd060bfdfc01fa090904fc0101f903
03fd0af9ff02faf906fc0a0005fff5f9
070706f804fd04090bfdfdfefcfa0b02
01f501fcf506fdfcf6faf7f805090608
f6010a0409f6000b02fffbff03fa0500
ff070706f908f7fdfefffdfffff8fe05
f6f801fd04fefbfbf601fe050402f7fe
09fef70107f8fa090a05fb030700fafd
0b00f605fe06f902f70bff05fa06ff02
faf8010a090300f60bf8ff04fef9fa0b
07f7f506fe00fff8fd08ff09f5fcf7f8
00fe04f9010bff0201f603fb02f601f9
f704f80a09f90b01090bf7f70408020b
fafb09f5fb0bf7f7fd03f9fbf7050106
0bfafb0501fcff04f704fefe04f804fd
05f80bfff9070106fcff0af6ff0801fb
ff05f600f908f7fc08fe02f500080bff
fffcff080807f9f7fafd08f6f5fd03fd
07f6080109fc0707f6fff70a0bfa01f5
05fdf90b05fe05ff00fdf8fef904f80a
f60809f8f6070503f508f9f8fefe0a08
03f5fc07fa040bf8f8fbfaf6fafd0005
0009f906fafe00fbf803fd030907f5fa
07f9f8f9fdf80307fffdff0208fa01f8
0afe000904fafcfffafafa0bf706f809
0304f8fdf5fc01f9070700050b04fdfc
0000f70703f60401fc010304f80bf7f8
00000000000000000000000000000000
7f7f7f7f7f7f7f7f7f7f7f7f7f7f7f7f
f8f9f8fbf7fe05fcf705fbfa0409f70b
fb0506f6fa0a01010203fc02f6f7faf8
03fb06f804fbfc01fd01050b0af9fcfe
08fefa07fcfa0106fbf9fe0104f60301
06f7f8ff0af606f6fd08f6fb0109fbfb
fe0303fbf7fe08fa0bf9fc00fb00f706
040507fd0507f6fefc010504fb0b0505
040af8fcf9fa040a09fa0bfffbfcf9fd
f9f80af909f707f8f6fd0af703040803
f6fff603fafa08fa01ff0bfafc0909ff
fb000402070a05010b0bf70608060803
08fe02f6f5f6fdfbfd05f9fffafbf807
f50b010af5f5f7ff0af80308f7fefb0a
020afff8f700f5fb09020904fffa0502
f7040309fcfdf9f5fa04030900f6fdfa
f9fdff05fd0105fe07f7fc09f8fbfc03
0af803f50201f604f9fc01fbfa050509
09f7fcf805fe030af90305fefa0a0a03
0b0b04060500f8fa01fd0000f504ff03
09f9f806000208faf5f60aff08080703
fc0807f9f50104080a06060004040201
04fefffff5fe01f5fe0803010103000b
f8fa02fa0901fc0605090bf7080b0604
0b000506010a02fd08ff0bfcf900f6fc
fa0202f6010900f7fbfc07ff0106fbf9
fb0709f9fffcf7f804090906f603010b
fdfd09040509f7fbfc06fc0306f7f9ff
fe03f9f70b090309fa06fbfcf7fc0604
f7f9fc08f9fd03010af70708050af706
f60bfa07fcf9fe0609fbff00f9040a07
fd050b01f50506f8ff05fa05030003fe
06030b09ff0205fffa0a0301f5f7f6ff
f70afbf90002f7f6f901f9f705fafd01
0a06040408f603fdfbfc0502040702f5
fb0500010a0bfc010107f9fdfff80808
02fcfaff0a000b0007fa0602f8090bf5
03f602fa03fa0909fe03f706f805f60a
00fa0205080af60001fbfa09f8f5faf5
f5f7f80a0afe01fe09ff0bff02f8f8f5
f60508f708fe03f904020005fefffdf9
f9010afa07f7f908f5020a0bf6f6fefd
f6f702f9090603f9faf9030b05f8060a
03fa0a0800000402f6f6fd07080aff04
0906fb01faf6f705fef5fefa0b0605ff
07fe0af80607feff08f7f60705080603
03f7fcf50a02f5fe05f804060afe08f8
f6f605fd08fb02f7f9fe08040405fd00
03020103060afdf60a08f5fd0a0af608
050bfdfa0504f9fc02fcfc090afe07fa
08f9030603fe04f508f9fbfcf8f806fa
01f9fe0102f708fb0a07f6f7f6fc04f7
f501f8feff0a03f609f60a000b0501f9
01f9f5030bf8f70708f908fefbf5fc02
03fe060b050203f70801fd04000afd04
00f8010af6ff02020afafdfffb06fb0a
02f50607fa0b0604080902f603fb0203
0808f8030301ff0af7f9f9f6050a01fc
0908fb030303f6f803f900fa0201fefd
fa02f7f6f8ff03f601f8f5090a04f806
f9fdfc0806030408fe01f908050301fb
fe01070b04f50b0901fa010bf508f909
0a0706fa0af507010906f9030bf5fafd
08f7f8fbf8f7f5f606f9f5f9090000fb
f5feff0af8020607070b09040002ff00
fdf9fd010b040001f9080304f8f90008
fafb080a01f504f802060705fbf6ff0b
0bfbfe0602f80609fffcf60a0afb0a03
f8040a050000f6f60408fcfafdfb0bfb
fbfe04f7fe06faff07f501fb04faf804
fe04ff06fef9f6f5030304fd010afbfb
09040302fa04fc0803f707fffa02fbf9
fd05fefb05f80001fdfdf8010005f601
02fbfa09f5fafefbfc06fe0305f50008
00ff01090709040802010bfffcf6f8fe
07f9faf6fcfd050204f9f9f6fc090105
f9f9010901fc0609fd05fff60bf50a05
fd09040808fa08020bff0602000b05fd
01fc0908000409fb0af7ff00f7fdfff8
0609f8fdfafb0109080a0b0003090a02
0603fc03080009fafc03f60407f8f80a
fb040007fcf6f8020b0905f9fc04f904
08f5fcfe040805f80600f70b00fa0005
02faf702fbf50902ff08fc0b04fefd00
f5f602000802f708010606fc01fb0405
f800f901f500070809f5fb020a0af501
02fe04040802070507fc070a01fefbf7
0a06fe0404f700f505fcf5f90bfbf602
0bf5f7fb0601080709fe010af80107f5
0702fd0804fc0701fd08fc010b0406fa
09f8070101f5fe03f70105fefdf8fa01
fff5fdfe010904f902fe08fd080608f7
060603fa06f909fefffbf809f7060406
f908f7f5fcfe05fefff905ff0803fdfe
09fe0902fefc04fe0309f8fe070a0b03
09090808fb00f8fa07faf5f5fc0b0707
fa01f50b01fa0bf6fafe08fcf70806fa
fd03040003f909fcf8010afe06f5f705
f509060803f6f6ff03fffe030b0309ff
02fbfe08f5fff708f80802f900040606
fffd09fef8fe01f702040001fb0b01f7
fe01fb06fff6fe07fc000a03fefd07f9
08fd02080000ff0300fcfefbff06ff08
03080bfef9f701fa0301fafffafbfef8
fe04fffafc04f900080af6fcf80bf904
0bf6040606fe07fefe0406f5fb00f6fc
ff050502090703f5fafaf7f601fa0a04
f9f9fd00fafc040b09f5fa0705f6fdff
09fbfa07f604faf8f808f7fdfdfdfa01
fffe09fd00f8f606f7ff0504030bfaf7
fdf807030b0402f9080a05fb01fb0705
0509050305f9060006f607fffe01000a
f9ff0b0406f6ff04090af8fb0a0801f8
0903f8f90af606f70303080b00fa0809
f9f8f60408f70bff07f709fefc0903f8
0508f80805040002fe090afafd01f9f8
faf7050608050202fff9ff07f60afe04
f602fafcf8f707faf909f50909fa06f9
07fdfc08fcfa03f5070bf9ff00f905f8
fc02ff050bfaf8f50002f70608fafd05
050b050bf8f605fd07fff5f9f602f7f9
09fff7f9fdfd0501f60209f6f8f60bfb
f5040706f502fbf9fbf905f606f80801
07fb0a0802f8fe05fc01ff070a0009f7
050a0b0205fc09f80309f508f80af6fb
0104fc0901f602fff902f90b0b0808fd
09f6010408fafe04080b03fefc0209f5
fe080706f5f5080a05070b03f8000003
ff04fc06040002fb06f801f803fd0bfc
00000000000000000000000000000000
7f7f7f7f7f7f7f7f7f7f7f7f7f7f7f7f
fd00fa00feffff050507f8f5fbfd06f9
05f8f9f80a06fd030a08fc03000b010b
01f704fefe02010a02ff0906f7fffff9
0702fe0301f60b06f906090106000bff
09f9ff080afefc040afffbfdfef901fe
f6f804f9f803fcff08f90a0801f50705
fcf70503faf8fafcf80b03f9fb02f8f9
f7f7f60b0507fffafd01040af6fd0b05
f5f6fdfc02f5f5faf905fefc0203f509
01fd08fefafafaf9070203f7fc0b09fb
0700fc010201050409020afc0b06fe03
010907000bf806f7f904fefbfefe0600
0107f508fdfc0207fbfd050a03f608fa
faf608ff0a070bf6f507fcfc00f804fa
fdfffb06fbf900050bfff6fbf60af5fc
0002f5000a0001f6010a0500fef7fcf6
01f70bfc04fffdf5f5f703f906f906f7
f80af5f7fef8fc0b040b08f70809fdfc
fe0102f7080104fd080203fd01050907
fe08f7f906f5fffb08f701fa030602f7
02fcfe0606f9fefaf8f901fff9fdfc07
fcfefff903f6f904faf9f8fd01010708
f6090a05060508030bfaf5faf50307fd
06fb01faf5f8fffd02fe080303fdff03
fffff9f702fbf8fe010bfefafbf7f502
09ff0b050902fc09fdf807fcf50afafa
f6ff08f50605f9f902fa06fe05fffafa
fbfdf9f6fa0707f60bfc05040000fa00
fe0104fcf7fa03f9040208ff03040606
fb0afd0b08f6f7070b01f5f7f905070b
fc01f705f90001fdf6fdf7fc09fdfd08
00080b0109050609fdf70706fe01050b
05f8070bf908050604010af7fa0b0909
04ff0a030b0301f9030a020bfe0a00fb
07070a0708fdf90100fcfffffcf5f901
00050002090509fd04f702fa04f70601
f70af60af80601ff01fd03f70102f604
fef7f909f8f603fefdf7080004080301
fd06fc01f7f80606fb09f9fc01f8fe09
f6010406fcfc0009ff020408f5fe06fd
03fcf80904f6fbff0a02fef8f9fdfff7
f80b0af900f9020afefcff070b0a0a05
fdfc07030bf705f8f70a03fefaf703f8
0409fef7fcf7050bfd07fcfb08fd0405
0a08fd01fe05fbf8f507040af9fc0003
f9fafa0a00fd02040a01080a0003fd06
f7060605fc0108f90003fff6f90804f9
f804fe07f900fa0905faf5fd0a06fb0b
f5fafb0100f70206f80806fbf7fbf5f7
0003ff08f900f50707f7000b06fcfefc
ff0406090007f5f609fd00fd0402fa0b
fa07f6fefd0602f7fa02f707fa0bf508
f9ff050903070104f703040404fbf9f5
0603f80b00fe02f907f7f9fcf900030b
08fdfa010600ff050702f6fbfe00fcf6
fd04f609f704f5060af8f604010102fc
03fcf903f8f6fc0bfd0009080a0bfe02
0704fffb0704fa070206f600fef90bfb
0b040204060a09fbfefcf803ff020209
0af90605060201fcfdfcfa09080a06f6
04fa05fd09fc02fc02fdfc0a07fdfcfd
02fa050506f6faf9fa0001050bfffdf8
0703fa0bf609020bfdf9f90602f809fe
0508fe06050b01ff030afdff0101fa0b
04fd05f80902fb0900f9fc0202fdfbfc
fc05040205fa0bfefef5f801f7f9fe00
ff0b09fcfd0602fe0a0609fcfe000af9
030b080bf60407f8070904fafaf606f9
02f609f6fbff03f909fcfbfd08fb0601
0600080100fdf50a03fcf9f70209fcf5
f9030106f8fcf508f90803fe04050b04
fe08fb020609fd0409f8f6f500fe05fb
0708f7faf5ff0903fbf505f8f8fe0afd
fdfb06f9000bf5fe0bf504050b00f703
ff09040af80a0a00f5fcf508040202f8
02f80701f703fefbf80003fe05f70bf8
060a080900fafb05f5fffbfafc0900f5
0a09fbfd08ff0408f7f70bf9f501faf8
01f6f706f60af9fef9ff03fefc060000
05f70100040bfb03f8fc0a060608f6fd
07f8fe06fc060702fffa09fd010a03ff
0b0806f50806f9050b07f7fafb06fdfd
070701f9f500fbf706070309f708fcf9
01faf5fdf801fdfef702ff070bfa0408
04fc04f7fbf9030a00f9060bf9ff00f6
f7fdf6fbf707070707faf608f80705f6
fef8fb03fcfaf907f8000009fe00f707
08f7040709fa0307fdf806f90bfcfe0b
060aff0bfb0809fdfb060b02fffcf606
fefd05fc08fef700f6fe07040a00f60a
00f9080a06fa0b08000704f80afdf7fe
fa0af70800fffcfd0af702fc07020a0b
0109f90504f505f6f8f507f9fb050b08
09fef60af6fff503fa0308f6f60908f5
0b06f60bfe0a07f801fa010bfcfef508
f8fafc0706fafbfe05020300f700f5f9
01f805040403f70af7fd020207020afe
fa09fd050508fd050202f6feff01f509
040905f9fafe0a06070afd02f5fbfbfa
fcfa04f609fe05ff0bfffa050afb0501
f5f80b07f6fafafafd020308f6fc05f7
0308fcfc07090105fef9fa0b01f80906
08fc06f8fc0b06f6f70bfb0609080004
ff05f8fb0309f7f7ffff0afdfcf8fdff
fefefc00f60bfaff05f6f708fc04f903
f60608fd0b0a07f6fe060109f8fff7f9
fcf5050805f80008f5fd050206feff03
f8fd060708f5010107060109f8fd0603
03fe0406fb00080102f6f9fcfbfaf5fd
05060105fe02f9f80209060b0408fdf6
0002f501fefafcf608040bfb01fa0605
08fc09fbf609faf802090400fd08fafe
05f805f6030009f60504070305fff6fd
f60709f802ff00fff80a0a05f909f504
0401f702f501f7f702f9f60907f90bfe
f70af5f8f9f7f60809080707f900fc06
01fcf6fa07f7fafaf6f6fc0a080b090a
0b05fc0707040afff5fdf8f6f50a0901
0404fe04f6fdfa090705f708f7fdf80b
0702fcf9fbf50bf9090209f8f9f7f50b
fbfdf607090bfeff0b05fbf60601f9f5
f508f80703f7fefc0a070000fb00f608
09f5f7ff0709f8050504020909f6fbf5
fff8fcfffef60400f9fd01faf7fdf9f6
f5f8fafdf5030a02fe040af9fcfd09f8
09fff501f7f60508fdfef707fff9fa01
07080bf606fcf606fa08f70bfa08fe0a
0107f9fef90705f601f5fb09f7fcf6fb
00000000000000000000000000000000
7f7f7f7f7f7f7f7f7f7f7f7f7f7f7f7f
fc0303f705fffbf9010305fc0402fa08
0a0afbfc00ff060800070bf708f5f908
f904f9050aff04f6f60904f9fe07fff7
f6fa030004fffb0106040bfcfb07090a
06f70706f5fd090a0108f6fb03050a03
0107fc030503070603090702fd09ff05
05fdf908f605f90b0bfa040107f708fe
05f9f709fcfb04f9fb0307fbfef802f9
07070bff0a060809fc04f60100000a05
fbf50af601020305fffe05fa0b02f508
00f80008ff0afd070708fb03fa0305f7
0401f809f603f7050700f8fcfd02fcf7
0a03fcfb07feff00fb050507f809010b
05ff05fdfd0b0108f70a0afbf70b05f6
f6fbfdfd000800f501ff0707fafdf6fd
fc01fafefd070609f8040a020504fc00
fff9fb0b0b080a0609f7040606f90a09
f501f60206fc020707f6f702fefaf609
0504f8f6070af7ff04090b09f5050809
0b060af7fd0801fc0704070b05f8faf5
fe0502f80106fd05fbfff5ff060208ff
fb0108fb0900fd08fafc0b0407f5f80b
04f5f6fbfe080bff05f7fcf9f50a0bff
050202fe0af8f70a0506ff00fdf60a09
f6060b01fefaf9f6fc0209f8fd0a0a01
09f8fbf708f7020303fbf8f8f9080afa
0b0602f8fb06f900fef9f7f8fb070afe
07f508fd0307060808f604fbf802f503
05090409f506fef8feff0afa0902faff
fc030bfe04fb09f50202030a08fefafc
fc09fb08fa04020a02ff0afef8090905
04fff6f7070502fa06010404fdff0102
fd05f703fdfbfdfdfefef8fa0207fcf6
0904080afcfefd0600f9040a0bf70a03
02090bf80bfd03fefb080003fc05f700
fcfd0608f9f501f8fcfbfa02020706f5
04fcf70407fbf7f5ff0b0001050b0604
f6f8fbf505fbfa000309f5fdf50708f9
f802020402fa03f809090409f8f90b08
0405f8fbfd0106fd08fc02f5f6000101
01f9f6f70808ff03f6f5f8030a0bfc04
ff0402f8f90808f500fefc01050409ff
02f606f8fe020503020afcfc010404f6
010b02fd060a03fc080102fe0409f50b
f7f90a02ff0608f6fb0507060b0503f7
f6f8fb06f6f606fafcfef9fb03f5fcf7
0af9f9fbfe05f9fafeff08f8000604f6
08f80305fe060803090604fef80602fa
fcfcfc0004f7f509f90500f7fb0afd0b
f505f5f7fffd0b010006f90308fd07fb
0405fff5fefe04f805060a0907f9ff02
07fc09fd02060708fbf9fdfdf7f80709
00ff01f5f5fd03f5ff080109fbf6fc0b
0203fefe02ff01f807f800080109f9f6
02fc05080309f7f5feff0206f5fb0afc
0afa050507fdfcfdfafffd0a0a0709f9
01fd00fe06f5ff0903f70802fb000408
fb06fcf70202fb0505f90707f804f7fd
fefb02fef60b08fcfd0204f502080001
0bfa0a08fb0a02f909010409fc050103
02fdff000801f9f8f80bfa060b0806fe
0b0600080901f500fffffd0a0609f7fa
04fffffdf6f60201fa0bfe080108f502
fd03fff9fafe0303080af504f6030af8
fd0bfef80205fefcfef500f7f70404fd
fd09040409faf7f90904060300fef602
0afe08f8fd0bfb050402f90900010204
090208010203fe05f901fff502fef50a
fc0202f6fe04fc00fb0b090b0bf6f906
09fefbf7040901f6fd0bf70400f8f508
040604f9fdfb000703fe03ff08fe0bf6
f5fcfaf6030b0709fffefd0209fe0a04
01faf803f5f90001fb0903f9f90101f9
0909fbf80403fb0afa02fc07fc0bf60b
fbf605fc09f607fbfc0afbf6f80105f8
04fefa05020608fcfb0b010001050609
0500f6fef703f5f8fdff0a01fe09020a
05020a09f8f8f6090504080afa040202
fe020301f900070afefafd020bfefefb
fbfaf90603f704ff08ff04faff0103fd
fbfaf8f7f8fdfd0103f5000b030903f8
0afafc02f907f809f8fafe070b010afe
040803f8f9f801fa0b06f702fa04f6fe
fa01fff5f5f502f7f702f8fc03030b03
fffdf6020a0308000affff0300fbf5fc
fe08fef9fe000afcf501f7fcfafe0304
f600f9f806080901ff09fbfffc020700
04090b00f806f6f806fa0800f702fbf5
09f9fdfc09ff0709f5070706f6f7f8fd
050107f803f804f704fdf7fcfaff01f9
fafafdf907fb0202f5fbf6fd06feff00
06f8fefefe0509ff020bfcfffe01020a
f9f8f6060303030bf8ff01fa0708f605
0afb0a070608fb00fffaf7fd05f506ff
06fbfd06f6fef9fb070bf5fffff809fb
f6fb06ffff070904ff0609000a0a05fc
04fcf6f703fa02010bf8fd0a060a08fa
fffafef6fbf707fe0af7f8ff06fb0905
07fefa020009060afa04fff908f7ff05
f80300f5f5fb010404fffbf602040afb
010b0b07fef6f908060005f906feff07
0a05070704fa02f8fffcf6f9f809f904
07fb060108f7fc02fdf701020106fc00
f5090506ff070806f6fef604070401fd
f8fcfffb07f8fa070005fef7f6fd0908
0409fcf9fcfb00f809fc0406f800ff04
00050a05000af7fc060600fb0205f8f5
0808fe0904fe0804fef9f9080007f8f5
f902f702010a040103f702010a010a03
04f60504f901fbfaf803fc0509ff010a
f90406fb03fafbf90208fdff040808fe
fcfafd070a07fcf8fdf50300f901f9f7
fd09f80706f7f8060006080b08fef90a
03fe0a05fef60a09070a0bf8f8f8fbf7
f7fd000700fefb0305fdfff6fd03f6fc
0301f7fe010905060b00f80709f7fbf9
06fc000b0bf704ff06080207fb0afd0a
fbfcf805f6f7040b07f50901f90905fa
f70001fe0a02fafcff00f802fe08faf8
0af5fffe0109f90a04f704fdfb03fbff
050009fcfafb0306fb09f90909fdfcf9
fb00010500030308fc05f6f503f9fb09
f705000b010bf80bfdfb08fafef705ff
06fa03fef6f60108fcf80505fffb0401
fdfbfbfe08030607f701fdf506fd02fe
09fbffff090bf8f60803f50100fd060a
f8f8fdf7f60701f8fb0003fafbf9fd0b
fdfcf8f7f6fe00ff08f509f901090501
00000000000000000000000000000000
7f7f7f7f7f7f7f7f7f7f7f7f7f7f7f7f
fb03f5fdfafd020b05f601fbf6f8f5f7
030606fcf9010803080504f900f9f6fd
08f8050b01050600fc00f8fa050902f6
fb01fcf9faf80002020700fa01070309
fa05fcf5fff60afdfefc04fd06fdfcfe
fc060606ff0301f904fff5f9fbf7f70a
fef7070803fc07f9f8fc0109fd08010a
09080305faf60a0a020805fe0804fb03
ff0a030803fcf6020601fefff90703f7
0a08f60a0a0105f7ff08010905fa00f7
fbf5fb07f6fbfd09f60afaf800fbfaf9
fffdf70b09fbfcf5040108fc03f70800
fc0a09080801fd08040afa02f7090b04
fefa020802fef60902fcf9020bfdfdf6
06f609f6fc0b0100f900fbfd0400fa04
060207f7f9fffc05fef803fc00f6f7fb
fe0206fb07f9f8fbfbfcf9f701f7fd01
fbff090902fb00060aff0707fd020105
faf9f504010306f5f8ff0700f9f7f907
fc00f6f8fa02070701fefd0303fefc08
f6fdfc07f6fa0b05f8fa0800fb00fe06
01ff09f50a04fffbfe0309fe050a0300
fc0909fef507f8f8fff5fe0b01fe0702
02fafff80af808080102f9030a05fcfe
fb090bf90507fdfb01fa07fd00fbfa06
f90800fd020b03fe0900040bfe050209
0b09f6060700fc030b0400070008fffb
020002f80b0304f806f90a0505040504
f5fcf708040a07050afcfbfff5fa0a08
0001fdf905f9f7fa0b0101fafdfb0806
06f8ff0bfff8070bfdfc03f608fdf604
000503fffd04f707f6070af9fefafaf5
f6f9f5090605f707fa090bfd0afdfaf6
f8030af603f6fd0b0bf7ff0405f9fb0a
f8fb01fd070bfe04fa0607070908faf9
f60a0703070000010108fa0afb00f90a
f804f7010003fcf9f80a0007fefe0203
fc0009020af80800f7f8f90507fefef5
f7fe06f70908fdfe0305060209fa08fb
fefa08060907f80203faf90500f80205
fc030003ff0af806ff09f6f708fdf905
04fdfe000801030b0b020bfb04fc0404
0bf50002070708fe0b010006fb0afef8
fbfb09ffff0b02f5fef7f604040800f8
fbf6f701fa0b0a09050afb040605f6f9
0509f8020a0701f70afc060802f507f6
fbfaf506f7f9fef90308fb0006f9fa02
05f60a06f7080b05f5f8070200f5fafd
fc07fd01fbf80af9fe0300f908090601
08f6f5f8fef5f60400f601fe03fc0800
f5f80006f8f8fd09fff501f80af80a0a
f70601fd06f90502fbfd0b0204fc05f6
ff0306f806f6f8fdfcfafcf50704fa02
01f70a0308fe0202ff030508f8080908
040bfa0af90308fe02fef5f50005f605
f60afaf50bf7090bfafe0902f70200fe
fff50209070902faf9feff00fb04fe09
fff809f80203fdfd0006fafe03fbfd06
fa0209f6f904f9f603f80303f8fff607
f9fef60905fcf8fbf7fdfbfb0a04fffb
fcfb08050af90b0afb08070409f90bf9
09f5fbfc060b02f9fc0b0805f8f909fc
080b03f5f500fdfa0bf5f6010409fa08
08f9fc03090b0afbfcfb0005f900ffff
f709fa04fa0306fafbf8040101fd03fe
07ff0b07f50208fa0602020a02f7fa04
fbf50a0005fffdf9fbfbff00f6f80001
fbf9fefafff6090909fe010a08f5020b
fb09fefe060602fef50401f604040505
050208f7fefbf700f70009fe07fc07f6
faf504fdfef8000bfe01f708fc0bf7f9
0405fbfe0a0908000203f6f90a08f908
fdfef7070bf9f8070008f505fb02040a
fd0502f5080409f8f8fd0804f9000909
fdff07fcf902fe05faf50bf703fbfcfa
02f7fb0a09fb08f9fb0207fd0901fb00
f6fefd070b01fa0408faf8f8fffd0b08
09fdf501fc06f80b05f7f7f6010af902
faf706060509fcfff5feffff0a07ff01
fe05f50afb03f50b03f5080a01fe0706
0bff050404f90606f508f8fc0101fafd
0305fcfd07060009f70af8fd080afc0b
020afd05f7fcff00f601f8fa0508070b
fe0a05fef6060afbf706fb050409fc09
fd03f7070004040804faf6f90b090905
ff04f7f70b010703fcf9ffff0603fff8
09fff609fbf7fd00ff05f8fe070b0706
04f70600f50a0006fdfe0000fd060a04
f700f902fef6f6f60a0202f80606fa06
02f6fafefa00fe0500fbfc02f9040803
0109f7010bfd0303f7fdf6f5ff0407ff
04050203060907faf9fb020701fe01ff
faf9090401f5f9f5fcfcf7f90504fd07
020607f8000505fbfef8f9040401f603
0007fb05fe02010209f808fffcf7f9fb
080201010609fb0304fc08f5f9fffd06
f606080607f602fc06ff0b0000060806
05000a0309020209ff020305010b0909
f605f6fcff050bf70af6fcfffcfef909
f800fe0807fe05000706f907f90bfa00
04020a0afbfff709fc050b040a04f508
f50200fa0bf7ff02fa03fdfd00fa070a
070a0906f5fb02fbfa0af80afefb05ff
f8fc06fc0a00fbf8fb0707040bfc0b05
090404fefc0bf50408f9fbf5f90704f5
faf90707fb0a0b0905ff00faf6fc0405
fb07f9fb01f9070afb070702fcfefbf8
05fafc07fcfbf80b03fefafe0a0705ff
0605f9fc0808f6fdfbf9f9f601f908fa
060206fb00ff030209fcfefe01090af7
f901f508f7fb0bfc07faf609050a0904
f70bf8f5020afbfc03fe0101f6090a04
03f604fcfc0b000a01fef50007fff503
0900050b03fb080901fb01fa0300f8f5
06fdfaf7fffcfc0905fbfa0905f80900
fcfffc06f7fcf906fa0af50af6f7f602
fc0201fc0504fd06f7fc05fdfd06fef7
fb02fdfafbf803fc0106010807faf6f5
f8060502f6fd01fd0101fdf800f5fef6
0106f8fcfefdf8f90108fcf6fa000703
fc06f7f8020b06fdf904fe03fb04f708
fb06f6f50a0bf90701fafd0b0afe0708
0af8fd0908f7f7fdfef9fbfdff0107fd
fdf901fdf802f7fbfffd07000600fc08
04fb0af609f60bfb0af9fe070201fc01
f8ff050702ff0605030bfe0a0603f60b
07fcfe03f9fbf809fffbfc05fa05f8f5
ff0afc0a0a09f80afb0202050609f7f6
00000000000000000000000000000000
7f7f7f7f7f7f7f7f7f7f7f7f7f7f7f7f
0304fbf609fdfc03f6fef802050803fc
f5f901fc05fb03f9fbfa0407fbf805fb
03ff03f8ff0a000509080900f7010205
fa08060800f800fc01fc0af9f6fefafd
fb0103ff0700f6f7000b05f600fb0b0a
fc040bfc000900f60bfdf60209060901
00fe0bfd0bfb0406f80906fc06fb0af7
f6f50a040000fd0101f5fc03fefcf9fb
f50401fa060809fd0008f9f6f9fbfa09
f909fffb0bf60009f6000afa0bff060b
070b08f7fdfe04050b020905f9f70a0a
0101f8030bfdf9fcfbf503f60afc0101
0103fb04f7f60004fc03f50a03070b08
fd0601f80601f80002fa09fa07f70400
f7ff02ff0305f9ffff04fff9f9f5020a
fcfbfcfd020b00fcfffffdfafb000300
03fd06020503060b0a0102f6f907060b
fffe0108fdf9f60205030902fa05fdf7
f70502f5fd0801f80afafa02fcfef605
05ff00040906f7f90afc050906fffdfa
0afefa010afcf6faf9f80a0604fcfffd
090b06f8080001090808f5fbf7ff06f9
fdf60a08fefefefcfe07040b01f90100
fb02fbf509000a0af6fefe0bf9ff0a06
09fffdf7fbf90303f5f60704f5f8070a
fc06f9f8fa0bfefd07fc09f903fb02f7
faf903090602f80001060200f70a02fa
05f7f8fb0404fe01040702ff00090b06
00f70300080900f7fcf5ff0bfef7fff8
0107fe02f90404fd03f8ff04fc0afd04
0506050709fbfafbf7020201fa0305f5
020300fe070b060205f7f7f6fdfff605
fffa0508f605f7f50809fa01f604f705
fd0702f9f9f8f9fafffa040af7f50805
faf5f60500f60b070bfb030502f6fcf9
f603f6ff070009fffbfc0af6fcfdfc06
fdfa01000b06f70201f7fc05fdf706fe
fc08f709080bfd0009f9fafe03f80102
fcfe01fbff04fcfc0bfa0908090401ff
f701fafaf70b03f902ff03f6f9fe0405
f70afb0afdffff06f5fa090006f5fefe
f6f5f70304f6fbf9090105f6fb0afc08
01fe09fd090b0202f9090104f9fffbf7
07020705040108fafcfb060803f8fa0a
010bff0303fcfbf6010705fc0a0007ff
fe0a04fd05f805020204fef8f5fb0709
0104f50a0afbf900f7fdf6fd0af901f6
fd07f505f8f90a090a0907fa04f502fc
f9f5fb050000fbfb0a0afc050b0a03f9
04f703090405f6f9fbfa0107080806f7
faf80b020305fcffff0b03fb0807f907
f80b0a02fe00fafe070000f803f7f8fa
fc0209f7000a030901f6f70706ff02fd
0804f9fefb080a0004f6fa0106f8f806
020a0007030904f702f6f60600080208
fb0b02f7fa0607060808040006fd0905
fe05ff080b0a070b06f7ff06f9060a04
00feff07f5f50bf7f7f5ff0601f9fef6
07f809f7030304f601f6f503fff9f5fb
f700fff8fb01f8f8fd00f5ff050909ff
fefafff70701f6f703f80b05fa0208fc
ff03ff08f908f809fe0505fc07f6fffb
07080102fef5fafbfd05f6fe04fbf5f9
ff05fd0b06f70407fc0105f5faf60404
04090afffdfb08fa0807fb04030a0707
04fdff08f60400fffefd080705faf6fc
08f5f6f606f7070101ff010306000a01
0205fb04fdf902040a0107f706fcf5f7
f50afe01f8010604f902ff0506faf90a
fc0101040a05f8020b08f804f509fa02
fcff09000507090afcf706090b080bfe
f9010af80109fdfdfb06faf6faff0b08
0706fa0607fa00050afa000909f50606
0103fff5fef9fd0104fcfb02f901ffff
fd00f90b05f9f7f8fb02fdfefbfb02fe
01f6050301040704fef80000ff06f9f8
0105fe0007f6f8f6fb0afe04fe09fcf5
fc0801fcfe0702070904f8f8f605fe09
f80902fcfbf60a0109f90b09fb07fafe
010609fafc05f603f7fafa07f5fffef5
fafc06080004f802fcf6f7fb06f5faf9
fbf504f7f6f6fd08f70902fcf8fffbfe
06f60302fb0a05ff0400fd0a09fefc09
0a0b00fd06fb00fffe0bfdff07faf7f8
08f807f90907f8fbfdfb0bfe03fcfa08
fff707000204fa0a09f908fdfa0400f7
080b0afa09ff06fe06fb000603fef609
0b0306f9fc08fefafafaf7f8f5f7f9fa
fdfe06f7fa06fcfafeff0404f9fafffe
06010403fdfa00fffffc07fbf7ff02f6
f80af708090902f8f80afd0002f904fb
fc0207f908f90507fbfc050507fafa02
0105080202f5f8f608fa02080a090afd
f6fc01060bf806ff07fbfeff02f80903
0003fcf509f5050a06faff0bfef70a00
05f9f906fd00f904fe060af90a0906f8
01fdfe060b03fdf90afc08020502fb03
07f909fbf60801fd080b0bf500f6fbfb
0af503fa03fafaf503fb03050506fd05
f6fe040bf6fd02f60309fcfb03f5fe05
04f709fafafefafafe06fa03ff060706
09fc05f705f604f6fbfcf70809fb07f6
0a010a03f7fc03070502f6fb0801f6f5
000407010902fdf8030701ff09f8f505
f804080809fef805f9060407fa0100f9
0904f6f8fdfbfafe050afc070af8f7f6
0902f60af60503fa0a030103fafd0806
fe060501fd0b090108f904f500fc06f7
fafa0af5fdfefbf7f6f5fcfa080b0003
0108040001030a0000f703fb070707f7
f6f80907fb07faf502f8f9feff060a00
0007fefafb0508f70407fd00fcf9040a
040a0807fb09fc0705020afe07f90402
fcf7030305fef7fe0903ff0a02faf8f9
0b0800050b0405ff04f700f803fc0306
f70300fb000a0906faf700f6f7fcf709
0a040002fbfcf9fc0702fb01fcfdfe09
060304fef7ff0bfc0309f5f8f9fef904
0af90408f8fdf5fbf8fbff0501f705fc
fd09070a04070bf80b0bf7f70409fa09
f7030800070308fef5fbfaf8fdf70609
fa05f6040404f9f7000001fef90a0a01
03fbfbfef6fd060af9f500ff0bfcfe0b
f80201f7fb070207f50afd0a0b030606
fdf5010501f6fcfdf701fdff0afd07fc
fefe070a050902f508fd0709f70402fb
01fe01fdf904f80a03f70507fff9fdf8
fd07f80309ff080b07f7030b05fcfef9
00000000000000000000000000000000
7f7f7f7f7f7f7f7f7f7f7f7f7f7f7f7f
f90a01fe0a0408f8fd0806070208fdf7
04fd090305f701050101f50104f6fa02
f6faff050308f600fc02f501f6080b00
00000804fd03fc05fb03fd08f802fbf6
08000af50503f70afc07f60602fbf90b
030105fc040b03fd08f6ff0707fc08fd
0506fd000901f7fa0702f903f605f503
0604fcf90904ff06f70006f701fffb0b
0805f805fd05fbf606fa090409fb05f6
06f5060106f9060707010608f500f606
02fbfdfefd090009fa03fb0205fefd06
090702070af9f907f7f7f9f5fefcf50b
fef5fb04f7f9f60306f5f508f600fcf5
0bf8ffff07fcf5fcf70406fdfdfffdf8
03ff09fa01fbf90bf6f5f801fafd0802
00fa03fdf7fa0605fdf603f607070b02
fc00040203f805fb02f5fbfff706f803
04f9070afdfc05fe0af5f50102000b04
f7fc07f70af5fe0b090bfdfafcfefd01
fffdf7fe0300fdff00fa020901fe0406
f907fef8f60600f901fa07f804f8f8fc
ff0506fdf702fdf90afc05f8fd0afff8
030106fa03070601f700fef70708fafe
fcfaff0a030008f9f9fff70201fef6f8
01020602f8fa06f701f5f50807f80709
fef701fc0103030af607f700f604fe03
fbf701f500f5fa08ffff05fd02f80007
f906fa0afcff03faf9f9fffcf903fffb
f5fcf70207fa04f5f5fefefa060605fe
03fdfb0b02f808060102f9040b03fe04
f9f5f603ff0503f80305000603f906fb
f602feff05050607fffbff05fdfd0afe
f501fefd0bfc0b03f90a080a080b0503
f9fbfc09f6fa090a0a0909fc0101fa09
fafb07f8fb03fcfe09060709f5fc06f8
01fdfb050104090afc05f8ff0508fe09
fb05f802fbfe07f90a04fc0009fa0af7
02fafd0409fe0007f7f7f7fc0406f80b
06fbf9f9fafbfc08fe0708070bfe080a
f60b09090604ff0a03060af7f80903fa
fafbfbf90afd0a0bfd00fbf600fbf9ff
f70b040408020bfd09fefd04fa0a0af6
0701070b05f9f7f9fa0706fc01030a07
fcfefdf5f6f90102f9f60803f809050a
0001fd09040004f9fbff03f80305f807
fc000703f703f600fe05f7fef70801f8
fcfb0700fc0207000afd020bfb090508
06fcfff9f9fcf7fd0307feff02fc0709
ff020afff70008060302f7f5f6fe08fa
0103f7f602fdf7f709ff0bfaf60500f6
000a0b07ff0603f8fd010106f9040705
f80400fe02010a02fa04f8ff080302f8
07f8f90403040bf8fafe03f9f5ff0901
0bf604fe010909fdfbf5fd060806f707
f701f9000806f5fbffff01f80008030a
f5fc07050308060100fef5f6ff030a07
f7f50403f90b02fcf7fff9060905f80b
fc06f70601fe06f801f609f7fa03f701
f70af70b070002fff9f504f602040200
fd02f9020b0409fef803fb02fcf50104
0bfc02fd01000400ff01f7fd0609fd08
fdfc09080905f507fd0b04f7ff04f707
0909fd0200f80006060103ff04070209
050005fd040903ff02fc080bf9f804fd
fe04f8f60700f6f7fdf80609fef9060b
080300f7f70afaf900ffff0003080309
f705fb0bf7f5f80afff7050a01f6f70b
0bfafafafdfd00f601fd07fcfc07ff07
0afe07fd0b0307f8f9020705fe08f90a
f90bf8f9f8070604fc0af6f9070003fa
04f80207fef7f5070507fb0509f908ff
f5f6fe0af9f8ff00fc0603040801f7ff
0a04f9f603f9fdfefcfefa0403fcfa02
fd00f700fefefe01070704fef5fff909
f803030309f602fdfe09070606fb0206
fa00070202f906fcf9f9040408ff020a
0a070a060afffe01ff030b01fdff06fe
09f8f5fb01f7fdfffbf602fdf601f70b
02010809f6fb0b0200fafdfe060a04fa
f603f9ff0afeff0304f5fff707fd03fb
fdf9040bfefdfb0807f6faff02f6f9f6
ff0af900fc02f8f50306f801fc0b0afc
fd02f70303fd05f9080700fa0704f801
0105fdf9fd090809f8f8fe0a0bfa0005
fc08fc0604f5f8fffdf9f605fffafbfc
f6080206f70af7ff02ffff07f9f9f801
fdfb02ff02fa0209fd010bfd0900fbfc
fc05030af904ff01060603f802f7f704
f807ff09fff601fd09030af7080209f7
070303fdfaf500fe00f6ff0bf604ff08
f8f8f805fa0af9060a06ff0601030505
f7fafdfe0402fff80905fb050bf70004
070403fb0403f806fbfcff04fb0bfdf9
f603fdfefdf80502080800fafb00070b
fffefafb0502040b08f5f9f90b05ff05
06fc02f80003fe030604fbfbf6f9fd09
07fc0afdfd02f5020bfe09f5f8fafe00
090509fdf9f7fa00fdfdf70a09070107
0901fc0007f5f9fa0003fd010bfe08fe
04f5fb0b06f7000905fe0807f9f704f7
0101020b0000fe09fa0b0204060502fe
08f6020008fbfbff08fe010604faf700
fbf5f801ff010b0afdff02fffff50801
f5faf7ff05fb0903fbf50a070aff03f5
09030608fffffb03fc0802f5f5070909
ff02ff070afcf5f602050405f7f70b0a
020803f8070803070b05fcf9fb0b01f9
fcfffb07fcf8fa08fa01050802f604ff
fa01fa02000708fa03fefd04fc09f9f5
00f80808fd0bf60a0101fef7f6fcf5fd
f70a02030a0af809f7f706f50703f906
02fe070b0607f603fc060109fbfd0afa
050606010305fef80806fa09080a02f8
0a00fafe03060403f902f70807020a00
f5fcfbfefef90a0604fa0500f505ff03
f60503000bfc0af501f7050200fc010b
fcfaf7f704f6f60a01ff0bff0b08fd06
04090104fdfb0208f70702010bf6fb03
fe04fc05f5fbfe09040b040b0509f5f7
fd0801f9fb050307fcf6fc08f80408f6
f7f7f80100faf5070af7fd02f80706fe
fd0400f803f5f603030808fdf802ff00
070a0bf8fff904fef8f709fd01fcff01
f5fbfa08fb0bfe0afeffff0209f9fa04
0afa06f908f7fafc0501f904fdfd0bfb
06fd04020b06fdf9fa070a0109faf6f9
03f5fafb05f6f60002f50701030b0307
040af7fdf6f9ff0a04f9f7f508fcf8f7
00000000000000000000000000000000
7f7f7f7f7f7f7f7f7f7f7f7f7f7f7f7f
07f7f6f5feff05f7fa090a08f8fd060a
05fdff0101f605f90afd04f6fbf7f7fc
f605f805fb0b06f9f6ff07f6ff01f6fc
f906f5060006fd03fd0804fe04060201
fa02fafcf5f6fbf8fcfc08f6ff07fd09
09000506f8f5fd05f5fb04fbf7090a04
010bf7fff60001060507f605fb0300f9
faf80b070700f5f6fcf7fd0bfa08fbfa
fbf9fff8f60500fb0b080601fe000104
f9f80a06fb00090bf700fd0b0706f800
fa0803010a09fe0500fe060701fdf502
04f80a0bfe0101f9fefc08fa0b050301
f7f806ff0707faf70804f70af806f8f7
02f9090008fd03fa08fcf708f90b06f5
0b09080bf9f601fb050507f5010309f9
f507f5f7f706faf802020201fb0a09f6
0603f906f9fc010a0508f6fbfcf5f5ff
03fcfaf9fe04f804060a0302fffafcf6
04f70802f50308fc0907f601f90105ff
f90af707ff0a01080bff0a0bfd07f805
fffc0b080707f605040afb0af7f5f807
0af60601f9fc0afcf900fb0bfff906f9
f90001fefb00fb0a04fd01fe05f7faf8
ff00f8fb09fbfe09f6fe0106fa0b080a
03030605f8f709050808fe020205f700
0a04fd0703fc0606ff0001f6f8f6fd0a
0bfbf6fa0900f506f80500fcfe0bfdf5
f6fb01040707ffff05060a03f9080908
fef5fafa050a080808fcfefcff0400f9
f7f90a00f605f80008fb070af7f701f9
0a04fdfb070a030aff020304fe090506
fb0803fb0bf608fbfb0a0503fe090008
0a01fdf8fd0af7fefe02020807fdfe01
090af6000206f801fc0001090909f803
f8fe0500fc000a09fdfefe050509fe06
0bfcf909080bf6020a02060605f70007
ff01fa03fcfffdf704000bfd000bfc01
f5fbfb070afa0304fe03f8f9fe04f6f5
0208f505090203f6fb080103fb0b04f7
f70b0af8f6000a0b04fcf90a040205f6
fff502f908f9060a05fcfefaf6f807fb
0a0afafd08fc06fa0408f802f80a03fd
f6f9f7010a01f9fd0602fdfdf5f9faf9
0bfc09030800fc0af601f808f808f5fd
fff906f7f5f5f8f5fbff0408020400ff
feff09fafbf9080700f600ff05fa01fd
010906020bfdff050805fb03060a0b03
fd06fa05fcfd050309faff0009070afd
f9f506fd050af5f6fa07f7f7f7060908
fdfd00fd04f9090bff0102f6fcfc06f6
0b07fb060409f8f5ff0407ff0609fdf8
0bfe07f605f704f9fbfffb06f9fb03fc
f8f80bf6fa08f6f80afefffb01f60506
08f9f501fb02f607ff06f70bfffafe03
faf6f9f7fbfc04faf806fdfdfefaf8fb
fe030909f9faf90af60806080508f703
fd07f6fc01fb09fbf6040402ff0a0902
040907f7f8f5fd060afdf60004fff806
0401fe0101fe09f6fb01fb0afd0606f5
fcfc01fd0507f50908f607fbfc040906
02f8fe07f5f607f60a040af6fc050a07
fc0100fe07fc00fdfb030af50806f8f8
0bfaf8f6010100070b090705f9f7f604
040af8fdfaf5ff0aff0201fe06060302
05020afc0608040601fb040aff0a040b
0a03fe03f90a08f70bf7fafc01f909f8
f6030502fe0bfe04f9f9fd0607fc01f7
02fb05faf602f8fd00fd0af5fdf702f9
0a0508020af9f9fdff050bfb02040608
fef8fcf5faf90afcfd050bff07fe01f9
020a070706f7060205fefefaf7fc08f7
fff9fbf9fdf60bf909000006fff500f7
0902fb05fe03f8fafbfffffd05fbfd0b
faf8fbf90503f50207fdfff902f9000b
f701040504f60908fbfbfcfbfd0a0201
0809f703fff7090a09ff0bf50b0209f8
ff05070003fffff6000507fc0b0bfe03
f801faf704f6ff0a09fb08fa01fdfafd
fcfbfe09f50301fc00f5f9ff0af70105
f6000b0aff06f5fe020afb000509fe0a
0bf70b05fff9030203f601f905fff8fe
f806f60807f70afc0303fc09fcfa0506
0b0003f508fd000803fcf8fcf705fefc
0b0306fe0bfbf6060a05fff5fd00ff00
040404030b04000607f6f7fa0301fbff
fe05010a030afcf9f701fcf6030afd03
0808f7fd08fef903f9fc0607fe0b0706
fb00060a06fafcff07f90509060101fa
fcfa08f607f5020508f9f60805f8fb09
fc0100fd0a00fafbfc01fafbf6f7f70a
08fefb0804fffafc0b08faf601010a0b
f707fd000003f5f60307fdf9050b08f7
0102faff0a05fff804fef7fe02fe0a03
010afcf6fd07f607f80204faf90502f8
05f9fd06f70600f602fbfdfe02f80b0a
f7f808000a0afc03ff0a06f9f6fcfdf6
05f6fcfb07fc090afaf7000008fc00fa
fb09f5060105060b0305040404fc0601
fd070204f707060107070b07fafdfd03
f70407faf901fffe0800f5fcfc07fafc
0bfb050af80a0300fd0308fd06f601f5
0501030407f9fcfeff01f8f9fff70300
02fcf8f809f6fefff7f80bfbfefdf8ff
020b01f6f600fdf50706fffffaf8fdf9
0b0001fdf609090af709f907fe04fcfe
f7fef5fc0b0afbfc03fafb07f6feffff
02080209fe0608030205fd09050303f9
09000206050502fc05f60909fdf80909
050903020b00f800fb04f9f8fffbf9f7
fdfbf90003fbfcfc0107fa02fafff7f7
02f5f9fd02fdfff70afafe00f8f7fdfb
05fb04f90003fcfaff0bfbf500fefdfc
fcf905f8f7fa0206f8050208fbf90601
0704f506f707f501f801f6f9f5fe000a
03fdfd02fb09fe0009f705fef8fffe01
03f803f9fef5f8f9040905fdfcf8010a
00fd0701f5f6030106f8f70bf6fdf6fb
faf5f80aff02010000fe00ff07fa0b09
f50005fd08f90a08f8010803010bfbfe
fa010704fd01050602f90407f6f5f800
f9070b05fbf9f8fb02fbf8fa08090af7
f6fdfef70b0a0afa060a040101faff07
fd0b0a05fffef801f7fe06fef6060605
0407fa08ff0002f507fefbf9020302fb
f7fb09f8ff00f60a0308f6f5f6020805
fd0b06fd03fb02f504fd080401f5fbfa
f7f9fb0bf9f8fb06fc050bfdf7f6f8f7
06fff9fff5f5f7fefdfff6f908fbf702
