00
7f
e8
24
0e
d8
fd
12
14
d9
f1
f9
00
7f
04
ed
21
d7
01
1c
eb
e2
fb
ef
00
7f
1d
dd
26
e0
d6
02
1c
dd
ea
10
00
7f
ef
09
0a
f1
d8
0f
20
d7
e0
1b
00
7f
04
27
0e
2a
ed
26
00
12
26
de
00
7f
e0
09
de
13
27
0d
da
13
1a
1d
00
7f
f1
07
29
10
21
fa
1a
fa
0d
e2
00
7f
17
f5
22
ff
ff
f6
e5
f8
0b
ee
00
7f
ed
0c
ff
fa
ef
e3
0f
1f
13
f1
00
7f
27
df
ed
02
23
27
29
1c
22
e3
00
7f
1d
0f
1f
ea
0f
1d
04
ec
2a
f4
00
7f
d7
de
f6
25
08
19
0c
0f
17
d5
00
7f
ef
df
eb
fa
d5
19
e5
0a
db
23
00
7f
f7
e8
de
db
13
1f
dd
f0
ed
de
00
7f
23
18
1b
06
fd
03
07
dd
f6
1d
00
7f
06
f4
0a
18
ec
f9
d7
f5
25
17
00
7f
10
f5
e5
fd
18
de
fb
09
19
e9
00
7f
fe
19
04
dd
e3
f4
18
1a
0c
05
00
7f
21
01
0e
ea
1d
2a
20
0b
d7
04
00
7f
e4
12
05
ef
10
02
f4
1b
29
12
00
7f
1c
09
e0
15
ed
f0
ef
ea
0a
e1
00
7f
e7
03
eb
18
0c
23
18
fe
26
f9
00
7f
10
fa
f9
15
e8
05
16
eb
1b
f9
00
7f
ed
16
d8
f9
f7
f7
21
db
1b
19
00
7f
0c
f8
1b
23
1b
f2
e5
e6
e3
e4
00
7f
19
f3
0b
d9
eb
e1
f6
f6
e3
2a
00
7f
24
ee
e5
e2
e7
07
eb
08
df
24
00
7f
2a
2a
19
f0
1b
2a
e0
1a
29
28
00
7f
03
0c
1a
fb
f1
20
1d
2a
f9
d9
00
7f
ed
e9
fe
0f
06
0a
13
dd
28
15
00
7f
25
2b
0e
fb
18
07
ee
d7
18
14
00
7f
ff
e0
1b
11
e1
f2
dc
1c
19
0c
00
7f
23
1b
f9
d6
fe
d6
24
21
1e
25
00
7f
25
2a
d9
01
f8
22
f8
25
e4
e0
00
7f
ea
da
1e
fb
fe
f1
13
17
1a
d6
00
7f
26
2a
fc
01
13
17
20
e6
25
dc
00
7f
04
e8
0f
f8
01
fd
e8
e6
22
25
00
7f
20
12
2a
26
1a
00
16
04
12
e4
00
7f
0b
eb
d7
fd
dd
22
0d
0f
10
1b
00
7f
07
17
24
0f
0c
24
fe
e6
17
de
00
7f
eb
05
08
29
18
d7
1d
e6
f8
1a
00
7f
de
e1
0c
f0
ec
21
05
05
f5
11
00
7f
f4
d7
f7
04
09
25
dc
03
e9
db
00
7f
17
12
f1
e0
0f
1b
0b
02
e7
0a
00
7f
19
f1
f1
00
27
e3
e0
ea
1d
17
00
7f
df
fd
f7
fc
2a
e0
f9
25
f5
1f
00
7f
fc
06
e6
08
1b
1d
06
28
d6
ef
00
7f
e7
10
14
0f
0b
e1
e7
17
0e
ef
00
7f
14
e2
fc
f0
d9
25
12
25
f6
26
00
7f
e9
fb
1b
0d
00
09
24
ee
db
ef
00
7f
00
20
f1
0d
f7
ec
27
0b
11
dc
00
7f
fd
f8
f4
00
26
f2
09
d7
24
19
00
7f
1b
f9
dc
2b
06
11
e3
f2
29
28
00
7f
10
dc
16
e0
e4
1a
d5
fd
1f
20
00
7f
f7
15
2a
26
23
10
e6
1f
d9
ee
00
7f
08
16
06
28
ea
1b
e9
26
ef
d7
00
7f
0e
02
22
e4
e5
fd
1e
1d
16
19
00
7f
f3
03
10
e7
f2
0b
1c
f3
03
fc
00
7f
01
e3
15
f7
23
19
ed
ee
06
de
00
7f
f5
de
1f
18
1b
02
db
e5
07
1a
00
7f
0a
f2
df
da
f8
11
27
20
d7
1f
00
7f
ef
e6
ea
0e
26
0a
ff
fa
e8
f0
00
7f
15
22
db
07
08
26
f3
da
02
0a
00
7f
de
db
db
19
f3
26
ed
ff
fc
1f
00
7f
29
09
ed
f3
ef
16
10
e0
2b
f8
00
7f
ef
ee
f9
25
0b
20
dc
14
0d
20
00
7f
ff
06
16
1e
db
f0
de
22
14
19
00
7f
14
06
12
f0
dc
00
f6
18
ff
19
00
7f
2a
e2
df
16
07
fa
fe
1b
e4
23
00
7f
06
21
fb
1c
1b
06
0d
f7
02
df
00
7f
f0
f8
f1
21
20
16
da
fc
0d
fb
00
7f
f9
06
d7
28
eb
0c
dd
11
e1
19
00
7f
27
f7
e8
d7
1e
18
df
f0
1b
05
00
7f
f5
16
23
02
27
14
f4
fd
fa
fd
00
7f
18
ec
1f
e9
e5
11
e1
05
1d
f8
00
7f
f6
00
f3
08
05
e1
d7
f4
fe
20
00
7f
fb
dc
20
ea
db
e4
e8
20
0c
02
00
7f
fa
d8
0d
ec
fd
26
03
f5
0f
eb
00
7f
07
28
1e
02
05
d8
e5
e7
0a
0a
00
7f
f0
03
17
1c
f6
fe
db
e3
06
e1
00
7f
0c
27
f4
27
12
17
f7
f6
e3
d6
00
7f
ff
01
15
0c
e6
e7
e0
0d
15
15
00
7f
ea
da
1a
15
f9
eb
d9
db
0b
20
00
7f
f0
ef
17
0a
02
05
fb
fd
14
03
00
7f
f0
e7
f9
f4
1d
0c
18
2a
0d
17
00
7f
29
25
ff
1c
05
14
15
d8
e7
d5
00
7f
e3
e6
f7
0d
e7
12
1e
e5
25
1c
00
7f
e1
1e
05
24
fc
e1
fe
20
e7
1a
00
7f
03
24
f2
e6
01
f5
fe
0c
e9
f9
00
7f
29
ff
0d
07
fb
eb
e0
ff
f9
21
00
7f
e4
fa
f4
21
d9
ed
1b
02
27
00
00
7f
00
d9
13
1c
13
17
13
11
f3
ee
00
7f
fa
e2
0a
de
14
22
09
1d
0c
fe
00
7f
eb
df
fc
05
de
16
02
d6
20
ea
00
7f
28
0c
17
0e
1c
f3
f2
d6
f9
04
00
7f
e4
fc
0d
24
f6
f3
fd
fd
dd
07
00
7f
e2
06
0d
17
eb
2b
23
f3
e2
21
00
7f
03
fa
e1
0a
22
28
fd
ed
15
f1
00
7f
f1
f3
e3
ee
11
1f
d8
07
20
fd
00
7f
fe
e0
23
de
12
ee
ec
e1
f1
d8
00
7f
04
1c
04
e5
22
13
e8
fa
22
f8
00
7f
00
d8
16
e0
ed
fa
fe
e0
fe
18
00
7f
fd
d8
e7
eb
14
f5
04
05
ef
dc
00
7f
0d
ee
ee
db
f5
1e
f7
df
fb
f9
00
7f
06
db
fd
e0
06
25
01
12
f3
fd
00
7f
e8
17
14
21
15
fe
ee
f7
de
f3
00
7f
f2
db
d8
dd
18
00
e2
18
e0
ea
00
7f
fd
ee
ed
1d
ea
1d
de
26
df
d6
00
7f
f5
1f
05
ef
0a
f3
db
d7
17
df
00
7f
e0
13
02
e0
07
08
1c
0f
1d
f1
00
7f
ea
dc
fc
f6
ed
f3
0b
11
01
d8
00
7f
fa
0a
14
20
20
d8
f2
f5
e9
ed
00
7f
da
ec
e6
fe
0e
07
dc
28
21
f0
00
7f
0d
13
e9
07
1e
0e
1e
16
f7
f3
00
7f
f6
f2
14
25
e3
29
db
de
0b
28
00
7f
01
02
25
db
fd
eb
0b
d7
0d
eb
00
7f
1e
e9
f9
28
23
fa
0f
e9
ee
19
00
7f
0c
fd
ff
fb
e7
11
16
ef
fc
24
00
7f
ee
20
fe
11
10
22
2a
f7
1b
f9
00
7f
fb
fe
10
e5
0a
18
05
e8
f2
e5
00
7f
1b
de
f9
de
e6
ee
1b
28
29
14
00
7f
fd
21
ff
19
1e
06
05
0d
10
13
00
7f
01
04
12
27
e6
26
e3
22
e2
13
00
7f
ec
d6
1d
0b
ef
fd
fb
22
f5
f7
00
7f
25
20
1e
21
0b
27
f3
e8
04
fd
00
7f
1f
e4
16
f4
fc
db
14
0e
0f
19
00
7f
0e
13
09
1b
f9
df
d8
06
04
00
00
7f
26
d9
1e
f7
0a
f3
d9
1a
1d
04
00
7f
0e
f0
e6
19
23
fb
fb
ee
db
1f
00
7f
e8
04
e2
df
01
ec
fb
25
06
08
00
7f
1b
19
fb
da
07
fb
d6
25
e0
fd
00
7f
0b
1c
09
01
06
ee
f7
05
17
04
00
7f
f2
19
10
13
f1
25
d6
dd
fe
e9
00
7f
d7
1e
dc
d9
02
17
0a
f2
19
28
00
7f
25
15
0e
ef
e0
16
e3
f1
dc
e0
00
7f
f3
0b
10
e4
f8
e8
1e
f1
de
db
00
7f
17
19
f8
05
06
f7
fe
22
2a
e8
00
7f
e4
f1
ec
02
f9
27
d7
e3
d6
18
00
7f
1e
f8
1e
dc
1a
f1
0d
15
d7
db
00
7f
07
0c
ef
ed
01
e6
e2
1b
18
dc
00
7f
fc
f0
f4
2a
25
0f
1d
da
e4
db
00
7f
ea
25
0f
e2
08
24
d7
0e
d7
21
00
7f
1f
f8
26
20
e0
1c
ea
20
09
fb
00
7f
1e
0f
ef
f4
e2
18
d8
e8
25
df
00
7f
f1
e7
ee
df
de
12
28
d9
29
e0
00
7f
19
e3
20
f1
fe
da
2a
ec
e8
28
00
7f
f6
26
ea
26
df
ff
08
f6
f0
fe
00
7f
ef
fd
d7
de
f0
19
22
00
e9
0f
00
7f
d6
1c
f7
f3
d6
12
e3
1e
df
19
00
7f
da
1c
e7
ed
d8
db
2a
e2
eb
ff
00
7f
d8
1b
0a
26
ff
1f
22
e0
e1
e6
00
7f
f3
0f
f7
d8
ec
fd
16
dd
22
1a
00
7f
18
da
0a
eb
e3
ee
11
e0
29
f9
00
7f
09
ed
0f
0d
dc
e5
06
09
12
04
00
7f
26
17
2a
0e
25
ef
02
01
fe
26
00
7f
2a
fd
21
f2
d8
f6
e5
2a
1b
17
00
7f
02
db
e3
d9
f9
d8
e5
f6
14
f0
00
7f
1c
e6
29
1f
29
06
03
0a
03
1f
00
7f
0c
e2
1b
26
1a
1a
dc
e5
01
27
00
7f
1a
10
1f
f1
fa
fb
ff
ed
f0
1e
00
7f
12
fa
dc
1c
04
ea
fe
ef
1c
05
00
7f
fa
0a
0a
fa
08
e3
10
25
e9
eb
00
7f
0a
f4
04
ff
f2
dd
1f
16
1e
d8
00
7f
25
1b
d8
06
1a
18
f1
e1
f1
0c
00
7f
ed
04
29
2a
d6
07
20
f2
f8
09
00
7f
ed
28
fc
0f
01
02
d7
e2
e7
e4
00
7f
e5
e9
04
d8
f2
1a
1b
14
fc
f2
00
7f
da
ea
e4
d9
07
18
0b
12
ed
0e
00
7f
29
0c
dd
de
ed
05
19
22
01
09
00
7f
f4
ea
f0
df
16
e6
04
1a
e4
ef
00
7f
fe
06
13
f7
06
e0
01
1d
e9
28
00
7f
f6
14
16
01
e6
e2
02
21
18
09
00
7f
f8
29
f5
ef
e0
17
e4
e7
d8
1e
00
7f
19
fe
20
e1
23
1f
f7
10
ed
f7
00
7f
fb
24
e4
d6
d8
28
f7
f0
09
00
00
7f
04
0c
dd
f7
1a
f1
14
16
21
14
00
7f
1e
03
e9
d8
d5
13
db
f0
19
e7
00
7f
11
21
df
0a
ec
02
25
fc
0d
21
00
7f
24
f2
e8
df
09
f5
d9
23
14
02
00
7f
1b
f0
23
23
1a
eb
05
e6
db
12
00
7f
dd
f4
ee
01
28
1f
fb
f3
fc
f1
00
7f
fa
01
d8
ef
05
22
0c
11
19
12
00
7f
e7
17
11
1d
e3
df
ec
01
05
21
00
7f
2a
0a
01
04
20
09
d9
1a
ea
02
00
7f
1b
1a
0c
f6
0a
0e
e2
1e
d7
f3
00
7f
20
0a
04
14
15
e3
06
13
ff
0f
00
7f
fe
1a
22
da
1e
d9
f9
05
11
d6
00
7f
e5
26
f9
fd
03
26
ec
16
ee
11
00
7f
d6
f4
06
1c
fc
e2
f2
25
2a
fb
00
7f
00
fa
16
ff
f0
1c
15
28
0d
d7
00
7f
f2
03
28
f1
21
06
27
09
09
19
00
7f
f9
ea
16
f1
28
ec
16
2a
dc
00
00
7f
1f
27
10
e8
18
f2
0c
09
21
df
00
7f
08
e7
1e
db
e4
23
d8
ee
0e
21
00
7f
23
0e
0a
29
dc
03
29
da
f6
d7
00
7f
d9
fa
1e
26
15
16
ef
0a
e3
28
00
7f
dd
e1
dc
e9
29
26
1a
e0
f0
06
00
7f
fb
de
fa
f2
1f
07
2a
e2
e5
e9
00
7f
0a
16
d9
16
f2
d8
0c
17
28
13
00
7f
ff
ed
15
06
09
21
e1
f4
1e
11
00
7f
f3
dd
e3
d8
e5
d8
29
05
e1
23
00
7f
2a
ea
da
21
fb
e6
04
1c
ef
da
00
7f
f1
06
e4
fb
09
0f
0d
ee
09
05
00
7f
ea
08
04
db
07
ff
de
f1
06
07
00
7f
e0
d5
0d
e9
24
e4
f3
19
20
01
00
7f
00
ff
07
1a
da
de
de
f0
28
18
00
7f
26
0e
0a
d6
0f
e7
2a
12
12
20
00
7f
22
e3
24
04
08
13
15
19
fd
dd
00
7f
21
21
0d
01
2a
de
0e
fb
1e
23
00
7f
da
fa
e3
e3
04
11
e2
20
18
f1
00
7f
1e
ef
dc
e1
fc
e4
e7
f0
f0
18
00
7f
28
d6
0a
e4
23
17
e2
e6
ea
e5
00
7f
0d
19
04
09
1c
0d
0f
e5
07
f1
00
7f
db
ff
e6
dd
1e
1d
03
dc
02
04
00
7f
06
07
0a
24
27
fd
e3
f9
23
fc
00
7f
1e
df
d6
fd
0b
e9
fd
ea
06
0f
00
7f
20
fc
0c
fb
e6
11
05
ff
eb
ed
00
7f
0a
05
e4
28
e8
e6
d8
22
f1
e7
00
7f
22
18
df
e7
f6
e5
f0
02
24
23
00
7f
f3
f3
02
00
27
15
28
14
14
d5
00
7f
0a
f7
f0
e4
1d
ed
0e
f5
00
1b
00
7f
12
05
f3
19
2a
e6
21
ed
23
d7
00
7f
0c
05
fc
1f
15
19
26
ed
d9
e4
00
7f
fd
25
1a
04
f3
2b
ec
f7
eb
09
00
7f
ea
18
0b
f5
1b
da
e5
f8
07
ec
00
7f
25
0d
de
1d
ef
26
09
f5
00
ea
00
7f
29
0e
eb
e2
f4
dc
17
17
2a
0e
00
7f
06
28
ef
e9
d9
fb
e7
e8
0b
2a
00
7f
20
14
e2
25
1c
d6
25
10
26
e8
00
7f
ea
f9
db
29
14
f0
ff
22
09
10
00
7f
e1
e3
df
00
07
d8
22
f5
17
fe
00
7f
e8
2a
f2
dc
22
ed
ec
f6
22
de
00
7f
02
ef
f9
e2
02
fd
15
00
e0
eb
00
7f
0c
dd
dd
df
03
f9
0a
f8
28
16
00
7f
f3
05
0e
d6
fe
e5
e6
28
e4
07
00
7f
d8
03
f6
e4
21
f0
db
fe
f3
db
00
7f
d6
ef
04
dc
1b
19
22
06
03
eb
00
7f
da
14
ff
ee
e5
ed
f1
e7
e2
18
00
7f
e9
0b
21
f6
24
e0
2b
f6
fc
2a
00
7f
df
f2
ff
e0
19
15
24
0d
eb
08
00
7f
fd
2b
08
15
e3
25
e5
f5
ee
1d
00
7f
12
fb
f1
24
22
e2
04
1e
18
ec
00
7f
e0
15
0a
18
ff
d7
ec
04
e6
e4
00
7f
ea
0c
ea
0b
de
03
1c
28
f2
07
00
7f
e5
22
e3
1d
1d
d7
06
17
fc
07
00
7f
25
ed
e2
fb
f9
04
d8
f8
ec
f3
00
7f
ee
d8
dc
da
dd
19
0b
0d
ee
eb
00
7f
e2
0f
f1
1c
e7
f0
e1
2a
1f
f6
00
7f
fb
e1
e2
2a
06
03
26
05
dc
16
00
7f
1b
fb
ee
00
25
ed
f9
d9
fd
f2
00
7f
08
27
29
d9
03
18
fa
de
f6
db
00
7f
d6
ff
fe
29
07
1b
1d
11
17
0b
00
7f
e0
18
e0
f1
ff
1d
ec
22
e1
04
00
7f
01
08
f3
25
1f
fa
03
2a
fb
ec
00
7f
01
ef
f7
00
0d
23
d7
1e
27
13
00
7f
14
da
26
e2
d7
1c
29
e7
0c
1a
