000000000000000000000000000000000000
7f7f7f7f7f7f7f7f7f7f7f7f7f7f7f7f7f7f
02050505fb02fd01fe05fdff0200fbfe0000
04fb01fffdfefefcff01fbfb0006fcfdfd00
0101fc04fc030105fe03ff00fefa05fefcfc
01fcfe0403ff01fd05010103fd050403fc03
fbfb03fa0100000300fb06ffff050205fb06
0300fffc0000040505fffd04fc0403fc00fe
0504feffff01fc03fd0000010103fd030104
04ff050001fdfdfdfc030504fe01fd0204fc
fc0405fffe0303fb050101fb0404fefb01fe
00030301fefe05fd06fcfd0503fc03020503
fcfb04fffffd05fd01fc01fd02ff04fffafb
05fefdff0103fd0004ff0500000504fc0400
050600ff04fcfdfd0404050200fafffe00fb
fc02fefffc00050301fb0401ff01010405fe
01fdfd03ff0503fd05fc04fefc00fb0404fb
fe04000100fefffbfcfffc0004000501fd03
01ff0205fb03010404fd0305fc04fefb02ff
0003fc04fb02030405fe01fe0305fc040103
fc0103020205fc02fffe02010006fd0002ff
0200fe030301000502fd00fefefb0502fc01
fbfd01ff0103ff03fd00fdfd0106fffbfc03
fe01ffff0100fd0403fefbfefc010303fa05
fefc05fffbfffffdfbfe05fcfd0005fd01fb
01fe01050506fc0105fb01fdfb00fe03fefb
fefb0305030500fffefcfe040005ff000203
01fb04fafd040005fbfd04fb0501ff050005
04fc03fbfffe04fb05fbfcfe05ff02fcfdff
fffbfffdfcfdff05ff0502fd02fb03050504
fd010203fd01ffff000401fafd0404fefb03
000201fdfcfffd010301fd0005fd0506fb00
01ff030105fc0200000505ff05fbfb010204
fe0000fb0101fd01fc01fdfffe01ff03ff05
ffffff03fdfefc00fefefcfbffff05ffff03
fdfbfdffff04060103fffb00fc0102fd04fe
00fb010304fb0104fe01fefd030102fb0400
fc04fc0102020303fffe03fffd02fdfd0604
060601fbfdfc03fe03fb02fb00fffffbfd00
02fcfd0103fc0505fffc04fb020602fb02fd
fdfc0003fefe02fb04fcff05fd040300ff04
fe0103fe01ff05fd01fe00fd0500fa0103fa
fcfefcfe000400fefe0301fefbfbfefbfd04
0004fcfe0305fd0302030004fc0305fe0100
fcfb0200fbfb04fffc0500fc0202fefd0503
02fe01fdfffe0404fe04fa0404fb01fc0502
030000030100fefdfbfe060200fc01050104
0102040201fdfdff04fbff0001ff050602fd
fefe02040002fbfcfefe03ff0505fe000306
00fffeff040300fbfe00fbfcfbfdfc01fbfb
fa0203000100fc050602fc0606000401ff05
fe0205fd0304fbfdfe0500fcfb02fb05fcfb
05fe01fe05fe00fbfe0202fcfb0104ff0002
fbfe020201fffa03fe030205fffc03fd0100
01fcfd02fe010302030001fefc01fe000101
fafefbfc04ff0200040502030200fffefdfb
0204fcff02fefffafbfc00fefe0104fb02ff
04fb04fe0002fcfcfe03fa000004fd00fc01
02fffc01fe01fdff00040305fdfcfefc04fc
ff0403fffc0205fa0104fd01fc01fa000104
00fb050000fdfe00fa020601fa04fbfcfd03
fffefb00fcfefb04fe00040200fb050500fb
fa0201fcfefe01fb04fe00fffe0206fcfb05
fcff03050005fbfc04fefefffe0005fc04fe
01010406fcfeffff03fcfcfb0205fe010404
0302fbfd050401030303fbfdfefbfc0200fb
fb0504fe05020103fd040404fcfeff0304fe
040305fdfc04fcfd02000103030003fefe03
fcff02fffefd03fefb05fc04fffb0500ff01
0602ff05fefc02fcfd0404fa05fa05fb0200
06fafe05fb01fefbfb040203fefcfc05fcfc
00fbfe01020403fe03050303fefd0103ff04
01fefd0501fa0501fe03fb010603000503fc
01fdfe02fe02fdff00fe0201fefcfd00feff
03050103fffe0000ff0203ff0500010405fd
00feff01fb0402fe0002ff0205ff0100fb02
01fbfb0501fd0401fbfcff0401fb05030002
fcfdfffd03fb02020102fb060304fdfcfdfc
0303ff0302fa030203fdff03050104fc0405
02020504fbfc05fcfb01fd0503fc05040401
0001fc02ff05fbfe0005fdfe01030005fbfe
05000405fefb02fc05fc04fe0502fc02fe00
fdfb05fbfd0105ff0204060303ff010200fd
fd050604fffc0400fdfd05ff01fffe0100ff
fe00fbfe0502fb00050104fc04fe04fb05fd
fafbfb040002ff04fd03ff0402050105ff03
03fdfdfdfe01fc05010502fa05fbfd02fdfe
04fffdfdfd03fdfbfcfdfd050003fd000301
fefefefefb00fe0400ff01fc000404fcfbff
0305fdfffafcfc03fd0405ff000405fb0103
fefd030100fdfffe0500fc0503ff0002fe05
03fffd0402fa01fe00fe0300fffdfefd01fb
fc00fefe00fe0001ff05000202040401fe02
fbfd00fcfbfcff02fffd06ff000403fbfbfe
00ff01fc040404ff03ff050303feffff05fe
040401fcfdfe0104fdfa000305fdfc02fd00
0401ff05fc0300fcfe01fcfb03fe0203fd00
03fdfd0404fe00fffc00fbfc01fefbfd05fe
03fe0003040303fbff0002fd02fdfd040005
06fefc0103040000ff030404fd0404000101
030204fafb02050101fdff02fafffffc0405
02fe020202fe0200fffe040206fc03fdff04
060001ff01030104fb03010006fd02ff0300
00fd03fefdfdfb04fbfdfcfb03ff000403fd
fa0500fe00ff010103fb04fcfdffff0200fd
02fcfb010301fbfbfa0402fb01fe03fe00fc
fbfb0404fcfe04050403fffc0101fa00fcfb
0104fd01fe00040100000400010303fbfc02
fe04fbfcff03010303ff0401fdfefd04fcfb
050002fc04ff0304fdfbfd0500fdfb0504fb
fffb020301fffefffcfd01fdfffc000101fd
05fbfb0401fb020500fcfa04040304fc0400
fbfefd01fbfffc0405fb04fffffd0501fd04
01fffffe0403fdfcfd030200fcff010004ff
020100fe03fcfe00fafbfcfdff0302060301
02050200fffe00fb0003ff03020200fb0301
fe02fc0105050105020402fb02fd02ff00fe
fcfefe0300fd0102fbfdfb0004fffe010100
fdfefe0505fb0400fcfe0205fd040000fffb
01fbfb020505fe03010303fbfd0000fe0504
fffe01ff04fe0102fe01fbfffdfcff04fd06
0003050302fb020005fb04fb040201000504
040404010404ff0204fe01010000fe010302
fb05000302050200fffd04fb05fd04fefb05
05fb02030403fb0403fb02fd00ffff00fafb
fe05fdfc0400fd0301000002fdff050004fb
ff050102fdfcfd01ffff04fa0500ffff05fa
0401000103fc0405fb01fe040004fbff0401
fcfa050304ff00fcfbfffc01000001fe0105
02fd0104fb04fd02fdfc06fd05fcfdfffbff
01fffdfd03fefafbfdfc050501010101fe01
0305040005ff0202fbfdfd0304fe0403fc03
05fb01fcff040300fe0405fd02fffb040001
fffb020204fe0403fefe01fefc0400000002
fc0104fb050005fcff0405fdfcfd050002ff
fbfbfc05030004ff0304fbfefe00fe00fc01
fd0404fffd0403fc0500fe00fe00fb050104
05fcfefefb0101fffbfcfcfcfffdfe04fbfb
fefb04010002fdff0005fbfb00fdfffb04fc
02fffe050101fdfcfcfcfefc050001ff03fc
fefc030302fffcfbfcfefafc00fc05fd06fe
fa0304fffcff000004fc01030004feffff00
010500fd03fdfcfd01050203050202ff0504
02fb03fc010201fdfd05fc04fb0100040203
fefdff02fffefcfc03fd01fd05fe030206fc
04fcfc0003fbff01fdfdfbfefe0401060401
0601fd010300fbfffcff02fb030502fdfdfd
050000fc00050304ff02fe030101fe00ff02
fffbfdfbfd030601fdfe04fefd01fb020206
00fc040205040204fffbfdfb05fffc00fd05
0605fbfcfdfd05fffa0504fb0105fffefb04
0405feff02fcfdfb02fe00fefefe02050105
fbfc030104ff03050505010004fcfe020305
02fc03000304ff030106fbfcfefbfbfbfbfb
0302040201fb01ff04fb03fffcfcfd010104
02fbfcfcfc00fb02050002fb01ff030001fb
fb01fb05fb02ff040500fdff01fffd06ff02
fb01fd0100fe0302fa060103fb04fe05fc01
fafb0303fd02fe05fdff000604fdfd0103fc
fe00fc0403ffff050200fefbfb0200fdff05
faff02010300fb00fd050004030305040200
fe02fdfb02fe00fefefcfafb0203ff010203
0404fd00fcfffdfbfcfafe02fa0205fb0300
fc00fc02050500fc050104fcfffdfbfd0105
fb01fbfcff03fffdfb00fbfcff01fd03ff05
fcff02fbfefd040403fb0305030505fc0104
0300fdfe01fd0104fbfd000005fdfd0203fc
02ff0100fb06fb00ff0002fbff0400fb0502
05fdfbfdfefffdfbfc02fc0404fefcfc0002
02fc01040103fffbfbfefbfb00fcfb04fb03
0302fbff03fc0103010305fbfbfdfd06fdfe
fbfc0501fcfefefb00fcff01fefdff03ff02
0100fefb030502fc00fe05fd0405fc03ff05
ff0100ffff02ff01fc0503fd040405fc03ff
fd04ff050601fbff0204fb01fc0402fd02ff
04fcfdfdfbfefffb05fe01fafbfc00ff0403
01fb0000030005fd050401fefa01fb0202fc
fd0005fb0101fdfeff02fd00fb02fe06fb00
05ff01fc0101fbfdff03030204fd0505fcfc
020503fb04050301fc05fe01fe0201fb00fb
fc03fe0300010302fb0406fffeff0302feff
05fbfefffcfbfbfdfe0401fb0401fb060602
0203030101fefb03fb06fcfe0305fffefdfc
02fcff0003fbfefffe04fd05020404fe0004
0302010405030204fb010505fd02fffdfb00
fc0404fdfb010002fb0200fb02fbfdfdfeff
fe060303fffc00fcfc0402fefcfeff02fffd
fefcfd03fd05fe01fefc05010001ff04fbfe
0200000104fb05fafb02fcfe0101fffffc05
00020200fc03fcff020301ffff03ff05fdff
0102ff0500fdfe0505fafefcfc01050500fc
fc020003ff01fdfc01fdfc05fdfb04fd03fc
fc00fe0100fcfb030502fffbfc040100fefc
0105fdfd04fdfbfefc02fdfc00fc04fffeff
fbfd01fc01fdfdfdfdfa06fffb05ff05ff04
04fcfffdfffdfdfefcfdfc010100fc03fbfd
fe0302fbfe050505fc05050302feff04fd04
0002050505fefcfc0301fcfb0200fffc0000
01fbfefbfb0002fd030404010405fd010100
020304fbfe00ff01fd05010306fd04fe0300
fffefdfbfbff04fc03fe0500fdfcfbfdff03
0402fb020405fe0001fffd0004fefdfe02fb
fffefd03fbfd01ff03fb0101fe050402fc02
fd050305030201fe0101fd0100fffc0200fe
03fd01fffe05fbfcfffefc03fefefcff0402
01fbfefd0302020401fd050004fc0103fffe
000400fb03fbfd000101fffe03ff0202fcfd
fb01fdfefd04fe0202fd0301fcfd02fd0105
050003fbfdfbfdfdfb0105fcfe04ff0302fa
03fe00fc020301fa020302fe00fefcfd0204
fb0301fb050105fcfefbfb0500fffcfe05ff
fefb01fc02fe0000ff0405fd03fffb03fc00
0103fc04050305010201020100fbfefbfcfe
fbfbfe000006fdfffefe06fffbfe05000101
fd00fc02fb01fb000203fc0103fb05fffefc
fc00050500fc03fe02ff0005fd0202fc0002
030301fc05fe040501fbfc05ff05fd01fffe
03fbfc02fb01fcfbfd01ff0500fdfe0401fd
0301fefb0005fcfd0403ff010602fe06fffd
0003fcfffc02030102050303fcfc05fbfb03
00fbfe01fd03fc04fe00fd01fc0300fc0004
00fdfdfd0506060505fa0404fd0203ff05ff
0203fcfefc0002fafdfbfefb01fcfdfb0200
ff03fdfc0504fe000201fb02fcfdfc020405
04ffff020204fd02fbfcfb03fd0504030005
fdfe0202000005030003fefc0404fcfaffff
01fcfe0501fd00020104fe02050203fdfcfa
fefb030400fcfbfcfd0504fe050106020205
fc010304fe05ff0205ff00fcfefd00ff00fd
0300fc05fbfdff0505fbfcfdfa04fe000204
fc05fffd00ff00050205fdfbfe0506ff0104
020303fbfe0002fafffc030303ff00fb0301
05fdfe02fbfefefdfd000205040404fafcfd
fefffd03fc0204fbfd01fc0103ff05fc0502
fffc00fa0504fb0204fc00020202fb02fefb
04fb05fd0204fcfe01fc03fcfc04fbfd0500
fdfffbfefe04fb06000202fd02fcfd02fefd
03030405fbff00fb02fbfdff020400000502
04fefffc0205040105050100010305ffff02
01050200020100fb05fc03fc050201fffd05
05010501fd00fdfe0205fdfd04fe04fefc03
0600fb00020101fe01ff0305fffffefc01fa
0400fdfefd03fc0403fd05fd02fc0102fe02
03fefeff01ff04ff03fc04fe0302020004fa
fc0105000501fb0501fbfbfcfd04030502fd
0206fb0403fefd0200fa0405000203fc0502
fafc01fe0304fffc020001000602fc03fd05
00fb04fbfe040402030301fb01020201fd00
01ff06fbfefe00fc03fd03fdfbfb05fdfc05
fcfcfbfffbfcfefffbfcfd0202fbfb01ff04
fdfc0105fcfbfd0001fd05fefefe05030102
fc0005fcff00fd020403fe0303fffdfcfcff
04fbfd010503fbfd0403030100fc000205fc
fb0403fc03fd01fcfdfdfc000200fe010105
fd03fcfdfe03ff01fcfd02fc0501fdfd0505
020604fc0103feff0102fffe02050400ff01
fefc0402fc0500fc0100fefbfb0303020003
0204fe00fc0101ff0004fd04fffe00fafefe
020301fb01fb0005fffefffb050401fcfe03
fd03fdfe0400050102ff04fffc0102fd0004
03fdfefd01fd04fd0104fafdff03fb000500
0300fffbfb04030002fa00ffffff050202fb
010301fc0004fb0002fb05050406fdffff05
050303030300fdfdfe0203fefe0104fbfffb
fcfefbfefc010102fc05fb01fefffffc01ff
0103040404fdfefc03000403010305fe02ff
010001fe03fd04000504fcfbfefa02050505
00fcfafd0301fdfffeff0101fb0301fb00fb
fd040205fcfd01fbfefc030502020302ffff
fefffdff01fc01fdfe00ff05fc03fbfe03fe
fefbfdfb05fd05fffc0004fb030400000402
0500fffc02fdfdfe040201040502fffb05fe
fffc010505fd010002fefcfbfd01fbfbfe05
0501fd050304fafffe020504fc02fd0305fd
05fefd000001ff0205fbfc040405fbfe05fd
0105fe03fefc00fffc04fc0404030505fb02
fd01fdfe03020006fc05fefe0202fefbfbfe
020004fc00fe0100ff01fbfa04fefffbfe05
fa01fb0004fefd06fc05ff05040204ff0502
020202040104fe03fefafdfffbfdff04fefb
fdffff04fefbfc050001ff04050204fbff03
fcfffb04fefbfd03040203fc03fefc030501
02040300fd00fd010202fdfb020202fc03ff
fe0103fffd0200fc0400fcfd04fc0505ff01
fd05fd0400fcff030402fbff0405fe04fc00
0203fafefcfb01020404fd02fcfbfc050301
030202fdfc00fc0201fc0105fcfd05030404
fffffd04fb0400fb04020100000202fbff00
04fbfc03fb0005ff0000fcff0402fb0503fc
feff04030304fefbfb0104fefcfafafc0601
fffbfffa0102fb03fdfefd0302fefcfb03fd
02000305020506fb0500020302fffffcfb03
fdfefcfeff01040402fe05000201000503fc
05fbfd06fe04050302fdfffd0401fc040003
020503fefd05040203ff0100fcfc020305fb
fcfbfe01050005fdfffcfd05fefb01ff0302
fc02fb01fbfb020300fdfd000104fd030101
fdfbfd020503fe0005040401fefffefbff02
02ff05fefd0200fefbfdfefaff03fdfefcfd
fdfbfcfd03fd01fdfc0401fd050205fe04fc
060001fdffff0303050503fffdfb00fe0005
02fa0202010405fffcfd03fd02030301fa02
00fafe0401fe0103030105fefcfffdfe03fb
fb010502fdfb06ff03fbfdff03ff00040001
0305fbfcfbfcfefd02fd00020402ff03fffd
0502fefefefcfc01030301050100fbfc02ff
05fbffff0002020005050100fcfefcfefdff
fefffe0501fd05fb02fffb04fc03ff040004
fffe01fb02ff01fc01fcfbfbfdfffc02fcfa
0104fcfd04fe00ffff050304fefefcfbfb01
0005fb0203fdfd010402ff0504fb00fffc02
0204fefcfb0205fd010103fc02fafd010404
fcfd0105fb0402fc000400fa02fe0305feff
010503ff020503fbff0102ff05fb00fc0404
fbfbfc0401fffffc00fc0306fc03040605fb
050305fd0400fc0305fefefb00fffc01fbfe
ff01fcfb04fd020503fbfd0305fb0104fcfe
02000402fd05fe02030004fbfe0402fcfcfb
feff050205fffd0105ff00fdfefbfe05fe04
ff03fc02fafcff0100fd0401000304fefffa
00fbfefdfcff02020202fd02fb03fc010205
fefffbfb020306fb04fe05030002fc05fefb
ff0000fb03fa0504fefa01fbfdfffe01fefb
fefb02030303ff03fe02fefefcfe00020502
02ff01fffcfe06030004fb0200fcfdfb02fa
ff03fe00ff06010303fe030204fbfb05fe04
fc00fdfc02fe04fd030300ff06fdfe04fbfc
fe00fc05030504fa02fdfe01ff01fc02fffc
030504fb0504fbfdfcfefe0103ff01fb0106
fe05fcff03fb00fc02fdfc02fdfb0504fc01
03fb0001040304ff02fc02fc0101fe020105
00fffbfbfe05ff02fbfdfefbff04fc06fd01
fcfe0103fb04fe03ff04fefc02000402fefb
0600fcfe06ff0200ff04fd0402fefeff0301
0100fffbfcfbfcfffbfa01ff05010306fffc
00fd00020203ff04ff0602fb01fffffefcfb
03010202fffc05fd01fdfffb03020100fdff
ff0103fa0200ff02ff02010203fb00fbfc04
06fa00fffc0000fcfd0105fb04fb05ff04fc
02fe01fd0502ff0001fdfffcfcfd040504ff
03fffe01050400fefffbfd00ff0202fe05ff
fffb0504fd00020305fbfdff03fb02fc0203
030304030004fcfffffdfc0401ff0500fa00
fd0000010600fdfbfd040002fd0101ffff00
ff00000505fcfc04fdfffd02fffd03fc0401
0500020601fb000302fb0300fbfefd0201ff
fdfc0203fa010102fbfd01ff0003fb02fefb
fafe0501fbfb00fbfcff05fb010103fdfd04
0405fcff010504ff02faff0505fdfc030404
00fc000401fdfc0101020502fbfc00fdfeff
ff00fdfc01ff0501fb0404fd05fdfbfc0003
fefffe000505fc0402fcfffcfcfdfbfc01ff
fefcfb01ff0304fb020102ff02ff0202fcfd
0105fcfe02fefffffb050501fd02fafcfb02
04fefcff0200fefb04ff000002fbfdfc00ff
fbfd010206040003020200040001ff02fe05
fefdfd04ff04fc0103fc010005fc01fffafe
050500fe020405fb05fc02fbfb01fe010405
05fe0401fefe030100010003fe0203020001
ff0204fc02fdfbfbfdfbfbfe00fd05fcfd00
ff050300fd020002fffd00fcfdfcfbfc03fd
fd02fc04fcfd02fbfcfcfd06020201fd05fd
03fd03fb04fb02fefe000200fc0405fe0002
02fbfefbfc0301fc02fdfb03fc03fc0202fc
02010204ff00fcfcfd000303fb01fbfbfb01
0001ff00fffafc0404fd03fe0500000105fc
03fe00fdfb04000105fb05fc05fc02fffdfd
0105fafc03050102fcfffcfefbfefc00fe05
fffd050103010100fe00030201fe03010002
0206fe00faff00fe0202ff04fd02fbfffd04
fbff00fd020401fbfc01fbff0503fbfefbfc
02fffd04030502fb010503fffbfcfffb0400
0205010104ff03fcfefd05000101fd050401
0004000505ff02050504020301fb0401ffff
0000ff000204fcfdfefffb000306fdfffbfd
0402fa05fcfe04fd01fafd00fcfe02fd05ff
0401fd00fdfbfdfbfc0303fa01fffc000404
fcfdfc03fcfe0405fffdfc01000602000303
fd0304fc01fdfbfcfc020502fffafefcff05
010003fffd03fcfd03000505fcfcfc05fb00
05ff00000300fffe0300fdfefcfdff05fbfb
fdff050302fc01fe01fdfcfffe0401fe01fb
fcfc0505040301ff00fc03ff03fdfefefffb
0403fd03fefd040504fc03fc06fefb050203
05fc00020102fd0003000505fb04fd02fb01
ffff04010304020304050103050005ff0100
fdfffa02010103020105010200ff0504fbff
00fdfb040204fbfc05fb0404fefbfbfc0301
fd00010403fb0306010504fc04ffff0205fe
0304ff04fd0503fc02050001fe050402ff02
040305fe0301fcfb04fc02ff0201fe04fffc
01fdff05fc02fdfd0100ff03fe0302ffff00
fd05fb0203fcfefcfefc0202fbfd01050305
fe040502fbfefc03fefe000305fb0103fd01
fffcfeff0201fb04feff02fefa01fdfbfc02
fcfd0103fe0502ff03040103fe00fefd0104
fc04fdfe02fc050403fbfc0104fd01fe03ff
0302040203fb04fdfe0300fffb03050202fe
00fc040400ff06ff01fd06fe0102fbfa0401
fcff03ff05fbff000200fefffb0300020502
0202fffbffff05fcfefe0401fc01fefc04fb
fffefb030300fffefafffb01fcfd04fd0402
010500fcfb030300fc0502ff00fd04010403
fffe00fd02ff02fd020200fd040403fd0503
fb0501ff04fc0204ff0306fffb05fc050505
feffff0006fefc0302000202000405fdfdfb
fe05fe03fdfbfe05ff03050001fbfe01fcfc
fefe03fdfd0303fbfe0100fc03fbff05fcfc
fafd05fe0102010302050502fbfffb00fb04
fcfdfe020104ffff0006fe04010503fdfcfb
fd04fbfafd05fc0603fcfc00fb0506030300
02ff020100fcfbfd00fb01030105fcfe0302
0605fffffdfafd03fbfe02fffbff04ff0100
fc0203fcfe02000202010000fc05fd05fc02
ff040505ff0004fc010500fbfcfc06050304
0204fe00fb0003fb0201010100fd0101fdfe
fefd02fe0402fb00fe01fd0100ff050004ff
fdfc03010001fbff01ff020006fcfd0300fc
fc04fb0301fdfffcfb0400fffd06050100fc
05ff020101fbfffefc02fd01fefc010304fd
0305fffb02fd03fefc04fe030504fb05ff03
fc04fd02ffff00000502fc030002fe0302fc
020204fbfcfbfd010201fdfafbfc02010205
fcfefe0304fdfbfd04fbfe040101fdfc01fb
fd01fffc04000300fdff00fe03fd01050502
0304fdfdfbfdfe0305fdfefefc02fd040404
03fe000503ffff02030001fd04fc04fcfffb
040205040105000500fb040201fc00fffb00
04fefcfe04fdfb01fd0104fcfc0100020304
0500040501fb0002010404fc01fb0201fe02
0101fdfd010104fd0306ff0000fffbfb0303
fcfb02fe020303fbfffa020304050501ff03
ff0200feff04ff01fb0503040100ff02fc02
000400fe050204fc0100fc00fb01fb0405ff
0100000406fb04fd01050500fc04050403fc
fd0004ff040205fd04ff0403fbff000104fa
ff00fffe05050102fefffb06ff06fffbff01
fffefd04fb05fefe040403fc0100fd02fb03
01fe03fbfbfd010505fffffe03fbff020200
04fbfc05fc020000fbfc040401fefefb0000
00ff04fbfcfdfb000402fc0505fd00030500
fefffefdfe04ffff05fb020003fe0205fe05
fcfcfe04fd04fdfefd01fdfd01060300fe03
04fcfbfcfd00fefb0302050200fd00fffe04
02fc0506fb04fa020003fefc000600000000
060304fc0101fdfd050301fbfcfe02050505
fd00fffffd0302fc02fd04fb02060504ff03
04020303030002fd0203fc01040204fc0300
04fd01030203030202fb0002030501fe01fd
fbfd04fc0301ffffff01fefbfc04fb0503fb
fffcfbff04fdfe030101fc05ffff00fb0000
fd010503020200fe0304040202fc00050402
fdfd0103fd0302010001fbfc04fe03fd02fb
01fefb03fb04fd0502fd05fb05fefaff02fe
fd05060102fd03fbfefb020204fbfc020002
030104fefb03fc040005fcfdfd04fefefefe
0002fb0302fdff030005fd02fefffb0502fb
fdfe040105fd04fe01fb01fc000103fc0000
fcfefefefe00ff0405060005ff020203fcfe
fdfefc05fefe0100fefcfc01010201fd05fe
ff010401fe03fd01fffbfdfdfcfdff0002fb
fffcff0103fd02fb02ff030303feff010202
0305fd0103050200fe0402fdfd0303fd0500
0200fc00fe030201fbfe0502fdfefb00fb04
0402fe01fefbfc03fcfcfcff00000104fa03
01060505040001fa0500fbfbfdfd02fd01fd
0206040104fd020303ff04010304fb05fb04
fd000203040304fbfffefe0502fc05feff03
04fc0002030203fa00fffb050102010503fb
00030303fb0005fdfc03fe06fc0104fb02ff
01fd02fdfb03050101000304ff02fefb03ff
0404feff0200fefb0401fcfcfd00fcfb02fc
0503fc0502030300fd04fe05fefbfd0200fd
01050401fb01000202fffbfe0302fdfb0400
fe04050105ff02fdfe0000fbfe0202fdfdfe
05fffc0502fdfbfc0502fcfe030500fc03ff
0302020002fe00fcfdfa01fc01fdfbfcfefc
0503fdfcfefffcfa06fb04fdfefefbfcfc03
00fbfdfb00fb01fefb01fcfeff030401fdfb
ff02fffdfd05fd01fb0601fe01fefffefe02
fefcfdff000103fd050200fe00fd01fbfeff
fa0301fdfdfd01fe04040103fe0002fd04fe
fcfb01fcfc04050203020503fcfc00050102
0200fa02fd00fefafdfb00040301feff0400
ff0001030103fe01fdfc02fffd0501030302
fffcfe040501fffbfb03fffe03010400fe03
04fefb01fa02ff00fcfcfbfffffe02050203
fcfb03fbfe01fd00fcfefb04ff0204ff02fc
fdfdfdfffcfefefb04fc0404fe01fdfbfd05
02fcfc0201fb010003fb020301fb02fdfa05
ff05ff0001fd030304fbfc010500fe05ff04
04ff0302fcfcfb0200fafbff0401030202fb
fcfbfefbfc02fc02fcfbff05ffff0401fd00
fefefe02fdfd01fc03fc01fe000002050203
04ff02fe06000404fbfdfdfbfefbfd020504
02fbff0205fa0104fe0300fcfcfd04020504
fd00030000fffffe0402feff00fd04ff0200
0400fdfdff06fefcfb02ff01000203fcfefb
05000200fb05feff0101fcff04fffcfbfdff
000502fffcfbfdfbfe05ff0101fc030504fd
040301fffe03ff05fd050202030005000002
040201ffff01fdfc02fd04fbfefffe04fb03
01ff05fbfcfe0304fc05fd04fefdfe0401fe
020005ff000302fd05fefd0300fcfd04fd03
fbffff04fb02fd0305fd03fbff00fffefe01
0403fe02fe05fa0000fe01fa01fbfe000303
020000fefefe0000fb010303fb05ff0201fe
fe02fcfc01030504fffe0100fc00fcff05ff
0204fc02fbfe03fb030504feff03fc00ffff
fa0001fd01ff02fc010200fb01030301fc05
00ff0001fcfefb0201fcfd0103fcfefb0004
0505fdfcff01ff02000502fb02fefc05fd05
ff000204ff03fcfffeff0301fc050002fbfe
fe04fa0302fc01000200fbfc030102010104
0105030103ff03fb0205fd01fffe0002fd04
000000000000000000000000000000000000
7f7f7f7f7f7f7f7f7f7f7f7f7f7f7f7f7f00
fafcfcfc0405fe0204fb0403fd0300fe0300
050000fdfefffc03fe01fd03fefdfe00ff00
0400fe0606fbfcfdfcfdfe03fe0002fdfd00
04fe0301fd0200fdfe0101fcfeffff020600
fb0303fbfbfd03fffe000303030304fdfb00
01fdfcfcfefcfefcfffffd02050505ff0100
01fcfe05fc01010300feffff02fefb000200
fd02fb03fa04fb00fffe050401ff05000400
030505020204fcfe0004050102fb05050200
fdfdfbfdff00ff0305ff0303fa04ff00fc00
0104fffc0202000303fb0304040304000300
fffc0100fa020602fb04050201fdfbfe0100
ff0502ff0102fdfb02fefe0005010401fb00
00fe00fe01ff04fffd0400040503fcfcfc00
03fe020203fc02fcfbfb02fafe0403fefd00
fd040104fefb02fcfd04fb03fe00fc000100
02020402fe04fc0401fbff02030004fe0100
0302fa0001ff0105fcfefcfcfc02fffbff00
fdff0104fffe05fbfa03fe00fefe04fefe00
fefefc01fc0204ff0506fd00fd0204050300
fcfe0000fe050100fcfbff030002fb010500
01030401feff0302fb04ff02fefd05040500
04fffffcfe050003ff0202fafd0502fd0000
fffb05fc040501040401fa0402fe04ff0300
0400000305fcfcfdfb02fcff05fdfcfd0300
02020004fcfbfffcfe0300fffdfbfdfd0300
02fe040301fefbfffdfd0104fbfcfe020100
01fbfb0402fcfc05ff03fe000200fafb0300
05030502fe03fffa03fcfcfc03fffe040100
030600fe00030001ff000004000100000100
fffdfdfe0100fffcfefbfd0404fffb020000
02fd050501fcfe0203fe0002fe000304fb00
fcfe0001fa02fd000100ff06fffa04020500
050502fbff0303fc06fcfd0504fc0401ff00
0300030501fffdfeff02fb03fefefbfb0300
03fe0105fb03fb0204060505fb0402feff00
fcfb0504fcff0001fb0101fd05ffff010000
0502fefb0101fd01010104fc03fb0506fc00
ff00fbfe01000405fffdfdfcfc06fb01ff00
050504fc010105fcfc01020005fc0104fa00
fb02fa00fefd000505fb030400fafdfffc00
fffcff01fd0103020300fc0305fdff030400
05fe02fafe05020401fdfefbfa05fe020100
0300fc050405050003040402fe04fbfe0500
0404020402030004fffb040204fb03fd0400
04fd05020301fdfb02fd00fd00040103fb00
0503fefafeff010202fefefc0103fd010200
0102fcfdff0101fffd04fefffbfc0302fe00
04fcfdfe04fffb02fefefdfcfe0103030300
fefb020400fe03050000020001fb00fe0400
06fbfe0303040106fe0205fd04fbfbfd0400
0000fd03040001fcfd0504fcfcfb01fc0100
fcfd05fd02fffe00fd05010504020401fe00
fb0202fcfafc01fcfdfffd030004fbffff00
03fd01fbfd03fc040306fffbfbff0402fd00
02fe00fb040404fb0303fcfb0101fffffc00
00fffafb01010402fffcfc03050502fcfe00
fbfb05fc05fd04fcfc0205060501fdfbfb00
fc0304fcfdfc0001fbff0200040403fd0400
01fcfcfc03fcfd01fcfcfefe050403fefe00
fffbfb02030105fe02fb03fe03fd00ffff00
020501040203030105fcfb04060304fefd00
ff01fc00fc02fb03fffcfd02fbfdfc05fd00
fd02fd00fffb04fa030501fdfe0300040400
fdfcfc020505fd020102fc0104fb05fd0200
04fcfcfc0405fcfe05fd0102fafe03030100
fffd0002fc06fc02fefefbff05fb0400fe00
fffc03fbfb03fcfbff0500fe0400fb060000
fffffb04fdff06fbfffcfefd0103fefe0200
fe00010205fdfbfd0102fe04fc030305fe00
ff03000004fd00fbfffffefcfbfbfe010400
fc050300fe02fffdfbfd05fbfb010502ff00
00fcfbfe040202fffc020603fd02fbfdff00
fb0500fd0503050403040500fffdff01fc00
fefe06fe030103fa050102fc03fcfd00fb00
0105030201ff0006fcfefe01040104fdfc00
fb030102fefc03fffb03fc01010205fefd00
02fefc02fc05fcfffcfbfb0005ff02fb0300
0505ff0400fc05fbfb04fc05040401ff0400
fe040500fe01fcfd03fc00fe000303fbfe00
0502ff04ff00fe0304fb0302fe000405fb00
05fc01000501fc050200fc00fcfd06fcff00
030203fe000503fdfb040200fd0503fd0100
00ff04fb00fefc06fc03fc05fc05fefefb00
fc0400ff04fffffc0505fa03fd0103fc0500
fbfffe03fcfbfc0404fc06fdfbfc01030200
00030504fcfc0405040302040404ff02ff00
fb00fd0402ff000205fb010202fdfb00fb00
fc0303040102fe00fc00fefffefbfd040200
05fb0502fffcff00fe00fffbfffe04050300
fe0504fd00fcfb0203040102060302fd0100
000303fefe05fd010504fefc050405fdfc00
ffff0203fcff02ff05fa02fb05ff03fcfd00
fdfefc06010401ff0302fc0402020203fd00
fbfa0503ff02050200fbfdfbfb0300fb0200
00fc0403fe0402fd00000301fffefcfeff00
fb010502fb040500fb04fd02fdff00faff00
040003fefe03050203fc050505fe03040000
fa050205fbfdfbff010005fd01000401fd00
ff0200fafffbfc04020502fbfcfffd04fd00
0501ffff05fefe00020503010505fe000500
02fbfb0503fefc01fcfe02fc02fd01000400
05fb0200fd0502fa02030203000204fc0500
05fcfc0203fffc0104fb0204fafffafb0100
fd03fd0500fffffcfd000004fdff04fefb00
000603040100fefefefc030005fffefefd00
04fd0401050505fcfd0104fefefefb030400
fffbfd040503fb01fefe00fa03fefc000500
fffcfd020201050304fdfcfcfbfefdfbfc00
fd0300fc00fb0402fcfffeffff00fb05fb00
fdfe04fffafdfd05ff02fd02fc040102fb00
0304feff0505fefb000505fb000404fffe00
feff000203fdff00ffff00ff02fbff050000
03fffbfbfcfd01fc0002fd05fdfcfbfcfb00
fb03fc05fdfcff020102fcfb030001fe0000
02030302fd01fa01fefefc01fefe02050100
06fd00ff020604fc0402fbfefc04ff01fb00
05fefeff0403fdfffc05fc01fc05fcfffc00
03fe05fc01fbfc0200ff02fffa0305030300
fdfd04fe0303fb0105fc06fc02fffbff0200
03050001fd02ff000502fbfd0003fdfb0200
01fefd030202fc02ff0303fe0201fc00fc00
04fb02fdfdfe040001fdfeff010301fd0500
0503ff020305ff020300fb02fbfffc03ff00
04040103ff01fcfc04fe0105fe0501fcfe00
fbfc050005fbfd0603fefefbfe0004020200
fdfbfb00ff03fd040305fc020305fe010300
05fffc00fffe01fffbfc01fc05020305ff00
fbfc050505010300fb0001fafa0205000100
03fa0405ff01fc040205000001ff01040300
fb0101feffff030303fdff05fefd01fdfc00
fc010101fc0305fefbfffb02fc0502fb0400
fe00ff040304fc04ff01ff02fcfbfffffd00
01fbfc05fbfbfe00050104fefa03fbfcfd00
0001fe05fdfffb00fe01ff0302fe02fffd00
0103ff0302fe030505fb00fcfb0104020400
fe05ff010505fafefafefb0200fc03ff0400
010204fefcfb05ff050005fffefbfd02fb00
04fc03fe0004fdfc03ffff05fcfd02fcfa00
0004040301ff01000300fc0202fe01fefc00
fb0204fd03fc0503fc01fdfffcfc0004ff00
fefb04000302fa05fc05fbfe04fcfc010200
0300fdfb040305040202fcfefd0301040300
fb000203fd01fcfe02fd020104fd01fb0200
010400fdfffe02fe0005ff01050405fb0500
fefc01fd05fe05fbfefdfe0202fb01ff0300
ff00040505fd0002fefcfa0201fdfffbfd00
01040403fdfdfe01fbfb040001fbfdff0300
05ff01fb0303000000fe03ff0302feff0000
03feff02feff0300fdfe00fc0003ff02fb00
fd000505fdfe0502fbfd0301fd00fefb0500
fd02ffff0202fbfcfcfe0100fe00ff01fe00
fd04020101020000fbff04fb01fc0503fe00
fbfc01fafffb0302fd050502fefb01fb0000
fcfafefdfe05fffd00020504020203ff0100
fe03fffdfefafdfe0502fc04fd04fdfbfa00
0104fb0500050300fffefcfe000101fbfe00
04fc0200fe0505fc04fffafd00fefbfd0200
050001fa060204fa03fb020100fe01010400
01fefefbfeff0305fb0304fd00fd05fa0100
fd00fbffff060200fb0304ff00fd02fb0300
fffbfc05fe0104fc020402020401fc01fd00
02000104030101030001fbfefe0403050400
fdfc0501fbfc0104030103fdfe02fcfffc00
04ff02030304fb0502ff01fe0504fffd0500
ff020505ff05050104fbfcfbfc00fe01ff00
010505fcff01fcfc0000fc0404fe05feff00
fd03fffb030305fd04ff020203010303ff00
fb0502fbfe030102fffbfefc0006fb040100
0001ffff0005fcff03fc0003020506000000
000105fbfdfd0504fb04fdfb0005ff000300
040305ff0505050505fe0202000305fefa00
02ff0501fc02fbfc02fcfb020302fb05fd00
00fafe030505fffd01fe00fb02050303fe00
fbfe03fe0405020205fefcfdfe00fbfcff00
04010101ff030302fdfb0102ff05fb030500
0005fbff0406feff000102fd03fb05fd0100
0405fd03fcfffdfc05fe0506010505fa0100
fbfd03fd030300fbfe00050400050302fb00
04050405010004ff0402fcfdfe030003fa00
03000205030505fc01050102fdfbfd020200
040301fe030005fcff03ff0501020203fd00
feff030204fdfb01fb0402fe0305fe06fb00
fc02ff0202fc01fb0506fb00fc02ff000200
0402ff00fdfcfc0102fbfdfe06fb0201fe00
fbff030400fefefc020603fe02fcfd010200
0002fe020206fbfffb040502fffbfc05fb00
01fc000003ff0205fcfd00fb04ff0203fe00
050101000201fd0304fb04010000fdfc0100
0402fd05fffdfc0201000304fbfffbfb0200
01ff05fe04fbff05fbfb04fb05000000fe00
0205000403010300fbfc02fbfbff00040000
fd000102fffdfafbff02fefe03fa00ff0400
03000504fdfdfcfcff010301fc020503fd00
fe03000401fffcfb01fe0101fcfcfffffd00
fdfefb0504fb0505fb0403fe05fdff03fe00
fd04fcfc02fe0205fbfc0504fcfcfffcfb00
fe00fefffbfdff0305fb01fc020501fc0500
fc01fe05fffcfd02fd00040104fefffc0300
fc030101fcfc0101fbffff0303ff02fd0400
04fd000102040006060205fb040204ff0600
05000501fffdfbfbfbfefeff05fc0202fc00
fbfdfffc05040505040101fdfefefafdfe00
fdfd02fb0005050301050104fa0104fdfb00
fdfcff05fffd03fb00fe00000305fc010200
fffc00050402fc00fb0505fd03fb05fe0100
fffe03fbfffd0503fefd0405fefe00010400
0201fd0303fb01fc03ff03fdfb01fbfefd00
0502fa010000000004fd01fd05ff0402fb00
fbfb02fcfcff0005fbff01fffbfbfdfe0200
fb0103ff010202fa0205020603fefffc0100
0205ff0205fdfc01fa04fcfe04fbfb020300
fefc03fbfc03fcfafa01fcfe03fd04ffff00
ff000202fcfdfb000403fc05030401fdfe00
fc030403ff0201fefefc000404000304fc00
ffff02fc0001050405fffbfd04fc03020100
fb0200fbfb00fefefc0001fe03fc00fd0400
fcfcfffa0302fefb0305000501fc02fd0200
ff040403fb0200fe030302fd00fefd03fa00
0304050601fefefbfffc04ff00fc00fd0000
05fdfe0205040404fb000003fe02fb02fb00
0305fb00fb02fcfd0505fcfe01fb06030400
04fbff0303fb00fd0503fc02fcfcfb030300
01010305fb0400fffd01fd06fb0001020500
02fe050101fdfefe04ff00fdff0403fd0000
fdfb04fcfbff060103000203fefdfdfffd00
fbfd0304020201050400040301fd0300ff00
fffb00fdfc05fd00020105fdfb050505fc00
020302000200fdfefefefc0400fffcfdfd00
fbfcff04fbfdfcfb030100fefb010502ff00
fefe0504fb030104fe06fdfb0300fcfe0000
fd01fc03fcfcfbfefffbfc0204fe04fc0200
00fe0304fc0105fefdfb0505040502fffc00
fefc0402fdfc05ff05fdff00fb05fbfc0500
fb0403fbfb040501fefd02fefd0303fffb00
060005fefe03fd00fafe02fe0203fdfc0500
00fbfb0403fc00fb00040100fdfefc020100
0201fc04fe03fefd02fffefffd0304fefb00
ff0104fefd00fdfd0203fcfdfb0201fbfc00
fefc040205fffffbfffe0302fc02ff020100
fbfbfffd030304fc02fd05ff040401fcfc00
fbfdfe00fc00fc00fb030200050001fd0400
fd010000ff0005fbfc0204ff00fcff050100
0402fefc0101fc02fefd02fefffffb05fc00
040403ff0404030001fc01fcfc05fe050100
fbfc02000400fb0600fd0301fe0200fd0400
fc040004fd0504fe01fefe03fe01feff0300
fe04fa01fbfb0601000204fd02ff0000fb00
030605020506fffdfc00040400fb02020500
ff02fa010104fdfc0303050205fd0003fc00
04fd020205fffcfe0000fefb04ff0004fd00
05fc0305030601fb010001fd03fd02020200
fefdfdfb050102fbfd060400ff03fb020100
0004fb040003fefbfdff01fbfc0204050200
000302fc05fc01fdfc010303020201020500
06fe01fcff030505030203fefefbfffb0300
030501fbfcfdfcfb02fcfcfbfcfb01fefb00
fd06ff01fd0402fcffff0204fcfb01fc0400
02fefcff01fefbfd0405030401020300fb00
fbfb02fe03fd010102fcfafc02050400fd00
05ff00fcfcfb05fb04fdfefc050102fb0500
fc03fd0203fbfefffb0403fd0004fffe0200
fd03fb0405ff020200050400fbfe02fcfb00
04fefd0000fb06fbfffbfd05fefc04fcfe00
feff0305fffe0003030205fe01010200ff00
00020501ff00fbfd03fcff030103fffcfe00
ff0300010401fcfe05fd03fcfcfc0300fd00
ff04fcfd00fc04fb020205fb04fefcfefc00
0403fdff04050503000405fcfbfc04050200
fd02fc010205fcfbfa04ff00fe01fefd0400
fbfefe0503fffe01fafbfd050302fffe0000
ff01fd01fefd00fffefe01fd02fcfdfefc00
ff01fdff02ff0501fbff0200fffc01040200
fbfefb06fc05fffbff00fffcffff06030000
fefc0303fc04fcfffffb0204fd0000fefc00
fcfcfb0006fc0401fd01fe06fdfcfe040300
0202050302fc0102020201fe040405040100
03fbfdfffefefcfdfc0404fdfeff01fffd00
fb050205fc02fe02fc01fe04fd0200fffe00
fc0403010102fcfcfdffff0002fbfefbfe00
05fb040204ff0404ff02fd02fe0504000100
010502fb00fdfbfbfcfefbfa01fb03fcfd00
fb0405fc01050100fd03fc0506fe00030200
01ff0200fefe0102feff0103010304fdff00
fc00feff0300ff05fdfb0100fd0103fe0100
fe0000010504fdfafffb050002000203fd00
fefdfc020306000301fbfbfbfb04feff0300
01fffc02030303fd04fe00fcfffdff02fd00
0000fcfcfcfefefcfb06fefd000404fefa00
fb040102fefb01fd02fe01fbfcfcfc020500
fc02fdfe0500fffffd05fe0301fb0206fc00
0101020205fb04fbfe0606ff050502fefd00
0400ff04ff0104ff0203ff0504fd05020400
ff020501fe01fffd04010000000005fcfc00
000102fefc02fd01fd05fefcff04fc03fa00
fe0004fbfdfbfb010401050100fa03fb0300
000101fcfffb03fbfffdfd0100000400fe00
ffff0204fefe02fcfd0101fe04050404fb00
02fcfb02040400fd02fb02fe01fbfffffb00
0203fd00050501fefd020300fbfd00fcfd00
0101fc01fcfc0604fc0201fe0004fcfb0200
fcff030300fcfc02040502fd030400050300
fb02fbfd03fc0404030100fb03fdfffefd00
05fefdfd0001fbfc0005fd04060100000300
ff01fffb02040405fc0002fcfefc01fdfe00
fc00fafefb0004fe05fb0203fd04ff050300
fd00fb0502ff03fefe05fc03fffc05fd0000
fffb04fd020204fcfd00fb05fbfe02ff0300
0201050002ff03fdfcfd05fd050100fc0600
03fbfefafcfc0504050502fb040205030000
0100fbfd04fcfd040402fcfcfcff00000400
fffe020000fffe000400fe0002fcfd040100
02030204fe03fb0603fb03fefc0102050500
0205ff03040504fc0404ff02000001ff0000
fd040104fffafaff01fbfdfbfefdfffbfe00
fbfd0401fd030003010204fbfbfbfafd0300
0101fcfe02fc06fffa01fdfa0305fcfdfc00
fefdfdfdff04fb04fd0502fd04fefb01fc00
fdfeff0303fd00fc00fcff0102fe03000100
0004fb0501fcfb06fcff00fbfa0200fe0400
fe01fc0500fd01fb01fcfb05fe0103fbfc00
0204fc03fdfffefdfefefd00feff01fffc00
fd0405ff01fb0401ff06fcfcfd04ff040400
0103fb01fe0301030503fcfbfcfffbfd0400
ff04fc05020401fe0102040500fc03000500
05fffbfd02000004fc02ff020305ff020200
02ff0103fbff01fafffe05fefd02fdfe0400
ff04040002fe03020002fe01fb0503fd0400
0200fffefefbfc0404fafe02fe000304fb00
01fc01ff00ff04030005010006fc04fe0500
020103fefd0105030104fe05fd05fbfffc00
030402010105fbfe00fd05fefc00fefe0200
fdfefefb05fffc01fb03fe03ff020102ff00
02fdfd02fcfbfcfaff03fdfcfb04fdfbff00
030204000503040506fb00fbff01fbfefd00
fe04fefb01030004fb0001fdfffcff030400
fc05fffbfe0300fefe0205fbfffffffe0600
000203fa00fe03fdfbfefb0303fdfe000500
fc04fc0302fcfe02fdfb0105fe0500fd0500
010203fb00fafbfe0502fcfcfe05ffff0400
0100fb05000301fb04ff000301fbfe050200
05fc05040505000305050304fefefc03fe00
ff020402fbfe04fdfd03fcfb04000503fb00
040102060101fcfd04fc0102fd0100fe0300
fefb01fc03fdfd0202fd02feff0005fefb00
0500fefb0200fcfefdfdfa0602fcfdfbfd00
0402fffe0004fcfbfc00fdfe010000fb0200
fcfafa0105fe050205fd04030102fb010500
0205ff0205fd000503020503ff030201fc00
000103ff030400fdfcfb0405fcfc00ff0500
fefdfb0503fbff02fafbfffe02fc04040200
0505ff0203ff04fb0206fdfe040404040100
fd02fefcff01fefb0503fcfbfc020003fe00
fd0205fbff0003020103fc0500fdfcfd0000
000000ff040403ff0201fdff0501fcfefa00
fe0506fb04fe000203fb0404fbfffbffff00
fe04fe0100fd0002fc04010003fefafdfb00
fc01fcfdfe040202fd05ff01fefe0102fc00
050305fffbfb02fefbfbfbfcfe0405fc0500
03ff0005fffffdfefb0101fefb0501fb0300
03fc0400fd04fefd05fffe010202ff050300
fdfefdfe01fffefc0004fe02000004fefb00
fb06fbfc01feff0303fc000102fd02fb0300
0202fe00fc03fc0203fbfdfbfb0305fbfc00
0400fe05fffefefb0502fbff02fefd04ff00
fcfefbfc03fbfb0503fefefefb01ff030600
fbfa03fb05000501fa02ff0503fcff030000
0000fe06fd05020201fdfe0005fc04fd0400
fdfbfe040504fffdfefbfefe020102fc0400
00fcfffe00ff030505fefdfd00fd03fefc00
fcfe010101000501ff00fffeff0404fe0200
fc05fffc010304050201fbfbfcfc01fd0300
ff0302fa04fe0401fc06fe040306fbfbfd00
fcfb060005010003ff0205fcfb00fe06ff00
020401040000fb02fc0403fe00fd00020400
fd0201fefc0302fcfbfbfb04050304040500
0404fb00fb05ff01fb03fb0303fffb010200
fc0103060405fefbfcfafcfa060003030500
02000102fd0304fd00fd03fd040204fb0200
040406040001feff01fdfe040204fe05fd00
ff0202fe0004ff01fc0001fbfcfb04040100
fd04ff01fffbfc000201fbfd0002fd060400
0102fd0100fefe00fd02fcff010101fefd00
0406fdfdfe0105fd040200fb04fefdff0300
fdfc05fc03ff0200010001fe00010503fb00
03ff060405fc05010002050305fd05050000
ff04000301fdfcfbfd010202fc03fe050200
fc05fb01ff03040100040203fe0303fe0500
0100fbfbfe030001fe040505010000000400
ff01fcfbfd0503fefd020405030605fffe00
04fffcfbfbfe02fffffb04fdff0102fe0300
05fcfe04fc0605fdff010300030002030100
fdff05ff00fb05000204fcfdfdff01020100
000203fb04fb03fd03fb06fffc0503fdfc00
fd0003fb02030302fb03040204ff0504fc00
0004fbff02fd03fbfe05fffe04fb00fffc00
050005fdfbfefc000404fb01fbfffdfb0400
fbfe0002000403fdfcfb020502fe01020100
fa010602fffe00050400ff05fffbfbfe0000
ff01fefe0503040303050602fd05fc030300
fd020500fbfc020401010300fd06fe04ff00
fc0404fdfbfefcff01fe0304000301040300
fe05fffc01ffff010203fd0505fcfcff0500
ff00fe05fdff02fc01000101fc0304fc0400
fbfc01fe01fd05fdfdfafdfefb040002fc00
01fefffc0400fd0002fd04fffc05fbfb0000
0103fefcfd02fefa0503fc0302fd04050300
040100fbfbfe010402fd02010403fd040500
fb02ff05fcfd03fbfd0203fb00fbfb020500
fd020304fc00fb010102fd020500fbfcfc00
00fefbfe01fffc0406fcfe0303010203fb00
fc03fc00fc04fffd040400fefe02fe020300
030402fffbfcff0404fbfdfefeff04ffff00
01fcfbfe040300fc04fdfbfc010102010600
0004010201fcff0201ff0202040401050300
fdfe0502040100ff0103fc0005fb0204fc00
05fcfcfbfbfbfbfbfb050104fc0000fdfd00
00fc02fffb00fb010000feff0305fb040200
fc03fd020501020205fc0204fc050304fe00
020202fefb0303fb02fdfdfcfc0303fe0500
05fe0000fe04fffc0201040005fe04050000
fd000502fe040403fc0500fdfe0204fcff00
0102fffb0105ff06fbfffb02fb02ff00fc00
01fd000002ff00fffb04fffd02020102ff00
04ff01feff0400fe030500fffffc04040400
02fd02fb04fd0604fe02fd050201fbfbfd00
fb05fcfdfcfd01fffdfefb0404fbff040000
fcfb0500fbfc04fafdffff00fe01fb030100
01fffb00fbfc0400ffff05fb05fffdff0000
02fcfe01fe0001ff0205fe06fffffb010400
ff02020201fd00fbff0604fb040400030000
0505fc02fffd010404fc050305fd01010400
0201fb05fd050004050500010003fefb0400
fffbfe0401fcfd010403000006fdfffc0500
fe0500fb0002fffe030400fb03020303ff00
fd03fcfbfe0003ff04fc0200fd0105fe0500
fd0403fd04fc0603feff010500fa01ff0300
fe00fe030202fffcfd02fcfcfc010304fd00
fcfc0202050002050403fc0501fd0205fe00
fdfcfbfdfefc0501fd0105fefb060204fe00
03fd03010300fdff0402010001fbfefefb00
fb02020304fb03fe03fc0302ff01fffe0500
fe0504fefe02fd0403fc0605fcff0001ff00
fefbfe0006faff040102fffbfcfc03fbfa00
fcfd05fffdfefd0505fffc05fc02fe050300
02fd05fefe030203040104fefefc02fe0500
fbfc05fcff0304fe0205fc03feff0504fc00
fe0203fd000404ff05020002040502fefb00
06fdfb03fd0501000604050206fb0004fc00
faff0300ff0501fd03fcfcfbfb03fc040100
040400ff05ffff040101fdfcfbfe04fcff00
fbfefc030406fc0101fc02fa0400fefe0000
fd0004fc05050402fffb03fc0002ff05ff00
fdff0401ff03fbfdfdfffd00050201000000
00fdfd040101fe04fd05ffff00fefcfb0000
00fbfcfe03fc0302fb0201fc00000001fd00
fe000200fefffefdff010104fd00ff04fb00
fc0403fb02fe0302fdfd0506fb06fdfdfc00
0504000404fd05fffdfe0205000203fe0300
fcfcfc01fd020500fb0204fa03fc01050400
fcfd04fe0302fffcfe0001ff05fb00fbfb00
fefd0305fffb00fafd03fefe050405fefe00
ff0504fd03fefc0200fc0504fbfefdfdfc00
01fe04fb05ff00fb0202010304fb00fbfc00
ff04fe0000fb0502fcfafe02fbfdfe020300
0501fbfbfe03fcfdfd0300fffb050304fb00
03fbfcff0105010303030401fe0003010000
fafd00040203fd0300ff0000fe0004fdfb00
fc0103fc00fdfcfafefc0504030305fc0500
fdff050502fd01fd000301020200fd000000
05fdff0300fbfe030501fe03fe05fffcfb00
fbfdfeff05fc01fbfd03fffe0205fd04fd00
010305050502fe00fe01fe04fe0402050400
060400fa00fefd01fc05fe00fb0104050100
0003ffff0104fe03fffeff00fe00ffff0000
0405fefb02ff0101020002fbfffb04fffc00
0502fd0105fefafffb030302fe0301000000
04fffe05fcfefbfcfc04fcfe02fefc050000
03fb04fc0000fc03fc040206fc04fefffc00
01fc020001ff060103fffffb060000fc0300
01fffdfffffa0504fb05fdfefdfefefc0300
fbfc0003fbfefe0001fd0504fcff00fffb00
000204fc0203fefc0405fefc00fffdfb0000
03fc04fd0100ff0502fbfbfd02fefd020100
0006ff05fcfefcfcfb05010205fd03fbfb00
03fbfffcfb02fcfc0405fbfcff00fcfe0100
02fb05ff03fd01000405000401fefb01ff00
fdff02fb0100fdfcfcfefdfdfefd0402fb00
fdfe00fefbfc00fdfcfb0100fe000101ff00
ff0005fc02fefffb04fdfc03fd030406fc00
05fefb02fefdfafcfb0304ffff02fdfdfc00
0301fcfb0403fcfb0405ff00fcff00ff0100
01fdfbfe0305fbff06fbfcfffb0400fffa00
030000040002fffffefffe02fa0402000400
0105060300fc05fd03fbff03fefdfc040200
fdff040302fd06010205fa05020301fdfb00
04ff05fafbfb01fc03fdfe05fc010101fb00
fffcfbff04fbfe05010302fdff0400fd0100
02fdfcfc01ffff0202fa04030403fafcfc00
02fbfcfbfe01040000fdfb03fffd03fb0500
fd0602fcfcfbff0005fe00fbfc04fffefe00
050003010203ff04fffeff02040105fefc00
02fbfe00fe06fffb04fdfafdfc02fbff0500
fefffdfcfdfbfe02fbfb0302fb020403ff00
fcfcfffd05ff0105fbfe0201fbfa05fdfb00
fdfefc050000fb0500fdfffc050101fc0000
0002fffb01040400fefe0502fffd05010400
0205fd02040200fdff02fefcfdfe04fd0300
02030000ffff03fffcfb00fe030403fe0500
0402fd02fbfc040302fc0003030402fd0200
fd04fb0002fdfbfefb01020503fbfdffff00
01fdfd03fcfbfd010405fffcfbfcfc02fb00
05050003fbfb0301fcfe040401fffe010500
000000000000000000000000000000000000
7f7f7f7f7f7f7f7f7f7f7f7f7f7f7f7f7f00
03fcfd0501fb04fbfcfa05fdff0103feff00
04fb05fffcfefd04ff02fb02000401040000
010502fafffb01fd00fdff00fb00fffe0200
fbfdfbfe01fb04050105fd05fcfd0102fc00
fd06fc05fbfefcfe0205fb0405020305fa00
fffefb010203fcfcfe040502fbfefcfaff00
fffdfffb0201fd0201ff03fdfc00fefc0600
fbff03fffb000202fdfefffdfafffefffe00
05fdfa030404020500fdfefeff05ffff0200
0305fb06030001000403050405fffffcfa00
05ff0102fdfdfefb01010403fb030003fb00
fffbff0305fdfffefffc04fbfe010304ff00
fb0301050402fcfdfe0405020005fe000300
fb0403040504fcfd010003010400fdfe0000
00fe0502fbfffefefd03050200fd04ff0000
ff02fcfefdfb0501fe03fe030503ff05fb00
fd01fdfc02fb0505fefd0606fcfdfc03fc00
0005fbfb020001fb0504010205fb0202fb00
00fbfe04fc05fdfffd00fb00050400010400
0001fdfbfcfd020503fdfffdfffe03040500
0203fb050000fffffefefa0400fd05fb0100
04fbfb05fefafb0005fd06fa0001fefe0000
ff0200fffd04000002feff0303fc00fefc00
fb03fd04fffdfb0303fcfb05fdfeff01fd00
fbfffcfeff0402fbff00fc00000503010200
00fe04fc020403fcfd0405ff03fa00030400
030400fbfdfc0305fd05020404fffefc0300
0402050605fc0105fc04fd0300fb05fdfc00
03fd030003fffcfc05fdfffffefe0105fe00
0304030004ff010003050105fb00fb040200
0205fc0005fdfcfdfe0304ffff000305fd00
fbfb01fb01000304fbfefcfbfd03ff02fb00
fbfc00fc020105fffbfbfefc05fb03040400
0602020501020502040501fdfdfb02030400
05050500020103fbfdff05fcfe0304fcfe00
040303fd040402fe03fa01fa050004fffe00
fefd0002fcfc0102fffb01fefe0202fc0200
030502fffdfbfdfffb00fafffe00fd000000
fcfcfe01fafe0501fe02fffcfdfcfffdff00
fe05fd010503fb00fdfe03fffefd0002fc00
fb02030204fd01fb0304050002050401fe00
01040104ff02030101fdfd0302fe0101fd00
010100020305fcfb040002fb03ff04000500
fffefcfbff0004fafffbfe0202040003fd00
0401fc05fcfd01fcfbfefefefffdff02fb00
01feff0405fe04ffff020001050103ffff00
00fb04fefcfefe01ff0300040203fffc0500
fffcfbfb00fffc05fcfb010504fe01030000
0202fd020505ff05fcfc0301fbfc01fefb00
0301fefc05ff03ff04fd01fd0304fefd0000
00fffbff0101030501fffb020101fe020200
fffc01fb0301fdfd04feff04050202000300
fe0301feff02010005fdfdfefd0500fe0100
05fcff000400ff0102010005ff0601fe0400
0504fefb02fc04fdfd010402ff0102000300
fbfd030304fd0301fd0104fbfffbfe01fe00
03fefe0403fe04fdfdfbfc02ff0301050300
03fdfd040202fcfbfb0001fdfdfcfcfbfb00
03fe05ff0505fc00010504fd00010405fd00
000303fe00fd0502fbfbfdfd050301fe0500
02020105fe05fc01fcfbfffefbfe02010100
fc0300fb0500fd040005fb00000104000500
fcfd01020305fc00fcfcfa00020203000200
fe0503fbfc01050000fb030404fc04030000
060404fffb030400fefcfc03020401fc0300
ff01fb03020503fb040304fb05fe04fcff00
fe05fefffefcff0400fc05fcfc020005fb00
fcfcfdfffa01ff0505fefe01050404000500
fb05fefb03fc060204fbffff0005ff000400
0000fdfffb04fcfe01fcfbff0304fcfdfe00
0102ff06020504fc000001fdfffefffcfb00
04030204020302fd00fcfcfc040003fb0100
fd040404fffefa05ff03fefd06feffff0400
fcfe0206fd00020000fdfefb000004fdfe00
050203fefffd0004020200fcfb030101fe00
05fd03fefb00fc0003ff040502fdfc020500
02fe0304fffbfdfd0102fd01fcff02ff0200
03fafeffffff0604040502fbfefefe040300
fb03fd0404000300fc010300fd04ff04ff00
fbfd02fdfd0402fb0003fafb01fe01fb0400
03fcfbfb05fc02fc05fb03fd06fdfefc0300
0006ff0400050503fdfd03fefd04ff03fd00
0403fcfe050202fffe05fefe04020005fe00
fffb0401fcfc020105fdfb010502fd04fb00
00fcfd060500fe04fd050201fe05ff05fe00
0406ff03fbfb03fefc05fd0404020400fd00
fcfefbfe030305fe05fd03fb0002fdfe0100
ff0105fcfbfbfd0201fe0403fd05fc05ff00
040400fe04fcfcfefbfd02020203ffff0200
fd0301050302000304ff0101ff02fbfc0300
fffbfafa0404fd05040400fefbfffc020400
fdfd01fffcfbfe06fe01fc000304fdfc0100
ff0300fafb01fbfb03fbff040404fdfeff00
04fdff010304000005050201020505fe0500
0003fbfd00000005030402fbff05fdfc0500
01fe030500fd01fd03fcff0505fefb020600
04fe06fe04ff0405fefd0204fd03fdff0200
fffbfc020103fa03fb00fefdfc02fe02ff00
fdfefc05fc01fffe05fe03050004fbfc0100
fcfffbfd00ff0002ff01ff05fc04fdfefc00
040401fffbfbfc00fcfbfe06fb03fb040400
05040103ff05050303000505fe0303fdfd00
03fcff0200fe0403fc030305fd0000fe0100
fa00fb01ff02fefc02fbfb03fe04fdfcff00
fbfd0500fe0401fefefcfcfdfe0004050400
04fb04fefffb04fffb060501fd0203ff0100
0502ff0302fbfb0402000000010104000100
0000fe02000201fb05fd05fdfc0502fd0300
050000fefcfb0001fb02fd0203fd05030000
ff0505060103fcfc020102fbfd01ff04ff00
000100fb0003fb0001fcfc04fffb0301ff00
fefefcfffe04fdfe00fbfdfbfe0006060400
03000303fcfa01fb04030202fd0202fe0400
fc0001fd05ff04fe05050002fd0202020500
03fcfefe00ff0203fc05fd01fdfd00fd0400
01fb0001fffa020300fcfe06ff030400fe00
05000402010302fd0503fdfbfe02ff05fc00
fb05050501fb0200fbff0501050201fcfb00
00fbff03040402040302ff000005fb030400
00fefc0101fdfe000004fe00ff050005fe00
01fcfeff0404050103fe04fc01ff00fc0200
ff040100fe000604fb00fb05fffb02fffb00
fefc0204fefd0001fe0501ff010601040000
02ffff00fc0401fa02fbfeff000401fcfc00
fa010403fe0201fd01fbfd03fdfefd000400
03fc03000600ff01fdfdfe01fd02fefbfb00
fcfdfd0301fe0301fdfbfdfe05fe00ff0100
fe040300ff00fa02fc0201fbfe000405ff00
fffefe01fe0404fefefd01fe0503fdfb0100
04fcff05fbfe00060102fe0400fffe03fe00
0005fffd01fa0505fd00fefcfbfdfefe0300
01fc0303fc03030502ff04fc03fefb050100
0000fe0505fefbfe0303030402fffe01fe00
0304030302fc020203fefc020004feffff00
fe0101000100feff0101fb04fafefffdfd00
fffd00fb0203ff040200010203fcfc040400
fb01020301fcff0204ff0406fcfdfefb0500
000501fe0101030004fdfbfb05fb01050100
0303fd04fe0100fffbfffcfa000503fc0500
00fd01fbfc0403fcfbfefb0403fe01fe0400
01ff01fc030504fd04fcfe0304050104fe00
fffdfb0504fffbfc05fe03fffffb00040300
06fdfcfbfffd05fbfcfdfefc03ff00040300
fefb000102fffd01fb01fdff05fbfefdfc00
fc04fb04fcfb03050000fb050201fc050500
000001fc03fefe04fd01fefb02fd0401fb00
00ff000403fe01fc05fdfa050101fc03fc00
0001fafd04fd01fb0304fd03000305ff0400
fd03fcfbfd01fe040502fc0502ff00000100
05fffffc06fd050401ff04ff05fffffd0300
02fdfc06fc0400fb0304fcfd010403fbfc00
fcfc050100fbfbfe000403fe01fefe04fb00
02fdfc0403fffe03fefcfbfb0002fc000200
05040100fffb0504fcfcfefe000100000300
0300feff0200010305fb00fa00fb03ff0200
ff05fcfefdfc04fd01fb0003fc0203060500
03fe0305fe0603fe00fc01fd040006040300
fc01fe01feff030000fc01010400fc050400
0102fdfc00fffd04040506fefd040500fc00
00fe0401ff0400030104fcfc020205feff00
000505fd01fc00fa050400fc00fefc05fc00
fffffefe00fc00fd04fc0101000000fe0200
fd0403ff0305030204fefbfcff0305050000
fb05fe0302fefb00ff000504fffb00030200
fafdfdff000601fe030105fe020500030400
05040502fc0501fcfffb04fefbfefbfefe00
ff0402fdfbfbfeff04fe0204fbfbfbfbfd00
fdfb050404ff03fd030204fe00fffb00fc00
00ff0002fb0604fbfe00050403fd04ff0100
02fe04fc04050304fefa00fb0005fd030000
fa0200ff02fbfc010005fcfefb05ff020000
02fbfbfeff0102fcfcfcfcfffb0400040300
02fc0104030000040305fd0003fbfdfbfb00
00ff02fcfcfd03fd010501ff040205050500
02fffdfffb04fc010104060500fbfefd0300
00fdfffffc02fbfdfb0200ff05fd0100fb00
05fe01fcfdfc00fcfdfd06fbfcff03050400
fefd0601ff0201000303fc01fa0104fc0100
010100fffdfaff0504fefbff0104fefffb00
0304fb0502fc01fffd0203fefc01fc03fc00
01fc02ff04fffb02fd060401fc03fefc0400
fffdfefd01fe000302fb02fffb02ff04fb00
ff01fffb010602fd0303fffc0205fbfc0100
03fffcfc0405fc03fe0501020500fcff0500
fdff03fd04000302ff0002fb04fb04000400
fdfc0000fb030201ff05fbfe0103fdfb0300
fffe050001050400fbfd05fb0503fc00ff00
040100fdfb04fb05fcfdfd0304fd0205fd00
ff02fe01fcfffeff01020405010500030100
06fdfc040102000305fdfc02fe0303000100
0000fb01fbfcfb000401fd06050402020300
fcfb030100fdfe0001000106fb01fa02fd00
fe00fcffff0000fcfe050400fd000203fc00
ffff05fffe050105fefcfcfb02020306fe00
fbfefe0505fdff0302fc01fd02000604fd00
fc06fefffbfcfd00030205fe00fbfdfd0100
02fc0203fb0505fbfe0404fcff0206fdff00
000200fd050504010304fc0402ffff020300
ff02fc00feff06ff040302fd050105fcfc00
ff00fcfdfa0203060505fcfd03050104fb00
0002fdfc030502fafd0100fefd010000fc00
fd0202fc0405fefc05fffb020603fc03fc00
03fb04fd010102fc03fbfe04fc01fefffc00
fdfffcff04fffc0403fbfbfcfffa06030000
05fbfe0104ff0300ff050303fefb0201ff00
fb00ff0403020503fd0405010405ff040200
0201010600010101010103fd030104fd0200
fefe01fc02fffefb03fffcfdfbff0002fa00
0100fffbfd010200fffafd02fbff00fdfb00
0200fbfb00040501010204020104fcfb0500
fefe05fbfc0001fafdfffbfbfb0302fb0000
fffe00010600fcfe05fefcfbfbfeff04fb00
fbfdfe04fd05fd04fdfd0100fe0405fe0200
030205fcff06fcfefe02fcfe00fcfb040000
fcfdfb00fdfe0006fc02040405fafefffa00
05fb0404fe01fb050305ff03fefbfdffff00
0102040404010001fb04040004fbfbfb0400
fc05030406000403020204fc00ff01fe0000
fb05050002ff0103fa05fd02fcfc0500fd00
03000102fe05fd0305fdfb04fffb02030500
fc02fcfffe010204fefefc040406ffff0500
00fd0305fc050101ff00fd0405fbfd010500
0103fcff00fd0505fe0504ff050502030000
0004ff0403fd0400fe020505fe0202fa0400
0001fe03010501fc0005fefc0404ff040400
fe00fefe02020001030000fefcfdfe020500
0304ff02fdfbfd04fe03fefe05fdfbff0000
020104fcfd0301fe05fcfdfe03fbfe00fe00
05fdfb0200fffd0403000101000102fefe00
0502040304fe0103fffc0205fdfdfbff0000
fefdff020004030005020405fdfefd010400
03fc04fd0001000300050405fbfbff04ff00
0203fe030003fd0102040500050503fd0600
0501fffbfdfb00ff04fc05fbfe020503fb00
040600fb0302040101030503fbfc03000500
fc01fd04fffdfe020401fe03fe0001fc0300
fbfd000300fbfd0002060506000105fd0200
00fbff0301fd050304fe0100fffd00fbfd00
01020303fe010101fdff03fbfffb01fd0300
fe00fffcfefd030503fa03fdfd0200000400
fe0605ff00fdfcfb04fe03fd05fc0005fa00
010503fbff020601ff060400fefafcfbfc00
0502fb030400000204fc04fdff0304050500
faffff020304fefc06fefafffc00fe030100
00fdfdfbfbfbfc050000fe030202fe03fb00
00fd05fefe02010105fd00fe05fd02020300
fd050400040204ff04fe020505fdfe030200
000201030501ffff0401fdfe03050401fb00
05fb03fe00fd0203fe03fc0501fbfbffff00
fb050001fffc02fffffcfb02fafd00040400
fc0504fb05ff03fc05020301fe02fb040400
0004fa00fe00020401fdfbfd010200020200
0302ff06ff00fd000503ff050301fd01fc00
000502030205fdfeff04fafd03fe03fbfd00
fdfc000003fb020102fa00020403fc01fb00
fdfd05ff05fffbfc01ff010201040003fd00
0504fcfbfe03050305fc030402fefefcff00
02fb0300fefe06010103fe00fcfe00fefd00
00ff0201fd000504010503fd05ff0500ff00
02fbff05010403fbfefe01fcfcff01ff0300
fffd01ff03fb03fb00fefe00fe02fffefe00
fd05fd05fdfe03fdfffeffff02030104ff00
0201fcfbfb01fbfbfc00fefdffff0602fe00
fefe01fbfdfbfdfd0101ff02fdfcfefc0000
0401fbfc000104fd01fcfb00fd02fc040400
ff05ff00fafe040000fe05fbfc03fd01fb00
0500fe04fdfd0302fdfb03ff00feff040500
fc010401fc01fc04fcfcfb04fa00fc010300
04fdfb00ff00fcfb02fbfbfdfe060406fe00
ff05fe03fe0206fefc02fc040005fbfa0300
fefefe060104030104fd0605040502050500
03000303fd000405fdfcfd05fffb04030400
04fc0605ff040201fd04fdfe03010506fe00
fd02fc020101000300fd04fc0505ff000500
04fcfd04ffff02fcfefdfefd020304040100
fbfdfbfcfcfc00040004fb05020404fefb00
fe03fbfbfe0202fc01fd0100fe00fc03fd00
fffeff05fdfcfffc04040400fc0504050200
fcfefcfefe03fefc01ff0304000300000200
0003fd03fcfa02fbff02fffe01ffff030300
04fbfc00fa05fa01040204fbfcfe0401fc00
05fd03ff01020203fb00000501fffd050400
fd00fefc0002fe05fdfcfefdfd05fffffc00
05fffd04010004040503ff0300fd0305fc00
fcff05fafbfbfc01fcff05fcfefffefc0400
fc010501fefe0204fb01fc04010304fb0000
fffe04fcfe04ff0505fc00fe050204fd0100
fc020501fd03fe020203fbfeffff05040100
05fafe0304fd0403fc0602ff03fb03fb0300
00fbfcfcff030201fbfe0205fefb00fd0300
fb0204fe0402fffbfe02fd0600010401fd00
04050204fefb05fe010405fe0404fd040100
fc0000fefcfdfd040104fbfb0002fdfc0500
01fd02fb02fb0102fc0205ff04fbfffdfb00
04fefe0201030002fd00ff040403fbfeff00
02fefefffcfffefafdfafe03fdfd00050400
ffff0401fd040000040300fd03ff02030200
fe02fdfdfefefefefdfffe04fcfffe040300
050104fefd0002fcfcfd04fffbff00000200
000202fefdfcfc04050505fbfd030200ff00
0004fd04fd04faff0501fbfe0001fffffe00
0504fffdfc0204fffd000104fffb03fffe00
0401fcfefbfc040304fe03fe00fb03fefa00
fcfb000304010101fb02fffefefd06fbfe00
fc01ff0400fe01fc020001fbfc02fe020500
fbfd04fe0502fc05ff03050003050101fb00
ffff04fdfd02fefe0500fefdfb00fefe0500
fcfc040101feff03fb0504fefe050404fb00
02050501fa0305fefcff03040200fc03fb00
fb0203fffcfa01fe05fb0300fd0403fffe00
03fb040304ff010506fe05fffe02fa030100
040104ff02040006fcff060403fffbfcff00
02ff01fffffdfbfe0504fefffe0101020200
06fdfc03fa01fdfb0306fe0503fffcfe0100
04fe000203fdfdfc0100fc0305fcfcfaff00
00030502ff02fffffe010401020201040400
fefd03030104fcfffbfb0405fc01fb050500
03feff01fc0501fbff0203fdfe0002030500
03fbfc05fcfcfd03fffb0502fefb03ffff00
0502fd00feff0004fffffefffefbfe05ff00
fe040502fe01fcfefbff0304fdff0404fb00
05fcff040402fdfd03ff02fd05fffe01fe00
01fefdfd01fdfc0205fffe01fc040400fe00
fcfb03ff0502fb04fcfe03ff02fafd030200
fb0403040004fbfe000205fcfefffffdfb00
05ff0001fb02fe020402050005fd05060300
fdfd040003fffb00fbffff0402ff0103fe00
fefe00fc01fefdfefe050002060104030200
0502fbff00fffd01fbfefe030501fe04ff00
0402fdfb0104fb020404050200ff0506fa00
0100010105fbfffefcfbfdfffd0402000300
fefcfb0504050602ff0002fc04fdfc000400
ff0304fb0501fe00fbfffb04ff02fb020300
03fc0405fefc010005fffdfefefffb05fc00
030404fb01fb0303fdfb05fdfb0400030000
04fefa050001ff00020203ff030004fe0000
fcfdfcfbfb02fffd0305fffffbfc01faff00
fefdfd0004fd0302fffd03fb0100fffafd00
fcfeff02fe01fe00fdfbfe01fd02fb020400
04fafe030203fc02060300050402fdfbfb00
01040505fe01ffff00050502fd0004fd0200
00fc0503fffffefc01fefefffafcfefa0200
ff00fefc00fe03ffff0005010202fd020100
fcfe05fbfe00fcfd0102fe0001fb02fd0100
04fdff04fdfb0500fdfc02fffefdfb02fe00
fe0101040004fd0204ff02fbfbfcfc02fc00
fdfcff04fd0305fbfe0104fe00ff00010300
01fdfefcfffb0105fc020205fc00fefdfc00
fdfe05fbfc0300fd02fe03fffefcff06fd00
0205fb00010205fffbfd01fb030405fb0500
ff05fb00000103fefdfcfdfc02fcfb00fc00
06fafdfbfdfefbfe000305fd00fdfc05fc00
fb0400fc05ff04fbfefdfa05fd030102fd00
02ff05020004040202fc04fe050502ff0100
fc04fd04040104fcfdfefffdfdfefd040400
fffb000405020402fcfbfcfc0002fbfe0100
0501fc04fefefb00fb000102fd05ff04fd00
fbff00fdfbfe04fc05fdfa00050201fe0200
fefbfbfc05fefd0301050504ff0202040500
04fe05fdffff04fbfffe0306fe00fdfefb00
fefcfb03fbfdfffe0205fb040002ff010500
0203030303fefe05fe00000005fbfd00fc00
fc04fffdfcfbfdfd0404040204030400fb00
fc04fd010504fffb03fefa00fe04fefefe00
01fbfb020300fb04fd0004fbfe04fe03fc00
00fe0206ff0304fefc02fdfbfe02fdfdfd00
fc02fdfffcfc0302fffb03fe020305fefb00
fd00fb01010201ff01fc03fdfdff05ff0100
04000101fd0006fe05fd05fdfc03fefe0100
000101fefefe03fe04020404fffcfd02fc00
00fd01fefe0104fb05fe02fbfefe05fd0200
03fc04fe02fffb0304fefbff0004fb040100
fefe040403ff03fcfb030401fefb05fe0500
fc060603fd03fe04fffd0500000105fffe00
04fffc02010002010506ff030503fe050600
fefefe01fdfefffefffbfd000205fe020200
00fd0302fdfdfbfc04000104fd04fe060100
fc050301ff03fe0505fc02fbfb020105fd00
fdfefefe02ff03fdff00fc0302fefafbff00
0505fb03fc0103fbfb0503fc030003ff0200
ff01fcfe06fdfdfd05fdfd05ff04fb000000
fa0500fb0004fe05fd020105fdfcfffcff00
01fe01fb00fbfb05fcfefffb0200fbfefa00
0205fe01fbfdfb0102fcfb020403ffff0200
01fe02fd0403ff01fd020002fcfb0000fd00
04fe03030104fcfb03fc05fbfafd02010100
04040103fb03fe030300fe030500fd040100
ff03fd05fbfb01fcfcfb0402000304fcfe00
05fcfbfd05fdfa010104fc050000fcfcfd00
01fbfc01fefefcfcfc03fe0201fdfd01fc00
04fd01fbfefd05fb03fc0100fc04fd030000
fefe060201ff0105fafefcfbfc04fefbfe00
fffd010003fe04fb03fdfc05fc010402fb00
0202fb02fe03fd05fefefcfefefd00fcfe00
030404010502fd000401030503fcff04fc00
04ffff0402020200fb03fb050504fb050300
030203010104fefefd030202fd0103fdfc00
ff0401010605fc0003fb02fbfefcfc05fe00
02fffaff020503000504fbfd020201040600
05fdfefc04fd0204030401000204fdfdfd00
01fbfbfb05fcfe0505ff0001fd00fefdfb00
fb00fb020305fbfdfefefd02fb01fffdff00
01fffffe050001fe03fbfcfbfe0303fcfe00
0400020000fe03ff050305ff02fdfefb0200
0404ff010504fffd0100fd02030202ff0200
fdff0000010202020503050000fb04fdfc00
00fafbfb0305fafe020503fd0000fe000100
fe0201ff010406ff000103000303fb00fd00
04010305fefc050100fdff0005fd01ff0400
fb03000101030000fdff05fb01fbfe050100
020405fe0503fd00040505fcfb050404fc00
fefffbfe03030202fbfefc040005fe000400
fcfe06fe05fe0304fcfb01ff0105fd040000
03fd0503ffff0001ff04fdff01fffd02fb00
04fffb0004020201010501ff000201fbff00
fc0002fcfb0405060405fcfb0104fcfcff00
0301fffcfcfe00010002fffe02fbfdfb0000
03fdfcfd01fe020505fdff03fa0601fbfd00
fbfefb04010501fbfffefc02fcfdfbfe0500
fcfc02fdfdff04fe050303fe06040001ff00
0501ffff04fd05fe05ffffff02fdfd000200
0200fc0104fdfeff00020500fe0101030400
fbffff03fe050202fe0100fe06ff04fc0400
fdfaff01fffdff010005fdfb050302fbff00
04fc050001fd00fafd02fc05ff0202fcfe00
fcfcfcfa0203fb0504fcfb040104fdfdff00
040004fffd050200ff0103fb050201000500
fc060302fc00fcfffcfdfc060004fe030500
ff020303fefcfefb03fd02fb02fe04040100
04fe0100fa00fffbfbfb04fbfd0205fcfc00
fdfefe040602fcfefbffff00fdff04fc0000
000304010501fefc01fffe010004fbfe0000
0103040104fefcff05fb03ff01fafe01fb00
0301fdfb00fbfbfefb0002fefc04fdfd0200
fffe03fffc05fdfefdfbfc00fefefb040100
fa00fb03ff05fd0204030104050401050400
03fa00fe0503ff03fffefefa050104020000
0005050100fdfbfb010403fe0502fe040300
ff03fc0205fdfcfbfdfe02fc010405ffff00
ff04fb05fc01fcff05fe00fc0001fbff0300
04fefdff020501fb0102020104fe04fe0200
fbff04fc05fd0204fb01ff06050002fa0000
04fdfc030101fcfe02fe00fc04000303fb00
05fd0105ff00fd01fefc05fc0000fdfb0500
02fffbfdfdfc05fcfe05fd02fe06ff010300
04fdfc00ff020502fdfd02fdfc01fdfdfd00
fcfbfcfffc0000fc00fc0501fefd03010000
05030301fefb0201ff03030501050504fe00
03fbfefe01faffff03fdfcff05fc04fc0100
0405fdfdfefcfb0400fe00fe010402050300
0300fc06fefc01030403fdfd04fdfc040300
0601fe0501fd05040102fc0201040203fd00
fefbfd05fd0401fd0000fefe02fc02fd0100
04fbfafb0305fc0504fefefe00010000ff00
05000004fcfc0203fb03040000ff0505fd00
fdff0403040204fbfbfdfe02fcfefb04fd00
ff0301fe05fdfdfd01fe0301fcfdfffe0300
fcfb030101fd02fc03fcfc010403fafcfb00
fe05ff03fb0105020305fc06fcff04fe0000
fd01fb01fafc02fd03000105ff00ff00fc00
0000020602fffc00fcfe03050104fd050400
fb010505fcfbff04fffffc01fefbfcfd0400
fe0504ff03fffcfc03fefdfffb02ff01fb00
fbfc0002fb050002fffb00fe01fbfb020300
04050303fc0204ff030200fb03fbfffefd00
01fcfc0105fbfefcfb0303fd05fefd020000
fc0303fffa02fb05fc0101fb01fdfffd0200
05fefbfdfb0403fe03fbfd03fe0501030100
000503fc0505fb01fd03fe05fefb02010400
fefffd02fdfd04fbfcfe0504fffbfcfefb00
00ff04ff0204000103fe000301fffe02ff00
020005fcfbfb05fbfd0501fe05040005fc00
02010000010300fd020401fa04fd00000100
fffb0305fffffb0103030300fbfb05fefd00
00fefbfbfb05fefe0102ffffff0303010500
ffff01fe0302fcfdfefd03fbfd04fffbfe00
fefdfe00030500fd0000fdfd02fafdfe0300
ff02ff030504fb00fcff00ff0404fe02ff00
0005fdfcfc04ff01fffcfdfe0001fe04fd00
030002fbfffcfd04ff0406fe0202fe05fa00
0000fd04020101fffdfbfdfefb0000030200
fffe03010405fefefdffff0000fbfefbfb00
fb0504fefd03fcfe040502fbfe0301fc0500
02fd030102000505fdfcfc020400fffc0100
fc020104fc0403fd04fcfe05fbfffcfb0100
01050201fdfd03fc04fa000400ff03000500
fb0504000005fdfd0200fc04030005ff0400
00fc01fb050304fe0300fefc02fc0405fd00
fd02fdfe0401fdfd030303fcfdfe02fcfc00
feff0000fffe0101fc02fb03fc0201040300
fc0000fd04fe0200fd01fb04040003010000
fdfbfeff050505020300fb04fd0303040100
fb02fdfc04050405fffcfbfc0302fe000300
fb03fffcfe0200ffff04fa00fc02ff020200
fc00fb0406fb02fafc05fcfc03040205fb00
000405fc03fbfcfd00fe02fdfb0103fc0400
00ff01ff030301fbfbfefffefffefc00fd00
fffcfc03fc04fcfafffb0501fbfdfcfd0200
fbfe0203fdff000301fcfb0405000305fb00
020501050300fd05040303030402ffff0400
04010000fe0101040202000301fe01fefc00
02fcfc050300050501fbff01fefdfffb0400
fdfd020202fb04ff04fefd03fb03fcfefa00
fdfe04fdfcfd0504ff05fd0500fefafb0300
0404010300fdfd04fd05fc05fafdfb05fe00
fffbfbff03050000fffdfbfcfcfe01020400
fdfefbfefcfb0402fd04fffefd05fbfd0300
fbfffc00fffdfd0505fc05fd02fd05fcfc00
fe050202fe03000406fcffffff0002fdfc00
01fa00030002fb0403fbfdfd00000304fd00
fe050204fd06fc00fffefdfd01fdfdffff00
0004fefcfb03fc03fb0304030304fffc0100
ff0005fffdfd01fcfcfc0302ff01fd040500
000000000000000000000000000000000000
7f7f7f7f7f7f7f7f7f7f7f7f7f7f7f7f7f00
0401fffb000200fbfe05fffb020301020300
ff04fcff01050203fe00fefdfbfb02ffff00
ff01fbfb01fffe0300040400fafefe01fc00
0006030201fc000301010402fcfc01fd0400
02fb04fd02fdfb03fb03000201fe01fb0300
fffb03fc00010201ff0203fdfe0204020400
00030204fe03000501fbfcfd020401fe0400
fb00fcfcff0502fefffb0302fd0302040400
05000300ff03fcff05fb00fbfdfe01050100
0400fd0405fbfe0504fb03fefeff04020200
fcfd040102fc0000fb03ff0401000401fc00
fbff01000103fb02ff03fd020202ff05fe00
0104ff0503fd05fd000203fc03fafb060100
fcfffbfcfefc03fdfeff0202000402010300
03fe000504040304050405ff0502fdfd0000
fdfbfcfb03fe00fe00fdfd03fb0001030000
05fa0504fcfd03fbfc06040200fc02fc0000
03ff010305000405fe02fc01fcfb00feff00
00fd00fcfe040005fbfd0200fc0500fdfc00
010200fcfa01fd01fffcfcfb04fc01050300
04ff0203040401000400fc01fafe05fbfe00
fefcfdfdfdfd00fc05030300050104fcfc00
0105030501fefcfa0000fb01fefb04050400
fcfe03fdfffbfbfdfcfffdfdfe0100020200
0204fffd04fc05fcfd04fffcfffc03040100
fe0102fb040102fefefcfd030103fb02fd00
fc0000050305fffffbfb03fffdfd0403fc00
040003fc03030403fc05fefefbfe02fe0300
050102fbfefe0401fbfc03fb04030003fd00
03fdfe0305fefeff02fd0106000406fe0000
03fefbfd02fefc05fc0200ff0304fe05ff00
0101fffefd04fd03fe0500ff020401fefb00
0103fb050101fbfd05fc01fbfcfb0203fb00
06fbfffe0303fefd00fd000001fb02fc0100
fc02020105ff0403ff000102fdfd00fefd00
ff02050200fefbfc01fefffffefb05ff0500
fffc0305fd01fbfd000503fe0001fb050100
fb05fe0506fc05ff04040105fbfb04fe0400
03fefbfb05fc050300fc030000fe02060500
fc05fc0402fd02fafa0304fe0305fdfb0100
01fc02fefb0300fcfb04fdfdfc010503fe00
0301fffefefc010404fb02fe0503fffc0500
03fc010404fe04fbfefc01ff0303fdff0500
01fd030103fdfc00fafc020001fd0103fc00
fd06fbfe05020203050305fd000301000100
fbfffbfefe02fcfd0104020204fcfcfd0500
0105fb050203fe01fcfe00000103feff0300
0102fdfd01fbfc000300fffeff000003fd00
fe0501ff010300fb01fdfd00fdfffdfdfc00
fb01fdfefffcfe0305fc00fd05fe03feff00
0303030302fa04fc04fcfefbfc0501020300
ff02fafd010201000105fc0404fa04ff0500
0103ff05fe01fe05fafc040405fbfe000000
0404fcfd05fb050101fe05fefe04fcfb0200
fc01fefb03fc04fffffefd0400000002fc00
04fffd05fc02fefbfd0304fcfd0200fbfe00
01fbfdfe02fe02fb05fd0004fe00fc040000
fc03fb03fd050400fc00020003000504fc00
fc0302050103fcfe0001fcfefd03fffe0200
0505ff050205fbff01fbfffb0102fe03fb00
01fffdff020105fffd0200fefc0001050200
020405fe040201fb010202fa020403fdfd00
fefdfcfdfbfb030002010004fd0101fcfc00
040502fcfe0205fd01ff0003fefc04020000
01ff040404fe02fcfd050504000100040100
0002fefdfbfcfcfdfbfcfcfdfe0205fefd00
05fe03fb030003ff0200040103fefd010000
040100fbfd0000fdfffb0302fdfb0400ff00
fcff05ff0400fa00fcff03fc0604fefdfe00
fffffd04fcfb03fe0204fefb04fdfb02fc00
fffb03fbff02fa0200fb03fbfdff04fbfa00
fcff04ff020102fefcfdfb0505fb05ffff00
fbfcfb02fefdfe04fc0501fa0405ff000400
fd010104fc0301fefd05fb050305fc05fb00
fe0601ffff04fe03fd0400ffff0505020600
010300fb04060401fb06fd050404fc040000
010505fefcfffafefcfdfb0505fc02040300
fd04fdfcfafc00fe040302fffb05fefa0400
fdfb0203fefc06050404030004ffffff0300
0604fefcff050202fcfb0002fb02fd030000
0501020001fe0300fbfbfb0002fdffff0100
fd0503ff01040404fbfe0105fe02ffff0400
00fc010300010003fc0302fefe06feffff00
04fc05fe0400ff04fb01030003040104fe00
fb0202030001010504010205ff010101fd00
fc050504fe05fafd0200fa040201fc00fb00
00050501fd0000fdfefbfb02040500ff0100
fd00050405fcfb05fefb0300fffbfe05fe00
02030505fd0301fbfe0101fbfd0501fbfc00
fcfd03fb000402fefc04fc04fbfe04010500
0600fb00fb03fcfffe010301ff0402fdff00
0402fd04fffc00fb030403010606fffefc00
fb0103fe01fb0302050403ff01fcfd020300
ff01fe0003fdff0205fcfd00fb04fdff0300
ff050502fbfa00fd050405ff01fdfc060000
fb01fdff0104fa0200fe0201000002fffd00
04fcfbff02fefbfc05fffb0403fffefefd00
01fb01fd0003ff0601fbfefc010300fb0200
ff02fffb0300fe02fc03ff010001fc040500
04ff030504fb00050404fc00fefbfd03ff00
fbfd0400fc04040505fe03000202fb040500
050305fefcfd0003fcfcfc0405fd05ff0500
01fc0201fcfefefd01fbfd0204ff0001fd00
fc000504020304030403fd0506fbfe020200
0300fffd04fd00fc0405fc05fefefefafb00
01fffefffffefc05fdfcfdfffffcfe050200
000505fc00fc050505fefdfeff02fd020400
fefd03030303000300fffbfb0001fb020200
ff00fb01050203feff0303fefc0003010100
fe050101fe04fcfd05fe05ff020203020300
fb05fdfe01050202fdfe020106fb05fdfd00
fcfe0204fe0205fb020000050500ff030300
03fb02fb00fefcfb06fbfd01fefc0102fd00
fcfe010103fdfdfc02fcfbff03fa00fe0100
01fc05fdfb01fb02030202fe0200fe010200
040102fb010204fd01fbfd00fcfc01000000
04fb000305fe04fc04fdff03fbff04fd0300
fdfb0302030201fefbfe04fc01fffffc0000
fd0100000000ff04fdfdff0304fbfcff0100
0304fdfafa00fb0000050406ff02fbfdfb00
fb0404fd0004fcff0003fd0305fd01fb0300
00ff0002020403fc04fcfd0102fe00fdff00
fbfd04fc0103fcfcfbfb03fbfbfe06fe0400
05fb00fdfd03fd0303fd02040004ff050100
fb02fcfd05fa010504fbfcfcff010203fd00
0100fcfcfc0306fb0504fc05020104fe0400
06ff01040204fefe03fb04fefc020105fe00
02fc04fdfe04fd04fc04fcfafd050203fe00
fd05fe05ff000101fffbfa05fffbfb030600
03ff06010002030002fb02fc04fdfefcff00
fbfafbfe010505fd01000003000301fdfd00
fe050404fe050405fd03fe020300fd000300
fb05fe000401050502fcfefefb0601020500
05ff060400fcfcfd04fe05fb04fffcfefb00
fc01fb05fe00ff0105fd02ffffff0505fb00
fefcfffd03fd0003fe0300fafdfdfb000400
fc010100fe0201fefcfdfd05fb01ff010100
fa03fc00fdfc01ffff0501ff0505ff030200
fffe050000030403010203fb030505faff00
fd03fd00fbfd01fefefb0101fe05fc010000
fb0405fc01ffff0204fe01fe0300ff05fe00
0102fc000004fe0302fc06fe04fc0305fc00
fe01fffefcff04010302fb06fcfb03030500
fbfb04030504fc01040104fd0403fb040200
feff0400fb0602fe02ff010402fefc05ff00
fbfd01020003fffbfc0205fdfd01fcfc0200
fb05fdff03040002fffe0405ff0505020300
01fcfffd02020401000000050001fdfc0200
fefbfdfe04fbfefcfefd0304000504fd0000
02fd050402ff0203ff04fbfefbfc02fc0000
01fb0005ff00fc000305fcfd0502fe00fb00
fb0301060204fcfb0202fc0205fc0101fb00
02fd0301fd030101fcfe0603050200fdfd00
fdfb050102fffc040402000203fb04030400
020304fdfe0202fffc05fbfefc04ff03ff00
05fe020105fd00010105fdfbfbfefdfefc00
0203ff05fc0305fc02fb01ff00010101ff00
0404fefc04fafbfe0101ff01030102030300
04fbfefa0005fc03010205fbfb060205fe00
fa01fdfd0402fc05fbfefe00fe010504fd00
fc04fe02fdfe0502ff01ff030102fcfdfd00
fffefbfe00fc03fe030505fd03ff0500fd00
040303fb02fcff04fc0502fcfbfbfbfe0100
04fbfb0504050300fe02fe0405050503fe00
fc050105000102fffdfc0003fffb0104ff00
fe000104fffe000104fcfc04fb0003000400
0401fb010303020000fefb0001fcfcfffd00
0506fc01050205fdfffbff04fdfcfb030600
fffcfcff0106020502fb02010105fcfc0300
0500000205fe04fd04ff0201fcfe02fb0100
fffbfcfbfdfc0400fd050203fd050500fc00
04050204fc01ff00fc030203fcfffc050100
02fefffcfefd010304fb010300fc01fefc00
000300fc03fb0102fdfe00fb0002fc050300
fffffdfd01fbfbfe0100fd0601fb03fefa00
00fbff0502ff01050200fcfffcfe0204fe00
02fffcfd050402feff010202fc030000fc00
020501fc000301fefa000501fd04fd04fc00
fefd0200000103040504fdfdfa0004040100
02fd06fe00fcfbfe04fd0305fb01fc00fb00
ff00fbfdfe040101fcfdff0405050302fa00
04040001fe020305fd0002ff06fffc02fd00
fcfc00fb020401fdfbfcfd0503fcfdfdfb00
05010401fdfe030104fd01fd04fa03fbfb00
fe05fafbfb04fcfdfd02020101fdfd01fb00
0502fefe040601020404fffbfcfafc03ff00
fffbfc05fdfefbfc040002fdfe0201fcff00
fefdfe010001fc05ff0201fbfefcfe050100
0500030302fbfdfffffffc03fd0001050400
fb0003fbff05fb0504050001ff02fd000100
010601fbfffc02fd04fcfffa03fb00000400
fbfc05fd00fe03fefd01fcff02050505fb00
00030103fefdfb04020403ff01fcfe050500
fcfcfd0104fe0001060302fb0402fc050200
02fd020402fe04fe04fcfbfefc04fcff0100
03fd0403fd0503030403fb0105fb02fc0000
fc06fefc0201fffe05fd0003fffc0505ff00
03fc0406fb0001010204fefc020200fd0400
0303fd01fb0405010501fcfb0403fdfffb00
fb0500fb01fdfefb05fcfdfc04fefbfa0100
fd0504fdfd02fcfc00fffdfffffefc000300
fcfefb0300fffc04040003ff060000fe0500
fe05fe0403fdfe03fffbfefc0200fe030000
0202030603fefc030402fc02fb04fd010200
0604ff05fe05010405030300020003fc0300
04fc040204fb03ff0004fe05030404fc0100
03fb03040001fdfd01fb03fcfb050205fc00
04fefcff05fd0005fefffb0005fb04fc0000
fdfdfbff0403fe02ff050002fefefdfbfe00
00fe020302fd040404020000fefefbfbfc00
030204fefb000303fb010105fe03fb02ff00
03ff05fe01ff0001fafb0004fd0400fc0100
05fffb00fffbfb04fe020400010004020300
fe00fffbfcfd0404fe0203ff03fcfb04fa00
01fcfc04fb03000100fd0305fdfc0301fc00
fffc04fcfefb05fdfc02fcfb0304fc000600
050203fdfd02fbfdff0405fe060000fb0500
0204010501040102030203020302fbfc0500
02040601fd000101fd000101fc04fc03fd00
00fefe04fc0500040405ffff01fe03010100
fbfc000502fd00fefbff060100ffff010100
fb02fd02050205fbfffe03ff00fe0402ff00
03fbfc0005fefffb05fcfc040404fcff0400
fc0000fd02010201fdff01fd0103fc04fc00
05fd0204fc04fcfb040204fe03fb0303ff00
01fdfb020304fefdfffffc010403fd000400
ff0103fd0302fc0105fafd0203fd06000000
050400fcfefc0102fc04fffdfbfbff010200
0201030504fd04fcfe04fcfc02050505fe00
01fb05040605fe04fd0503fd03fdfcfc0400
ff03000504040501fc030202fbfcff03ff00
fcfe0502ff0504fdff0104fbfc05fdfc0600
fa00020102fd01fdfcfefb00fffc0102fd00
fb05000405fd04fdfbff050500fb03020200
fe03020105fafd04ff0004fd02050203fc00
0302040300040005030000fc020205020100
fe040102fcfc00ff00fefc02fd0403050200
fffafdff0201fefcfe0502fb0501fffe0300
fbfe0401ff00fefb030005fdfd0201030000
fbff010400fe02fdfd03fb00fcfb0201fb00
05fc040604ff02fc04030206fcfdfefe0200
02fffdff00ffff04fe03fb04050000fffc00
fc030302fdfffcfe04fbfe0503fe0104fb00
020501fbfdfbfffb0200fc0600fefbfefe00
06010405ff03fffe01fa0304fb0202fb0100
0500fe03fdfcfd0502fefefffefd04fdfb00
02fefdfcfffefffffc0302020303fc03fb00
fcfffd04050503fdff0300fcfefafd020200
01fefc0002faff05fbfbfd01ff01fefafb00
020002fbfcfb050401ff01fd0505ff000200
fdff0203000103020402fd01fc04fd03fc00
fefe04fffe03fcfdfdfbfefcfc03fcfd0000
0504fefe0105fbfd0400fe03fbfc04000100
fffdfd06fe03fa02fcfe00fc0402fb03fb00
020300ff02fa01fd05ff03fc00020003fb00
fdfbfeff0002fe04fafc03fb000501fefd00
fdfd00010001fffc03fb0200fe000004fb00
0405fb02fcff0504fd00010301ff01040100
02fd05fffb02ff00fe01fb03fefbfd010100
0102fc01fefb0202fc0100020403fdfcff00
0204fffb010504ffff03fd04fcfbfffefd00
fc0402fcfcfa0000fd0601fb00fbfffc0100
fd01ff0300ff050505040502fd030103fb00
030503fe03fe0306fdfb0505fbfd02ff0100
ff04fdfd02fb01fcfeff02fd010401fffb00
03010304fb00fefefd010205fbfc05fcfb00
fe0105010404fd000004fb01fc00fa06fa00
fbff000103fd03fbfffefffffd0105030400
0503050301fdfd00040403fb02fe03fe0300
fd0205fb03fc0504fc050002fffffffbfc00
02fdfffd05000502fefd01fe020600fcfb00
03ff05fdfe030204fefa0305fbfefcfd0100
fdff0001020102ff0000fe05feffff01fd00
0100fb010404fb00fe0001040003ff030100
01fdfe05fcfbfefeff00fffe040500fdfd00
01fffffb0205fefc0503fb04fdfeff000300
ff000300ff02fe05fefe0304fc0300030300
fd04fc0204fb05fefb0105000501ff030200
020202fe04fffdfbfefa0504010403fd0200
02fefd04fc02fbfd02fbfe05fcfdfd040500
fefbfc05fc0202fa00030100fd0005fb0500
fe01fffbff01000200fc0501fe0105020200
050201fc0305fc040004fcfcfe0002050100
03fafc05fdfdfbfb040205fd01fdfefdfc00
fbfc01feff01fe010204fffe00fb0001fc00
fffe0104fb040505fafefc02fbfe02050300
fbfffbfbfe00fd00ffff02ff0103fc020300
020605fdff030306fffe00fe02fd04fc0000
00000003fefbfe0502fe06fcfe010505fc00
0101fe0102fc05fb05fe02fd040103000000
0202fcfe05fb020003fffdfcfe0504030600
030503fb0200fefffffefbffff040004fd00
00ff02010503fe030503fe04fb02ff020200
fb020103fb010204050200fffefd03020400
ff05040202fffefefb01fb01fcfc01000300
fcfffcfdfcff0104fb0204010003fe040100
0204fefefcfffcfdff000202fc03fefffd00
fe06fd040005030103040501fefefc06fe00
ff02ff0100fcfe0600fefe03fb03ff050000
0104fdfdfe0205fcfc05fb05fefafbff0200
feff050203fb0103030201ff010301030500
02000101fcfe0100fe040403fefcfffdfc00
fcfd06fbfc03030101ff05fbfe02fcfe0600
00fe000503fdfc02fffb04fd04fbfe040000
0600fefdff010202fbfd05fdfbfafefcfe00
0506fd00fc0605fcfc04fc0103fb04fb0100
0501fdfc02ff0000030000040204fb05fd00
02fbfdfc0103fe01fb04fdfc020100fdfb00
01fe00fb040201020104fb04fb04fefdfa00
04ff0405fc03010004fd0105020102020400
fffe01fb01fd02fa010203fafc0401fd0000
02fdff03ff0301fa02fc0105fc03fffb0200
04fefdfffdfc0506fc040401fefefc040000
03fe03fb0305fe000004fd03fffb03fbfb00
ff00fe06fe0501ff00fbfd050101ff020400
fefefd04ff02fb020105fffb00fffc040000
01030102fdfdfc04fc03fb02fdfb05fbff00
fcff0003010203fb0301fb05fd000101fd00
fefe04fbfbfbff050503fe0305fffcfffe00
fefe0303ff03fdfd05ff0100fdfffbffff00
06fbfb030200fd02fbfc00fefffaff010000
ff01fcfc01fffd01fd020003ff06fc020300
05fe02000201ff02fd01ff02fe05fcfbfe00
0401fd00fe0204fb03ff01050405fcfefb00
fd05fdfd00fe050104fbfd0100fefb030500
fe0202fc02fcfc0406fa04fefe0104fc0200
fd0005fb01fd030304fd0002fb04fd030400
040000fcfcfc03fd01fb0405fdfb00fbfe00
040102fffe03020500ff0305fbfcfd030100
02fcfdfefbff030000fbfe0005fd02fefe00
05fffd02fdfe01fe00fbff00fe0302fffe00
010103050000fe0201fb0105fe0203060000
02ff04000302fd0500ff04030302fffe0000
ffff050501fd01fd030402fe0200fffbfd00
fcffff03030300ff0200fe02050001fe0200
02fe00020502020404fcfefc020005010000
04fc01010101fbfd0301ff05fd01fcfdff00
fb0102fc0105fdfcff01fd01fffc01030400
fefc02fbfc00fe0303fe040300fcfdff0400
fc06fb0504fefe01fbfd0002030404fcfc00
ff040302fffefb01fdfafffbfafbfbfcfe00
ff0504fc0103fc0401fffe000401fffb0000
000100fdfa050101fffcfffcfb0301fd0300
0305fe020602fefb020100050204fffaff00
0405fd04fc0001feff02fb02fdfe01fdfd00
fdfc05ff0302020204ff00fcfe01fbfeff00
06fcfb05040005020101ff0205fffc050300
fb0403fd00030300fdfdff0504fdfd00fd00
020501fa00fb0206050304fd00fb01ff0200
fc04fc01020205fcfb04fb02ff05fb050100
010202fdff010104ff0003fdfd01ff03ff00
05fc00fafb00feff02fffe0005fb02fe0000
03fd00ff0200ff05feff01fe050405fd0100
fc0405fc04fefffe0605fbfe0305fdfbfc00
05fe050103fa0001ff0200fe04fa01020000
00fe0301030202ff03fcfffb0101fa040100
01040305fd040005fffffb050300fb040100
fbfd010300020303060404fc04010404fc00
ff05fc02fa0301fb01fe050501020404fd00
000405010503030102fdfb03fdfffbfffb00
0500fe04fb0303fd01fffc050004fdfe0500
fc02fbfffb0401020101fc01ff05fc03fd00
04fdfd0305030202fcff0004fe010104fe00
fffbfe0405fefcfffffbfd03fc05fefdfe00
0300fdfd00fd00fb05fe05fdff01fbfbfe00
fe030003fd03050301fcfcfe03fdfeff0400
06fc00fe05fe03fbff05fe020201fdff0100
fefeff0103000302fc04ff03050003fdfd00
fd0301fb01fe0205fd0001fd05fdffffff00
00010101ff04fefcfdfffb05fcff01fbfa00
0402fc05fa0301fc0200ffff0102ff000300
fcfc020404ff00fe00fbfb04fb040001ff00
fcfe02fcff01fe0303010502040305fd0300
fefc02030602fbfe0202fbfbfe03fdfb0300
fcff04fbfd01fe00fe0203fdfdfc01040400
040104fb0302fd030402fb04010205010400
0503fdfffefdfc03fffe04fbfcfe04020000
02fcff01fdfb03010302fdfefe0102fb0500
020205fc06fe06ffff05000005fe02050100
0201fcfe03030003fd0400fefdfbfd01fd00
fefb0304fe05fc01fbfcfd02fbfd05fd0500
04fbfbfcfcfdfb0304fffafd000500050400
0201fefeff03fefe0401fc02fe02fc03fc00
04fffe01fb01010203030004fb02fd000500
00020002fbfc030205fcfe05fc0501010100
04010400030001fa0500fefcfcfffcfffc00
03ff03fb0104fbfb050502050302fbfc0200
00fefbfdff03fffb040302fc05fcff03fc00
fffffcfcfb0203fdfd04020400fdfc04fe00
01fdfbfdfcff03fd0403fe01ff0303fafb00
05000504fcfdfcfffcfefbfefc0506feff00
fdfffc040201fcff05fcfc0305fffcfc0200
fa02fdfdfdfffcfffefbfdfbfdfb03000200
fd0400fcff05fefbfffe05020103fe00fb00
03030203fdfbfefcfffc0003fdfbfe050300
03fffb0404fefb0104fffffb0501fbfffd00
040100ff020106fffdfcfdfe03fdfdfcff00
050206fc01fbfb03fd04fc0001fbfc05fd00
020302fc05fdfa03fe0203fe05010502fb00
03fb02fefc00fefefefdfd0001fbff03fe00
00040504010302050000ff03030303010400
fafcff060505fffb030102ff0505fd020300
fbfd0202fd0202fe0004ff00030503040000
02fa000303fd0305fe03ff0400fffbfe0100
02fd00fc00050402fffefdff030304fcfe00
fa0202fa0406fffffcff0000fd03fb050200
01040301fd05010100010001fcff01fefe00
fb0201ff02fffbfd040205fb05fb05fbfd00
0204fd0105ff03fcfe0404fffffd0001fc00
fe0306fbfbfd040406020502fb03fc03fb00
fa0104ff030403fbfafb00fdfc05fbff0100
fd040501020200000100fbfbff05fdfdff00
050504fcfefd020100fe020002000303fe00
01fdfbfe04fe05fd03fc00fc0102fe040400
fd010104fcfefdfcfb0204fe05040203fb00
0002010205fc00050303fbfd0204fb050500
03fb05fb040404fcfdfa0002fc050504ff00
fffcfefd02fbfefa050100fd01fefbfbfb00
fcfefd040300fd030200fffefd000006fc00
00ff0403fb0505fbfb010402fcfe02030100
fcfbfb05fc04fb01ff060302fe0501ff0400
06fd00fbfefafb010504ff04fffc02fc0500
fbfc040500fe01fcfbfd05fc05ffff04ff00
0303fbfd0004fcfd020102fd05fc06000400
00030203fb0404020504fc02fc010100ff00
03fc0600fe020200030200ff000102ff0000
05fb01fcfe000104ff0006000406fc050100
00fd02fb04fe04fe030003fb0002ff04fb00
05fd04fd0403ff02fdfd0404fcfc02020300
000401ff0502ff050001fa00fcfb04ff0000
030305fb0003fcfc0102fe010202fdfd0500
fcfbfdfb0501fd04fbfe0102030503fc0500
fc020005020404fcfe0204fcfcfffe05fb00
fffc02fb030101000101fd0005fefcfa0500
0003fefffe0404fb010202fd04fc05030100
06fdfdfb06fe04fc04fc0504fdfdfbfefc00
00fe000300fefcfb000503020205fb050500
02fb01fb02040001020305ff0103fbfcfd00
fb0302fd000204040301fc0204fcfe04fb00
0404fb0101ff04020504fd0004fffefdfd00
fe0302030402fc0103feff02fd04fefc0300
01fe04ff0405fbfefd0305020503fafd0000
fb02ff0004fb040002fcfefc04fc0001fc00
fb03010302fd0104fcfbfcfc05fafdfefc00
0104fd05fcfbfe01000003fdfb0304000600
fdfc01010202060404fcff0105fc05040100
fc01fe0303fb0500ff02fdfb040203010000
fe000204fefefd01fcfefcfc020302fefe00
060101fcfcff0003ff0502fb000203010500
050504000003fffefbfb000504fffdfcfb00
03fc03fcfc05fb05fb06fffb0302fdfe0500
fffd0405fbfdfffb030503fb02fbfe00fc00
0503fefdfb040500ff02fbfffc00fcfc0000
06000000fe010502fb040505010200010100
040001000202040405fdfb0605fb03010000
fcfc0504ffff01fffe00fc0303fcfc01fe00
ff02fbfbfbfdfd02fcfaff01fffdfb02fc00
fc02fefbfbfefdfc0303fefe04fe03fbfc00
05fcfcfc00ff0205fc05fefa000505020300
03020300fafe05fefe0206000405fe040200
0305fb010202fe05fc03010000fdff020300
030400fe04ff06fefefb01fe020305fcfc00
ff04fdfd0101fdfafefe00fbfc0503fdfd00
0403fffdfb00020401fc030204fbff05fd00
fb01fa05fd0302040102fdfcfffd00010500
fe00fcfffe0302fbfcfcff04fbfb03fc0400
fc04020100fd0205ff03fb02fbfcfc05ff00
020100fffdfe03fffcfb02fc00020202fc00
0000fffd020102fb0001010102fd05030200
050200fd03ff00fcfffcfafd05fb03fdff00
03fb020400fd02020204fb00030200ffff00
00fa04fffafdfdfb0304010402fbfefffe00
03ffff020305fffcfbfb03fefb040105fb00
fcfa02fffd0201fcfbfa000300fc03fbfc00
ff0402fffefbfafcfefe03fe040000fd0500
fd0305fe0405fb00fb0101fefefd02fe0500
03fbfcfbfefc04fb00fb04040005fefdfa00
0301fcfffbfe0301020404fffe0303040400
030503fb0005030301fcfcfc01050601fe00
03fbfe03fc0104fb05fc02040302fafffb00
03fa030603fc0003fcfdfbfe020205030400
feffff03050201fb00fd00030101fc01fe00
fbfcfefb030100fd050500ff01ff0501fe00
01fe00000005fcfe0004fefffc04fffefb00
01fe0306fefb04fe04fd02fc010501fc0200
fb01fcfcfb00fe000006fffb040302030400
02fdff020500fbff05ff0203fb0405050300
ff00fcfbfffbfd050505010505fbff02ff00
0302fdfe0402fffcfbfd000501fb00ffff00
fd0101000102fb040001ff05010601fefc00
fffc0402ff00ff0405fd02fbfe01ff03fa00
01ff00fefc04fd0006fffd030304fffcfe00
fc02fc0302fbfbfc0000fd0104fafffb0100
fc00030301fe0101020500fcfb05fb050100
fbfc02fd0603ff04fdfbfb02fdfb0005fb00
fbfd020403ff04fd0202fc020004fd040400
fdfdfb01fc04fd03fc0200fc02040402ff00
ff050304fffdfefd02020400fc0105040400
ff0500fefc04ff00fffbfb0500fc0204fc00
fdfcfa0202fc0105fdfcfb01fd000004fe00
fa0000feff04fd03fafbfdfb04fc05fbfc00
ff010400fdfbfdff0002050505fffefd0400
02fbfc0501fd01fd030106050603fd050500
01040502fcfa03fc03fbfdfefb000204ff00
0105fdfc00fb00fcfefd02fcfefcfefefe00
04fbfe0600fdfefbfffb0402ff0103fffb00
00fcfefcfb02fb0201fe0403fbffff02fe00
fc03ff00fd02ff03fcfdfb0104010401fd00
ff03040303fdfd03fe04fffeff030005fe00
000000fc03ff010305050101fc0101fefb00
01020306fe04fd05fd05fefd050206fb0000
040005fe010400fb0302ff01050504000200
0201fbfe0301fdfcfefefe03fb01fffbff00
000000000000000000000000000000000000
7f7f7f7f7f7f7f7f7f7f7f7f7f7f7f7f7f00
fd0302040300fdfb0404fd01fcfefefe0400
fffefd030003fb04030005fd0300fb010300
04fc03fd000205020003030304fd0001ff00
fe00fdfdfb050300fdfffd0005fb0001fd00
0302fdfcfdfc0203fbfbfd00fc000203ff00
fcfbff03fefe02fffe0003fefc0602010200
0003fb0303fd000504fefd01ff0402fe0500
03fffb02fc050104ffff04fdfc0503fdff00
0102fdfefdfbfd0202fe00fb04ff0405fc00
fefd01fa040201fe05fefe040305fbfdfc00
0500fc0300fb04fd020405fffcfefb000000
fc01feff01040202ff0303ff0305fefcfb00
fcfd0105010101fffc0402fb02fbff000300
0502fd04fc0105fb05000004fefb0205fd00
fc0503fffb02fefffe030202ff02fb000500
fd03fe05ffff05fefdff05fe05fbfb05fd00
05fb0405fcfe000104020305fcfbfc06fb00
fcfffbfcfdfb01fdfe010501010501fffd00
fafffffe0003fdfbfb010002fefffdfd0200
03fefb01000501fc03000400fc0006010100
02fffc04fc020104ff0504fd00fd03020500
0304fffeffff0302060100ffffff04fe0000
fefffcfeff01010302ff0401050505020300
02000501050300fc03fcfe02fafefbfd0500
ff03050205fcfffc0501fb030502fdfb0200
fd000001fcfd0202fe0102fbfe06fd000400
0400fefdfe02fefc0201fffb01ffff02ff00
0401fefefd01fb02fe05fefdfcfc02020500
fffb0002050201000302fefdfefdfd05fe00
ff01fdfbfbfbfb000300030202fcfdfbfe00
05fffd02fb020001fefb0501fdfcfe010500
fcfe030403fc00fcfe05fd01fc01fbfe0200
03fe0604fdfb05000303fefb0401fefd0600
fb0400fb020000fcfeffff000304fefc0200
020403030103fefe0002fd0102fc05ff0500
02fc0501fcfb02fb03fbff04000203fe0400
fe0401fe03020302fcfffefc03fe02fe0300
02fd04fffd02fb02fefcfcfffdfefcfe0300
00050004ff00fffbfdfe04fdffff01010000
06050104fcfcfd0402fdfc00ffff05000300
040500000101fcfefefefb0303fd0203fe00
fd01fcfb010102fbfb02010401020303fc00
0400fcfe020305050200030501fb06fe0300
fd000004fbfd0000fefd0400fc020105fe00
01fc050503fb010300000002fd03fb020000
fffb01fc040105fb02fe0600fb01fbfb0200
fe05fc04ff0304fb00fc01fb050400000100
fe00fcfd0101fbfd00fe01fdfb0104fe0500
fbfbff04fb00fbfd000000040005ff02fd00
fd02fdfffefc02fc0504fefe0303fcfb0200
fcfb03040504020302010204fbfdfd05ff00
06050201fd01fdff05fbfb04fb0503fdfe00
020103fc04fcff0602fdfffb03fc0506fb00
fb0504fd020203fefcfffe05fb06fd040400
020003fc00010402fb050402fe010300fd00
03fafd020404fbfd0001fffefe03fbfb0400
000600fcfe010004fffdff00fbfc02020200
01fd010100ff040406fefc030504fe040400
01fcfeff0000fe04000305fc03fc05fe0000
02fefefc0500040002fbfa00fb020404fc00
fb00fe0102fefc01fa03fffb040503030400
fc000505000004fd0301fd02000301000400
fd03fbfbfdfc05fbff0501fc03fb05fffd00
fffffd02050603fcff02fdff05fb02fdfd00
030204fe04fc05ff0000fdfefafd04050500
fdfdfb05fd0504fc03fefb040401fe00fc00
01fdfd04fffefdfdfc010102fffffbfc0000
02fe040003040304fbfd000400ff05fb0400
fb01fd0400fbfffb03fe04fbfb05fbfd0200
030501fc01fdfcfe05fbff04faff01030000
fbff04fe05fffdfc050200fc0000fefd0100
ff0205fd000403ff01fa050105fe01030200
fc05ff02fd0400fe00fb0505ff04fbfc0600
0503fcfffc0303fe03fefe0405fd01fb0000
0000fcfe03feff050506fe0201fe00fe0400
fffc040501000201010205fbfefffbfcfd00
fc060404000506020401fd0205fefc040300
fb010505fd02fc02fdfdfefffe05fb00ff00
fefafe0205fbfbfe0205fa02fbfe05030000
fd05fc0501fcfd0205fd040406fb0503fb00
020401fefe0005fdfefc0500fd0001fbfa00
01fdfefd05fd00fd02ff04fe02fbfffc0400
0502fbfefcfd0403fe000405fb06fbfcfe00
fcfefefeff04fc05fafbfd02010402030200
fefc0105fd00fffcfd04fa02fffcff01fc00
00fafdfc05fcfb0503fdfcff03fc03ffff00
fe040503fdfe03fbfffffe00fc0501ff0400
000602fffcfdfcfc05fc00fb030204fb0000
05fb05fc0504fd04fc04020401fe03020100
fefe03fe04fbfc02fcfe03fefb03fbfdfe00
050503000203fd0103fd00fdfbfcfffb0000
fd0001fdfe02fc00fc03fb0502ffff020500
0101010101fe01fbffffff0106fefb010300
00fb04fcfd000303fefd02fd04fc01fcfd00
fc020400fa010403fefb01ff04ff01040400
0501fe05fdfefdfdfe06fdfcfefffc010000
fcff00fc010502fd050102000103fd03fe00
fffd010203fcfc040500fbfe000103fe0400
fbff0502050002fd04fa050504fcfbfefe00
fd0201fffd0203fc05ff0105fe0000fb0300
0600fd02fe04fc01fd0300fffc0204000600
fffcfb0302fcfc0501fc030104ff05010000
000103ff010302fefefdfb05fc0503000400
fdfe020204fdfefefb04fe040501fb01fd00
01fefb04ff010305fbff00fd04fffffbff00
fd04fd03050004fffb020200fe00fd02fc00
fcfd020406fefb05fbffff0301ff04ff0000
fc02fe04fdfbfbfffbfd0301fbfbfdfc0000
fcfa03fe0104060305fdfb0403030305fc00
fefdfc0500fafc04fbfd00030405fd010300
fc04050504fe04020501fffb02fefe00fd00
01fd0301fffcfd03fafc0200050003000100
01fd000402ff04fb0101020401fcfd02fd00
fe03fffefefe010304fc03fe05fffbfd0000
fffd030402fcfefc05ff00fefbfb01040400
fffbfcfefefcfc030501fd0001fefcfb0300
000201fe00fd02030504fbfd010303fdfe00
04fefdfd0103fc0500fefd0202fbfb030400
0103fd02fa04fefc02fa03fe03fdfb050200
0200fffb03fefffb0404fb03fd0004fcfe00
0102ff0300fbfc03fcfefb05fd01fe05fc00
ff040301fd03fbfd0504000402ff05030000
fc02030403fb03fbfb04ff04fdfb0002fb00
04fa04fe06030102fefefd0402fb03030500
03fefc0304ff00030401fd03fdfe0403fd00
040203ff03020200fb0402fcfd05fb00fb00
fc02030406fffe050600fc06fd01fb01fd00
fb02000002fbfdfcfd0101fd0505fbfe0200
02ff01fe02fafe04fefdfe02fc01fcfcfb00
05fd0204030501fc03030505fcff02fbfc00
05fd01fffefffe050406fc00ff050502fb00
000203030400fbfbfe03fcfe0505fb000300
05fd030203fb0103ff010002000501000000
0104060505000001fefffefd0302fcfc0500
03fdfd020003fdff03fcff03fffbff02ff00
010003fdfefefc0401fcfdfc02020205fe00
fc050104fb000000010503fcfe0300000100
04fcfb030101020302fefffdfb04fd05fa00
fffbfd04fcfc04fd050201fd0100fefbff00
0301040000fd05fe03ff0402010201010400
0000fffdfc02fb0101010302ff0102010000
00fcfe0300fc030103ff0204040004ff0300
01fb00030304030603fc010004fc03ff0500
0405fe04fc02000104fbfcfb040200fdfb00
fefefd03fefeff01ff01fd020003ff06ff00
fbfb00fdfb0500040104fd050104ff000500
00020501ff0500fc0203030301fb03ff0100
00fe06fd01ff02fb0501fafc01fc0002ff00
01fd060402fd02fc0001040104ff0100ff00
040106fb03fdfd01030104fefdfffe05ff00
03fcfe04020502040102fc0302010104ff00
0000fbfdfffffefb05030002fe00ffff0100
fefcff02fffd0305fcfcfdfcfefd05fb0000
fbfc0301fb03fe00040400fffffdff050000
fefcfefeff01fe02fc0501050203fd020300
050105fffb0200fd05fe04fc00fefefd0400
01fffb01fffbfc0101feffff02fdfb020400
0003fffbfb03040205fdff00010605fffd00
02fb00fd0205fcfe030300ff0401fffb0400
0205010100fcfdff0504fc000101fafb0500
fbfefefd0201fb0105ff02fbfcfbfe050200
fc02fefdfc03fc0103fb0303fe0103050200
feff0402fc0203020001ff03020402000200
00fefb050103fbff010004ff05fe03020200
ff01fdfdfd03fb010302fbfd000303fe0300
fbfdfd0303fcfdfe03fd0403fc0205fc0100
fffa05fefefffffbfffdfd00fcfb0401fb00
fd0203fb02fffafd0302fc00030401fd0300
010305fc02ff0203fdfbfafdfdfd0404ff00
fc040304fd020201fd00fdfe0403ff02fb00
05fe01fc010400fb060001fbff000301ff00
fd0305fefffbfe03fb0000fefc01fbff0500
fc020503050300fafcfb00fb01fb01040100
040102fbff01fa00ff050504fc04fbffff00
fefb0003fd0001fb040204ff03fa04ff0100
ff0302fbfefd05050002ff05fe03fd05fd00
0501020202040201000100fcfd00fd030300
fcfefd04fefbfbfe03fe0502fb040400fe00
05fd05fffc040402fb01fcfdfd03fdfffb00
02fe0006fffbff01fb010102fe0200030000
03fb03030005fffcfbff04fffd03fd020200
fdff050001010104020002fefd01fafefd00
0400010305020305fcfd02030101ff020100
fffe040401fe010501000305020302040500
03000203fbfefcfe000302fe0100fc00ff00
05020104fc0105030104fdfb02fb00fbfb00
fa020505fcfdff03fdfefa03fe04fbfb0500
03040505fffb0400fcfffa020601fbfe0500
020405fdff030200fbfcfefdfcfe0002ff00
fdfd0400fb0205fe0001fffb04fdfa040500
fffefdfd02fbfb02fc02ff01ffff05050000
05020002fcfd04050203fe0002fe0102fb00
fffe04fbfbfdfd05020504fc01fcfe020100
fb00fefc0401fbfefbfb000506040504fc00
03fefefd0501fdfcfc0405fb04fefa02fd00
fb0404ff060505fbfefe01fd0201fd00ff00
01050505fc0001fe0104fefe000502000100
01fffbfb03fbff050204010302fbfdfd0200
fb00000403fefd02fbfd01fcff05fbfb0200
01fefcfd01fd0400fe00fe010201fa00ff00
fffffe02fc02fffffb03fcfefc050204ff00
fa04fcfc05fb0403fb0005fd04010202fb00
0400fb040203fbfd00fc00fd0402fb020100
fbfc02fffb050502030503feff020302fe00
00fd02fefbff00fefbfc02fd02fd0404fc00
ff05fe05fc02fc05fdfcfc05fefdffff0300
04feff05fefefc030500030004fb0204ff00
0304fd04010504020305ff0205030505ff00
fc00fcfffe0003fd0100fbfc00fc03050300
ffff0003ff02fd02fcfe03ff0403ff03fc00
fffdfb0106fb0404040504fdfd00fd00ff00
fb00ff0001050100fefbfd040004fdff0200
02fdfffefefffcfe00fb05fb02fe04050300
fe04fe020304fffe01fd01fffb05fc050000
fa01fe00fb0205020401fffbfc00fc00fb00
03ff05fcfd01fafcff0404fffdfefafefc00
05000305fffafd02ff0103fd0100fffffd00
fafe00fe04fdfd00ff0501fefbfdfcfefc00
00fdfaffff06fefefc050404fefbfc00fd00
fdfbfffefe04fc02fcfd03ff0201fbfefc00
fafd0105fd0400ff0302fcfffa02fe060200
01fdfbfd0206fcff03010501030003000000
05fefb01fffc03fd04fd00ff03fd0005ff00
04fc04fd03fefb000400fcfffe06fdfdfc00
fbff05fc04fdfeff0301fdfd05fc0204fe00
03040103000303fb04fe0001fefefcfbfc00
0404040303050502fd03fd02fd0404fcfd00
03fbfc04fcffff01ff0104fffe0402fa0500
fc00fdfd01fcfd0203fbfc03030305000400
fafe05fd05fc0002fe02fafefbfdfbff0300
fdfb020203fcffffff0203fefe000005fa00
fbfefffd05ff0003060505fe04ff00fd0000
02fc0405fe01fb000005fffcfc0405feff00
fefffdfdfd020503fffbfefcfa02feffff00
fb02fc0401fb03fe01fffefd02fefdfa0000
fb03050200fefdfd00fdfffd04fb00000000
04020000ff03fffcfa0400fd050305030400
03fffe01fcfd010403fffd04fefd0200fc00
0404fb00fd04fffbfc05fffdfb0204010000
04fefe02fdfe05fc04fefb04fffe02ff0000
01fe02fb00fffe0102fbfc020104fe03fc00
fa03fcfb0300fbfffd020500010304fd0300
03040402fbfb04fefa000304fefb01050200
fe01ffff03fc00fd0203fe02fbfb0001fc00
fa040203040402fefffb0201ff03fbfb0400
fb060400ff01030000fd04fb04fd01030000
05fc04ff02fffd02040103fffcfdfc02ff00
fcff02fbfd03fe05050200fe0301fb01fe00
fc02fd0300fbff020000fcfd030200fefd00
fc04ff00ff03fbfc0202fd050503ff050100
0301fb0500fe0301030404fd0303fffefd00
0301fc05ff00040500050006fd0303040500
fbfffc04fb0502fd05fffefdfe05fe02fe00
fefc03fbfffa02010001fb0300fbfcfffe00
fe03fdfbfc0405fe010004fdfcfb01fa0000
0404fd04fb040102fdfb0204ff00fcfafd00
02fe00fc04fefcfb04040200fb050000fc00
fcfd02fe0305040106fa0404fffbfafa0500
04fd0200fe04ff0504030302fb000205fb00
fffb040202060503fa02fdfefdfdff020500
01fd010305ff04fbfd00ff0204fb0003fe00
fefe0502fefefd0501ff04fefb00fbfcfd00
0405fb06fd00050300fcffff04fcfbfeff00
05fd04fbff04fdfc04fd01fb02fc02ffff00
fe020100fdfd0405fd0502fcff0002030300
0305fcfeffff02fbfe02000104050503fc00
fbfafd0105fd020204fdfbfdfb01fb030200
04fe0300ff0502fcfd01fdfcfd020004fc00
ff020305050405fefb04020504fb01020100
fdff00040000030303fb05fafeff03fb0100
03fbfd05faff00030502fdfe010104ff0300
ff05fe030500fd030100fefb0401ff030200
0403fbfffe04fd05ff0205fc0501ff010100
0002fc0103fb0503fd06020001feff010200
04000201010103fcfbfc050400fefd050500
040200fdfbfcff020204010203fdfc03fd00
00ff0002fcfc00fd03fd00fbfbfafe00fb00
04fb0502ff01fd05040104050100fbfc0300
0404010502fbfffcfb01fd0005fe05fffb00
02040502ff0402fafdfc01030405ff010200
fdfcff00040304fe0402fa04010403fffc00
00fefe01000404fdfc0501ff01fdfcff0600
00fdfc0402050202fefefffd02030002ff00
05fefcfd0402000301020305fa0003fdfb00
fefefd01ffff050106fefe01fbfcfffb0500
fe04fc0304fe0500ff01fffcfcfb0103ff00
05fcfe02fe040101fbfb020400030205fb00
05fb00fbff020200fffdfc05fe03fdfd0300
ff01fcfdfefbfbfd020000fc02fffafdfd00
fc04fe02fdfffcfd0101030001fe0303fb00
05fe0502fc00fe000000ff0201040002fc00
fcfe03fe01fd030505060401fffd0104fe00
03fc0500fbfcfd0102fa05fbfffcfb030400
fe02faff01fe0405fe0303fe0104fd05fd00
fcfc01fbfcfbfd040504fe00fcfe04ffff00
0504fefc0405fb0104ff0400fb050500fc00
00020205fe04fe01fbfffcff00fffe050100
fb02fe03fc05fcfb000003000101fafcfc00
fffd030101fcfcfcfa040403fe0104020300
fb05fe040204fd04fd05fd0105050504fb00
04fd01050103fffdfefffc05fffcfcff0300
fd02010205fefb02fefafe05010001000500
fefe0401ff0100ff02fcfb0501fdfdff0300
ff0105000303fe020003fb01fc06fc04fe00
000000fcfbff04010002020405feff050500
04fffdfffcfffffefcff05fdfc050501fe00
0105fbfffffc0403ff0004fe05fffe00fc00
0504fb0403fefcffff0300fe0002fb000300
fe00fb00ff0105fbfcfd02fefefbfeffff00
fe01fb0304ff0103fe020000ff010101fa00
03fe010503fffbfffbfcfdfbfe01fcfd0000
01fe050502fefb00ff06fdfdfffe00000100
00fe04ff00fe03010400fdfd01fe00040100
0503fdfd010503ff0005fe0300fe04fe0500
fc01fc02fcfefa040205fbff00fc03010000
05fbff0304fffeffff05fffe01fb0306fd00
fe01fffd05feff01ff02ff02fd0002040400
fc0004fb04ff01fdfa03fe000005fcfffc00
fd0001ff020504fc0203040305fafdfd0500
0000030100fffefbfa01fc04ff030306fc00
0103fd0405fefbfe020101030604fffefb00
0400fd030300040503040305020302020500
0103fefd05fd00fdfd050100ff0500fb0400
fb00fffe050105fa01fd01020402fdfd0300
fe0405fdfbfc05fc02fd03fd00ff01fefe00
03fe0500fd05fc00fffb01050302fdfefd00
050003fdfffb01010305fb00fb0100000300
04fbfe03fc040102fb05ff05fdfe01fd0400
040601050204fdfc0005050503fcfe04ff00
0302fbfb00060301fb02fe05050302ff0400
fefb0503fdfbff01ff02fa0202fd0103fb00
fefafbfc02020106ff010501030401fd0300
050103fcfb0402fbfa0201fd020201020500
00fd00050202010100fdfbfd00fcfdfbfc00
ff03fbfa0204fcffff04fc0405fffd01fb00
05ff0503fbfffefe00fd0203fefcfbfd0000
fe04020302fd02050005fefbfd050000ff00
03fcff00fb030206fbff01fd0103fefbfb00
0403fc0005fdfdfd0205fe04fefd01fdfe00
000001000500fefcfb03fbfcfd0506fdfd00
02fefc05ff05ff050203fe00ff0305030100
fc00fe0400ff05fcfe01fefefbfe05fcfe00
fd01fc0100fd05fb050105fe000404000500
05ff05fc030401fa000004050203fd00fc00
000201fefd000000ff02fbfefc00fd040300
0504fefdfe06010000fc02fb020001040300
01fd0006ff0101ffff0100fefffcfe000200
0102fffe0300fd0404fb010403fbfc010100
0105020105fb01fcfe040002fd00fe040100
fffe0402fbfbff00030204030004fc02ff00
fdfdfcfdfbfd0404030102fcfefbfcfe0100
0202fb01fcfdfb04fd0205050400ff03fe00
010001020105030401fe05fe0302fd01fe00
02fd0003fd02fc010201fb04fc0403fe0000
01fffc03fffd03fefb02fb010402fa050300
02fb02ff0105fc01010003fbfb02feff0300
ff0004fc04fc02000004fb01050301040200
02fbfd04fd0002fdfcfc000501fd02fa0300
05040401ff0100fe02030006040305000400
0204050305fd02fd06fe04fd030402fafe00
0305fdfb0305fbfefc03fb03fb0504fbfc00
fbfb0503040102fbfc0306fcfdfc0405fd00
fffffefc01fb00fc0500010102fffb040200
00fcfd05fbfefd0200fe0201fb0500010200
04fbfbfdfc03fbfb040504fe010301fcfd00
05fd050403fcfefffe03fcfe0402fffffb00
05fd01fffcfcff030004fc0303ff00fb0500
00fd05010505fdfc03fb04fb05fcfb050300
04fc0200050305010505fcfcfd01fb050300
03fbfe01020101050203040403fcfd00fb00
04fe0105fc060404fefc0301fdfffcfbfd00
fb0203040105fc03fcfcfafb020301fafb00
0401fd04fd0002fd03fd02ff0205fd050200
fb05fd0501fb04fd0002fcfd030404000400
05fd0002fffefc0304fdfcff05fffd04ff00
04fe01010302fb05fe030103020300fc0500
fd03020202fcff05fffcfe04fffd05fefc00
fb00fc0101000503fc03fe000205fdfbff00
01ff06fefa02ff03fd0502fffffc00fd0300
fefa00fbfb04020201ff02fefcfb00fb0300
0303fb00fd03fafdfbfd02fbfefc01fbfd00
fbfd02fdfbfdfb0602fafdfcfd03fcfd0400
fd04030500040001050103fffb01fffb0100
fc02feff02fefe0100fc04030205fffefc00
020003fb0001fb00fdfdfefbfffd05fb0500
00fd03fc020502fc0203fd020103ff050200
03fb0201ff01010500fc0105fdfb01fc0000
fd04fd02050102fc00fc00fbffff01fd0500
fe02fa020300fd04fe02fc0505020502fe00
06020404020403fffe010300ff03fd040600
0403ff05fc02fe0002fe03fd0003fefd0200
0502000001fdfffa0300fc0002fe04020400
fefdffff02fe01fffb05fdfc0102fc040300
fffbfb05010301fbfe02fd03fdfbfc040400
fd050102ff0001fc010602fb050002050300
0501fc05fdfb00fcff05fffb02fd0204fc00
05000201fefffb03fc05fb01fe05fcfffe00
03fb01fd02fb05ff02fffefbfdfd04fd0500
fbfdfffefafcfffbfffb0202fcfffbfbfe00
0504fb0305fffc05000401fb020404fcfe00
0004fbfd0502fb0500fe05fd0401fb000300
01010103fc0004fcfcfe00fcfa0103040200
fb0001fb050004fb04fdfcfd0200fcfaff00
02fd0401fffe0201fc0202ff030406fefc00
feff02ff04ff01fffbfdff030502fd020000
040303fb0105fd05ff00fe050303fcfb0300
00fefd020304fcfb03fc020503fbff020500
03fefb050003fe0202fb01fdfcfd05fffb00
fe00fefd0200fe05fc0105ff03fe02feff00
fd03fcfbff040502fcfe050205010304fa00
02ff000203ff03000004fcfbfbfc03fe0300
fdfffb02fd010101fe00fdfefe02fcff0000
00ff000002fe0101fffbfdfbff040304ff00
fe0405010103fffb0402fe0202fefdfb0300
01fc05000404fcfb0504000304fc03fc0500
0202fe060204fcfffcfdfdfbfd0405000500
fbfa02fd01fdfd020104fefefcfe01fc0100
05ffff0303fffbfd03fafb01fcfb0101fb00
ff00ff000101030505ff02000604fcfa0300
fcff050102fefb05fc000200fb0400ff0400
fffd03fafc000503fcfdfbfc05fdfc02ff00
040400fefffe03fefd0105fefcfbff05ff00
fbfd03fc020301feff02030403fcfe010500
ff01fb03fbfe03fbfc00fb0102fe02020200
fc0302010003010501040301ff01ff04fc00
fd00040000fd0403fe0001fcfb04fdffff00
fbfe0204ffff0202fc0504fc000505faff00
05ff03fdff01ff0102ff0201fe04fcfd0000
0303fe01fc0202fdfb02fdfcfd05ff030100
000505fdfc020604fd040305fe00fd02fd00
000004fe0001fefefefdfb02040003fdfb00
fb0303fffcfcfefd05000400fbfd02060500
010000fb05fc0303ff000402010300ff0400
fffffb02fb0402fdfefb0505020603000100
fb00fd04040401fd030405fb0300fffc0000
fcfb050504fb03fc00020202fd060305fe00
05fcfa03fa0005fc00040201fafd0303fd00
fdfc00ff02fdff020402fb0101fd03010600
fefa05fbff040306fffe0105fb01fdff0100
fe02fb05fefcfffefb010100fffbfa02fd00
05fc04fd0201fbfbfc02030403fb01fbfe00
fe04fcfefc010505fc0103fbfbfefd00fe00
00ff05fbfc0105fe030502fb05fb05030000
03fefd03fb0403000100fb05fe01fcfcff00
02fdfd05fc01fdff0004fefbfcfc0304ff00
02fcfdfdff03ff010102fafc0100fcfa0200
fd02fb04fefdfc04fffffc02fe05fe020500
fbfefbfefd040405fe0505fdfb05fffdfa00
03020301fefa01fb06fa000105fbfc000400
04fcff05fd020102fd01fbfb050003000400
00010405fdfdff050505fffbfffdfd05fc00
040305fbfffafe00fcfc0300fb0200fd0000
fe01fd04ff0000fb000201fbfe04fd02fe00
02fcfcfb03fefc01fffeff03040203060200
fffeff04fe0105fb01000002fbfcfeff0000
0502fefffbfbfdfcfe01fc0505fbfa00fe00
ff000301fdfeff00fc04fefe01fc0501fc00
0605010505fb050300fc030202fc06fffc00
fefc05fe02fe0502fefdfc05030100fcfc00
fffdfb0103fcfffdff0203fb0005fdfcff00
fb000104020001fd0203fb02fbfc04010100
0000fd04010101010103fcfffd0501030200
fe0201fd02fefcfd05ffff02fdff05fb0400
0004fffbfe05fd0200fb010004fffc04fd00
04fbfefb0300fffc05fd020200050300ff00
0502ff01fefe0504fefefd05fb0501fb0000
050202fc04050100ff00fc02fb020205fb00
03010000fe01fefe05fb00fd030203fcff00
0100fb03050405fffc02fffafe0505fefe00
04fffcfcfd04fdfb01030303020100000500
fc05fd01fd01010501000102fbfcfb030200
00fcfffcfbfd050101fbfe0303050105fd00
fd06fb04fe03030103ff05fc04fb03fbfe00
fcff0505ff050402fd0303fc00ff05fc0300
04fffb030501fdfe03fefcfd03fcfdfb0400
03fe00040501fc0105fbfdfd0204ff030400
fe02fefcfcff04050001030401020504ff00
03050500fe04fe02ff03fe0503fdfefbfb00
0201fb0000fc0302fc05020405fd03fcfc00
0004010103ff0400fb0204fc05fbfd02fe00
04fffcfefb04fdfe02fafc03030102010200
03fffc020103fe060600fdfb05fafe01fb00
fdfefd0505000501040602fc040505fbfc00
05fb00fcfffcfc050202fcfd020104fbff00
fafd0503fe0301fbfffe0206ff01ff050200
fa04fefa00fb01fd020200feff0501fefe00
0504fe040004fc05fefe00010305fe01ff00
fffcfa05030100fcff00fcfcfefb02000200
fe0504fdfd02fdfcfb05fe010103ff030300
010202fd030000fc00fc01040402fe040300
00fd00fb0303030300fa020403fd02fcfc00
0205fe02fd0501fc0300ff02fbfc05030400
fc0504fe00fbfcfb0306ff02ff0400020100
fd040001fbfafd000104fa01fe0405050400
fffffb05fa03fe0301fbfd0301fdfb04fc00
fffb05fe04fa01fdfdfd03fffcfefdfe0200
fd0101ff030502fb02010405020101fc0500
fefffd04000503fc00ff03fb030605fffe00
010601fb0400fd03fefb03060300fdfcfb00
01ff0503010505fe0200fcfb00fdfd010100
fcfffe0404fbfd02fd04fd0405fdfe040500
fefcfa00fefdfefb06fffbfdfbfd01000200
040202fffcfc0301030105fb02fc04060000
00fcfb03ffff05fd030102fcfe01fffb0300
fffdfbff04040001fffdff05fc0503fefd00
00fffefd000302fbfe0003fdfcfefc010300
010103010404fffdfffb03fefe020405fc00
fefd01fefb00fdff0400fcfb01fcfcfe0400
03fbfc0303fb000406fe02fb03fefefffd00
02fcfffdfd05060001fffd06fefb0003fe00
0102fbfc0504fcff0502fbfffbfb01040000
fcfffdfb04020100ff0101fc050300fbfe00
fb00030001fdfdfe030301fdfb02fcffff00
000000000000000000000000000000000000
7f7f7f7f7f7f7f7f7f7f7f7f7f7f7f7f7f00
fbfefd03fcfdfd000201060000ff03fbfc00
01fe05030302fdfc0006fb0203020506fc00
03fc01fe05fbfbfffd01fb0503fdfcfe0400
fd05fbfe00fdfe030304fd0204040500fd00
fe00010503fe0301fa01fafbfcfbfe000200
fcfdfeff0200ff00fefe0501040300fe0400
0402fbfcfe05fdfdfefffb0301fafefc0100
05fc05fe010104fa020501fd0401fe05fd00
0302020103fc020202fe030000fc05fe0400
05fefd01fb06020201fffe03fefcfe020200
fdfbfffcfa0506050402fefe0205fdff0500
03fb0401fdfd020303fcfafc030200fe0400
0105fbfafdfe04fd0501fdfc0104fc040500
fdfb010200fc00fcfd0104fe03fdfb010000
05fbfb01fc02fc05fafffe00020100fe0200
00fcff02fc00fefafc0002ff03fc04fe0100
fd04fa040003fe020005fefe0401fc000500
05fbff0400fe04fdfc03fb010102fe03fd00
fdfefc0101fd0305fffc01fbfbfdff04fb00
04fcfe01050202ffff04fcfdfe00fdfbfd00
050000fefd04fcfbfc020302fc0003fc0000
fdfcfb02fdfd00050004feff0404fd010200
fd01fd03fd03fbfffeff05feff0404010000
0004fc00fb02fb02fe05fefb03fe02fbfe00
0103fcfcfbfc03fefc02fd02fffb06fc0200
fefdfcfe06000400fbfcfe01fcfd01010000
0004fe0500010504fdfefefffbfc02ff0000
03050503fefb0401fbff0305fb03fdff0000
fbfafc0500fefffb04fdff02fffb0402fb00
0100fb03fbfd05fdfd02fdfd030405fe0400
fcfb020305fb0104fefb0201fbfcfffb0400
000104fd0001fffcfafefd030302fdfffd00
fdfe0004fd01fcfc00040304fc0501030100
050305fb04fcfd03fb04ff0100fdfcfdfc00
fdff04fa00fcfc010000fc06050303fb0100
fdfbfefd05020405fffefb0404fdfdfefb00
fcfd0204ff02fb01fbfffdfcff0403fefa00
0405fc0304050403fe0305050503fefd0000
fffcfdfcfbfc0401fcfc02fefe040206ff00
fefe0302ff0203fb010305ff000300fc0200
fbfdfc04ff0503fc0200fdfcfcfb05fe0000
030103fefd000104fb01fefb000201fdfe00
fbfbfe03fefc0205050003fe050401040200
01fc00fc050100fefc00fe03fb02fefcff00
ff03050100fe0205ff0400fffefbff02fe00
fb03fc05fb02fffd03fa00fb05fc0501fe00
0604fd01fb000402fffcfcfb0303fcfdfd00
00fcfb020301feff0003fd0504060301fe00
fc0103010502fe03ff01fefb0400fbfcfa00
00fbfbfcfcfb03ff0501fe01fbff00040400
0101010000fb03fbfc0301fb00fcfefffe00
04fbfbfc02fe0503fcfffbfbfc04fd000300
fffefbfefe03fdfdfc02fffbfffd03020500
0204fffbfefcfbfe04feff04fafffdfc0400
fdfbffff01fefd00fc0104020405fe010300
0104060405fd01000205fbff030500030400
04fbfe00040400fd01fc050300ff04010300
fe0004fbfeff0303040501040502fb01ff00
00fefe0503fd00fd0205030403fefe010000
fcfd0602fefffbfdfcfbfc0504000405ff00
01fbff0405fcfefb030002010503fd010300
fcfb0404fb010402fbfc04fefbff02050000
fdfd0100040205fd0201fb00fdfe03020500
03fd05010303010403010305fcfffcfc0100
fbfdfc04fbfffffe04fefd05020505010300
fb0301fd030200fd0200fb02010000fffe00
fc01fc030202fdfcfefefe040305fbfafc00
01fcfbfffefd03050205fe01000402010400
01fdfe0503fbfcfffffdfefffdfcfffcfc00
04060500fffc0504fbfbfe02fbfcfffdfe00
fcfcfeff050005020405fbfbfcfefd06fc00
fb05fb01fdfc0404fb0500fffbfbfb05fc00
0300fbff02fe0005fafd03fc050303020300
fb04010002fd03fb0000fefd00050004fe00
0301fefc0203fbfbfefc01fb04fb02010400
fe050504fefe03030104ff03fd000004fb00
0001060105fbfbfe00fb00fb0302ffff0400
fc00fbfb030503fdfefbfc0004fb0202fe00
fffd03ffff02fb05030105fbfe04fd05fd00
feffff0205fafd05fcfdff05010502030500
01050003fdfa020202fbfffd050402fbfa00
fc0303fe00fb03fd03fe050202fdfd020200
03fcff050103040102fcfc02fc05fd050400
05fb03fcff04030102fe0503030004fdff00
04fffb0504fe0304fbfa0103ff05fdfd0300
fd0103fdfefefffb03ff01ff05fe00fffc00
010503ff02000603030205fcfefcfdfe0500
05fcfb04fbfb0100fc00fd0100fffdfefb00
0405fffd02fcfd01fe01ff020202fd04fe00
fbfbfcfffc0001fefdfbfefe01fe0601fe00
fffa04fefcfefdfefffd0201fbfbfe03fe00
00000400fdfefd04fb01040303fffdfbff00
0002fbfffe0102fefefb00fcfcfcfd05fe00
fe05fcfcfefcfcfe0002fdfb05ff05000000
0106fcfd0404010103ff020004fafc050200
0102000405030002fcfb0003050403fdfe00
0504fcfdfefb01fc030205fb040200fc0500
fc0001fbfbff03fe02fbfffe02fb0300fc00
fe04030401fbfe00fc04fd0003fcff030300
fdfcfc0001fdfe02fe000101ff02fdfd0400
fefcfcfc04fcfc00fcfffd00fb0402fdfd00
fefb0202040000fffc01fffb05fd0001fe00
fd040304ff05ff02ff0505fb03fbfb000400
fefd030302fffefb0005030601fcfb05fe00
fefffffc06fdfe02fffffffe040604030000
0002fffeff0502fdfe0505fc00fc0002fd00
02fafc0100fe04040400000305fb00fc0200
faff04fffe03ff03fe0605fc01fc0502fc00
fdfe020003fffdfe03fefa01fdfb03fe0500
03000500050001ff01020002fdfdfb010000
05fe0403fdfdfdfc03fc01fffe02fc04fd00
0404fcfbfc0503fb01fe04030302fd020000
02ff03fbfe050404ff02fd02fcfcff010300
fb00fffd05fcfffdfdfdfbff010105fc0500
01fe050006fbfbfb0403fd0405fe0300fc00
01fe00fc02fefd0202fb03ff05fdfd000300
0500fefc0501050205fc05fe04fc03fc0600
040005fafdffff04fbfa03fcfffbfbfd0100
fefffdfefc0505ff000502fb03ff05020100
0106fffcfafd06fdfa00040004fd04010500
04fb0404fd04fcfcfb05050004ff0501ff00
fd05ffff0005fb0204fd0500060500fbfd00
000401ff0104fefeffff04fd05040500fc00
01fe04fdfd0205ff040404fcfefcfcff0500
00000001fffb01fd010000fd0303fefdfc00
